{
  "version": "1.0",
  "truncation": null,
  "padding": null,
  "added_tokens": [
    {
      "id": 0,
      "content": "[PAD]",
      "single_word": false,
      "lstrip": false,
      "rstrip": false,
      "normalized": false,
      "special": true
    },
    {
      "id": 1,
      "content": "[UNK]",
      "single_word": false,
      "lstrip": false,
      "rstrip": false,
      "normalized": false,
      "special": true
    },
    {
      "id": 2,
      "content": "[BOS]",
      "single_word": false,
      "lstrip": false,
      "rstrip": false,
      "normalized": false,
      "special": true
    },
    {
      "id": 3,
      "content": "[EOS]",
      "single_word": false,
      "lstrip": false,
      "rstrip": false,
      "normalized": false,
      "special": true
    },
    {
      "id": 4,
      "content": "[CLS]",
      "single_word": false,
      "lstrip": false,
      "rstrip": false,
      "normalized": false,
      "special": true
    },
    {
      "id": 5,
      "content": "[SEEKER]:",
      "single_word": false,
      "lstrip": false,
      "rstrip": false,
      "normalized": false,
      "special": true
    },
    {
      "id": 6,
      "content": "[SUPPORTER]:",
      "single_word": false,
      "lstrip": false,
      "rstrip": false,
      "normalized": false,
      "special": true
    },
    {
      "id": 7,
      "content": "[SITUATION]:",
      "single_word": false,
      "lstrip": false,
      "rstrip": false,
      "normalized": false,
      "special": true
    },
    {
      "id": 8,
      "content": "[seeker_emotion_SENTIMENTAL]",
      "single_word": false,
      "lstrip": false,
      "rstrip": false,
      "normalized": false,
      "special": true
    },
    {
      "id": 9,
      "content": "[seeker_emotion_AFRAID]",
      "single_word": false,
      "lstrip": false,
      "rstrip": false,
      "normalized": false,
      "special": true
    },
    {
      "id": 10,
      "content": "[seeker_emotion_PROUD]",
      "single_word": false,
      "lstrip": false,
      "rstrip": false,
      "normalized": false,
      "special": true
    },
    {
      "id": 11,
      "content": "[seeker_emotion_FAITHFUL]",
      "single_word": false,
      "lstrip": false,
      "rstrip": false,
      "normalized": false,
      "special": true
    },
    {
      "id": 12,
      "content": "[seeker_emotion_TERRIFIED]",
      "single_word": false,
      "lstrip": false,
      "rstrip": false,
      "normalized": false,
      "special": true
    },
    {
      "id": 13,
      "content": "[seeker_emotion_JOYFUL]",
      "single_word": false,
      "lstrip": false,
      "rstrip": false,
      "normalized": false,
      "special": true
    },
    {
      "id": 14,
      "content": "[seeker_emotion_ANGRY]",
      "single_word": false,
      "lstrip": false,
      "rstrip": false,
      "normalized": false,
      "special": true
    },
    {
      "id": 15,
      "content": "[seeker_emotion_SAD]",
      "single_word": false,
      "lstrip": false,
      "rstrip": false,
      "normalized": false,
      "special": true
    },
    {
      "id": 16,
      "content": "[seeker_emotion_JEALOUS]",
      "single_word": false,
      "lstrip": false,
      "rstrip": false,
      "normalized": false,
      "special": true
    },
    {
      "id": 17,
      "content": "[seeker_emotion_GRATEFUL]",
      "single_word": false,
      "lstrip": false,
      "rstrip": false,
      "normalized": false,
      "special": true
    },
    {
      "id": 18,
      "content": "[seeker_emotion_PREPARED]",
      "single_word": false,
      "lstrip": false,
      "rstrip": false,
      "normalized": false,
      "special": true
    },
    {
      "id": 19,
      "content": "[seeker_emotion_EMBARRASSED]",
      "single_word": false,
      "lstrip": false,
      "rstrip": false,
      "normalized": false,
      "special": true
    },
    {
      "id": 20,
      "content": "[seeker_emotion_EXCITED]",
      "single_word": false,
      "lstrip": false,
      "rstrip": false,
      "normalized": false,
      "special": true
    },
    {
      "id": 21,
      "content": "[seeker_emotion_ANNOYED]",
      "single_word": false,
      "lstrip": false,
      "rstrip": false,
      "normalized": false,
      "special": true
    },
    {
      "id": 22,
      "content": "[seeker_emotion_LONELY]",
      "single_word": false,
      "lstrip": false,
      "rstrip": false,
      "normalized": false,
      "special": true
    },
    {
      "id": 23,
      "content": "[seeker_emotion_ASHAMED]",
      "single_word": false,
      "lstrip": false,
      "rstrip": false,
      "normalized": false,
      "special": true
    },
    {
      "id": 24,
      "content": "[seeker_emotion_SURPRISED]",
      "single_word": false,
      "lstrip": false,
      "rstrip": false,
      "normalized": false,
      "special": true
    },
    {
      "id": 25,
      "content": "[seeker_emotion_DISGUSTED]",
      "single_word": false,
      "lstrip": false,
      "rstrip": false,
      "normalized": false,
      "special": true
    },
    {
      "id": 26,
      "content": "[seeker_emotion_ANTICIPATING]",
      "single_word": false,
      "lstrip": false,
      "rstrip": false,
      "normalized": false,
      "special": true
    },
    {
      "id": 27,
      "content": "[seeker_emotion_CONFIDENT]",
      "single_word": false,
      "lstrip": false,
      "rstrip": false,
      "normalized": false,
      "special": true
    },
    {
      "id": 28,
      "content": "[seeker_emotion_FURIOUS]",
      "single_word": false,
      "lstrip": false,
      "rstrip": false,
      "normalized": false,
      "special": true
    },
    {
      "id": 29,
      "content": "[seeker_emotion_DEVASTATED]",
      "single_word": false,
      "lstrip": false,
      "rstrip": false,
      "normalized": false,
      "special": true
    },
    {
      "id": 30,
      "content": "[seeker_emotion_HOPEFUL]",
      "single_word": false,
      "lstrip": false,
      "rstrip": false,
      "normalized": false,
      "special": true
    },
    {
      "id": 31,
      "content": "[seeker_emotion_ANXIOUS]",
      "single_word": false,
      "lstrip": false,
      "rstrip": false,
      "normalized": false,
      "special": true
    },
    {
      "id": 32,
      "content": "[seeker_emotion_TRUSTING]",
      "single_word": false,
      "lstrip": false,
      "rstrip": false,
      "normalized": false,
      "special": true
    },
    {
      "id": 33,
      "content": "[seeker_emotion_CONTENT]",
      "single_word": false,
      "lstrip": false,
      "rstrip": false,
      "normalized": false,
      "special": true
    },
    {
      "id": 34,
      "content": "[seeker_emotion_IMPRESSED]",
      "single_word": false,
      "lstrip": false,
      "rstrip": false,
      "normalized": false,
      "special": true
    },
    {
      "id": 35,
      "content": "[seeker_emotion_APPREHENSIVE]",
      "single_word": false,
      "lstrip": false,
      "rstrip": false,
      "normalized": false,
      "special": true
    },
    {
      "id": 36,
      "content": "[seeker_emotion_CARING]",
      "single_word": false,
      "lstrip": false,
      "rstrip": false,
      "normalized": false,
      "special": true
    },
    {
      "id": 37,
      "content": "[seeker_emotion_GUILTY]",
      "single_word": false,
      "lstrip": false,
      "rstrip": false,
      "normalized": false,
      "special": true
    },
    {
      "id": 38,
      "content": "[seeker_emotion_CURIOUS]",
      "single_word": false,
      "lstrip": false,
      "rstrip": false,
      "normalized": false,
      "special": true
    },
    {
      "id": 39,
      "content": "[seeker_emotion_NEUTRAL]",
      "single_word": false,
      "lstrip": false,
      "rstrip": false,
      "normalized": false,
      "special": true
    },
    {
      "id": 40,
      "content": "[seeker_emotion_ANXIETY]",
      "single_word": false,
      "lstrip": false,
      "rstrip": false,
      "normalized": false,
      "special": true
    },
    {
      "id": 41,
      "content": "[seeker_emotion_DEPRESSION]",
      "single_word": false,
      "lstrip": false,
      "rstrip": false,
      "normalized": false,
      "special": true
    },
    {
      "id": 42,
      "content": "[seeker_emotion_SADNESS]",
      "single_word": false,
      "lstrip": false,
      "rstrip": false,
      "normalized": false,
      "special": true
    },
    {
      "id": 43,
      "content": "[seeker_emotion_ANGER]",
      "single_word": false,
      "lstrip": false,
      "rstrip": false,
      "normalized": false,
      "special": true
    },
    {
      "id": 44,
      "content": "[seeker_emotion_FEAR]",
      "single_word": false,
      "lstrip": false,
      "rstrip": false,
      "normalized": false,
      "special": true
    },
    {
      "id": 45,
      "content": "[seeker_emotion_DISGUST]",
      "single_word": false,
      "lstrip": false,
      "rstrip": false,
      "normalized": false,
      "special": true
    },
    {
      "id": 46,
      "content": "[strategy_QUESTION]",
      "single_word": false,
      "lstrip": false,
      "rstrip": false,
      "normalized": false,
      "special": true
    },
    {
      "id": 47,
      "content": "[strategy_RESTATEMENT]",
      "single_word": false,
      "lstrip": false,
      "rstrip": false,
      "normalized": false,
      "special": true
    },
    {
      "id": 48,
      "content": "[strategy_AFFIRMATION_AND_REASSURANCE]",
      "single_word": false,
      "lstrip": false,
      "rstrip": false,
      "normalized": false,
      "special": true
    },
    {
      "id": 49,
      "content": "[strategy_SUGGESTION]",
      "single_word": false,
      "lstrip": false,
      "rstrip": false,
      "normalized": false,
      "special": true
    },
    {
      "id": 50,
      "content": "[strategy_INFORMATION]",
      "single_word": false,
      "lstrip": false,
      "rstrip": false,
      "normalized": false,
      "special": true
    },
    {
      "id": 51,
      "content": "[strategy_SELF_DISCLOSURE]",
      "single_word": false,
      "lstrip": false,
      "rstrip": false,
      "normalized": false,
      "special": true
    },
    {
      "id": 52,
      "content": "[strategy_OTHERS_EXPERIENCES]",
      "single_word": false,
      "lstrip": false,
      "rstrip": false,
      "normalized": false,
      "special": true
    },
    {
      "id": 53,
      "content": "[strategy_TRANSITION_TO_PROBLEM]",
      "single_word": false,
      "lstrip": false,
      "rstrip": false,
      "normalized": false,
      "special": true
    },
    {
      "id": 54,
      "content": "[intensity_1]",
      "single_word": false,
      "lstrip": false,
      "rstrip": false,
      "normalized": false,
      "special": true
    },
    {
      "id": 55,
      "content": "[intensity_2]",
      "single_word": false,
      "lstrip": false,
      "rstrip": false,
      "normalized": false,
      "special": true
    },
    {
      "id": 56,
      "content": "[intensity_3]",
      "single_word": false,
      "lstrip": false,
      "rstrip": false,
      "normalized": false,
      "special": true
    },
    {
      "id": 57,
      "content": "[intensity_4]",
      "single_word": false,
      "lstrip": false,
      "rstrip": false,
      "normalized": false,
      "special": true
    },
    {
      "id": 58,
      "content": "[intensity_5]",
      "single_word": false,
      "lstrip": false,
      "rstrip": false,
      "normalized": false,
      "special": true
    }
  ],
  "normalizer": null,
  "pre_tokenizer": {
    "type": "ByteLevel",
    "add_prefix_space": false,
    "trim_offsets": true,
    "use_regex": true
  },
  "post_processor": null,
  "decoder": {
    "type": "ByteLevel",
    "add_prefix_space": true,
    "trim_offsets": true,
    "use_regex": true
  },
  "model": {
    "type": "BPE",
    "dropout": null,
    "unk_token": "[UNK]",
    "continuing_subword_prefix": null,
    "end_of_word_suffix": null,
    "fuse_unk": false,
    "byte_fallback": false,
    "ignore_merges": false,
    "vocab": {
      "[PAD]": 0,
      "[UNK]": 1,
      "[BOS]": 2,
      "[EOS]": 3,
      "[CLS]": 4,
      "[SEEKER]:": 5,
      "[SUPPORTER]:": 6,
      "[SITUATION]:": 7,
      "[seeker_emotion_SENTIMENTAL]": 8,
      "[seeker_emotion_AFRAID]": 9,
      "[seeker_emotion_PROUD]": 10,
      "[seeker_emotion_FAITHFUL]": 11,
      "[seeker_emotion_TERRIFIED]": 12,
      "[seeker_emotion_JOYFUL]": 13,
      "[seeker_emotion_ANGRY]": 14,
      "[seeker_emotion_SAD]": 15,
      "[seeker_emotion_JEALOUS]": 16,
      "[seeker_emotion_GRATEFUL]": 17,
      "[seeker_emotion_PREPARED]": 18,
      "[seeker_emotion_EMBARRASSED]": 19,
      "[seeker_emotion_EXCITED]": 20,
      "[seeker_emotion_ANNOYED]": 21,
      "[seeker_emotion_LONELY]": 22,
      "[seeker_emotion_ASHAMED]": 23,
      "[seeker_emotion_SURPRISED]": 24,
      "[seeker_emotion_DISGUSTED]": 25,
      "[seeker_emotion_ANTICIPATING]": 26,
      "[seeker_emotion_CONFIDENT]": 27,
      "[seeker_emotion_FURIOUS]": 28,
      "[seeker_emotion_DEVASTATED]": 29,
      "[seeker_emotion_HOPEFUL]": 30,
      "[seeker_emotion_ANXIOUS]": 31,
      "[seeker_emotion_TRUSTING]": 32,
      "[seeker_emotion_CONTENT]": 33,
      "[seeker_emotion_IMPRESSED]": 34,
      "[seeker_emotion_APPREHENSIVE]": 35,
      "[seeker_emotion_CARING]": 36,
      "[seeker_emotion_GUILTY]": 37,
      "[seeker_emotion_CURIOUS]": 38,
      "[seeker_emotion_NEUTRAL]": 39,
      "[seeker_emotion_ANXIETY]": 40,
      "[seeker_emotion_DEPRESSION]": 41,
      "[seeker_emotion_SADNESS]": 42,
      "[seeker_emotion_ANGER]": 43,
      "[seeker_emotion_FEAR]": 44,
      "[seeker_emotion_DISGUST]": 45,
      "[strategy_QUESTION]": 46,
      "[strategy_RESTATEMENT]": 47,
      "[strategy_AFFIRMATION_AND_REASSURANCE]": 48,
      "[strategy_SUGGESTION]": 49,
      "[strategy_INFORMATION]": 50,
      "[strategy_SELF_DISCLOSURE]": 51,
      "[strategy_OTHERS_EXPERIENCES]": 52,
      "[strategy_TRANSITION_TO_PROBLEM]": 53,
      "[intensity_1]": 54,
      "[intensity_2]": 55,
      "[intensity_3]": 56,
      "[intensity_4]": 57,
      "[intensity_5]": 58,
      "!": 59,
      "\"": 60,
      "#": 61,
      "$": 62,
      "%": 63,
      "&": 64,
      "'": 65,
      "(": 66,
      ")": 67,
      "*": 68,
      "+": 69,
      ",": 70,
      "-": 71,
      ".": 72,
      "/": 73,
      "0": 74,
      "1": 75,
      "2": 76,
      "3": 77,
      "4": 78,
      "5": 79,
      "6": 80,
      "7": 81,
      "8": 82,
      "9": 83,
      ":": 84,
      ";": 85,
      "<": 86,
      "=": 87,
      ">": 88,
      "?": 89,
      "@": 90,
      "A": 91,
      "B": 92,
      "C": 93,
      "D": 94,
      "E": 95,
      "F": 96,
      "G": 97,
      "H": 98,
      "I": 99,
      "J": 100,
      "K": 101,
      "L": 102,
      "M": 103,
      "N": 104,
      "O": 105,
      "P": 106,
      "Q": 107,
      "R": 108,
      "S": 109,
      "T": 110,
      "U": 111,
      "V": 112,
      "W": 113,
      "X": 114,
      "Y": 115,
      "Z": 116,
      "[": 117,
      "\\": 118,
      "]": 119,
      "^": 120,
      "_": 121,
      "a": 122,
      "b": 123,
      "c": 124,
      "d": 125,
      "e": 126,
      "f": 127,
      "g": 128,
      "h": 129,
      "i": 130,
      "j": 131,
      "k": 132,
      "l": 133,
      "m": 134,
      "n": 135,
      "o": 136,
      "p": 137,
      "q": 138,
      "r": 139,
      "s": 140,
      "t": 141,
      "u": 142,
      "v": 143,
      "w": 144,
      "x": 145,
      "y": 146,
      "z": 147,
      "{": 148,
      "|": 149,
      "}": 150,
      "~": 151,
      "¢": 152,
      "£": 153,
      "Â": 154,
      "â": 155,
      "ð": 156,
      "Ċ": 157,
      "Ġ": 158,
      "Ģ": 159,
      "Ĭ": 160,
      "ĭ": 161,
      "Ĵ": 162,
      "Ķ": 163,
      "ĺ": 164,
      "Ļ": 165,
      "Ł": 166,
      "Ġt": 167,
      "Ġa": 168,
      "er": 169,
      "on": 170,
      "in": 171,
      "Ġw": 172,
      "Ġth": 173,
      "Ġs": 174,
      "ou": 175,
      "ĠI": 176,
      "ee": 177,
      "ot": 178,
      "Ġh": 179,
      "at": 180,
      "em": 181,
      "Ġi": 182,
      "Ġm": 183,
      "SE": 184,
      "ion": 185,
      "Ġb": 186,
      "ER": 187,
      "re": 188,
      "eek": 189,
      "Ġ[": 190,
      "]:": 191,
      "][": 192,
      "EK": 193,
      "SEEK": 194,
      "SEEKER": 195,
      "otion": 196,
      "emotion": 197,
      "LS": 198,
      "eeker": 199,
      "CLS": 200,
      "seeker": 201,
      "Ġf": 202,
      "Ġto": 203,
      "ing": 204,
      "Ġd": 205,
      "Ġy": 206,
      "Ġg": 207,
      "nd": 208,
      "Ġc": 209,
      "or": 210,
      "Ġyou": 211,
      "Ġthe": 212,
      "ll": 213,
      "Ġl": 214,
      "as": 215,
      "ve": 216,
      "Ġn": 217,
      "Ġit": 218,
      "Ġha": 219,
      "es": 220,
      "Ġp": 221,
      "ed": 222,
      "an": 223,
      "Ġo": 224,
      "en": 225,
      "it": 226,
      "om": 227,
      "ar": 228,
      "Ġand": 229,
      "ow": 230,
      "Ġthat": 231,
      "et": 232,
      "hat": 233,
      "st": 234,
      "ay": 235,
      "Ġwas": 236,
      "id": 237,
      "Ġmy": 238,
      "Ġof": 239,
      "Ġis": 240,
      "Ġin": 241,
      "Ġbe": 242,
      "oo": 243,
      "Ġe": 244,
      "Ġre": 245,
      "Ġso": 246,
      "Ġfor": 247,
      "'s": 248,
      "gh": 249,
      "ri": 250,
      "ld": 251,
      "le": 252,
      "ver": 253,
      "Ġhave": 254,
      "Ġdo": 255,
      "ut": 256,
      "Ġon": 257,
      "all": 258,
      "ke": 259,
      "im": 260,
      "ED": 261,
      "is": 262,
      "Ġhe": 263,
      "out": 264,
      "he": 265,
      "ad": 266,
      "'t": 267,
      "ĠT": 268,
      "Ġu": 269,
      "se": 270,
      "Ġk": 271,
      "ic": 272,
      "ly": 273,
      "ust": 274,
      "Ġli": 275,
      "Ġst": 276,
      "ĠW": 277,
      "ch": 278,
      "NT": 279,
      "Ġme": 280,
      "Ġj": 281,
      "ally": 282,
      "ome": 283,
      "ere": 284,
      "op": 285,
      "Ġwh": 286,
      "al": 287,
      "ould": 288,
      "Ġan": 289,
      "PR": 290,
      "ood": 291,
      "Ġbut": 292,
      "Ġdid": 293,
      "ith": 294,
      "Ġam": 295,
      "Ġgo": 296,
      "Ġsu": 297,
      "ght": 298,
      "ill": 299,
      "pp": 300,
      "Ġare": 301,
      "ent": 302,
      "Ġget": 303,
      "ck": 304,
      "Ġwith": 305,
      "US": 306,
      "am": 307,
      "ĠIt": 308,
      "Ġcan": 309,
      "FU": 310,
      "Ġab": 311,
      "Ġne": 312,
      "Ġnot": 313,
      "Ġwor": 314,
      "ea": 315,
      "'m": 316,
      "one": 317,
      "very": 318,
      "Ġjust": 319,
      "ell": 320,
      "Ġat": 321,
      "Ġlike": 322,
      "Ġthey": 323,
      "ter": 324,
      "end": 325,
      "Ġgood": 326,
      "ĠH": 327,
      "ry": 328,
      "ir": 329,
      "Ġreally": 330,
      "NG": 331,
      "ce": 332,
      "Ġyour": 333,
      "Ġout": 334,
      "Ġr": 335,
      "ĠM": 336,
      "Ġtim": 337,
      "Ġal": 338,
      "Ġlo": 339,
      "Ġfee": 340,
      "..": 341,
      "FUL": 342,
      "Oh": 343,
      "Ġkn": 344,
      "ĠY": 345,
      "Ġabout": 346,
      "SED": 347,
      "her": 348,
      "Ġfeel": 349,
      "ĠThat": 350,
      "Ġup": 351,
      "hing": 352,
      "Ġtoo": 353,
      "That": 354,
      "ĠS": 355,
      "een": 356,
      "Ġhad": 357,
      "Ġsh": 358,
      "Ġtime": 359,
      "ct": 360,
      "ound": 361,
      "Ġknow": 362,
      "ink": 363,
      "TED": 364,
      "ope": 365,
      "un": 366,
      "ant": 367,
      "Ġshe": 368,
      "Ġhapp": 369,
      "Ġsome": 370,
      "ore": 371,
      "Ġall": 372,
      "ake": 373,
      "Ġwill": 374,
      "Ġwhen": 375,
      "OUS": 376,
      "RA": 377,
      "RI": 378,
      "Ġher": 379,
      "ind": 380,
      "ĠD": 381,
      "PRE": 382,
      "ĠA": 383,
      "Ġwork": 384,
      "Ġas": 385,
      "Ġex": 386,
      "AL": 387,
      "ul": 388,
      "riend": 389,
      "ENT": 390,
      "ro": 391,
      "Ġbeen": 392,
      "ate": 393,
      "ast": 394,
      "ear": 395,
      "Ġthink": 396,
      "Ġwhat": 397,
      "ough": 398,
      "ra": 399,
      "ays": 400,
      "Ġthem": 401,
      "are": 402,
      "Ġno": 403,
      "art": 404,
      "ice": 405,
      "est": 406,
      "Ġdon": 407,
      "reat": 408,
      "ur": 409,
      "Ġwould": 410,
      "other": 411,
      "Ġgoing": 412,
      "Ġhope": 413,
      "Ġhim": 414,
      "Ġwe": 415,
      "nt": 416,
      "Ġfr": 417,
      "Ġgot": 418,
      "ong": 419,
      "ĠWhat": 420,
      "Ġany": 421,
      "Ġone": 422,
      "Ġvery": 423,
      "au": 424,
      "Ġfriend": 425,
      "Ġthis": 426,
      "ess": 427,
      "eah": 428,
      "ON": 429,
      "Ġba": 430,
      "SU": 431,
      "SA": 432,
      "Ġaw": 433,
      "AN": 434,
      "Ġpl": 435,
      "Ġgreat": 436,
      "CI": 437,
      "Ġsee": 438,
      "ĠMy": 439,
      "ak": 440,
      "NO": 441,
      "Ġor": 442,
      "Ġch": 443,
      "Ġde": 444,
      "Ġbet": 445,
      "omet": 446,
      "Ġnow": 447,
      "FI": 448,
      "Ġthere": 449,
      "DI": 450,
      "EFUL": 451,
      "Ġsure": 452,
      "Ġpre": 453,
      "PA": 454,
      "Ġyear": 455,
      "fe": 456,
      "Ġthing": 457,
      "ation": 458,
      "ight": 459,
      "sed": 460,
      "ST": 461,
      "SSED": 462,
      "ge": 463,
      "TI": 464,
      "IM": 465,
      "ame": 466,
      "th": 467,
      "TING": 468,
      "Ġwant": 469,
      "ble": 470,
      "il": 471,
      "Ġmu": 472,
      "ool": 473,
      "lf": 474,
      "ĠThe": 475,
      "day": 476,
      "and": 477,
      "Ġhow": 478,
      "Ġsomet": 479,
      "Ġhear": 480,
      "Ġwere": 481,
      "ive": 482,
      "ook": 483,
      "Ġmo": 484,
      "Ġcom": 485,
      "Ġevery": 486,
      "Ġnew": 487,
      "Ġhappen": 488,
      "Ġfrom": 489,
      "ous": 490,
      "orry": 491,
      "Ġbad": 492,
      "eop": 493,
      "ain": 494,
      "TER": 495,
      "Ġlove": 496,
      "ways": 497,
      "eople": 498,
      "Ġlot": 499,
      "Ġback": 500,
      "ĠN": 501,
      "Ġsp": 502,
      "Ġhar": 503,
      "ĠB": 504,
      "eed": 505,
      "Ġwell": 506,
      "ie": 507,
      "PP": 508,
      "Ġweek": 509,
      "Ġmuch": 510,
      "PPO": 511,
      "ting": 512,
      "Ġalways": 513,
      "PRI": 514,
      "SUR": 515,
      "SURPRI": 516,
      "Ġday": 517,
      "SURPRISED": 518,
      "Ġcould": 519,
      "Ġag": 520,
      "ful": 521,
      "Ġhard": 522,
      "Ġnice": 523,
      "ĠOh": 524,
      "ss": 525,
      "It": 526,
      "ank": 527,
      "Ġpeople": 528,
      "ers": 529,
      "Ġsc": 530,
      "our": 531,
      "ort": 532,
      "ving": 533,
      "ounds": 534,
      "Ġjo": 535,
      "ite": 536,
      "Ġif": 537,
      "'ve": 538,
      "thing": 539,
      "Ġgu": 540,
      "Ġsorry": 541,
      "ty": 542,
      "Ġfe": 543,
      "ause": 544,
      "ff": 545,
      "Ġsa": 546,
      "Ġcon": 547,
      "ĠDid": 548,
      "Ġman": 549,
      "right": 550,
      "us": 551,
      "Ġbec": 552,
      "ol": 553,
      "ine": 554,
      "Ġshould": 555,
      "Ġmake": 556,
      "Ġcar": 557,
      "Ġtr": 558,
      "Ġfun": 559,
      "Ġim": 560,
      "oy": 561,
      "Ġkid": 562,
      "ĠWh": 563,
      "Ġnever": 564,
      "Ġold": 565,
      "eep": 566,
      "ish": 567,
      "ven": 568,
      "Ġjob": 569,
      "ĠYou": 570,
      "Ġover": 571,
      "ies": 572,
      "Ġdidn": 573,
      "Ġmore": 574,
      "Ġle": 575,
      "Ġtry": 576,
      "ig": 577,
      "lp": 578,
      "ity": 579,
      "ĠHe": 580,
      "Ġother": 581,
      "Ġhelp": 582,
      "SAD": 583,
      "um": 584,
      "Ġneed": 585,
      "ci": 586,
      "Ġfa": 587,
      "Ġhappy": 588,
      "Ġlong": 589,
      "ĠC": 590,
      "ily": 591,
      "Ġbecause": 592,
      "Ġhas": 593,
      "Ġmad": 594,
      "ĠTh": 595,
      "Ġoff": 596,
      "ose": 597,
      "EX": 598,
      "Ġkind": 599,
      "CITED": 600,
      "EXCITED": 601,
      "Ġsomething": 602,
      "self": 603,
      "Ġlook": 604,
      "Ġright": 605,
      "Ġen": 606,
      "ick": 607,
      "be": 608,
      "pe": 609,
      "ANG": 610,
      "Ġmust": 611,
      "Ġcl": 612,
      "Ġsounds": 613,
      "Ġaf": 614,
      "Ġthough": 615,
      "Ġv": 616,
      "Ġpro": 617,
      "qu": 618,
      "ĠHow": 619,
      "Ġstill": 620,
      "ought": 621,
      "uck": 622,
      "OU": 623,
      "Ġbetter": 624,
      "RY": 625,
      "Ġpret": 626,
      "ANGRY": 627,
      "XI": 628,
      "ANXI": 629,
      "TY": 630,
      "itt": 631,
      "alk": 632,
      "DE": 633,
      "Ġdoes": 634,
      "Ġhis": 635,
      "Ġdi": 636,
      "OUD": 637,
      "PROUD": 638,
      "Ġway": 639,
      "Ġco": 640,
      "Ġpretty": 641,
      "Ġeven": 642,
      "NOY": 643,
      "ANNOY": 644,
      "ANNOYED": 645,
      "Ġdog": 646,
      "Ġthings": 647,
      "ha": 648,
      "int": 649,
      "Ġhome": 650,
      "...": 651,
      "EL": 652,
      "Ġgr": 653,
      "Yes": 654,
      "GUS": 655,
      "SGUS": 656,
      "DISGUS": 657,
      "Ġlife": 658,
      "Ġlast": 659,
      "esome": 660,
      "ard": 661,
      "Yeah": 662,
      "Ġpr": 663,
      "ID": 664,
      "Ġtake": 665,
      "ELY": 666,
      "LON": 667,
      "Ġfriends": 668,
      "LONELY": 669,
      "RAT": 670,
      "GRAT": 671,
      "GRATEFUL": 672,
      "irst": 673,
      "RIFI": 674,
      "TERRIFI": 675,
      "TERRIFIED": 676,
      "Ġyears": 677,
      "aybe": 678,
      "AF": 679,
      "RAID": 680,
      "AFRAID": 681,
      "FURI": 682,
      "FURIOUS": 683,
      "ide": 684,
      "DISGUSTED": 685,
      "ull": 686,
      "IL": 687,
      "Ġfam": 688,
      "'re": 689,
      "Ġfirst": 690,
      "ANXIOUS": 691,
      "ANT": 692,
      "GU": 693,
      "ittle": 694,
      "ILTY": 695,
      "GUILTY": 696,
      "PRESSED": 697,
      "IMPRESSED": 698,
      "CON": 699,
      "DENT": 700,
      "FIDENT": 701,
      "CONFIDENT": 702,
      "Ġsch": 703,
      "ICI": 704,
      "PATING": 705,
      "ANTICI": 706,
      "ANTICIPATING": 707,
      "HO": 708,
      "Ġwent": 709,
      "IC": 710,
      "ud": 711,
      "PEFUL": 712,
      "HOPEFUL": 713,
      "own": 714,
      "atch": 715,
      "GIC": 716,
      "ALGIC": 717,
      "NOST": 718,
      "NOSTALGIC": 719,
      "Ġwho": 720,
      "Ġbr": 721,
      "ĠYes": 722,
      "Ġlittle": 723,
      "SI": 724,
      "INT": 725,
      "SAPPO": 726,
      "DISAPPO": 727,
      "INTED": 728,
      "DISAPPOINTED": 729,
      "ĠThey": 730,
      "AR": 731,
      "EAL": 732,
      "JO": 733,
      "JOY": 734,
      "JEAL": 735,
      "JEALOUS": 736,
      "JOYFUL": 737,
      "ens": 738,
      "PAR": 739,
      "PREPAR": 740,
      "PREPARED": 741,
      "Ġfamily": 742,
      "'ll": 743,
      "Ġar": 744,
      "Ġexc": 745,
      "Ġfind": 746,
      "ag": 747,
      "Ġstart": 748,
      "ONT": 749,
      "CONT": 750,
      "CONTENT": 751,
      "Ġbest": 752,
      "Ġwon": 753,
      "Ġthen": 754,
      "Ġby": 755,
      "ĠShe": 756,
      "Ġwa": 757,
      "VA": 758,
      "EM": 759,
      "per": 760,
      "pl": 761,
      "Ġqu": 762,
      "ATED": 763,
      "STATED": 764,
      "DEVA": 765,
      "DEVASTATED": 766,
      "ually": 767,
      "Ġkids": 768,
      "BAR": 769,
      "RASSED": 770,
      "EMBAR": 771,
      "EMBARRASSED": 772,
      "Ġpo": 773,
      "Ġthr": 774,
      "Ġawesome": 775,
      "Ġschool": 776,
      "HA": 777,
      "ue": 778,
      "Ġun": 779,
      "ĠWe": 780,
      "ass": 781,
      "nder": 782,
      "akes": 783,
      "ure": 784,
      "Ġpart": 785,
      "Ġint": 786,
      "ĠBut": 787,
      "ried": 788,
      "SENT": 789,
      "ENTAL": 790,
      "IMENTAL": 791,
      "SENTIMENTAL": 792,
      "CA": 793,
      "lt": 794,
      "Ġwait": 795,
      "Ġfeeling": 796,
      "Ġafter": 797,
      "RING": 798,
      "CARING": 799,
      "TR": 800,
      "USTING": 801,
      "TRUSTING": 802,
      "ared": 803,
      "Ġexcit": 804,
      "Ġsomeone": 805,
      "HAM": 806,
      "SHAM": 807,
      "ĠL": 808,
      "Ġunder": 809,
      "oney": 810,
      "Ġus": 811,
      "ĠG": 812,
      "emb": 813,
      "ĠDo": 814,
      "xt": 815,
      "Ġok": 816,
      "ist": 817,
      "ASHAM": 818,
      "ASHAMED": 819,
      "Ġmoney": 820,
      "Ġmade": 821,
      "ave": 822,
      "Ġ1": 823,
      "ouse": 824,
      "fore": 825,
      "Ġtoday": 826,
      "Ġfelt": 827,
      "ady": 828,
      "Ġaway": 829,
      "VE": 830,
      "Ġhappened": 831,
      "Ġplay": 832,
      "HE": 833,
      "ile": 834,
      "ft": 835,
      "rible": 836,
      "Ġbefore": 837,
      "ning": 838,
      "imes": 839,
      "ĠYeah": 840,
      "!!": 841,
      "Ġdoing": 842,
      "HEN": 843,
      "AP": 844,
      "Ġter": 845,
      "Ġro": 846,
      "PREHEN": 847,
      "SIVE": 848,
      "APPREHEN": 849,
      "APPREHENSIVE": 850,
      "Ġbeing": 851,
      "Ġgetting": 852,
      "igh": 853,
      "Ġlol": 854,
      "Ġable": 855,
      "Ġgl": 856,
      "Ġhouse": 857,
      "Ġnight": 858,
      "ac": 859,
      "Ġse": 860,
      "Ġonly": 861,
      "ĠO": 862,
      "Ġanything": 863,
      "Ġrel": 864,
      "Ġlive": 865,
      "Ġnext": 866,
      "Ġinto": 867,
      "aking": 868,
      "rat": 869,
      "Ġdown": 870,
      "What": 871,
      "Ġtheir": 872,
      "Ġsad": 873,
      "Ġend": 874,
      "Ġkeep": 875,
      "ild": 876,
      "Ġluck": 877,
      "ary": 878,
      "iz": 879,
      "Ġbig": 880,
      "Ġmis": 881,
      "Ġthan": 882,
      "Ġrec": 883,
      "ations": 884,
      "ace": 885,
      "Ġact": 886,
      "Ġcare": 887,
      "eet": 888,
      "Ġaround": 889,
      "Ġfin": 890,
      "ab": 891,
      "Ġunderst": 892,
      "Ġits": 893,
      "Ġwish": 894,
      "Ġyes": 895,
      "Ġgir": 896,
      "urn": 897,
      "Ġtalk": 898,
      "Ġsay": 899,
      "Well": 900,
      "Ġour": 901,
      "wn": 902,
      "ĠE": 903,
      "ully": 904,
      "IT": 905,
      "der": 906,
      "Ġdays": 907,
      "ĠF": 908,
      "Ġwatch": 909,
      "Ġthought": 910,
      "ach": 911,
      "Ġmon": 912,
      "cc": 913,
      "Ġsw": 914,
      "Ġglad": 915,
      "Ġplan": 916,
      "Ġprob": 917,
      "ip": 918,
      "Ġmom": 919,
      "Ġmyself": 920,
      "Ġapp": 921,
      "Ġrem": 922,
      "Ġunderstand": 923,
      "Ġimp": 924,
      "Ġbu": 925,
      "Ġguess": 926,
      "az": 927,
      "RTER": 928,
      "SUPPO": 929,
      "SUPPORTER": 930,
      "Ġcool": 931,
      "Ġsame": 932,
      "FA": 933,
      "Ġagain": 934,
      "Ġeverything": 935,
      "ITH": 936,
      "FAITH": 937,
      "FAITHFUL": 938,
      "Ġ2": 939,
      "Ġhate": 940,
      "Ġche": 941,
      "fully": 942,
      "Ġcou": 943,
      "Ġpers": 944,
      "Ġmany": 945,
      "ved": 946,
      "pt": 947,
      "so": 948,
      "Ġthrough": 949,
      "Ġdis": 950,
      "ĠAre": 951,
      "ĠSo": 952,
      "Ġbl": 953,
      "Ġpay": 954,
      "ĠP": 955,
      "ince": 956,
      "Ġguy": 957,
      "Ġfew": 958,
      "ensity": 959,
      "Ġmonth": 960,
      "Ġsm": 961,
      "Ġwhy": 962,
      "intensity": 963,
      "Ġseem": 964,
      "Ġad": 965,
      "ated": 966,
      "ire": 967,
      "ress": 968,
      "You": 969,
      "Ġperson": 970,
      "get": 971,
      "Ġcall": 972,
      "Th": 973,
      "Ġ:": 974,
      "Ġtell": 975,
      "ious": 976,
      "Ġner": 977,
      "Ġsur": 978,
      "aught": 979,
      "Ġlet": 980,
      "Ġmakes": 981,
      "Ġthose": 982,
      "ance": 983,
      "Ġleast": 984,
      "ng": 985,
      "ĠNo": 986,
      "Ġsince": 987,
      "Ġever": 988,
      "ĠWell": 989,
      "Ġcome": 990,
      "able": 991,
      "ating": 992,
      "Ġsl": 993,
      "Ġinter": 994,
      "Ġsuch": 995,
      "ward": 996,
      "ost": 997,
      "Ġcomp": 998,
      "arent": 999,
      "Ġmiss": 1000,
      "Ġmean": 1001,
      "Ġhaving": 1002,
      "pect": 1003,
      "Ġfound": 1004,
      "ence": 1005,
      "Ġwhile": 1006,
      "Ġdri": 1007,
      "Ġwhere": 1008,
      "Ġdone": 1009,
      "Ġchild": 1010,
      "Ġput": 1011,
      "vie": 1012,
      "Ġsometimes": 1013,
      "Ġgive": 1014,
      "ember": 1015,
      "Ġamaz": 1016,
      "anks": 1017,
      "age": 1018,
      "Ġbo": 1019,
      "ult": 1020,
      "ack": 1021,
      "oud": 1022,
      "os": 1023,
      "ment": 1024,
      "Ġterrible": 1025,
      "Ġtra": 1026,
      "Ġscared": 1027,
      "ĠIs": 1028,
      "Ġused": 1029,
      "Ġwanted": 1030,
      "The": 1031,
      "Wow": 1032,
      "vor": 1033,
      "Ġbit": 1034,
      "Ġbel": 1035,
      "ang": 1036,
      "Ġalso": 1037,
      "Ġago": 1038,
      "ĠJ": 1039,
      "Ġlooking": 1040,
      "Ġres": 1041,
      "Ġshow": 1042,
      "ark": 1043,
      "joy": 1044,
      "Ġhere": 1045,
      "Ġscary": 1046,
      "Ġask": 1047,
      "Ġtrying": 1048,
      "Ġfood": 1049,
      "ĠWhy": 1050,
      "Ġsit": 1051,
      "Ġexcited": 1052,
      "Ġtw": 1053,
      "Ġamazing": 1054,
      "No": 1055,
      "Ġstu": 1056,
      "ongrat": 1057,
      "pri": 1058,
      "Ġsupp": 1059,
      "ife": 1060,
      "ieve": 1061,
      "Wh": 1062,
      "Ġsoon": 1063,
      "Ġdr": 1064,
      "ently": 1065,
      "Ġweekend": 1066,
      "ĠMaybe": 1067,
      "Ġokay": 1068,
      "Ġplace": 1069,
      "Ġenjoy": 1070,
      "Ġmost": 1071,
      "ree": 1072,
      "Ġstud": 1073,
      "Ġtook": 1074,
      "Ġwow": 1075,
      "Ġthats": 1076,
      "Ġtri": 1077,
      "act": 1078,
      "Ġph": 1079,
      "oth": 1080,
      "fin": 1081,
      "Ġreal": 1082,
      "Ġdiff": 1083,
      "Ġsaw": 1084,
      "Ġstr": 1085,
      "Ġwasn": 1086,
      "Ġparent": 1087,
      "vous": 1088,
      "Ġstay": 1089,
      "Ġfavor": 1090,
      "'d": 1091,
      "Ġanother": 1092,
      "Ġtimes": 1093,
      "Ġcat": 1094,
      "ason": 1095,
      "Ġnervous": 1096,
      "Ġactually": 1097,
      "Ġleft": 1098,
      "ably": 1099,
      "Ġid": 1100,
      "Ġ,": 1101,
      "Ġbelieve": 1102,
      "Ġcra": 1103,
      "ater": 1104,
      "Ġcle": 1105,
      "Ġfl": 1106,
      "He": 1107,
      "Ġown": 1108,
      "ĠHave": 1109,
      "mer": 1110,
      "Ġremember": 1111,
      "cks": 1112,
      "Ġlea": 1113,
      "itely": 1114,
      "ise": 1115,
      "Ġsurpri": 1116,
      "Ġups": 1117,
      "Ġ3": 1118,
      "Ġturn": 1119,
      "Ġmight": 1120,
      "Ġyet": 1121,
      "finitely": 1122,
      "lle": 1123,
      "Ġdec": 1124,
      "Ġready": 1125,
      "ase": 1126,
      "row": 1127,
      "Ġbrother": 1128,
      "ident": 1129,
      "Ġproud": 1130,
      "Ġwr": 1131,
      "ied": 1132,
      "orm": 1133,
      "Ġsaid": 1134,
      "emor": 1135,
      "Ġcont": 1136,
      "rand": 1137,
      "Ġrecently": 1138,
      "oh": 1139,
      "by": 1140,
      "Ġhur": 1141,
      "Ġmemor": 1142,
      "Ġwife": 1143,
      "00": 1144,
      "Ġbuy": 1145,
      "Ġeveryone": 1146,
      "cial": 1147,
      "Ġcame": 1148,
      "Ġupset": 1149,
      "Ġte": 1150,
      "ne": 1151,
      "dd": 1152,
      "ĠR": 1153,
      "assed": 1154,
      "Ġfavorite": 1155,
      "Ġlost": 1156,
      "Ġel": 1157,
      "Ġyourself": 1158,
      "ately": 1159,
      "ock": 1160,
      "Ġfo": 1161,
      "ten": 1162,
      "Ġhor": 1163,
      "Ġacc": 1164,
      "Ġwalk": 1165,
      "Ġquite": 1166,
      "Ġtwo": 1167,
      "Ġ-": 1168,
      "Ġalone": 1169,
      "Did": 1170,
      "terday": 1171,
      "ĠWow": 1172,
      "bor": 1173,
      "Ġeat": 1174,
      "Ġson": 1175,
      "Ġins": 1176,
      "Ġtold": 1177,
      "Ġwin": 1178,
      "Ġstuff": 1179,
      "Ġcolle": 1180,
      "ner": 1181,
      "fort": 1182,
      "Ġthank": 1183,
      "ĠIts": 1184,
      "Ġidea": 1185,
      "ash": 1186,
      "that": 1187,
      "gether": 1188,
      "Ġmaybe": 1189,
      "Ġworking": 1190,
      "Ġbir": 1191,
      "ute": 1192,
      "ĠWas": 1193,
      "ork": 1194,
      "ich": 1195,
      "Ġtogether": 1196,
      "Ġgame": 1197,
      "Ġwonder": 1198,
      "Ġann": 1199,
      "Ġdaught": 1200,
      "Ġclean": 1201,
      "Ġneigh": 1202,
      "ather": 1203,
      "Ġgirl": 1204,
      "ĠAnd": 1205,
      "Ġenough": 1206,
      "Ġconf": 1207,
      "ew": 1208,
      "Ġonce": 1209,
      "Ġtest": 1210,
      "ĠWhen": 1211,
      "Ġtrue": 1212,
      "Ġdoesn": 1213,
      "ap": 1214,
      "Ġyeah": 1215,
      "Ġeas": 1216,
      "Ġbus": 1217,
      "Ġlear": 1218,
      "Ġprep": 1219,
      "Ġgrad": 1220,
      "ny": 1221,
      "Ġgro": 1222,
      "Ġdefinitely": 1223,
      "hip": 1224,
      "ww": 1225,
      "sit": 1226,
      "Ġhus": 1227,
      "res": 1228,
      "Ġneighbor": 1229,
      "Ġhaven": 1230,
      "wh": 1231,
      "Ġparents": 1232,
      "Ġhigh": 1233,
      "Ġatt": 1234,
      "Ġhappens": 1235,
      "cer": 1236,
      "most": 1237,
      "Ġtried": 1238,
      "Ġoh": 1239,
      "ange": 1240,
      "Ġelse": 1241,
      "Ġdont": 1242,
      "ple": 1243,
      "Ġyoung": 1244,
      "Ġnothing": 1245,
      "band": 1246,
      "Ġmove": 1247,
      "ĠNot": 1248,
      "orrow": 1249,
      "ath": 1250,
      "ĠJust": 1251,
      "ix": 1252,
      "Ġsuper": 1253,
      "reak": 1254,
      "gg": 1255,
      "Ġcr": 1256,
      "Ġprobably": 1257,
      "Ġexciting": 1258,
      "Ġsucks": 1259,
      "Ġtrust": 1260,
      "Ġsweet": 1261,
      "cially": 1262,
      "Ġagree": 1263,
      "Ġcollege": 1264,
      "Ġexpect": 1265,
      "Ġhusband": 1266,
      "Ġdeal": 1267,
      "Ġvac": 1268,
      "Ġrest": 1269,
      "Ġclass": 1270,
      "ned": 1271,
      "Ġalmost": 1272,
      "lem": 1273,
      "Ġfar": 1274,
      "Ġcoming": 1275,
      "ump": 1276,
      "How": 1277,
      "Ġdaughter": 1278,
      "Ġanyone": 1279,
      "ying": 1280,
      "Ġ\"": 1281,
      "Ġthinking": 1282,
      "ep": 1283,
      "Ġyesterday": 1284,
      "Ġbirth": 1285,
      "Ġexper": 1286,
      "Ġsitu": 1287,
      "Ġfine": 1288,
      "zy": 1289,
      "na": 1290,
      "ĠThere": 1291,
      "Ġ:)": 1292,
      "ĠHope": 1293,
      "Ġtaking": 1294,
      "Ġunt": 1295,
      "Ġcompl": 1296,
      "Ġgi": 1297,
      "ond": 1298,
      "lfriend": 1299,
      "Ġmemories": 1300,
      "ience": 1301,
      "Ġimag": 1302,
      "Ġclose": 1303,
      "They": 1304,
      "Ġstarted": 1305,
      "Ġimport": 1306,
      "Ġannoy": 1307,
      "Ġlucky": 1308,
      "Ġheal": 1309,
      "Ġhurt": 1310,
      "Ġmonths": 1311,
      "Ġper": 1312,
      "Ġuse": 1313,
      "Ġproblem": 1314,
      "Ġtrip": 1315,
      "Ġboy": 1316,
      "Ġbro": 1317,
      "dy": 1318,
      "Ġreason": 1319,
      "Ġgirlfriend": 1320,
      "ither": 1321,
      "Ġguys": 1322,
      "Ġwrong": 1323,
      "Ġimportant": 1324,
      "Ġser": 1325,
      "ax": 1326,
      "ord": 1327,
      "Ġuntil": 1328,
      "Ġdes": 1329,
      "Ġhaha": 1330,
      "Ġseems": 1331,
      "ĠIm": 1332,
      "Ġrun": 1333,
      "Ġleave": 1334,
      "Ġposit": 1335,
      "Ġgrand": 1336,
      "Ġwithout": 1337,
      "ont": 1338,
      "pecially": 1339,
      "Ġalre": 1340,
      "Ġsleep": 1341,
      "Ġear": 1342,
      "Ġalready": 1343,
      "Ġ5": 1344,
      "Ġstop": 1345,
      "Ġparty": 1346,
      "Ġhour": 1347,
      "ongratul": 1348,
      "eal": 1349,
      "Ġbought": 1350,
      "Ġheard": 1351,
      "Ġbirthday": 1352,
      "Ġtough": 1353,
      "unch": 1354,
      "Ġthese": 1355,
      "Ġcrazy": 1356,
      "She": 1357,
      "Ġspe": 1358,
      "Ġbaby": 1359,
      "Ġprom": 1360,
      "Ġfinally": 1361,
      "ail": 1362,
      "Ġmar": 1363,
      "ling": 1364,
      "Ġtom": 1365,
      "ions": 1366,
      "Ġcouldn": 1367,
      "Ġroom": 1368,
      "Ġboth": 1369,
      "Ġusually": 1370,
      "Ġimagine": 1371,
      "als": 1372,
      "Ġhit": 1373,
      "Ġemb": 1374,
      "Ġsick": 1375,
      "Ġpa": 1376,
      "Ġvis": 1377,
      "ongratulations": 1378,
      "ever": 1379,
      "Ġcompan": 1380,
      "Ġpassed": 1381,
      "ĠU": 1382,
      "Ġstore": 1383,
      "Ġforward": 1384,
      "red": 1385,
      "Ġdiffer": 1386,
      "Ġsituation": 1387,
      "ves": 1388,
      "ier": 1389,
      "Ġknew": 1390,
      "Ġawful": 1391,
      "Ġembar": 1392,
      "vent": 1393,
      "Ġhand": 1394,
      "ĠSome": 1395,
      "Ġweeks": 1396,
      "Ġsec": 1397,
      "Ġdad": 1398,
      "view": 1399,
      "gry": 1400,
      "Ġmovie": 1401,
      "Ġvacation": 1402,
      "Ġhu": 1403,
      "less": 1404,
      "Ġsist": 1405,
      "Ġpet": 1406,
      "Ġcheck": 1407,
      "ness": 1408,
      "ream": 1409,
      "vers": 1410,
      "Ġwonderful": 1411,
      "Ġ4": 1412,
      "Ġworst": 1413,
      "Why": 1414,
      "Ġtomorrow": 1415,
      "ĠK": 1416,
      "ement": 1417,
      "up": 1418,
      "ĠGood": 1419,
      "Ġhealth": 1420,
      "Ġvisit": 1421,
      "og": 1422,
      "Ġpast": 1423,
      "Ġret": 1424,
      "Ġmor": 1425,
      "Ġseen": 1426,
      "Ġhorrible": 1427,
      "Ġgave": 1428,
      "Ġwhole": 1429,
      "Ġsound": 1430,
      "Ġworried": 1431,
      "Ġspend": 1432,
      "Ġexperience": 1433,
      "Ġho": 1434,
      "Ġmaking": 1435,
      "Ġbreak": 1436,
      "Ġwhich": 1437,
      "Ġappre": 1438,
      "Ġpass": 1439,
      "Ġcouple": 1440,
      "Ġap": 1441,
      "Ġsum": 1442,
      "Ġworld": 1443,
      "if": 1444,
      "Ġext": 1445,
      "ĠIf": 1446,
      "Ġhon": 1447,
      "Ġeither": 1448,
      "app": 1449,
      "ball": 1450,
      "Ġprepared": 1451,
      "where": 1452,
      "Ġinst": 1453,
      "raid": 1454,
      "Ġafraid": 1455,
      "ons": 1456,
      "ctor": 1457,
      "Ġbring": 1458,
      "ren": 1459,
      "Ġinterest": 1460,
      "Ġgets": 1461,
      "fortun": 1462,
      "Ġmorning": 1463,
      "Ġmind": 1464,
      "Ġgone": 1465,
      "Ġlate": 1466,
      "Ġpain": 1467,
      "ĠThank": 1468,
      "Ġworked": 1469,
      "Ġtalking": 1470,
      "Ġrelax": 1471,
      "onna": 1472,
      "Ġchange": 1473,
      "Ġsk": 1474,
      "ible": 1475,
      "Ġworth": 1476,
      "Ġ?": 1477,
      "Ġexp": 1478,
      "ometimes": 1479,
      "Ġop": 1480,
      "Ġem": 1481,
      "ert": 1482,
      "Ġcour": 1483,
      "Ġdidnt": 1484,
      "ĠWhere": 1485,
      "Ġsummer": 1486,
      "Ġhead": 1487,
      "aw": 1488,
      "Ġtot": 1489,
      "Ġcompany": 1490,
      "Ġpick": 1491,
      "Ġmess": 1492,
      "Ġmoment": 1493,
      "We": 1494,
      "Ġpu": 1495,
      "rif": 1496,
      "Ġcount": 1497,
      "actly": 1498,
      "sic": 1499,
      "Ġac": 1500,
      "Ġcook": 1501,
      "each": 1502,
      "Ġneeded": 1503,
      "Ġdrive": 1504,
      "Ġannoying": 1505,
      "ect": 1506,
      "Ġes": 1507,
      "Ġpol": 1508,
      "ize": 1509,
      "ired": 1510,
      "ict": 1511,
      "Ġgoes": 1512,
      "Ġsn": 1513,
      "Ġpark": 1514,
      "ĠHopefully": 1515,
      "more": 1516,
      "Ġgross": 1517,
      "Ġended": 1518,
      "Ġnews": 1519,
      "Ġphone": 1520,
      "Ġteam": 1521,
      "hood": 1522,
      "Ġgam": 1523,
      "Ġdifferent": 1524,
      "Do": 1525,
      "side": 1526,
      "Ġappreci": 1527,
      "Ġgonna": 1528,
      "Ġinc": 1529,
      "ude": 1530,
      "ces": 1531,
      "Ġmoved": 1532,
      "Ġsister": 1533,
      "Ġanymore": 1534,
      "Ġwouldn": 1535,
      "ationship": 1536,
      "Ġembarr": 1537,
      "Ġisn": 1538,
      "Ġfree": 1539,
      "yes": 1540,
      "Ġfast": 1541,
      "Ġwaiting": 1542,
      "Ġty": 1543,
      "ery": 1544,
      "Ġstress": 1545,
      "Ġmine": 1546,
      "Ġgrow": 1547,
      "Ġke": 1548,
      "Ġheart": 1549,
      "Ġboss": 1550,
      "fect": 1551,
      "Ġworry": 1552,
      "ret": 1553,
      "ime": 1554,
      "ia": 1555,
      "Ġcant": 1556,
      "Ġforg": 1557,
      "Ġrelationship": 1558,
      "Ġdogs": 1559,
      "Ġinterview": 1560,
      "Ġoutside": 1561,
      "Ġcalled": 1562,
      "aha": 1563,
      "Ġoften": 1564,
      "Ġplaying": 1565,
      "osed": 1566,
      "ans": 1567,
      "Ġfeels": 1568,
      "Ġsurprise": 1569,
      "ocked": 1570,
      "Ġfix": 1571,
      "ressed": 1572,
      "Ġ$": 1573,
      "Ġmin": 1574,
      "ely": 1575,
      "Ġhop": 1576,
      "ĠWere": 1577,
      "Ġmay": 1578,
      "Ġyea": 1579,
      "Ġteach": 1580,
      "ider": 1581,
      "ird": 1582,
      "les": 1583,
      "Ġpoint": 1584,
      "Ġwatching": 1585,
      "Ġeach": 1586,
      "Ġra": 1587,
      "ib": 1588,
      "Ġanim": 1589,
      "izz": 1590,
      "bo": 1591,
      "Ġspecial": 1592,
      "ike": 1593,
      "ped": 1594,
      "Ġworse": 1595,
      "Ġexam": 1596,
      "ĠThanks": 1597,
      "Ġhours": 1598,
      "My": 1599,
      "ĠCh": 1600,
      "Ġeasy": 1601,
      "ping": 1602,
      "Ġangry": 1603,
      "Ġrep": 1604,
      "Thats": 1605,
      "iness": 1606,
      "Ġorder": 1607,
      "Ġgift": 1608,
      "ense": 1609,
      "Ġespecially": 1610,
      "ES": 1611,
      "Thank": 1612,
      "Ġent": 1613,
      "Ġ10": 1614,
      "Ġhonest": 1615,
      "Ġdoctor": 1616,
      "Ġloved": 1617,
      "iv": 1618,
      "eak": 1619,
      "Ġless": 1620,
      "Ġtick": 1621,
      "Ġpizz": 1622,
      "Ġfrust": 1623,
      "Ġcow": 1624,
      "Ġlist": 1625,
      "Ġaccident": 1626,
      "Ġmeet": 1627,
      "vel": 1628,
      "Ġdiffic": 1629,
      "sh": 1630,
      "Ġdin": 1631,
      "way": 1632,
      "Ġiss": 1633,
      "line": 1634,
      "ĠThis": 1635,
      "vice": 1636,
      "Ġmanag": 1637,
      "ract": 1638,
      "sing": 1639,
      "uring": 1640,
      "ongrats": 1641,
      "Ġopen": 1642,
      "pped": 1643,
      "Ġanx": 1644,
      "Ġbroke": 1645,
      "what": 1646,
      "iet": 1647,
      "ensive": 1648,
      "Ġtotally": 1649,
      "Thanks": 1650,
      "Ġdel": 1651,
      "Ġdep": 1652,
      "SION": 1653,
      "PRES": 1654,
      "Ġpres": 1655,
      "Ġcons": 1656,
      "PRESSION": 1657,
      "itch": 1658,
      "Not": 1659,
      "DEPRESSION": 1660,
      "Ġwater": 1661,
      "Ġdifficult": 1662,
      "Ġlose": 1663,
      "ouble": 1664,
      "Ġevent": 1665,
      "Ġcho": 1666,
      "rew": 1667,
      "Ġton": 1668,
      "Ġhot": 1669,
      "umb": 1670,
      "Ġlone": 1671,
      "Ġfront": 1672,
      "Ġseeing": 1673,
      "ĠCan": 1674,
      "Ġcomm": 1675,
      "Ġdied": 1676,
      "Ġmother": 1677,
      "Ġunfortun": 1678,
      "Ġpizza": 1679,
      "Ġcomplet": 1680,
      "Ġterrif": 1681,
      "ject": 1682,
      "Ġcourse": 1683,
      "Ġdate": 1684,
      "Ġgames": 1685,
      "Ġlater": 1686,
      "ĠSt": 1687,
      "Ġate": 1688,
      "Ġdoor": 1689,
      "Are": 1690,
      "Ġhopefully": 1691,
      "ĠAt": 1692,
      "Ġcard": 1693,
      "Ġchildren": 1694,
      "Ġfrustrat": 1695,
      "ided": 1696,
      "ĠThats": 1697,
      "Ġdinner": 1698,
      "Ġtown": 1699,
      "Ġsurprised": 1700,
      "Ġfoot": 1701,
      "cept": 1702,
      "Yea": 1703,
      "ked": 1704,
      "ount": 1705,
      "Ġcam": 1706,
      "Ġchar": 1707,
      "Ġpositive": 1708,
      "Ġquick": 1709,
      "Ġticket": 1710,
      "atter": 1711,
      "Ġlau": 1712,
      "ĠSometimes": 1713,
      "ĠEvery": 1714,
      "Ġset": 1715,
      "Ġasked": 1716,
      "Ġpri": 1717,
      "Good": 1718,
      "Ġones": 1719,
      "Ġapart": 1720,
      "el": 1721,
      "Ġran": 1722,
      "Ġforgot": 1723,
      "Aw": 1724,
      "ush": 1725,
      "Ġdeser": 1726,
      "Ġlearn": 1727,
      "Ġgradu": 1728,
      "Ġind": 1729,
      "Ġsmall": 1730,
      "Ġinv": 1731,
      "ills": 1732,
      "ĠNow": 1733,
      "Ġpaid": 1734,
      "ead": 1735,
      "kes": 1736,
      "Ġnear": 1737,
      "ealous": 1738,
      "Ġcert": 1739,
      "Ġsupport": 1740,
      "Ġmarried": 1741,
      "Ġothers": 1742,
      "Ġturned": 1743,
      "Ġconfident": 1744,
      "Ġdrink": 1745,
      "ues": 1746,
      "Ġolder": 1747,
      "Ġjealous": 1748,
      "Ġdriving": 1749,
      "Ġhoping": 1750,
      "Ġweird": 1751,
      "Ġlooked": 1752,
      "Ġri": 1753,
      "Ġduring": 1754,
      "Ġeating": 1755,
      "Ġbas": 1756,
      "Ġread": 1757,
      "Ġdisapp": 1758,
      "Ġtype": 1759,
      "Ġ:(": 1760,
      "ĠV": 1761,
      "Ġbed": 1762,
      "Ġ6": 1763,
      "Ġbusy": 1764,
      "bs": 1765,
      "NES": 1766,
      "ĠMe": 1767,
      "amed": 1768,
      "Ġhuge": 1769,
      "yea": 1770,
      "ined": 1771,
      "Ġfunny": 1772,
      "Ġfore": 1773,
      "ug": 1774,
      "rist": 1775,
      "Ġmed": 1776,
      "friend": 1777,
      "Ġfan": 1778,
      "NESS": 1779,
      "eally": 1780,
      "Maybe": 1781,
      "Ġlonely": 1782,
      "ah": 1783,
      "ized": 1784,
      "Ġworks": 1785,
      "Ġsafe": 1786,
      "Ġpolice": 1787,
      "ian": 1788,
      "Ġliving": 1789,
      "Ġ20": 1790,
      "Ġonline": 1791,
      "erg": 1792,
      "Ġside": 1793,
      "Ġdecided": 1794,
      "Ġ(": 1795,
      "Ġmet": 1796,
      "Ġbeach": 1797,
      "Ġmov": 1798,
      "Ġcomes": 1799,
      "Ġroad": 1800,
      "Ġinteresting": 1801,
      "ĠĠ": 1802,
      "ppy": 1803,
      "ars": 1804,
      "Ġshop": 1805,
      "Nice": 1806,
      "uture": 1807,
      "Ġsho": 1808,
      "not": 1809,
      "od": 1810,
      "Ġgrandm": 1811,
      "aur": 1812,
      "Ġcowork": 1813,
      "Ġfuture": 1814,
      "Ġbrought": 1815,
      "Ġgod": 1816,
      "Ġve": 1817,
      "Ġlaugh": 1818,
      "Ġfull": 1819,
      "Ġreg": 1820,
      "!!!": 1821,
      "Ġsing": 1822,
      "Ġcut": 1823,
      "Ġself": 1824,
      "vious": 1825,
      "ps": 1826,
      "ates": 1827,
      "Ġrid": 1828,
      "Ġshocked": 1829,
      "work": 1830,
      "Ġsim": 1831,
      "Ġmist": 1832,
      "ĠSounds": 1833,
      "Ġface": 1834,
      "Ġmovies": 1835,
      "no": 1836,
      "SADNESS": 1837,
      "Ġplans": 1838,
      "Ġthankful": 1839,
      "Ġrestaur": 1840,
      "Ġchang": 1841,
      "Ġpromotion": 1842,
      "Ġrestaurant": 1843,
      "ĠYea": 1844,
      "olute": 1845,
      "gn": 1846,
      "Ġdisappo": 1847,
      "Ġboyfriend": 1848,
      "Ġnorm": 1849,
      "Ġword": 1850,
      "Ġref": 1851,
      "ition": 1852,
      "haha": 1853,
      "Ġexpensive": 1854,
      "Ġ8": 1855,
      "Ġtreat": 1856,
      "Ġcity": 1857,
      "orn": 1858,
      "Ġappreciate": 1859,
      "Ġfall": 1860,
      "Ġrain": 1861,
      "ower": 1862,
      "Ġaff": 1863,
      "ĠDon": 1864,
      "Ġtrouble": 1865,
      "Ġfinish": 1866,
      "ted": 1867,
      "Ġrough": 1868,
      "ĠBe": 1869,
      "ign": 1870,
      "Ġvide": 1871,
      "Ġreturn": 1872,
      "Ġextra": 1873,
      "??": 1874,
      "Ġtakes": 1875,
      "Ġgen": 1876,
      "ures": 1877,
      "Ġexactly": 1878,
      "Ġsmart": 1879,
      "Ġhang": 1880,
      "aster": 1881,
      "Ġname": 1882,
      "....": 1883,
      "Ġdisg": 1884,
      "Ġinstead": 1885,
      "eeting": 1886,
      "Ġcatch": 1887,
      "Ġkill": 1888,
      "cy": 1889,
      "Ġcertain": 1890,
      "ative": 1891,
      "Ġfight": 1892,
      "Ġsto": 1893,
      "aut": 1894,
      "Ġlately": 1895,
      "Ġconcer": 1896,
      "Ġposs": 1897,
      "air": 1898,
      "Ġarea": 1899,
      "ĠCongratulations": 1900,
      "olutely": 1901,
      "unk": 1902,
      "olog": 1903,
      "wards": 1904,
      "ĠIn": 1905,
      "Ġearly": 1906,
      "ular": 1907,
      "Ġfrustrating": 1908,
      "Ġmusic": 1909,
      "Ġmeeting": 1910,
      "Ġplanning": 1911,
      "Ġsupposed": 1912,
      "Ġserious": 1913,
      "Ġwalking": 1914,
      "Ġkept": 1915,
      "Ġcute": 1916,
      "Ġoffer": 1917,
      "Ġresp": 1918,
      "its": 1919,
      "Ġhelped": 1920,
      "Ġstarting": 1921,
      "Ġcaught": 1922,
      "Ġmatter": 1923,
      "Ġmoving": 1924,
      "ger": 1925,
      "ents": 1926,
      "Ġexpecting": 1927,
      "Ġbook": 1928,
      "Ġfail": 1929,
      "mas": 1930,
      "Ġcake": 1931,
      "Ġstand": 1932,
      "Ġchance": 1933,
      "Ġdist": 1934,
      "ugg": 1935,
      "Ġbum": 1936,
      "Ġir": 1937,
      "led": 1938,
      "Ġlight": 1939,
      "ĠWho": 1940,
      "Ġthrow": 1941,
      "Ġdisgust": 1942,
      "Ġpict": 1943,
      "assing": 1944,
      "ory": 1945,
      "body": 1946,
      "bt": 1947,
      "urance": 1948,
      "ming": 1949,
      "med": 1950,
      "Ġsent": 1951,
      "Ġple": 1952,
      "Ġgotten": 1953,
      "Ġcompletely": 1954,
      "Ġstudy": 1955,
      "thats": 1956,
      "Ġafford": 1957,
      "bb": 1958,
      "Ġbeh": 1959,
      "Ġbusiness": 1960,
      "ane": 1961,
      "ention": 1962,
      "room": 1963,
      "ristmas": 1964,
      "Is": 1965,
      "Ġage": 1966,
      "Ġtrain": 1967,
      "Ġfootball": 1968,
      "Ġhold": 1969,
      "Ġraise": 1970,
      "Ġtonight": 1971,
      "Ġforget": 1972,
      "Ġfly": 1973,
      "ors": 1974,
      "ities": 1975,
      "Ġneeds": 1976,
      "Ġhum": 1977,
      "ploy": 1978,
      "Ġpaying": 1979,
      "Ġlisten": 1980,
      "Sounds": 1981,
      "Ġpack": 1982,
      "Ġwind": 1983,
      "Ġcur": 1984,
      "Me": 1985,
      "ken": 1986,
      "Ġseason": 1987,
      "ced": 1988,
      "ical": 1989,
      "Ġloc": 1990,
      "Ġfair": 1991,
      "Ġash": 1992,
      "Ġinsurance": 1993,
      "aken": 1994,
      "Its": 1995,
      "Ġdream": 1996,
      "Ġwom": 1997,
      "Ġpull": 1998,
      "Ġconsider": 1999,
      "Ġforever": 2000,
      "Ġlots": 2001,
      "llow": 2002,
      "Ġstudying": 2003,
      "ding": 2004,
      "Ġchildhood": 2005,
      "Ġbeaut": 2006,
      "Ġhelps": 2007,
      "how": 2008,
      "Ġinf": 2009,
      "Ġfaith": 2010,
      "br": 2011,
      "Ġbunch": 2012,
      "Ġfell": 2013,
      "Ġsmell": 2014,
      "but": 2015,
      "Ġmil": 2016,
      "Ġbehind": 2017,
      "Ġhun": 2018,
      "Ġaren": 2019,
      "Ġplayed": 2020,
      "OL": 2021,
      "Ġcase": 2022,
      "sel": 2023,
      "Ġsort": 2024,
      "Ġlunch": 2025,
      "ically": 2026,
      "Ġashamed": 2027,
      "iful": 2028,
      "Ġhealthy": 2029,
      "und": 2030,
      "Ġfig": 2031,
      "ĠOne": 2032,
      "ETY": 2033,
      "rit": 2034,
      "ĠAl": 2035,
      "ANXIETY": 2036,
      "anger": 2037,
      "Ġbud": 2038,
      "Ġcry": 2039,
      "Ġknows": 2040,
      "Ġcountry": 2041,
      "Ġsecond": 2042,
      "Ġanimals": 2043,
      "Ġspeak": 2044,
      "ex": 2045,
      "ĠAw": 2046,
      "Ġguil": 2047,
      "ĠSorry": 2048,
      "ross": 2049,
      "Ġposition": 2050,
      "Ġapartment": 2051,
      "Ġimpress": 2052,
      "Ġwear": 2053,
      "over": 2054,
      "Ġpartner": 2055,
      "Ġremind": 2056,
      "Ġgrade": 2057,
      "Ġass": 2058,
      "dddd": 2059,
      "Ġwar": 2060,
      "?!": 2061,
      "Ġma": 2062,
      "Ġride": 2063,
      "ĠAny": 2064,
      "Ġkinda": 2065,
      "you": 2066,
      "Ġquickly": 2067,
      "ĠNice": 2068,
      "Ġweight": 2069,
      "Ġresult": 2070,
      "Ġrealize": 2071,
      "Ġbeautiful": 2072,
      "Ġthanks": 2073,
      "Ġinside": 2074,
      "ased": 2075,
      "Ġhalf": 2076,
      "Ġjump": 2077,
      "Ġru": 2078,
      "Ġthree": 2079,
      "Ġgener": 2080,
      "Ġstate": 2081,
      "Ġshouldn": 2082,
      "ym": 2083,
      "Ġstep": 2084,
      "Ġcost": 2085,
      "utes": 2086,
      "ction": 2087,
      "Ġlaw": 2088,
      "Ġroll": 2089,
      "Ġperfect": 2090,
      "uly": 2091,
      "ĠAll": 2092,
      "Ġpresent": 2093,
      "Haha": 2094,
      "Ġvideo": 2095,
      "Ġalong": 2096,
      "Ġweather": 2097,
      "Ġdark": 2098,
      "stal": 2099,
      "ĠLast": 2100,
      "ings": 2101,
      "Ġdra": 2102,
      "cess": 2103,
      "Ġyounger": 2104,
      "Ġpur": 2105,
      "Ġgoodness": 2106,
      "Ġsave": 2107,
      "Ġstudied": 2108,
      "gr": 2109,
      "Ġtaken": 2110,
      "Ġfinan": 2111,
      "Ġentire": 2112,
      "Ġmid": 2113,
      "Ġla": 2114,
      "Ġstink": 2115,
      "Ġcover": 2116,
      "Ġcannot": 2117,
      "ient": 2118,
      "Ġminutes": 2119,
      "So": 2120,
      "Ġpract": 2121,
      "ited": 2122,
      "Ġrepl": 2123,
      "Ġlearned": 2124,
      "Ġwall": 2125,
      "Ġissues": 2126,
      "Ġsat": 2127,
      "ompl": 2128,
      "Ġav": 2129,
      "Ġdisc": 2130,
      "Ġgirls": 2131,
      "Ġpuppy": 2132,
      "stalg": 2133,
      "Ġce": 2134,
      "Ġalright": 2135,
      "Ġlooks": 2136,
      "Ġembarrassing": 2137,
      "Ġbra": 2138,
      "Ġlives": 2139,
      "Ġstole": 2140,
      "Ġdam": 2141,
      "Ġcor": 2142,
      "Ġanyway": 2143,
      "Ġfollow": 2144,
      "outh": 2145,
      "Ġwatched": 2146,
      "uri": 2147,
      "Ġeventually": 2148,
      "Ġyard": 2149,
      "iday": 2150,
      "Ġfigure": 2151,
      "oke": 2152,
      "Ġfather": 2153,
      "Ġemotion": 2154,
      "Ġtast": 2155,
      "Ġscr": 2156,
      "ester": 2157,
      "Ġpoo": 2158,
      "Ġcal": 2159,
      "ĠOn": 2160,
      "Ġanxious": 2161,
      "lic": 2162,
      "ph": 2163,
      "Ġ9": 2164,
      "Ġabs": 2165,
      "irt": 2166,
      "ateful": 2167,
      "iced": 2168,
      "ilar": 2169,
      "Ġplanned": 2170,
      "Ġloss": 2171,
      "Ah": 2172,
      "Ġsucc": 2173,
      "Ġclos": 2174,
      "Ġrunning": 2175,
      "ney": 2176,
      "Ġnostalg": 2177,
      "Ġadd": 2178,
      "Ġneighbors": 2179,
      "king": 2180,
      "sw": 2181,
      "Ġgrateful": 2182,
      "Ġmanager": 2183,
      "Ġdoll": 2184,
      "ants": 2185,
      "ys": 2186,
      "Ġphot": 2187,
      "fortable": 2188,
      "Ġeasier": 2189,
      "Ġeveryday": 2190,
      "Ġproblems": 2191,
      "cus": 2192,
      "ics": 2193,
      "ĠHaha": 2194,
      "ual": 2195,
      "Ġ.": 2196,
      "Ġdeserve": 2197,
      "Ġguilty": 2198,
      "ĠAs": 2199,
      "Ġsingle": 2200,
      "Ġbills": 2201,
      "Ġsocial": 2202,
      "Ġspent": 2203,
      "ĠOr": 2204,
      "Ġgrocer": 2205,
      "Just": 2206,
      "Was": 2207,
      "used": 2208,
      "Ġlived": 2209,
      "Ġaccompl": 2210,
      "edu": 2211,
      "Ġdead": 2212,
      "ĠDoes": 2213,
      "Ġcats": 2214,
      "Ġrelaxing": 2215,
      "Ġwindow": 2216,
      "selves": 2217,
      "well": 2218,
      "Ġdrop": 2219,
      "Ġsal": 2220,
      "oup": 2221,
      "Ġ7": 2222,
      "Ġtou": 2223,
      "wow": 2224,
      "Aww": 2225,
      "gs": 2226,
      "Ġkeeps": 2227,
      "Ġstressful": 2228,
      "Ġrece": 2229,
      "Ġcele": 2230,
      "Ġred": 2231,
      "Ġpregn": 2232,
      "Ġstrong": 2233,
      "the": 2234,
      "Ġexpl": 2235,
      "Ġwants": 2236,
      "Ġprop": 2237,
      "Ġsuppose": 2238,
      "ior": 2239,
      "Ġshort": 2240,
      "unt": 2241,
      "Ġsaying": 2242,
      "Ġwalked": 2243,
      "Ġcomplain": 2244,
      "rol": 2245,
      "Ġaccept": 2246,
      "Ġbother": 2247,
      "Ġhappening": 2248,
      "Ġsaving": 2249,
      "Ġadvice": 2250,
      "my": 2251,
      "Ġsense": 2252,
      "ital": 2253,
      "ĠSomeone": 2254,
      "Ġaccomplish": 2255,
      "ric": 2256,
      "Ġhonestly": 2257,
      "ĠTo": 2258,
      "Ġcloth": 2259,
      "dle": 2260,
      "Ġsem": 2261,
      "ĠTr": 2262,
      "Ġcouldnt": 2263,
      "Ġshopping": 2264,
      "Ġlocal": 2265,
      "Ġproject": 2266,
      "Ġbar": 2267,
      "Ġtelling": 2268,
      "Ġstreet": 2269,
      "Ġhair": 2270,
      "Don": 2271,
      "Ġcause": 2272,
      "Ġsub": 2273,
      "Ġtruly": 2274,
      "Ġembarrassed": 2275,
      "Ġdiet": 2276,
      "Ġcoworker": 2277,
      "Ġopp": 2278,
      "Ġrude": 2279,
      "mm": 2280,
      "yeah": 2281,
      "ishing": 2282,
      "Ġdev": 2283,
      "Ġunfortunately": 2284,
      "Ġstinks": 2285,
      "Ġunc": 2286,
      "Ġpossible": 2287,
      "hew": 2288,
      "ĠReally": 2289,
      "ĠChristmas": 2290,
      "Ġimpressive": 2291,
      "Ġtop": 2292,
      "ised": 2293,
      "iety": 2294,
      "Ġcred": 2295,
      "Ġland": 2296,
      "illed": 2297,
      "eace": 2298,
      "Ġtalked": 2299,
      "come": 2300,
      "inted": 2301,
      "Ġbuild": 2302,
      "ivers": 2303,
      "Ġslow": 2304,
      "Ġnormal": 2305,
      "Ġclothes": 2306,
      "Ġmot": 2307,
      "ision": 2308,
      "Ġtruck": 2309,
      "Ġtouch": 2310,
      "Ġtired": 2311,
      "Ġfear": 2312,
      "Ġdue": 2313,
      "specially": 2314,
      "Ġadv": 2315,
      "Ġdisgusting": 2316,
      "ikes": 2317,
      "ĠThose": 2318,
      "Ġ15": 2319,
      "Ġgrandmother": 2320,
      "Ġmaj": 2321,
      "Ġpoor": 2322,
      "cause": 2323,
      "ones": 2324,
      "use": 2325,
      "Ġpeace": 2326,
      "Ġopt": 2327,
      "Ġstorm": 2328,
      "ĠHi": 2329,
      "Ġstrugg": 2330,
      "Ġneighborhood": 2331,
      "Ġcredit": 2332,
      "Ġbur": 2333,
      "Ġasking": 2334,
      "Ġnumb": 2335,
      "ffee": 2336,
      "Ġmistake": 2337,
      "hh": 2338,
      "oor": 2339,
      "Ġair": 2340,
      "Ġsend": 2341,
      "ots": 2342,
      "Ġgiving": 2343,
      "Ġprof": 2344,
      "osp": 2345,
      "Ġsecret": 2346,
      "pid": 2347,
      "Ġdent": 2348,
      "Ġenvious": 2349,
      "Ġfinal": 2350,
      "Ġchanged": 2351,
      "Ġdie": 2352,
      "Ġbox": 2353,
      "Ġcontrol": 2354,
      "ial": 2355,
      "ins": 2356,
      "ries": 2357,
      "Ġpictures": 2358,
      "Ġhosp": 2359,
      "Ġband": 2360,
      "Ġhelping": 2361,
      "Ġsemester": 2362,
      "Have": 2363,
      "oid": 2364,
      "uch": 2365,
      "Ġwed": 2366,
      "Ġsteal": 2367,
      "uckily": 2368,
      "Ġservice": 2369,
      "ru": 2370,
      "chool": 2371,
      "Ġcertainly": 2372,
      "Ġbeat": 2373,
      "Ġsport": 2374,
      "Ġswim": 2375,
      "Ġsitting": 2376,
      "Ġcontact": 2377,
      "Ġanimal": 2378,
      "Ġthrew": 2379,
      "Ġbath": 2380,
      "aces": 2381,
      "Ġseemed": 2382,
      "ms": 2383,
      "rob": 2384,
      "Ġ100": 2385,
      "Ġchoice": 2386,
      "lad": 2387,
      "Hope": 2388,
      "Ġhol": 2389,
      "rent": 2390,
      "Ġcoffee": 2391,
      "ber": 2392,
      "time": 2393,
      "Ġocc": 2394,
      "Ġfeelings": 2395,
      "Ġmeans": 2396,
      "Ġmajor": 2397,
      "du": 2398,
      "Ġoffice": 2399,
      "Ġterrifying": 2400,
      "man": 2401,
      "ĠLOL": 2402,
      "Ġcareful": 2403,
      "Ġliked": 2404,
      "tery": 2405,
      "Ġrather": 2406,
      "unity": 2407,
      "Ġlonger": 2408,
      "Ġstupid": 2409,
      "read": 2410,
      "Ġjobs": 2411,
      "Ġfault": 2412,
      "Ġresults": 2413,
      "pected": 2414,
      "Ġshows": 2415,
      "Ġgrowing": 2416,
      "Ġet": 2417,
      "Ġrealized": 2418,
      "fer": 2419,
      "ses": 2420,
      "Ġsign": 2421,
      "Ġyell": 2422,
      "ello": 2423,
      "ĠFor": 2424,
      "Ġteacher": 2425,
      "Ġtickets": 2426,
      "Ġloud": 2427,
      "Ġpower": 2428,
      "Ġtrash": 2429,
      "Ġenjoyed": 2430,
      "ĠCongrats": 2431,
      "Ġcompet": 2432,
      "Ġcomput": 2433,
      "Ġunfortunate": 2434,
      "lect": 2435,
      "Ġbecome": 2436,
      "Ġdisappointed": 2437,
      "tle": 2438,
      "Ġmath": 2439,
      "Ġcand": 2440,
      "ade": 2441,
      "ffic": 2442,
      "Ġimpressed": 2443,
      "Ġanxiety": 2444,
      "Ġreceive": 2445,
      "vest": 2446,
      "Ġlosing": 2447,
      "ĠUn": 2448,
      "ysic": 2449,
      "Ġfit": 2450,
      "Ġnep": 2451,
      "Ġshame": 2452,
      "ility": 2453,
      "Ġrelie": 2454,
      "ĠEspecially": 2455,
      "Ġterrified": 2456,
      "Ġcurrent": 2457,
      "urious": 2458,
      "Ġwedding": 2459,
      "Ġpartic": 2460,
      "Ġabsolutely": 2461,
      "io": 2462,
      "Ġindeed": 2463,
      "Ġsuccess": 2464,
      "Im": 2465,
      "Sorry": 2466,
      "erc": 2467,
      "icious": 2468,
      "ĠMan": 2469,
      "rove": 2470,
      "Ġquiet": 2471,
      "Ġblame": 2472,
      "Ġnerve": 2473,
      "Ġnostalgic": 2474,
      "Ġnephew": 2475,
      "Ġansw": 2476,
      "Ġcancer": 2477,
      "Ġmiddle": 2478,
      "Ġpregnant": 2479,
      "xactly": 2480,
      "Ġtur": 2481,
      "Ġcau": 2482,
      "Ġcous": 2483,
      "Ġlar": 2484,
      "Ġpie": 2485,
      "cked": 2486,
      "Ġturns": 2487,
      "Ġissue": 2488,
      "gan": 2489,
      "gree": 2490,
      "reaking": 2491,
      "Ġgym": 2492,
      "iting": 2493,
      "Ġsever": 2494,
      "Ġpray": 2495,
      "Ġquit": 2496,
      "ĠPeople": 2497,
      "hile": 2498,
      "oring": 2499,
      "Ġmeant": 2500,
      "Ġwoman": 2501,
      "Ġsy": 2502,
      "aring": 2503,
      "head": 2504,
      "ental": 2505,
      "arely": 2506,
      "Ġcontin": 2507,
      "Ġeng": 2508,
      "ĠFl": 2509,
      "Ġconcert": 2510,
      "Ġirrit": 2511,
      "ls": 2512,
      "rem": 2513,
      "to": 2514,
      "Ġborn": 2515,
      "Ġlottery": 2516,
      "olved": 2517,
      "cing": 2518,
      "rect": 2519,
      "Ġsol": 2520,
      "Ġsomewhere": 2521,
      "Ġleaving": 2522,
      "ida": 2523,
      "Ġrent": 2524,
      "Ġawhile": 2525,
      "Ġmissed": 2526,
      "Ġpets": 2527,
      "Ġz": 2528,
      "Ġshare": 2529,
      "Ġacross": 2530,
      "Ġrespons": 2531,
      "orida": 2532,
      "Ġclasses": 2533,
      "idence": 2534,
      "robably": 2535,
      "old": 2536,
      "ssed": 2537,
      "Ġpot": 2538,
      "Ġnoticed": 2539,
      "Ġdegree": 2540,
      "Ġmissing": 2541,
      "Ġfocus": 2542,
      "Ġfixed": 2543,
      "Congratulations": 2544,
      "Ġstuck": 2545,
      "Ġeverywhere": 2546,
      "Ġscare": 2547,
      "Ġcars": 2548,
      "Ġbless": 2549,
      "Ġfinished": 2550,
      "Ġbummer": 2551,
      "Ġfire": 2552,
      "Ġob": 2553,
      "ĠFr": 2554,
      "Ġchick": 2555,
      "Ġhospital": 2556,
      "If": 2557,
      "fter": 2558,
      "lier": 2559,
      "Ġant": 2560,
      "Ġlearning": 2561,
      "Ġordered": 2562,
      "Ġtv": 2563,
      "Ġsell": 2564,
      "Ġgra": 2565,
      "Ġgroup": 2566,
      "atur": 2567,
      "Ġunex": 2568,
      "ees": 2569,
      "Ġpants": 2570,
      "Who": 2571,
      "ub": 2572,
      "Ġwer": 2573,
      "Ġpat": 2574,
      "Ġcheated": 2575,
      "Ġwords": 2576,
      "Ġbuddy": 2577,
      "Ġcelebr": 2578,
      "av": 2579,
      "Ġdest": 2580,
      "ĠWill": 2581,
      "ĠNothing": 2582,
      "Ġmail": 2583,
      "Ġamount": 2584,
      "Ġemploy": 2585,
      "Ġsimilar": 2586,
      "ray": 2587,
      "Ġbank": 2588,
      "Ġfreak": 2589,
      "ĠDe": 2590,
      "ĠAww": 2591,
      "Ġval": 2592,
      "Ġcheap": 2593,
      "Ġcleaning": 2594,
      "ering": 2595,
      "Ġmain": 2596,
      "Ġchat": 2597,
      "Ġcash": 2598,
      "ids": 2599,
      "Ġroomm": 2600,
      "Awesome": 2601,
      "Ġwasnt": 2602,
      "Ġblack": 2603,
      "Yep": 2604,
      "col": 2605,
      "Ġdou": 2606,
      "Ġeff": 2607,
      "Ġgosh": 2608,
      "Ġsaved": 2609,
      "ĠThen": 2610,
      "form": 2611,
      "Ġline": 2612,
      "There": 2613,
      "Ġattention": 2614,
      "te": 2615,
      "Ġearlier": 2616,
      "Ġreport": 2617,
      "ĠEveryone": 2618,
      "Ġunexpected": 2619,
      "Ġeffort": 2620,
      "Ġ!": 2621,
      "Ġkick": 2622,
      "ters": 2623,
      "Ġplaces": 2624,
      "Ġfact": 2625,
      "Ġshoes": 2626,
      "Ġice": 2627,
      "Ġlit": 2628,
      "Ġeyes": 2629,
      "ĠTV": 2630,
      "ĠMY": 2631,
      "ored": 2632,
      "Ġthemselves": 2633,
      "Ġloves": 2634,
      "Ġspo": 2635,
      "Ġcold": 2636,
      "Ġqual": 2637,
      "Ġincred": 2638,
      "Ġbathroom": 2639,
      "Ġcop": 2640,
      "ĠLike": 2641,
      "ats": 2642,
      "Ġstressed": 2643,
      "Ġyours": 2644,
      "ili": 2645,
      "Ġstarts": 2646,
      "Ġlarge": 2647,
      "ĠIT": 2648,
      "Ġafterwards": 2649,
      "Ġmemory": 2650,
      "ified": 2651,
      "Ġdeli": 2652,
      "Ġtraining": 2653,
      "Ġcomputer": 2654,
      "Ġahead": 2655,
      "ines": 2656,
      "Ġwre": 2657,
      "ication": 2658,
      "Ġapolog": 2659,
      "Ġill": 2660,
      "Ġmark": 2661,
      "Ġadult": 2662,
      "ta": 2663,
      "Ġwood": 2664,
      "Ġther": 2665,
      "Ġben": 2666,
      "Ġphysic": 2667,
      "Ġdecision": 2668,
      "Ġattack": 2669,
      "Ġstopped": 2670,
      "Ġextrem": 2671,
      "Ġpub": 2672,
      "Ġbrand": 2673,
      "Ġste": 2674,
      "Ġappl": 2675,
      "Ġdeath": 2676,
      "Ġjoy": 2677,
      "Ġ30": 2678,
      "stem": 2679,
      "Where": 2680,
      "Ġdrunk": 2681,
      "Ġdelicious": 2682,
      "Ġdanger": 2683,
      "Ġstory": 2684,
      "resh": 2685,
      "Ġexpected": 2686,
      "Ġprofess": 2687,
      "colate": 2688,
      "iving": 2689,
      "Ġbeha": 2690,
      "Ġlie": 2691,
      "Ġstick": 2692,
      "Ġhasn": 2693,
      "Ġputting": 2694,
      "ĠVery": 2695,
      "ks": 2696,
      "lol": 2697,
      "Ġya": 2698,
      "Ġgh": 2699,
      "Ġpool": 2700,
      "cking": 2701,
      "ĠYour": 2702,
      "Ġluckily": 2703,
      "Ġtraffic": 2704,
      "Ġweren": 2705,
      "ove": 2706,
      "Ġinvest": 2707,
      "cif": 2708,
      "ze": 2709,
      "Ġcol": 2710,
      "Ġmeal": 2711,
      "cel": 2712,
      "Ġrand": 2713,
      "ĠGo": 2714,
      "Ġrelate": 2715,
      "Ġmostly": 2716,
      "Ġparking": 2717,
      "Ġgrocery": 2718,
      "gin": 2719,
      "ged": 2720,
      "Really": 2721,
      "ror": 2722,
      "Ġstra": 2723,
      "Ġsurg": 2724,
      "Ġcru": 2725,
      "Ġsystem": 2726,
      "Ġitem": 2727,
      "Ġsun": 2728,
      "ĠAfter": 2729,
      "Ġstayed": 2730,
      "Ġspecif": 2731,
      "Ġavoid": 2732,
      "Ġscratch": 2733,
      "Ġrandom": 2734,
      "sy": 2735,
      "ered": 2736,
      "inting": 2737,
      "Ġwanting": 2738,
      "Ġblood": 2739,
      "Ġbody": 2740,
      "Hopefully": 2741,
      "Ġetc": 2742,
      "ging": 2743,
      "arch": 2744,
      "Ġprocess": 2745,
      "ĠLuckily": 2746,
      "Ġstudent": 2747,
      "Ġstrange": 2748,
      "Ġbroken": 2749,
      "Ġdevast": 2750,
      "Ġbuying": 2751,
      "Ġprepare": 2752,
      "did": 2753,
      "Ġdet": 2754,
      "asty": 2755,
      "Ġbag": 2756,
      "Ġmiles": 2757,
      "Ġtal": 2758,
      "Ġsong": 2759,
      "Ġallow": 2760,
      "Ġwhatever": 2761,
      "Ġparticular": 2762,
      "ape": 2763,
      "land": 2764,
      "arm": 2765,
      "Ġart": 2766,
      "Ġquest": 2767,
      "ured": 2768,
      "Ġdriver": 2769,
      "Ġhandle": 2770,
      "Ġsurgery": 2771,
      "Ġstaying": 2772,
      "Ġcooking": 2773,
      "book": 2774,
      "den": 2775,
      "ien": 2776,
      "Ġcongrats": 2777,
      "rill": 2778,
      "Ġadm": 2779,
      "ront": 2780,
      "Ġfresh": 2781,
      "Ġwont": 2782,
      "Ġgiven": 2783,
      "Ġmotiv": 2784,
      "Ġfing": 2785,
      "Ġgas": 2786,
      "Ġev": 2787,
      "Ġanywhere": 2788,
      "Ġpersonal": 2789,
      "Ġwallet": 2790,
      "Ġdish": 2791,
      "itude": 2792,
      "oming": 2793,
      "oose": 2794,
      "Ġcreep": 2795,
      "Ġborrow": 2796,
      "iss": 2797,
      "Ġcomfortable": 2798,
      "Ġusing": 2799,
      "Ġcamer": 2800,
      "Ġdoubt": 2801,
      "Ġach": 2802,
      "ĠEven": 2803,
      "Ġdollars": 2804,
      "ok": 2805,
      "ency": 2806,
      "astic": 2807,
      "Ġhungry": 2808,
      "Ġcelebrate": 2809,
      "Some": 2810,
      "Ġgar": 2811,
      "Ġnotice": 2812,
      "Ġharder": 2813,
      "Ġdoesnt": 2814,
      "Ġopport": 2815,
      "Ġreact": 2816,
      "Ġbetw": 2817,
      "Ġleg": 2818,
      "ccer": 2819,
      "Ġintern": 2820,
      "Ġnumber": 2821,
      "Ġlady": 2822,
      "Ġpop": 2823,
      "ĠYesterday": 2824,
      "Ġapply": 2825,
      "Ġrespect": 2826,
      "itchen": 2827,
      "Ġgrandma": 2828,
      "Ġregret": 2829,
      "Ġfailed": 2830,
      "Ġpublic": 2831,
      "Ġfil": 2832,
      "Ġdeep": 2833,
      "Ġcream": 2834,
      "Ġreach": 2835,
      "Ġknowing": 2836,
      "ield": 2837,
      "000": 2838,
      "Ġcoworkers": 2839,
      "do": 2840,
      "Ġhimself": 2841,
      "ĠNew": 2842,
      "istic": 2843,
      "Ġcheating": 2844,
      "Ġperform": 2845,
      "Ġexplain": 2846,
      "Ġbetween": 2847,
      "Ġtravel": 2848,
      "Ġtech": 2849,
      "Ġsoccer": 2850,
      "Ġkitchen": 2851,
      "Ġaccidentally": 2852,
      "Ġbon": 2853,
      "Ġbarely": 2854,
      "haps": 2855,
      "Ġcheat": 2856,
      "Ġteen": 2857,
      "ature": 2858,
      "ĠSh": 2859,
      "antly": 2860,
      "Ġblast": 2861,
      "umped": 2862,
      "Ġchocolate": 2863,
      "Ġreading": 2864,
      "ĠFlorida": 2865,
      "Ġghost": 2866,
      "vid": 2867,
      "ye": 2868,
      "Ġreward": 2869,
      "con": 2870,
      "Ġwoke": 2871,
      "Ġfant": 2872,
      "ĠSp": 2873,
      "Ġcontent": 2874,
      "Ġsays": 2875,
      "ndeed": 2876,
      "ustom": 2877,
      "Ġjer": 2878,
      "ĠGlad": 2879,
      "bsolutely": 2880,
      "Ġdress": 2881,
      "Ġnasty": 2882,
      "riage": 2883,
      "Ġdebt": 2884,
      "ucks": 2885,
      "ĠLol": 2886,
      "Ġcrash": 2887,
      "Ġannoyed": 2888,
      "Ġgraduated": 2889,
      "Ġdisappointing": 2890,
      "ĠTrump": 2891,
      "Ġdangerous": 2892,
      "she": 2893,
      "Ġten": 2894,
      "ices": 2895,
      "ama": 2896,
      "Ġalive": 2897,
      "Ġadop": 2898,
      "Ġconfidence": 2899,
      "Ġfinancial": 2900,
      "Ġchicken": 2901,
      "pping": 2902,
      "ĠHello": 2903,
      "Ġtrans": 2904,
      "Ġground": 2905,
      "Ġ18": 2906,
      "Ġspending": 2907,
      "Ġcamping": 2908,
      "Ġways": 2909,
      "emon": 2910,
      "Ġbase": 2911,
      "ĠMon": 2912,
      "ĠDis": 2913,
      "Ġkeeping": 2914,
      "ube": 2915,
      "Ġtend": 2916,
      "Ġdating": 2917,
      "Ġcri": 2918,
      "Ġpays": 2919,
      "Ġlied": 2920,
      "Ġresc": 2921,
      "Ġboring": 2922,
      "Ġpar": 2923,
      "Ġspeed": 2924,
      "Ġhelpful": 2925,
      "Ġdepress": 2926,
      "Ġdistance": 2927,
      "Ġreplace": 2928,
      "Ġdropped": 2929,
      "ipped": 2930,
      "Ġstar": 2931,
      "urch": 2932,
      "Ġappro": 2933,
      "When": 2934,
      "Ġoffered": 2935,
      "Ġcousin": 2936,
      "key": 2937,
      "Ġneg": 2938,
      "Ġshock": 2939,
      "Ġtalent": 2940,
      "eese": 2941,
      "ets": 2942,
      "Ġlevel": 2943,
      "fortunately": 2944,
      "Ġsentim": 2945,
      "Ġassum": 2946,
      "yle": 2947,
      "Ġlay": 2948,
      "Ġrese": 2949,
      "Ġtor": 2950,
      "Ġgrew": 2951,
      "ĠHey": 2952,
      "Ġmoments": 2953,
      "Ġattitude": 2954,
      "Ġemp": 2955,
      "Ġinvolved": 2956,
      "Cool": 2957,
      "Ġtem": 2958,
      "Ġlow": 2959,
      "uts": 2960,
      "Ġagainst": 2961,
      "Ġpicked": 2962,
      "ring": 2963,
      "Ġscream": 2964,
      "Ġgrown": 2965,
      "ments": 2966,
      "Ġclear": 2967,
      "ibly": 2968,
      "kward": 2969,
      "Ġball": 2970,
      "Ġinj": 2971,
      "ĠMost": 2972,
      "Ġchurch": 2973,
      "Sometimes": 2974,
      "bies": 2975,
      "me": 2976,
      "Ġcustom": 2977,
      "Ġfort": 2978,
      "roy": 2979,
      "Hey": 2980,
      "Ġproper": 2981,
      "bby": 2982,
      "Ġhi": 2983,
      "Ġcongratulations": 2984,
      "Ġcup": 2985,
      "lease": 2986,
      "Ġsudd": 2987,
      "ĠHa": 2988,
      "Ġcoaster": 2989,
      "intend": 2990,
      "Ġswitch": 2991,
      "Ġwinning": 2992,
      "Ġthankfully": 2993,
      "bbed": 2994,
      "Ġbonus": 2995,
      "Ġsudden": 2996,
      "lies": 2997,
      "we": 2998,
      "Ġdumb": 2999,
      "Ġlaz": 3000,
      "hel": 3001,
      "Ġshowed": 3002,
      "Ġexperien": 3003,
      "ology": 3004,
      "Ġextremely": 3005,
      "Ġapplied": 3006,
      "Ġresearch": 3007,
      "Were": 3008,
      "ote": 3009,
      "Ġcried": 3010,
      "ĠNever": 3011,
      "Ġfinding": 3012,
      "Ġphotos": 3013,
      "edule": 3014,
      "Ġreceived": 3015,
      "gress": 3016,
      "omm": 3017,
      "Ġbegin": 3018,
      "olen": 3019,
      "Ġrecover": 3020,
      "Ġcareer": 3021,
      "Ġbill": 3022,
      "ides": 3023,
      "Ġbeer": 3024,
      "oof": 3025,
      "isf": 3026,
      "Ġloan": 3027,
      "Ġhopeful": 3028,
      "Ġspot": 3029,
      "Ġconst": 3030,
      "Ġpost": 3031,
      "Ġcruise": 3032,
      "intendo": 3033,
      "Lol": 3034,
      "oted": 3035,
      "Ġarg": 3036,
      "ĠOur": 3037,
      "nect": 3038,
      "Ġconfront": 3039,
      "ef": 3040,
      "ining": 3041,
      "Ġfour": 3042,
      "Ġfishing": 3043,
      "Ġalot": 3044,
      "Ġawkward": 3045,
      "Ġinvited": 3046,
      "Ġdamage": 3047,
      "Ġoccas": 3048,
      "Ġsand": 3049,
      "Ġhell": 3050,
      "Ġlead": 3051,
      "Ġhands": 3052,
      "bit": 3053,
      "eat": 3054,
      "Ġfeet": 3055,
      "ĠYep": 3056,
      "Ġnoise": 3057,
      "though": 3058,
      "Ġpulled": 3059,
      "Ġsatisf": 3060,
      "gest": 3061,
      "Ġfeed": 3062,
      "ĠAh": 3063,
      "Ġbird": 3064,
      "\".": 3065,
      "eech": 3066,
      "Ġfurious": 3067,
      "ANGER": 3068,
      "Ġemerg": 3069,
      "Ġgraduate": 3070,
      "Ġnormally": 3071,
      "Ġtherap": 3072,
      "Ġaut": 3073,
      "Ġcond": 3074,
      "Ġemotional": 3075,
      "Ġdestroy": 3076,
      "ĠMonday": 3077,
      "ald": 3078,
      "leep": 3079,
      "Ġda": 3080,
      "Ġexerc": 3081,
      "Ġminute": 3082,
      "Ġhuman": 3083,
      "ances": 3084,
      "aged": 3085,
      "Ġblue": 3086,
      "Ġlazy": 3087,
      "Dang": 3088,
      "Ġaunt": 3089,
      "erally": 3090,
      "Ġeye": 3091,
      "Ġcheese": 3092,
      "Ġprefer": 3093,
      "Ġ12": 3094,
      "Ġtwice": 3095,
      "Ġcandy": 3096,
      "Ġroommate": 3097,
      "Ġtip": 3098,
      "Ġtho": 3099,
      "Ġtowards": 3100,
      "Ġcoun": 3101,
      "ĠPl": 3102,
      "Ġgives": 3103,
      "Ġcharac": 3104,
      "Ġkilled": 3105,
      "Nope": 3106,
      "cle": 3107,
      "Ġbat": 3108,
      "ĠWould": 3109,
      "Ġlovely": 3110,
      "ĠWhich": 3111,
      "Ġpaper": 3112,
      "ĠUgh": 3113,
      "Ġvet": 3114,
      "Ġsports": 3115,
      "oint": 3116,
      "Ġlesson": 3117,
      "Ġmistakes": 3118,
      "Ġpleas": 3119,
      "Be": 3120,
      "Ġmill": 3121,
      "ening": 3122,
      "Ġstom": 3123,
      "Ġarri": 3124,
      "Ġflying": 3125,
      "Ġinform": 3126,
      "Ġgeneral": 3127,
      "Ġpiece": 3128,
      "Ġseveral": 3129,
      "Ġbaseball": 3130,
      "sk": 3131,
      "Ġlikes": 3132,
      "itten": 3133,
      "Ġeasily": 3134,
      "Ġkey": 3135,
      "yal": 3136,
      "Ġwake": 3137,
      "Ġbright": 3138,
      "icip": 3139,
      "Ġloyal": 3140,
      "Ġbadly": 3141,
      "Ġconvers": 3142,
      "Ġ13": 3143,
      "Ġcrush": 3144,
      "ergy": 3145,
      "Ġspecific": 3146,
      "Ġbabies": 3147,
      "Ġgifts": 3148,
      "oc": 3149,
      "Ġ..": 3150,
      "ories": 3151,
      "Ġsuck": 3152,
      "Ġtext": 3153,
      "Ġmarriage": 3154,
      "Ġchecked": 3155,
      "Ġsnake": 3156,
      "Ġrelief": 3157,
      "Ġfortun": 3158,
      "Ġreturned": 3159,
      "Exactly": 3160,
      "iest": 3161,
      "Ġfat": 3162,
      "Ġgun": 3163,
      "allow": 3164,
      "Ġspeech": 3165,
      "Ġgrandp": 3166,
      "Ġmessed": 3167,
      "Ġprice": 3168,
      "Ġtaste": 3169,
      "Ġpe": 3170,
      "ended": 3171,
      "Ġruined": 3172,
      "lo": 3173,
      "nam": 3174,
      "Ġtour": 3175,
      "Ġasleep": 3176,
      "Ġwinter": 3177,
      "Ġregular": 3178,
      "Ġopportunity": 3179,
      "Ġtechn": 3180,
      "ĠDisney": 3181,
      "50": 3182,
      "In": 3183,
      "Ġrequ": 3184,
      "ising": 3185,
      "Ġprodu": 3186,
      "Ġdrug": 3187,
      "Ġdecent": 3188,
      "Ġdepend": 3189,
      "they": 3190,
      "Ġprofession": 3191,
      "For": 3192,
      "iny": 3193,
      "Ġcreat": 3194,
      "Ġpan": 3195,
      "ster": 3196,
      "iev": 3197,
      "ager": 3198,
      "Ġsleeping": 3199,
      "Ġitems": 3200,
      "âĢ": 3201,
      "Ġmood": 3202,
      "Ġherself": 3203,
      "dddddddd": 3204,
      "ma": 3205,
      "Ġign": 3206,
      "omes": 3207,
      "Ġrush": 3208,
      "ĠMakes": 3209,
      "Ġgotta": 3210,
      "ĠNope": 3211,
      "Ġinsp": 3212,
      "ĠKeep": 3213,
      "ĠBeing": 3214,
      "Ġfantastic": 3215,
      "âĢĻ": 3216,
      "Ġmatch": 3217,
      "Ġcro": 3218,
      "Ġorgan": 3219,
      "why": 3220,
      "Ġsubject": 3221,
      "Ġdude": 3222,
      "Ġsugg": 3223,
      "urity": 3224,
      "Ġsmo": 3225,
      "Ġbrings": 3226,
      "airs": 3227,
      "Ġfaithful": 3228,
      "Ġjumped": 3229,
      "Ġswimming": 3230,
      "Ġanticip": 3231,
      "Ġempty": 3232,
      "Ġsuggest": 3233,
      "Ġodd": 3234,
      "Ġnote": 3235,
      "Ġaffect": 3236,
      "Ġbiggest": 3237,
      "port": 3238,
      "Ġtaught": 3239,
      "Ġsqu": 3240,
      "Ġmix": 3241,
      "Ġtoys": 3242,
      "ado": 3243,
      "Ġshirt": 3244,
      "Ġknown": 3245,
      "Ġmanage": 3246,
      "Ġlaughing": 3247,
      "Ġreminded": 3248,
      "gar": 3249,
      "employ": 3250,
      "Ġfield": 3251,
      "ises": 3252,
      "Ġscore": 3253,
      "Ġpride": 3254,
      "Ġheartb": 3255,
      "Ġcrying": 3256,
      "Ġcontinue": 3257,
      "Ġhide": 3258,
      "Ġmouth": 3259,
      "Ġbow": 3260,
      "ican": 3261,
      "ument": 3262,
      "Ġbooks": 3263,
      "Ġpicture": 3264,
      "Ġdrag": 3265,
      "Ġpurch": 3266,
      "Ġpractice": 3267,
      "Ġstomach": 3268,
      "wise": 3269,
      "ety": 3270,
      "Ġwel": 3271,
      "ilities": 3272,
      "Ġmort": 3273,
      "Ġburn": 3274,
      "Ġbey": 3275,
      "ĠHas": 3276,
      "Ġsecurity": 3277,
      "Ġaccomplishment": 3278,
      "Ġsentimental": 3279,
      "uss": 3280,
      "oooo": 3281,
      "Ġdef": 3282,
      "izing": 3283,
      "Ġattend": 3284,
      "Ġreplac": 3285,
      "aly": 3286,
      "cent": 3287,
      "Ġreci": 3288,
      "Ġshot": 3289,
      "ilt": 3290,
      "ĠLife": 3291,
      "ĠEverything": 3292,
      "Ġpresentation": 3293,
      "Ġcorrect": 3294,
      "Ġbuilding": 3295,
      "Ġcaused": 3296,
      "Ġmarket": 3297,
      "Ġoccasion": 3298,
      "orth": 3299,
      "rage": 3300,
      "Ġoverw": 3301,
      "Ġglass": 3302,
      "ĠOK": 3303,
      "Ġbrothers": 3304,
      "Very": 3305,
      "ai": 3306,
      "che": 3307,
      "Ġnur": 3308,
      "Ġunf": 3309,
      "ĠGreat": 3310,
      "Ġfloor": 3311,
      "Ġgrades": 3312,
      "Ġ50": 3313,
      "Ġheaded": 3314,
      "ĠAwesome": 3315,
      "Ġanswer": 3316,
      "Every": 3317,
      "pet": 3318,
      "oun": 3319,
      "ages": 3320,
      "ĠGod": 3321,
      "Ġcouch": 3322,
      "Ġcommon": 3323,
      "Ġcards": 3324,
      "Ġdrinking": 3325,
      "Ġbasically": 3326,
      "ĠFriday": 3327,
      "Ġinternet": 3328,
      "ese": 3329,
      "omed": 3330,
      "Ġugh": 3331,
      "irty": 3332,
      "ears": 3333,
      "racking": 3334,
      "ums": 3335,
      "Ġtrack": 3336,
      "Ġcalm": 3337,
      "Ġdevastated": 3338,
      "Ġbreat": 3339,
      "earch": 3340,
      "Those": 3341,
      "Ġmedia": 3342,
      "back": 3343,
      "like": 3344,
      "pes": 3345,
      "atic": 3346,
      "Ġfired": 3347,
      "Ġnatur": 3348,
      "Ġwaste": 3349,
      "pper": 3350,
      "Ġcancel": 3351,
      "Ġrug": 3352,
      "herish": 3353,
      "Ġhomeless": 3354,
      "Ġ19": 3355,
      "Ġbigger": 3356,
      "Ġflight": 3357,
      "Ġpainful": 3358,
      "Ġliterally": 3359,
      "mg": 3360,
      "ato": 3361,
      "Ġreview": 3362,
      "Ġwomen": 3363,
      "Ġwearing": 3364,
      "Ġcrossed": 3365,
      "At": 3366,
      "FE": 3367,
      "Ġpush": 3368,
      "allen": 3369,
      "Ġimmed": 3370,
      "Ġenergy": 3371,
      "Ġthoughts": 3372,
      "Ġnerves": 3373,
      "Ġcontest": 3374,
      "Ġdaughters": 3375,
      "Ġpackage": 3376,
      "iversity": 3377,
      "Ġimmedi": 3378,
      "eas": 3379,
      "fl": 3380,
      "idays": 3381,
      "rib": 3382,
      "issed": 3383,
      "Ġbutt": 3384,
      "enty": 3385,
      "Ġshel": 3386,
      "ĠNe": 3387,
      "ibling": 3388,
      "Ġholding": 3389,
      "Ġaccepted": 3390,
      "bout": 3391,
      "go": 3392,
      "Ġtire": 3393,
      "Ġfright": 3394,
      "Ġjud": 3395,
      "Ġhadn": 3396,
      "Ġspace": 3397,
      "Ġspray": 3398,
      "arents": 3399,
      "Ġtrusted": 3400,
      "Ġsituations": 3401,
      "Ġdepressed": 3402,
      "Ġrefund": 3403,
      "Ġlawn": 3404,
      "Ġpoop": 3405,
      "Ġstepped": 3406,
      "Ġbeyond": 3407,
      "uper": 3408,
      "Ġer": 3409,
      "ator": 3410,
      "ĠTry": 3411,
      "ĠAmer": 3412,
      "Ġsisters": 3413,
      "Ġshoot": 3414,
      "ĠBecause": 3415,
      "Ugh": 3416,
      "ale": 3417,
      "ination": 3418,
      "Ġbike": 3419,
      "ames": 3420,
      "iring": 3421,
      "ĠSchool": 3422,
      "Ġchallen": 3423,
      "Ġprov": 3424,
      "Ġappoint": 3425,
      "Ġsurv": 3426,
      "Ġdrivers": 3427,
      "Ġtraum": 3428,
      "Ġsupplies": 3429,
      "Ġstranger": 3430,
      "Ġhurric": 3431,
      "Ġinterested": 3432,
      "ĠToday": 3433,
      "de": 3434,
      "Ġcarry": 3435,
      "ĠGot": 3436,
      "Ġrock": 3437,
      "Ġhorror": 3438,
      "Ġoverwhel": 3439,
      "aper": 3440,
      "Ġmen": 3441,
      "Ġcrow": 3442,
      "ask": 3443,
      "hings": 3444,
      "cious": 3445,
      "Ġsmash": 3446,
      "Ġtrave": 3447,
      "Ġappreciated": 3448,
      "Ġphoto": 3449,
      "Ġspoil": 3450,
      "Ġnegative": 3451,
      "Ġemergency": 3452,
      "just": 3453,
      "lish": 3454,
      "Ġfish": 3455,
      "Ġdrove": 3456,
      "Ġelect": 3457,
      "Ġlif": 3458,
      "Ġ14": 3459,
      "Ġcloser": 3460,
      "Ġwreck": 3461,
      "Ġbehav": 3462,
      "let": 3463,
      "Ġtax": 3464,
      "eez": 3465,
      "Ġhy": 3466,
      "orld": 3467,
      "Ġsold": 3468,
      "ĠMine": 3469,
      "anted": 3470,
      "ational": 3471,
      "Ġ16": 3472,
      "Ġrecomm": 3473,
      "This": 3474,
      "Ġpromised": 3475,
      "Ġskills": 3476,
      "worker": 3477,
      "Ġstruggling": 3478,
      "Ġdentist": 3479,
      "Ġcompetition": 3480,
      "Ġstraight": 3481,
      "Ġquestion": 3482,
      "20": 3483,
      "ued": 3484,
      "Ġwild": 3485,
      "Ġmention": 3486,
      "Ġbot": 3487,
      "Ġstolen": 3488,
      "Ġdecide": 3489,
      "Ġ40": 3490,
      "retty": 3491,
      "Ġmanaged": 3492,
      "Ġ201": 3493,
      "gue": 3494,
      "Ġpun": 3495,
      "Ġheat": 3496,
      "Ġrare": 3497,
      "ĠDang": 3498,
      "ulous": 3499,
      "ĠCool": 3500,
      "Ġclosed": 3501,
      "ĠOk": 3502,
      "ĠProbably": 3503,
      "Ġcalling": 3504,
      "Ġflood": 3505,
      "Ġexams": 3506,
      "Ġlaughed": 3507,
      "Ġroller": 3508,
      "Ġtorn": 3509,
      "Ġgold": 3510,
      "Ġwouldnt": 3511,
      "Ġenv": 3512,
      "Ġprogr": 3513,
      "Ġunderstanding": 3514,
      "Ġshower": 3515,
      "Ġholiday": 3516,
      "ĠGoing": 3517,
      "Ġprogram": 3518,
      "vis": 3519,
      "Ġtiny": 3520,
      "Ġmag": 3521,
      "adays": 3522,
      "ĠCo": 3523,
      "Ġplane": 3524,
      "arently": 3525,
      "Ġcourt": 3526,
      "Does": 3527,
      "Ġdeliver": 3528,
      "Ġmillion": 3529,
      "otect": 3530,
      "Ġgoal": 3531,
      "ĠSm": 3532,
      "Ġunless": 3533,
      "Ġenjoying": 3534,
      "Ġturning": 3535,
      "Ġjerk": 3536,
      "Ġconversation": 3537,
      "Ġwelcome": 3538,
      "Ok": 3539,
      "cell": 3540,
      "father": 3541,
      "wich": 3542,
      "ened": 3543,
      "lew": 3544,
      "Ġshut": 3545,
      "Ġkinds": 3546,
      "Ġrelative": 3547,
      "velop": 3548,
      "Ġopened": 3549,
      "ĠStill": 3550,
      "Ġplease": 3551,
      "Ġirritated": 3552,
      "Ġincredible": 3553,
      "Ha": 3554,
      "ĠNO": 3555,
      "Ġalb": 3556,
      "arden": 3557,
      "Ġproduct": 3558,
      "ler": 3559,
      "ther": 3560,
      "Ġsearch": 3561,
      "ica": 3562,
      "amp": 3563,
      "Ġneat": 3564,
      "ĠSund": 3565,
      "Ġcleaned": 3566,
      "Ġdeserved": 3567,
      "Ġbummed": 3568,
      "Ġpleased": 3569,
      "Ġpooped": 3570,
      "Ġcrowd": 3571,
      "Ġnie": 3572,
      "ĠSO": 3573,
      "ĠSee": 3574,
      "Ġsomewhat": 3575,
      "Ġprogress": 3576,
      "Ġspeaking": 3577,
      "And": 3578,
      "cation": 3579,
      "hic": 3580,
      "illy": 3581,
      "ĠMust": 3582,
      "Ġsometime": 3583,
      "Ġvom": 3584,
      "Ġfriendship": 3585,
      "Ġvisiting": 3586,
      "Ġdoctors": 3587,
      "ĠUnfortunately": 3588,
      "Ġfreaked": 3589,
      "Ġinformation": 3590,
      "FEAR": 3591,
      "Ġsibling": 3592,
      "ĠMar": 3593,
      "Ġsomehow": 3594,
      "Ġexcept": 3595,
      "ĠGet": 3596,
      "ĠOf": 3597,
      "Ġupsetting": 3598,
      "Ġinsane": 3599,
      "Ġrisk": 3600,
      "De": 3601,
      "Ġhid": 3602,
      "Ġdread": 3603,
      "Ġcart": 3604,
      "Ġnail": 3605,
      "uth": 3606,
      "Ġstyle": 3607,
      "Ġabove": 3608,
      "Ġhearing": 3609,
      "Ġcaring": 3610,
      "Ġnights": 3611,
      "Ġacting": 3612,
      "Ġimpro": 3613,
      "Ġhuh": 3614,
      "Ġhobby": 3615,
      "Ġcharge": 3616,
      "Ġsimple": 3617,
      "Ġdisgusted": 3618,
      "Ġbenef": 3619,
      "Ġcreepy": 3620,
      "Ġsandwich": 3621,
      "oul": 3622,
      "Ġwhite": 3623,
      "Ġsomebody": 3624,
      "ights": 3625,
      "ĠEng": 3626,
      "Ġseriously": 3627,
      "Ġholidays": 3628,
      "Congrats": 3629,
      "oly": 3630,
      "Ġ...": 3631,
      "Ġedu": 3632,
      "Ġtable": 3633,
      "Ġfive": 3634,
      "Ġfilled": 3635,
      "Ġtoil": 3636,
      "asing": 3637,
      "Ġpissed": 3638,
      "ĠAn": 3639,
      "Ġdevelop": 3640,
      "omething": 3641,
      "Ġgrandfather": 3642,
      "ountain": 3643,
      "Ġfigured": 3644,
      "sp": 3645,
      "erm": 3646,
      "Ġcent": 3647,
      "Ġcir": 3648,
      "ached": 3649,
      "Ġunderstandable": 3650,
      "Ġhanging": 3651,
      "Ġlistening": 3652,
      ".\"": 3653,
      "Uh": 3654,
      "mare": 3655,
      "Ġthrill": 3656,
      "Ġmach": 3657,
      "Ġlic": 3658,
      "ites": 3659,
      "Ġwhenever": 3660,
      "arth": 3661,
      "Ġclim": 3662,
      "Ġintro": 3663,
      "Ġactiv": 3664,
      "ĠKind": 3665,
      "Ġpassion": 3666,
      "Ġsnack": 3667,
      "Ġfrustrated": 3668,
      "Ġuncle": 3669,
      "Ġsuccessful": 3670,
      "Ġcolor": 3671,
      "Ġfingers": 3672,
      "Ġcamera": 3673,
      "Ġchristmas": 3674,
      "Ġdivor": 3675,
      "Ġprotect": 3676,
      "Ġboard": 3677,
      "Ġhurts": 3678,
      "Ġsteps": 3679,
      "Ġoptim": 3680,
      "Ġexercise": 3681,
      "Yup": 3682,
      "erhaps": 3683,
      "Ġlim": 3684,
      "Ġwithin": 3685,
      "Ġrout": 3686,
      "Ġnowadays": 3687,
      "Ġnightmare": 3688,
      "Ġ25": 3689,
      "ptop": 3690,
      "Ġflow": 3691,
      "Ġaccount": 3692,
      "Ġhahaha": 3693,
      "Ġpair": 3694,
      "Ġbasement": 3695,
      "Ġlaptop": 3696,
      "Ġresponsib": 3697,
      "icated": 3698,
      "Ġstories": 3699,
      "Ġgoals": 3700,
      "Ġlikely": 3701,
      "Ġbecame": 3702,
      "Ġenc": 3703,
      "Ġconsidered": 3704,
      "Ġaddict": 3705,
      "Ġuncom": 3706,
      "Ġtherapy": 3707,
      "Ġappointment": 3708,
      "iod": 3709,
      "pose": 3710,
      "Ġhes": 3711,
      "Ġcherish": 3712,
      "Ġwash": 3713,
      "Ġshi": 3714,
      "artment": 3715,
      "Ġspilled": 3716,
      "Ġparts": 3717,
      "Ġperiod": 3718,
      "Ġtotal": 3719,
      "Ġforgive": 3720,
      "board": 3721,
      "Ġmedical": 3722,
      "ĠOnce": 3723,
      "Ġimmediately": 3724,
      "Ġtoilet": 3725,
      "care": 3726,
      "ĠUS": 3727,
      "Ġsen": 3728,
      "Ġsea": 3729,
      "Ġfur": 3730,
      "ether": 3731,
      "lex": 3732,
      "Ġcurrently": 3733,
      "Ġcustomer": 3734,
      "Tr": 3735,
      "coh": 3736,
      "Ġsix": 3737,
      "Ġham": 3738,
      "icer": 3739,
      "ĠHer": 3740,
      "ĠSuper": 3741,
      "Ġtree": 3742,
      "itted": 3743,
      "Ġrecord": 3744,
      "Ġboat": 3745,
      "Ġtripped": 3746,
      "Ġowner": 3747,
      "Ġrepair": 3748,
      "Ġsupportive": 3749,
      "Ġengine": 3750,
      "Ġrecommend": 3751,
      "cohol": 3752,
      "Absolutely": 3753,
      "now": 3754,
      "Ġtill": 3755,
      "Ġloose": 3756,
      "Ġpath": 3757,
      "Ġisnt": 3758,
      "Ġsugar": 3759,
      "Ġwhats": 3760,
      "Ġcarpet": 3761,
      "DISGUST": 3762,
      "Ġwrite": 3763,
      "Ġwan": 3764,
      "emic": 3765,
      "Ġbull": 3766,
      "Ġfond": 3767,
      "Ġhavent": 3768,
      "Ġbreed": 3769,
      "ĠKids": 3770,
      "Ġsky": 3771,
      "Ġcamp": 3772,
      "Ġyelled": 3773,
      "Ġobvious": 3774,
      "Ġvalue": 3775,
      "Ġrescue": 3776,
      "Ġsurvive": 3777,
      "Can": 3778,
      "Great": 3779,
      "Man": 3780,
      "gers": 3781,
      "inter": 3782,
      "Ġboo": 3783,
      "ĠGu": 3784,
      "appy": 3785,
      "Ġemail": 3786,
      "Ġconcerned": 3787,
      "Ġapologize": 3788,
      "Ġhey": 3789,
      "iculous": 3790,
      "ĠWorld": 3791,
      "Ġalcohol": 3792,
      "Ġshape": 3793,
      "ĠNintendo": 3794,
      "Ġschedule": 3795,
      "Ġuniversity": 3796,
      "Ġtrick": 3797,
      "Ġcrap": 3798,
      "Ġannivers": 3799,
      "Ġtests": 3800,
      "Ġriding": 3801,
      "Ġfollowing": 3802,
      "Ġpatient": 3803,
      "Ġsatisfied": 3804,
      "Ġdestroyed": 3805,
      "Indeed": 3806,
      "Ġbreaking": 3807,
      "Ġlying": 3808,
      "ĠTell": 3809,
      "icing": 3810,
      "Ġlock": 3811,
      "Ġcomfort": 3812,
      "ĠThankfully": 3813,
      "Ġcommun": 3814,
      "Ġdraw": 3815,
      "Ġadopt": 3816,
      "Ġshelter": 3817,
      "Ġuncomfortable": 3818,
      "co": 3819,
      "iqu": 3820,
      "oss": 3821,
      "orable": 3822,
      "Ġlake": 3823,
      "Ġpee": 3824,
      "Ġpit": 3825,
      "Ġmeat": 3826,
      "Ġloving": 3827,
      "Ġjoin": 3828,
      "olars": 3829,
      "!!!!": 3830,
      "Ġrecog": 3831,
      "Ġreasons": 3832,
      "Ġpromoted": 3833,
      "Ġdifference": 3834,
      "Ġnearly": 3835,
      "Ġrespond": 3836,
      "Ġdollar": 3837,
      "Ġgroceries": 3838,
      "Ġanniversary": 3839,
      "olarship": 3840,
      "Ġrecogn": 3841,
      ").": 3842,
      "eg": 3843,
      "Ġ'": 3844,
      "Ġed": 3845,
      "Ġvers": 3846,
      "ĠIve": 3847,
      "Ġevening": 3848,
      "Ġuns": 3849,
      "embers": 3850,
      "sych": 3851,
      "Ġbehavior": 3852,
      "Right": 3853,
      "Same": 3854,
      "Yikes": 3855,
      "ky": 3856,
      "Ġmult": 3857,
      "Ġcas": 3858,
      "Ġpumped": 3859,
      "Ġegg": 3860,
      "icy": 3861,
      "Ġstri": 3862,
      "Ġmiser": 3863,
      "Ġamazed": 3864,
      "Ġsupervis": 3865,
      "Ġhitting": 3866,
      "onsider": 3867,
      "Ġopin": 3868,
      "Ġcommunity": 3869,
      "conom": 3870,
      "Ġlicense": 3871,
      "rop": 3872,
      "wo": 3873,
      "Ġwhether": 3874,
      "ĠHis": 3875,
      "Ġplenty": 3876,
      "Ġpress": 3877,
      "ĠLO": 3878,
      "apers": 3879,
      "Ġtrusting": 3880,
      "Ġpassing": 3881,
      "Ġconstantly": 3882,
      "Ġoptimistic": 3883,
      "St": 3884,
      "yard": 3885,
      "Ġbucks": 3886,
      "Ġdirty": 3887,
      "least": 3888,
      "ution": 3889,
      "ĠWith": 3890,
      "ĠMake": 3891,
      "Ġknock": 3892,
      "Ġspider": 3893,
      "Ġgranted": 3894,
      "Ġscholarship": 3895,
      "ĠUh": 3896,
      "Ġcovered": 3897,
      "Ġresponsible": 3898,
      "Ġdepression": 3899,
      "But": 3900,
      "Ġgain": 3901,
      "Ġgarden": 3902,
      "ĠTime": 3903,
      "ĠThings": 3904,
      "Ġsuff": 3905,
      "Ġroof": 3906,
      "Ġdire": 3907,
      "Ġimprove": 3908,
      "Ġwarm": 3909,
      "On": 3910,
      "some": 3911,
      "under": 3912,
      "onest": 3913,
      "Ġdang": 3914,
      "idge": 3915,
      "Ġbeard": 3916,
      "Ġreun": 3917,
      "ĠToo": 3918,
      "Ġnose": 3919,
      "ĠEx": 3920,
      "Ġflies": 3921,
      "ific": 3922,
      "Ġcookies": 3923,
      "Ġgraduation": 3924,
      "Ġvehic": 3925,
      "Ġchanges": 3926,
      "Ġruin": 3927,
      "Ġpurpose": 3928,
      "Ġcorner": 3929,
      "Ġallowed": 3930,
      "Ġprofessional": 3931,
      "aiting": 3932,
      "ob": 3933,
      "Ġhowever": 3934,
      "epend": 3935,
      "Ġcomplete": 3936,
      "iliar": 3937,
      "Ġmall": 3938,
      "Ġcross": 3939,
      "Ġpunch": 3940,
      "Ġearth": 3941,
      "ison": 3942,
      "Ġplus": 3943,
      "Ġspl": 3944,
      "ushing": 3945,
      "Ġoldest": 3946,
      "istory": 3947,
      "Ġsweat": 3948,
      "Ġmeaning": 3949,
      "Ġdesk": 3950,
      "Ġbringing": 3951,
      "Ġlights": 3952,
      "Ġstealing": 3953,
      "Ġdeterm": 3954,
      "Ġcoasters": 3955,
      "Ġnatural": 3956,
      "ĠSunday": 3957,
      "Definitely": 3958,
      "Ġsenior": 3959,
      "inally": 3960,
      "Ġsomed": 3961,
      "Ġnon": 3962,
      "Ġwilling": 3963,
      "Ġscen": 3964,
      "hahaha": 3965,
      "ĠDefinitely": 3966,
      "Ġperformance": 3967,
      "employed": 3968,
      "cul": 3969,
      "coming": 3970,
      "omb": 3971,
      "Ġamus": 3972,
      "Ġknocked": 3973,
      "Ġnobody": 3974,
      "Ġexcuse": 3975,
      "ĠExactly": 3976,
      "Ġswear": 3977,
      "Ġ200": 3978,
      "Ġletter": 3979,
      "Ġeaten": 3980,
      "Ġhigher": 3981,
      "gging": 3982,
      "Ġpacked": 3983,
      "Ġ90": 3984,
      "Ġsales": 3985,
      "Ġblessed": 3986,
      "avy": 3987,
      "Ġquality": 3988,
      "Ġincredibly": 3989,
      "Ġgrandparents": 3990,
      "Ġhurricane": 3991,
      "Ġencou": 3992,
      "Ġwanna": 3993,
      "Ġsupervisor": 3994,
      "Ġhated": 3995,
      "Ġnap": 3996,
      "Ġovercome": 3997,
      "Ġdirect": 3998,
      "Ġdrinks": 3999,
      "Ġdishes": 4000,
      "tain": 4001,
      "Ġmember": 4002,
      "Ġmountain": 4003,
      "Ġbes": 4004,
      "Ġfully": 4005,
      "ooo": 4006,
      "ĠHallow": 4007,
      "Ġshouldnt": 4008,
      "Ġends": 4009,
      "Ġthoughtful": 4010,
      "Ġblow": 4011,
      "Ġridiculous": 4012,
      "Ġmilk": 4013,
      "Ġdiscover": 4014,
      "Ġemotions": 4015,
      "Ġscreen": 4016,
      "Ġpunish": 4017,
      "Ġmiserable": 4018,
      "bling": 4019,
      "Ġthird": 4020,
      "Ġmembers": 4021,
      "Ġwasted": 4022,
      "Ġstat": 4023,
      "Ġstation": 4024,
      "ĠLook": 4025,
      "Ġbugs": 4026,
      "Ġadvant": 4027,
      "Ġassume": 4028,
      "ffect": 4029,
      "pons": 4030,
      "ury": 4031,
      "Ġfart": 4032,
      "Ġdem": 4033,
      "Ġpig": 4034,
      "iders": 4035,
      "Ġeffect": 4036,
      "Ġsupri": 4037,
      "Ġrace": 4038,
      "ĠMc": 4039,
      "ĠYork": 4040,
      "roken": 4041,
      "Ġ11": 4042,
      "Ġpayment": 4043,
      "ĠRight": 4044,
      "Ġattract": 4045,
      "Ġfalling": 4046,
      "Ġthrowing": 4047,
      "Ġreminds": 4048,
      "Ġfinancially": 4049,
      "Ġinjured": 4050,
      "Ġtournam": 4051,
      "Ġeducation": 4052,
      "bage": 4053,
      "inal": 4054,
      "eel": 4055,
      "Ġdear": 4056,
      "Ġlord": 4057,
      "Ġsoft": 4058,
      "Ġform": 4059,
      "Ġworker": 4060,
      "iew": 4061,
      "ĠCould": 4062,
      "Ġview": 4063,
      "Ġending": 4064,
      "Ġrewarding": 4065,
      "Ġdrugs": 4066,
      "lord": 4067,
      "mart": 4068,
      "Ġhous": 4069,
      "Ġhire": 4070,
      "Ġded": 4071,
      "Ġoil": 4072,
      "Ġcancell": 4073,
      "ĠYikes": 4074,
      "Ġspir": 4075,
      "ĠCar": 4076,
      "Ġvol": 4077,
      "agn": 4078,
      "agles": 4079,
      "Ġ:/": 4080,
      "Nothing": 4081,
      "Ġbask": 4082,
      "Ġvideos": 4083,
      "Ġavail": 4084,
      "Ġsomeday": 4085,
      "ĠHalloween": 4086,
      "As": 4087,
      "Ġsoul": 4088,
      "Ġfriendly": 4089,
      "Ġorig": 4090,
      "iling": 4091,
      "Ġdrives": 4092,
      "Ġraised": 4093,
      "ebr": 4094,
      "light": 4095,
      "Ġtre": 4096,
      "Ġsau": 4097,
      "Ġmow": 4098,
      "Ġbal": 4099,
      "Ġyout": 4100,
      "Ġkitten": 4101,
      "Ġshes": 4102,
      "unted": 4103,
      "Ġguessing": 4104,
      "Ġstudents": 4105,
      "ĠRe": 4106,
      "Ġhorrif": 4107,
      "Ġskill": 4108,
      "Ġteaching": 4109,
      "Ġmanagement": 4110,
      "Ġfancy": 4111,
      "Ġmachine": 4112,
      "Ġflowers": 4113,
      "Ġopinion": 4114,
      "Ġavailable": 4115,
      "ucky": 4116,
      "Ġcoll": 4117,
      "Ġletting": 4118,
      "Ġesc": 4119,
      "Ġinvite": 4120,
      "Ġdivorce": 4121,
      "LOL": 4122,
      "Your": 4123,
      "cake": 4124,
      "oot": 4125,
      "was": 4126,
      "Ġtee": 4127,
      "Ġbite": 4128,
      "Ġbond": 4129,
      "Ġbored": 4130,
      "Ġfurn": 4131,
      "Ġgate": 4132,
      "Ġrely": 4133,
      "Ġneck": 4134,
      "Ġalarm": 4135,
      "ĠSouth": 4136,
      "ĠAbout": 4137,
      "Ġspiders": 4138,
      "ĠBet": 4139,
      "Ġtruth": 4140,
      "Ġgrass": 4141,
      "ĠPretty": 4142,
      "Ġadorable": 4143,
      "Ġskin": 4144,
      "Ġcooked": 4145,
      "Ġsnow": 4146,
      "Ġkeys": 4147,
      "Ġfighting": 4148,
      "Ġsmelled": 4149,
      "ĠAlso": 4150,
      "Ġbrave": 4151,
      "Ġpeaceful": 4152,
      "Ġstruggle": 4153,
      "Ġirritating": 4154,
      "ribly": 4155,
      "Ġprovide": 4156,
      "ĠGuess": 4157,
      "OH": 4158,
      "OO": 4159,
      "Probably": 4160,
      "ron": 4161,
      "ony": 4162,
      "Ġboys": 4163,
      "Ġdistract": 4164,
      "ĠAnything": 4165,
      "Ġpracticing": 4166,
      "Ġdaily": 4167,
      "fish": 4168,
      "Ġtil": 4169,
      "Ġsilly": 4170,
      "Ġtooth": 4171,
      "Ġdouble": 4172,
      "ences": 4173,
      "Ġep": 4174,
      "ĠTake": 4175,
      "ĠHad": 4176,
      "ung": 4177,
      "Ġworkers": 4178,
      "ulf": 4179,
      "Ġbackyard": 4180,
      "Ġtrad": 4181,
      "Ġschools": 4182,
      "Ġbuilt": 4183,
      "Ġtrained": 4184,
      "Ġteachers": 4185,
      "Ġhotel": 4186,
      "Ġpriv": 4187,
      "Ġrich": 4188,
      "Ġchanging": 4189,
      "Ġlandlord": 4190,
      "Ġblessing": 4191,
      "Ġtalented": 4192,
      "Ġheartbroken": 4193,
      "Ġrecipe": 4194,
      "don": 4195,
      "good": 4196,
      "ĠAm": 4197,
      "Ġfamiliar": 4198,
      "Ġweekends": 4199,
      "Ġrelationships": 4200,
      "ĠOnly": 4201,
      "Ġphysical": 4202,
      "ĠPlus": 4203,
      "Ġcharacter": 4204,
      "ĠNext": 4205,
      "Ġoverwhelming": 4206,
      "ges": 4207,
      "giving": 4208,
      "onnect": 4209,
      "Ġhilar": 4210,
      "Ġlad": 4211,
      "Ġitself": 4212,
      "Ġeconom": 4213,
      "ĠWish": 4214,
      "tern": 4215,
      "ĠYup": 4216,
      "Ġhappiness": 4217,
      "ĠAC": 4218,
      "Ġspouse": 4219,
      "Ġhardly": 4220,
      "igned": 4221,
      "Ġwaited": 4222,
      "ĠEn": 4223,
      "Ġ21": 4224,
      "Ġcheer": 4225,
      "Ġpolit": 4226,
      "Ġsnakes": 4227,
      "Ġprize": 4228,
      "ĠMex": 4229,
      "Ġrides": 4230,
      "Ġdreams": 4231,
      "cessary": 4232,
      "Ġwooded": 4233,
      "Ġadmit": 4234,
      "Ġspeeding": 4235,
      "Ġmortified": 4236,
      "Ġamusement": 4237,
      "Ġhilarious": 4238,
      "Of": 4239,
      "Ġive": 4240,
      "ĠHappy": 4241,
      "ĠYOU": 4242,
      "ĠSame": 4243,
      "ĠBl": 4244,
      "Ġconv": 4245,
      "Ġbelong": 4246,
      "Ġdrama": 4247,
      "MG": 4248,
      "Ouch": 4249,
      "boy": 4250,
      "ients": 4251,
      "ina": 4252,
      "Ġbee": 4253,
      "Ġhabit": 4254,
      "Ġheck": 4255,
      "Ġstage": 4256,
      "Ġjour": 4257,
      "Ġfridge": 4258,
      "Ġaward": 4259,
      "ĠThink": 4260,
      "Ġexcell": 4261,
      "Ġafterno": 4262,
      "Ġsmile": 4263,
      "Ġphones": 4264,
      "Ġremembered": 4265,
      "Ġyoungest": 4266,
      "Ġdealing": 4267,
      "Ġseries": 4268,
      "Ġbabysit": 4269,
      "Ġinstru": 4270,
      "Ġincome": 4271,
      "Ġraining": 4272,
      "ĠAlways": 4273,
      "Ġcloset": 4274,
      "Ġdelivery": 4275,
      "Ġdragon": 4276,
      "ique": 4277,
      "Ġmultip": 4278,
      "Ġvehicle": 4279,
      "Ġbasket": 4280,
      "for": 4281,
      "zz": 4282,
      "Ġhomes": 4283,
      "Ġrepe": 4284,
      "lder": 4285,
      "ĠSe": 4286,
      "Ġguit": 4287,
      "Ġbecoming": 4288,
      "HAT": 4289,
      "ify": 4290,
      "Ġrespon": 4291,
      "Ġmatters": 4292,
      "Ġconsidering": 4293,
      "rupt": 4294,
      "Ġmotivated": 4295,
      "Ġbeginning": 4296,
      "Ġniece": 4297,
      "Ġobviously": 4298,
      "Ġyoutube": 4299,
      "Now": 4300,
      "of": 4301,
      "sc": 4302,
      "Ġtall": 4303,
      "Ġhistory": 4304,
      "Ġfre": 4305,
      "Ġcell": 4306,
      "Ġcab": 4307,
      "Ġnone": 4308,
      "Ġhaunted": 4309,
      "Ġatleast": 4310,
      "Ġrat": 4311,
      "Ġring": 4312,
      "ĠMom": 4313,
      "ctually": 4314,
      "Ġoverall": 4315,
      "ummer": 4316,
      "Ġsadly": 4317,
      "Ġpersonally": 4318,
      "Then": 4319,
      "Ġcraw": 4320,
      "Ġtex": 4321,
      "Ġincl": 4322,
      "Ġinconsider": 4323,
      "Ġwarning": 4324,
      "Ġbrain": 4325,
      "Ġoppos": 4326,
      "Ġcameras": 4327,
      "Ġgarage": 4328,
      "ĠShould": 4329,
      "Ġhello": 4330,
      "Ġsmooth": 4331,
      "Ġsiblings": 4332,
      "True": 4333,
      "Ġpressure": 4334,
      "onestly": 4335,
      "Ġbearded": 4336,
      "Ġmultiple": 4337,
      "Ġinconsiderate": 4338,
      "Ġload": 4339,
      "Ġexist": 4340,
      "Ġrole": 4341,
      "Ġhurry": 4342,
      "Ġmarry": 4343,
      "workers": 4344,
      "Ġadvantage": 4345,
      "brat": 4346,
      "ckey": 4347,
      "Ġsize": 4348,
      "Ġbark": 4349,
      "Ġfi": 4350,
      "Ġfed": 4351,
      "Ġfries": 4352,
      "Ġnature": 4353,
      "Ġpounds": 4354,
      "itive": 4355,
      "Ġonto": 4356,
      "Ġrow": 4357,
      "Ġalthough": 4358,
      "Ġshy": 4359,
      "Ġhappend": 4360,
      "Ġallerg": 4361,
      "Ġplant": 4362,
      "thank": 4363,
      "Ġmod": 4364,
      "Ġkidding": 4365,
      "Ġclub": 4366,
      "ĠHowever": 4367,
      "Ġbrown": 4368,
      "enses": 4369,
      "Ġrode": 4370,
      "ĠPh": 4371,
      "ĠPerhaps": 4372,
      "Ġadvent": 4373,
      "ĠKore": 4374,
      "Ġhockey": 4375,
      "Ġpicking": 4376,
      "exas": 4377,
      "Ġburned": 4378,
      "check": 4379,
      "Ġunfair": 4380,
      "Ġteeth": 4381,
      "Ġafternoon": 4382,
      "Ġopposite": 4383,
      "sorry": 4384,
      "Ġmater": 4385,
      "Ġmental": 4386,
      "etfl": 4387,
      "ĠTurn": 4388,
      "Ġstre": 4389,
      "Ġchoose": 4390,
      "ĠPlease": 4391,
      "Ġconfused": 4392,
      "Ġgarbage": 4393,
      "Ġcondition": 4394,
      "Ġdirection": 4395,
      "Ġguitar": 4396,
      "etflix": 4397,
      "fast": 4398,
      "liness": 4399,
      "Ġsight": 4400,
      "ĠIndeed": 4401,
      "Ġtow": 4402,
      "Ġcurious": 4403,
      "iture": 4404,
      "etic": 4405,
      "Ġele": 4406,
      "Ġheld": 4407,
      "Ġket": 4408,
      "Ġjack": 4409,
      "Ġrot": 4410,
      "Ġlocked": 4411,
      "ĠSw": 4412,
      "roat": 4413,
      "Ġgreen": 4414,
      "uel": 4415,
      "ĠFace": 4416,
      "Ġbug": 4417,
      "Ġblock": 4418,
      "acking": 4419,
      "Ġfavorites": 4420,
      "Ġgrossed": 4421,
      "Ġbros": 4422,
      "Ġchecking": 4423,
      "Ġdepartment": 4424,
      "Ġevents": 4425,
      "Ġdeserves": 4426,
      "Awww": 4427,
      "Donald": 4428,
      "Ġrelieved": 4429,
      "Ġspoken": 4430,
      "Ġcops": 4431,
      "Ġfinger": 4432,
      "Ġjudge": 4433,
      "ns": 4434,
      "ino": 4435,
      "eels": 4436,
      "Ġsaf": 4437,
      "ension": 4438,
      "Ġcalls": 4439,
      "Ġfoods": 4440,
      "www": 4441,
      "gged": 4442,
      "Ġhumili": 4443,
      "Ġproperty": 4444,
      "Ġargument": 4445,
      "Ġhouses": 4446,
      "AT": 4447,
      "rom": 4448,
      "oups": 4449,
      "ĠIS": 4450,
      "Ġhost": 4451,
      "icate": 4452,
      "Ġabuse": 4453,
      "cean": 4454,
      "ĠSomething": 4455,
      "urope": 4456,
      "ĠBr": 4457,
      "ieved": 4458,
      "Ġsale": 4459,
      "ĠDidn": 4460,
      "Ġrobbed": 4461,
      "Ġourselves": 4462,
      "ires": 4463,
      "Ġflash": 4464,
      "Ġleague": 4465,
      "Ġhurting": 4466,
      "Ġpreparing": 4467,
      "Ġdesp": 4468,
      "Ġvisited": 4469,
      "Ġ80": 4470,
      "Ġfairly": 4471,
      "Ġbudget": 4472,
      "Ġillness": 4473,
      "Ġcrashed": 4474,
      "Ġapproved": 4475,
      "Ġbreath": 4476,
      "Ġbasketball": 4477,
      "Ġresponse": 4478,
      "OW": 4479,
      "days": 4480,
      "rr": 4481,
      "sounds": 4482,
      "Ġfill": 4483,
      "ancing": 4484,
      "ops": 4485,
      "ĠSuch": 4486,
      "une": 4487,
      "ĠApp": 4488,
      "Ġplays": 4489,
      "ousand": 4490,
      "Ġconnect": 4491,
      "ĠWhile": 4492,
      "ĠCal": 4493,
      "iforn": 4494,
      "Ġinterviews": 4495,
      "ifornia": 4496,
      "!?": 4497,
      "100": 4498,
      "Ġdance": 4499,
      "orch": 4500,
      "Ġlab": 4501,
      "Ġole": 4502,
      "stand": 4503,
      "Ġisol": 4504,
      "Ġheights": 4505,
      "heart": 4506,
      "ĠTom": 4507,
      "Ġworries": 4508,
      "Ġrac": 4509,
      "ĠSc": 4510,
      "ĠSatur": 4511,
      "ĠAbsolutely": 4512,
      "Ġvo": 4513,
      "Ġdiagn": 4514,
      "acy": 4515,
      "Ġflat": 4516,
      "Ġpromise": 4517,
      "Ġmessage": 4518,
      "Ġindepend": 4519,
      "Ġwoods": 4520,
      "Ġproperly": 4521,
      "Ġpleasant": 4522,
      "Ġclimb": 4523,
      "Ġfurniture": 4524,
      "Ġexcellent": 4525,
      "All": 4526,
      "Un": 4527,
      "Will": 4528,
      "kn": 4529,
      "Ġthousand": 4530,
      "Ġbi": 4531,
      "Ġcared": 4532,
      "Ġplayer": 4533,
      "Ġslowly": 4534,
      "Ġoption": 4535,
      "Ġexperienced": 4536,
      "Ġah": 4537,
      "Ġfence": 4538,
      "Ġdump": 4539,
      "Ġnames": 4540,
      "Ġpen": 4541,
      "Ġocean": 4542,
      "ett": 4543,
      "Ġsteak": 4544,
      "Ġarent": 4545,
      "Ġchances": 4546,
      "venient": 4547,
      "Ġpok": 4548,
      "Ġpoison": 4549,
      "Ġseat": 4550,
      "ĠEagles": 4551,
      "Ġmoms": 4552,
      "Ġattached": 4553,
      "Ġexpectations": 4554,
      "Ġstores": 4555,
      "Ġbreakfast": 4556,
      "Ġrelaxed": 4557,
      "Ġlaid": 4558,
      "Ġaccomplished": 4559,
      "erco": 4560,
      "Ġachiev": 4561,
      "Ġfortunate": 4562,
      "ĠMario": 4563,
      "ians": 4564,
      "uary": 4565,
      "Ġyo": 4566,
      "Ġhappier": 4567,
      "Ġplate": 4568,
      "Ġ17": 4569,
      "Ġcomplex": 4570,
      "Ġwriting": 4571,
      "Ġperhaps": 4572,
      "Ġtrips": 4573,
      "Ġincre": 4574,
      "Ġphysically": 4575,
      "ĠAmerica": 4576,
      "10": 4577,
      "RE": 4578,
      "To": 4579,
      "worth": 4580,
      "Ġmir": 4581,
      "Ġdry": 4582,
      "Ġgest": 4583,
      "Ġcope": 4584,
      "orting": 4585,
      "Ġpsych": 4586,
      "arn": 4587,
      "ĠTexas": 4588,
      "almart": 4589,
      "Ġbutter": 4590,
      "Ġsucked": 4591,
      "inder": 4592,
      "Ġworkout": 4593,
      "Ġprecious": 4594,
      "Ġages": 4595,
      "Ġguard": 4596,
      "Ġgroups": 4597,
      "Ġbye": 4598,
      "Ġusual": 4599,
      "Ġactions": 4600,
      "ĠFall": 4601,
      "Ġtrail": 4602,
      "Ġcompanies": 4603,
      "Ġappreh": 4604,
      "Ġnearby": 4605,
      "Ġbased": 4606,
      "Ġmedic": 4607,
      "ĠAlthough": 4608,
      "Ġrollerco": 4609,
      "Ġcelebrat": 4610,
      "Ġburger": 4611,
      "Ġquestions": 4612,
      "Ġscreaming": 4613,
      "Ġsuddenly": 4614,
      "Because": 4615,
      "worthy": 4616,
      "Ġden": 4617,
      "Ġkit": 4618,
      "entally": 4619,
      "ules": 4620,
      "Ġthinks": 4621,
      "esting": 4622,
      "Ġintense": 4623,
      "ngth": 4624,
      "Ġexample": 4625,
      "Ġfacebook": 4626,
      "Ġsongs": 4627,
      "Ġapplying": 4628,
      "Ġstrength": 4629,
      "People": 4630,
      "cl": 4631,
      "here": 4632,
      "overs": 4633,
      "uing": 4634,
      "Ġtask": 4635,
      "erious": 4636,
      "Ġthunder": 4637,
      "Ġtoy": 4638,
      "Ġca": 4639,
      "Ġlane": 4640,
      "Ġnuts": 4641,
      "oog": 4642,
      "Ġjail": 4643,
      "Ġath": 4644,
      "Ġupcoming": 4645,
      "ctions": 4646,
      "ilies": 4647,
      "Ġhardest": 4648,
      "Ġunl": 4649,
      "Ġunp": 4650,
      "Ġblind": 4651,
      "Ġresch": 4652,
      "Ġsooner": 4653,
      "Ġsurprising": 4654,
      "Ġcrit": 4655,
      "Ġvacu": 4656,
      "Ġworrying": 4657,
      "Ġopening": 4658,
      "Ġstoked": 4659,
      "Ġdamn": 4660,
      "Ġfollowed": 4661,
      "Ġnostalgia": 4662,
      "Ġoptions": 4663,
      "Ġselling": 4664,
      "Ġfilm": 4665,
      "Ġdepressing": 4666,
      "Ġcharacters": 4667,
      "Ġtraveling": 4668,
      "Ġtornado": 4669,
      "Ġversion": 4670,
      "Ġspirit": 4671,
      "Ġrollercoaster": 4672,
      "ING": 4673,
      "gic": 4674,
      "sle": 4675,
      "Ġbread": 4676,
      "Ġfund": 4677,
      "Ġgri": 4678,
      "anne": 4679,
      "alled": 4680,
      "cket": 4681,
      "Ġdefin": 4682,
      "andemic": 4683,
      "Ġcovid": 4684,
      "Ġparties": 4685,
      "Ġapplic": 4686,
      "Ġbedroom": 4687,
      "ĠEnglish": 4688,
      "Ġcenter": 4689,
      "ĠTurns": 4690,
      "min": 4691,
      "son": 4692,
      "onder": 4693,
      "Ġwracking": 4694,
      "Ġfulf": 4695,
      "Ġtodd": 4696,
      "Ġditch": 4697,
      "lling": 4698,
      "Ġpump": 4699,
      "ades": 4700,
      "amily": 4701,
      "Ġneither": 4702,
      "ĠHard": 4703,
      "ives": 4704,
      "ĠBig": 4705,
      "Ġotherwise": 4706,
      "Ġcoast": 4707,
      "Ġrelated": 4708,
      "Ġbuff": 4709,
      "Ġcourage": 4710,
      "osing": 4711,
      "Ġtrustworthy": 4712,
      "Ġhole": 4713,
      "Ġpaint": 4714,
      "Ġtypes": 4715,
      "Ġpresents": 4716,
      "Ġtasted": 4717,
      "Ġpotato": 4718,
      "Ġsnacks": 4719,
      "ĠMcDonald": 4720,
      "Ġcancelled": 4721,
      "ĠSaturday": 4722,
      "Ġathlet": 4723,
      "TU": 4724,
      "cri": 4725,
      "por": 4726,
      "ply": 4727,
      "Ġ*": 4728,
      "Ġbust": 4729,
      "Ġow": 4730,
      "Ġprevious": 4731,
      "ags": 4732,
      "Ġsimply": 4733,
      "Ġemployees": 4734,
      "Ġbott": 4735,
      "Al": 4736,
      "iable": 4737,
      "kin": 4738,
      "ners": 4739,
      "ole": 4740,
      "Ġdying": 4741,
      "Ġgeez": 4742,
      "Ġpian": 4743,
      "Ġpandemic": 4744,
      "Ġrele": 4745,
      "Ġreject": 4746,
      "uty": 4747,
      "Ġund": 4748,
      "ĠWent": 4749,
      "Ġrad": 4750,
      "Ġloans": 4751,
      "Ġnoises": 4752,
      "arten": 4753,
      "Ġjoke": 4754,
      "Ġclue": 4755,
      "ĠEurope": 4756,
      "azing": 4757,
      "Ġvacations": 4758,
      "Ġpainting": 4759,
      "Ġcounting": 4760,
      "Ġsneak": 4761,
      "ival": 4762,
      "Ġripped": 4763,
      "Ġshoe": 4764,
      "ode": 4765,
      "Ġsinging": 4766,
      "Ġdamaged": 4767,
      "Ġcalcul": 4768,
      "Ġcousins": 4769,
      "Ġmainly": 4770,
      "Ġadopted": 4771,
      "Ġexperiences": 4772,
      "Ġarrived": 4773,
      "Ġpurchase": 4774,
      "Ġthrilled": 4775,
      "Ġbalance": 4776,
      "Ġachievement": 4777,
      "eriously": 4778,
      "ii": 4779,
      "night": 4780,
      "nment": 4781,
      "oved": 4782,
      "par": 4783,
      "Ġsoup": 4784,
      "real": 4785,
      "Ġstock": 4786,
      "Ġaband": 4787,
      "Ġupon": 4788,
      "unny": 4789,
      "TION": 4790,
      "ume": 4791,
      "Ġsex": 4792,
      "Ġcareless": 4793,
      "Ġcrappy": 4794,
      "Ġclassic": 4795,
      "ivid": 4796,
      "Ġengaged": 4797,
      "Ġignore": 4798,
      "Ġreplaced": 4799,
      "known": 4800,
      "Ġabandon": 4801,
      "Any": 4802,
      "gra": 4803,
      "lu": 4804,
      "uit": 4805,
      "Ġtons": 4806,
      "Ġwit": 4807,
      "Ġsym": 4808,
      "Ġsouth": 4809,
      "Ġmal": 4810,
      "Ġmile": 4811,
      "ooh": 4812,
      "ism": 4813,
      "amas": 4814,
      "Ġabused": 4815,
      "irm": 4816,
      "ĠAr": 4817,
      "Ġnowhere": 4818,
      "Ġscar": 4819,
      "ĠCol": 4820,
      "ĠOther": 4821,
      "Ġacted": 4822,
      "Ġunderstood": 4823,
      "Ġremain": 4824,
      "Ġpaycheck": 4825,
      "Ġgiant": 4826,
      "Ġhonor": 4827,
      "Ġhopes": 4828,
      "Ġpresident": 4829,
      "Ġcharged": 4830,
      "Ġgraduating": 4831,
      "Ġperfectly": 4832,
      "phone": 4833,
      "Whoa": 4834,
      "Ġemployee": 4835,
      "Ġroommates": 4836,
      "Ġapologized": 4837,
      "Ġrandomly": 4838,
      "Ġstarved": 4839,
      "Ġelectric": 4840,
      "ĠEnjoy": 4841,
      "att": 4842,
      "Ġabilities": 4843,
      ".....": 4844,
      "ĠChe": 4845,
      "ification": 4846,
      "Ġcrime": 4847,
      "Ġeconomy": 4848,
      "Sure": 4849,
      "iff": 4850,
      "iol": 4851,
      "oon": 4852,
      "reed": 4853,
      "Ġfol": 4854,
      "Ġdig": 4855,
      "asure": 4856,
      "Ġporch": 4857,
      "Ġinch": 4858,
      "Ġheavy": 4859,
      "Ġsund": 4860,
      "Ġareas": 4861,
      "irement": 4862,
      "Ġexact": 4863,
      "Ġspell": 4864,
      "Ġaggra": 4865,
      "Ġfav": 4866,
      "Ġaction": 4867,
      "aches": 4868,
      "Ġswe": 4869,
      "Ġsounded": 4870,
      "Ġparked": 4871,
      "box": 4872,
      "Ġloneliness": 4873,
      "ĠStar": 4874,
      "Ġveget": 4875,
      "Ġsorts": 4876,
      "Ġjumping": 4877,
      "Ġchatting": 4878,
      "Ġqualified": 4879,
      "Ġbattle": 4880,
      "aii": 4881,
      "Ġenvy": 4882,
      "Okay": 4883,
      "Ġshift": 4884,
      "ossible": 4885,
      "Ġeggs": 4886,
      "Ġinclud": 4887,
      "Ġmodel": 4888,
      "Ġaggrav": 4889,
      "Ġtab": 4890,
      "Ġwet": 4891,
      "inge": 4892,
      "order": 4893,
      "Ġelder": 4894,
      "amn": 4895,
      "Ġshake": 4896,
      "ĠBest": 4897,
      "ĠLet": 4898,
      "Ġtricks": 4899,
      "Ġembarassed": 4900,
      "Ġaccidents": 4901,
      "Ġprior": 4902,
      "Ġsolution": 4903,
      "Ġadults": 4904,
      "Ġachieve": 4905,
      "Ġactivities": 4906,
      "Ġjourney": 4907,
      "TH": 4908,
      "off": 4909,
      "Ġwise": 4910,
      "Ġsink": 4911,
      "Ġsil": 4912,
      "oting": 4913,
      "Ġfaster": 4914,
      "sters": 4915,
      "Ġinno": 4916,
      "Ġsoci": 4917,
      "Ġram": 4918,
      "Ġspare": 4919,
      "Ġscience": 4920,
      "ummy": 4921,
      "cipl": 4922,
      "bel": 4923,
      "Ġunknown": 4924,
      "ĠGrand": 4925,
      "Ġcares": 4926,
      "Ġcompass": 4927,
      "Ġbitter": 4928,
      "Ġwrote": 4929,
      "Ġcollect": 4930,
      "respons": 4931,
      "Ġtreated": 4932,
      "Ġstanding": 4933,
      "Ġgenerous": 4934,
      "Ġsucceed": 4935,
      "Ġpersonality": 4936,
      "Ġteenager": 4937,
      "Ġshocking": 4938,
      "Ġbowl": 4939,
      "Ġpurchased": 4940,
      "Ġdelivered": 4941,
      "Ġalbums": 4942,
      "Ġsauce": 4943,
      "ĠBetter": 4944,
      "Ġfrequ": 4945,
      "Ġgesture": 4946,
      "Ġvacuum": 4947,
      "Ġwitness": 4948,
      "ease": 4949,
      "vernment": 4950,
      "chan": 4951,
      "Ġsusp": 4952,
      "Ġspoke": 4953,
      "Ġtrou": 4954,
      "Ġsepar": 4955,
      "Ġblank": 4956,
      "Ġ--": 4957,
      "Ġcomplicated": 4958,
      "Ġearn": 4959,
      "Ġembarassing": 4960,
      "Ġbothering": 4961,
      "Ġlaying": 4962,
      "load": 4963,
      "Ġbenefits": 4964,
      "Ġboost": 4965,
      "Ġvolunt": 4966,
      "Ġsafety": 4967,
      "Ġelderly": 4968,
      "can": 4969,
      "Ġtight": 4970,
      "Ġhired": 4971,
      "rest": 4972,
      "Ġfra": 4973,
      "Ġfried": 4974,
      "Ġfreaking": 4975,
      "Ġlower": 4976,
      "Ġhall": 4977,
      "anish": 4978,
      "Ġbear": 4979,
      "Ġability": 4980,
      "Ġdaycare": 4981,
      "Ġscam": 4982,
      "Ġlegs": 4983,
      "Ġunderw": 4984,
      "ĠOuch": 4985,
      "Ġshowing": 4986,
      "Ġflu": 4987,
      "ĠRed": 4988,
      "Ġleaves": 4989,
      "Ġhandling": 4990,
      "Ġexpenses": 4991,
      "Ġappreciative": 4992,
      "Ġcommitted": 4993,
      "Ġ60": 4994,
      "Ġnumbers": 4995,
      "Ġairport": 4996,
      "Ġcashier": 4997,
      "Ġkicked": 4998,
      "Ġapproach": 4999,
      "Ġscreamed": 5000,
      "Ġanticipating": 5001,
      "ĠSmash": 5002,
      "Ġreunion": 5003,
      "Ġtournament": 5004,
      "Ġapprehensive": 5005,
      "Most": 5006,
      "One": 5007,
      "ially": 5008,
      "Ġfro": 5009,
      "Ġlines": 5010,
      "ĠWork": 5011,
      "Ġround": 5012,
      "antic": 5013,
      "Ġchip": 5014,
      "Ġpretend": 5015,
      "ĠEither": 5016,
      "born": 5017,
      "Ġfarm": 5018,
      "Ġanswers": 5019,
      "Ġcausing": 5020,
      "Ġreaction": 5021,
      "Ġreviews": 5022,
      "Hello": 5023,
      "bur": 5024,
      "cies": 5025,
      "gy": 5026,
      "spect": 5027,
      "ship": 5028,
      "Ġtail": 5029,
      "Ġhat": 5030,
      "Ġblew": 5031,
      "Ġflew": 5032,
      "Ġnamed": 5033,
      "Ġnintendo": 5034,
      "Ġport": 5035,
      "ĠHaw": 5036,
      "Ġaltern": 5037,
      "Ġsharing": 5038,
      "Ġexha": 5039,
      "urs": 5040,
      "Ġfriday": 5041,
      "ĠWhats": 5042,
      "ession": 5043,
      "Ġclown": 5044,
      "ltim": 5045,
      "aced": 5046,
      "ability": 5047,
      "ĠPok": 5048,
      "Ġdrank": 5049,
      "Ġreality": 5050,
      "Ġstray": 5051,
      "Ġideas": 5052,
      "Ġremembering": 5053,
      "Ġhorse": 5054,
      "Ġcruel": 5055,
      "ups": 5056,
      "ergarten": 5057,
      "Ġkilling": 5058,
      "Ġirrespons": 5059,
      "Ġsalad": 5060,
      "Ġadvance": 5061,
      "hhh": 5062,
      "Ġcolors": 5063,
      "Ġpopular": 5064,
      "Ġtransfer": 5065,
      "Ġbirds": 5066,
      "Ġtechnology": 5067,
      "Ġfrightening": 5068,
      "Ġintrodu": 5069,
      "egas": 5070,
      "ĠFacebook": 5071,
      "Ġreschedule": 5072,
      "Ġexhaust": 5073,
      "down": 5074,
      "nis": 5075,
      "Ġfem": 5076,
      "oms": 5077,
      "Ġrules": 5078,
      "Ġgreatest": 5079,
      "Ġchanne": 5080,
      "Ġimm": 5081,
      "Ġunable": 5082,
      "Ġchoices": 5083,
      "bbies": 5084,
      "Ġpraying": 5085,
      "Ġvolunte": 5086,
      "Hmm": 5087,
      "mp": 5088,
      "school": 5089,
      "uh": 5090,
      "ĠQ": 5091,
      "Ġbatter": 5092,
      "Ġbomb": 5093,
      "Ġtoe": 5094,
      "Ġgig": 5095,
      "ndred": 5096,
      "Ġlend": 5097,
      "Ġpeed": 5098,
      "ana": 5099,
      "arter": 5100,
      "Ġequ": 5101,
      "isions": 5102,
      "ico": 5103,
      "Ġlivid": 5104,
      "Ġju": 5105,
      "Ġrab": 5106,
      "ĠSince": 5107,
      "ĠDr": 5108,
      "Ġfreed": 5109,
      "Ġanytime": 5110,
      "Ġord": 5111,
      "Ġharm": 5112,
      "ĠThese": 5113,
      "Ġofficer": 5114,
      "Ġunique": 5115,
      "Ġapparently": 5116,
      "Ġcheaper": 5117,
      "ption": 5118,
      "ĠPoor": 5119,
      "Ġdecor": 5120,
      "Ġdecisions": 5121,
      "Ġearned": 5122,
      "Ġhundred": 5123,
      "Ġretirement": 5124,
      "ertain": 5125,
      "Ġtyp": 5126,
      "Ġcharity": 5127,
      "ĠVegas": 5128,
      "Hahaha": 5129,
      "Ġfinances": 5130,
      "Ġpracticed": 5131,
      "sweet": 5132,
      "Ġscares": 5133,
      "Ġtransport": 5134,
      "Ġtemper": 5135,
      "Ġhiking": 5136,
      "Ġcheesecake": 5137,
      "ĠGetting": 5138,
      "Ġpigs": 5139,
      "Ġfiance": 5140,
      "oogle": 5141,
      "Ġsociety": 5142,
      "Ġcompassion": 5143,
      "ĠPokemon": 5144,
      "Ġfreedom": 5145,
      "Tell": 5146,
      "hope": 5147,
      "maybe": 5148,
      "ĠTwo": 5149,
      "iron": 5150,
      "Ġrom": 5151,
      "Ġshark": 5152,
      "Ġchem": 5153,
      "usive": 5154,
      "ĠOH": 5155,
      "Ġlaund": 5156,
      "Ġcutting": 5157,
      "ĠBefore": 5158,
      "???": 5159,
      "selor": 5160,
      "Ġassuming": 5161,
      "Ġlimit": 5162,
      "Ġroutine": 5163,
      "\"!": 5164,
      "kids": 5165,
      "vy": 5166,
      "Ġing": 5167,
      "Ġace": 5168,
      "eral": 5169,
      "Ġsigned": 5170,
      "eeee": 5171,
      "Ġfile": 5172,
      "lla": 5173,
      "Ġease": 5174,
      "Ġeager": 5175,
      "Ġforce": 5176,
      "ley": 5177,
      "Ġjunk": 5178,
      "uled": 5179,
      "Ġchore": 5180,
      "Ġeverytime": 5181,
      "Ġspring": 5182,
      "ĠCO": 5183,
      "ĠCl": 5184,
      "Ġclient": 5185,
      "happy": 5186,
      "Ġarm": 5187,
      "pler": 5188,
      "Ġreliable": 5189,
      "Ġtalks": 5190,
      "Ġ24": 5191,
      "Ġslight": 5192,
      "bye": 5193,
      "Ġaccess": 5194,
      "Ġdriveway": 5195,
      "Ġtasty": 5196,
      "Ġstorms": 5197,
      "Ġboxes": 5198,
      "Ġcontinues": 5199,
      "Ġgrabbed": 5200,
      "Ġ2018": 5201,
      "Ġimprov": 5202,
      "Ġresponsibility": 5203,
      "Ġprivate": 5204,
      "Ġallergic": 5205,
      "Ġdespite": 5206,
      "-)": 5207,
      "ATION": 5208,
      "Try": 5209,
      "Ġmechan": 5210,
      "ĠSure": 5211,
      "have": 5212,
      "SITU": 5213,
      "Ġpocket": 5214,
      "Ġterm": 5215,
      "Ġresolved": 5216,
      "Ġhobbies": 5217,
      "Ġgambling": 5218,
      "Ġsavings": 5219,
      "Ġcounse": 5220,
      "Ġenviron": 5221,
      "ĠLOVE": 5222,
      "Ġoriginal": 5223,
      "Ġlaundry": 5224,
      "SITUATION": 5225,
      "Am": 5226,
      "Luckily": 5227,
      "Make": 5228,
      "aven": 5229,
      "food": 5230,
      "sually": 5231,
      "Ġtea": 5232,
      "Ġtears": 5233,
      "inis": 5234,
      "Ġwine": 5235,
      "Ġthri": 5236,
      "Ġmass": 5237,
      "Ġbout": 5238,
      "ERY": 5239,
      "Ġdirt": 5240,
      "Ġyoure": 5241,
      "Ġpound": 5242,
      "ancy": 5243,
      "Ġinfect": 5244,
      "verage": 5245,
      "illing": 5246,
      "teresting": 5247,
      "irth": 5248,
      "Ġshaking": 5249,
      "Ġanybody": 5250,
      "Ġchose": 5251,
      "Ġcomb": 5252,
      "Ġspook": 5253,
      "ership": 5254,
      "Ġhassle": 5255,
      "Ġdiapers": 5256,
      "Ġhomework": 5257,
      "Ġfamilies": 5258,
      "Ġrecent": 5259,
      "Ġactual": 5260,
      "ĠFinally": 5261,
      "Ġdiscipl": 5262,
      "Ġtells": 5263,
      "Ġcompared": 5264,
      "Ġmarath": 5265,
      "shirt": 5266,
      "Ġdelay": 5267,
      "Ġsetting": 5268,
      "ugust": 5269,
      "Ġreflect": 5270,
      "ĠWhoa": 5271,
      "Ġdiscuss": 5272,
      "ĠTrue": 5273,
      "Ġmotor": 5274,
      "Ġrescued": 5275,
      "Ġfortunately": 5276,
      "Ġdepends": 5277,
      "Ġinspiring": 5278,
      "Ġmixed": 5279,
      "ĠAmerican": 5280,
      "ĠOkay": 5281,
      "Ġattractive": 5282,
      "ebron": 5283,
      "Ġditched": 5284,
      "ĠColor": 5285,
      "Ġinnocent": 5286,
      "Go": 5287,
      "ials": 5288,
      "ts": 5289,
      "orter": 5290,
      "Ġgovernment": 5291,
      "Ġcla": 5292,
      "Ġvar": 5293,
      "Ġactive": 5294,
      "Ġfinals": 5295,
      "ĠFirst": 5296,
      "Ġpayments": 5297,
      "Ġrefused": 5298,
      "Ġsecrets": 5299,
      "Ġyelling": 5300,
      "Ġmaintain": 5301,
      "easy": 5302,
      "ĠSeems": 5303,
      "Ġhumiliated": 5304,
      "Ġenvironment": 5305,
      "--": 5306,
      "Holy": 5307,
      "Like": 5308,
      "dies": 5309,
      "dog": 5310,
      "ey": 5311,
      "Ġwaking": 5312,
      "Ġhom": 5313,
      "Ġgrill": 5314,
      "Ġcap": 5315,
      "lly": 5316,
      "Ġol": 5317,
      "Ġlies": 5318,
      "Ġstays": 5319,
      "Ġstaring": 5320,
      "Ġcance": 5321,
      "ĠHigh": 5322,
      "Ġrage": 5323,
      "aked": 5324,
      "Ġeverybody": 5325,
      "Ġagreed": 5326,
      "Ġscra": 5327,
      "ffff": 5328,
      "uses": 5329,
      "ĠCle": 5330,
      "Ġsched": 5331,
      "Ġterribly": 5332,
      "ization": 5333,
      "Ġimpact": 5334,
      "Ġimpossible": 5335,
      "Ġperspect": 5336,
      "pted": 5337,
      "Ġdisease": 5338,
      "apan": 5339,
      "onda": 5340,
      "Ġhandful": 5341,
      "Ġretail": 5342,
      "Ġbreaks": 5343,
      "Ġcommit": 5344,
      "Ġmedication": 5345,
      "iana": 5346,
      "Ġinflu": 5347,
      "Ġhung": 5348,
      "Ġassist": 5349,
      "Ġzoo": 5350,
      "inese": 5351,
      "Ġphysics": 5352,
      "Ġattacked": 5353,
      "ission": 5354,
      "Ġarrive": 5355,
      "Ġcrushed": 5356,
      "Ġnurse": 5357,
      "Ġnursing": 5358,
      "Ġalbum": 5359,
      "Ġproductive": 5360,
      "Ġcircus": 5361,
      "Ġsplit": 5362,
      "Ġbesides": 5363,
      "Ġadventure": 5364,
      "ĠApparently": 5365,
      "ĠTomorrow": 5366,
      "Ġvoice": 5367,
      "Unfortunately": 5368,
      "believ": 5369,
      "Ġunderwear": 5370,
      "ĠColorado": 5371,
      "da": 5372,
      "ral": 5373,
      "sis": 5374,
      "Ġtear": 5375,
      "Ġmentally": 5376,
      "Ġbinge": 5377,
      "Ġtoward": 5378,
      "Ġgut": 5379,
      "Ġdoc": 5380,
      "ada": 5381,
      "Ohh": 5382,
      "ĠBra": 5383,
      "Ġscrew": 5384,
      "angu": 5385,
      "when": 5386,
      "Ġhunting": 5387,
      "Ġaddition": 5388,
      "ropri": 5389,
      "Ġencourage": 5390,
      "Ġapplication": 5391,
      "hy": 5392,
      "hold": 5393,
      "law": 5394,
      "round": 5395,
      "rate": 5396,
      "ration": 5397,
      "were": 5398,
      "wracking": 5399,
      "Ġver": 5400,
      "Ġess": 5401,
      "Ġaverage": 5402,
      "Ġmower": 5403,
      "Ġfool": 5404,
      "Ġyall": 5405,
      "ari": 5406,
      "Ġbelt": 5407,
      "Ġheaven": 5408,
      "ĠTH": 5409,
      "Ġmeals": 5410,
      "Ġsuit": 5411,
      "ppies": 5412,
      "ĠDont": 5413,
      "race": 5414,
      "Ġchain": 5415,
      "ĠBeen": 5416,
      "Ġprank": 5417,
      "ĠLebron": 5418,
      "ĠDogs": 5419,
      "Ġglut": 5420,
      "Ġappet": 5421,
      "Ġreminis": 5422,
      "Ġdislike": 5423,
      "Ġslam": 5424,
      "Ġtragic": 5425,
      "angers": 5426,
      "Ġowned": 5427,
      "orms": 5428,
      "Ġwondering": 5429,
      "ements": 5430,
      "oga": 5431,
      "Ġski": 5432,
      "Ġexpress": 5433,
      "Ġparks": 5434,
      "Ġentertain": 5435,
      "Ġlessons": 5436,
      "Ġforgotten": 5437,
      "Ġbasic": 5438,
      "Ġtreats": 5439,
      "Ġtreatment": 5440,
      "Ġfights": 5441,
      "?!?!": 5442,
      "Ġpurse": 5443,
      "Ġshorts": 5444,
      "Ġ1000": 5445,
      "Ġsignific": 5446,
      "ĠDec": 5447,
      "Ġmotivation": 5448,
      "Ġrecovered": 5449,
      "Ġpepper": 5450,
      "Ġpanic": 5451,
      "Ġtaxes": 5452,
      "Ġbottle": 5453,
      "Ġengineering": 5454,
      "Ġsurvived": 5455,
      "Ġedge": 5456,
      "Ġdetermined": 5457,
      "Ġdiscovered": 5458,
      "Ġdedication": 5459,
      "Ġalternative": 5460,
      "Ġirresponsible": 5461,
      "cused": 5462,
      "look": 5463,
      "Ġ;": 5464,
      "eeze": 5465,
      "Ġcable": 5466,
      "orge": 5467,
      "alth": 5468,
      "ĠDad": 5469,
      "Ġprevent": 5470,
      "quit": 5471,
      "ildren": 5472,
      "Ġfocused": 5473,
      "Ġsons": 5474,
      "Ġvacc": 5475,
      "icted": 5476,
      "Ġreached": 5477,
      "Ġtips": 5478,
      "Everything": 5479,
      "Ġdemand": 5480,
      "ĠCalifornia": 5481,
      "iam": 5482,
      "Ġx": 5483,
      "Ġest": 5484,
      "ero": 5485,
      "Ġwra": 5486,
      "Ġseek": 5487,
      "Ġsle": 5488,
      "Ġsoooo": 5489,
      "otally": 5490,
      "Ġdarn": 5491,
      "Ġcorn": 5492,
      "Ġlack": 5493,
      "Ġlbs": 5494,
      "anes": 5495,
      "stairs": 5496,
      "oop": 5497,
      "Ġsocks": 5498,
      "ĠTinder": 5499,
      "ustry": 5500,
      "ĠWaiting": 5501,
      "Ġrarely": 5502,
      "ĠMay": 5503,
      "Ġshots": 5504,
      "unior": 5505,
      "akers": 5506,
      "Ġchasing": 5507,
      "using": 5508,
      "Ġtran": 5509,
      "Ġvib": 5510,
      "Ġviol": 5511,
      "Ġunbeliev": 5512,
      "Ġwaitress": 5513,
      "acle": 5514,
      "Ġadjust": 5515,
      "Ġcrack": 5516,
      "llege": 5517,
      "Ġattic": 5518,
      "Ġserve": 5519,
      "Ġdesper": 5520,
      "Ġinstr": 5521,
      "Ġminor": 5522,
      "Ġrepay": 5523,
      "Ġindustry": 5524,
      "Ġsafely": 5525,
      "Ġselfish": 5526,
      "Ġsimpler": 5527,
      "Ġinfo": 5528,
      "Ġwindows": 5529,
      "Ġlanded": 5530,
      "Ġpotty": 5531,
      "Ġlitter": 5532,
      "Ġdevastating": 5533,
      "Ġshooting": 5534,
      "Ġsuffering": 5535,
      "ĠKorean": 5536,
      "Ġmaterial": 5537,
      "Ġpiano": 5538,
      "Ġvibes": 5539,
      "bles": 5540,
      "tt": 5541,
      "Ġsour": 5542,
      "Ġmut": 5543,
      "Ġfake": 5544,
      "ingers": 5545,
      "Ġlangu": 5546,
      "itary": 5547,
      "Ġinit": 5548,
      "aming": 5549,
      "Ġshared": 5550,
      "estyle": 5551,
      "urb": 5552,
      "SHAME": 5553,
      "istry": 5554,
      "Ġuseful": 5555,
      "ivity": 5556,
      "ĠĠĠ": 5557,
      "Ġlawy": 5558,
      "Ġlifestyle": 5559,
      "Ġabandoned": 5560,
      "500": 5561,
      "MA": 5562,
      "Omg": 5563,
      "cut": 5564,
      "hand": 5565,
      "ober": 5566,
      "ĠZ": 5567,
      "Ġsooo": 5568,
      "reate": 5569,
      "Ġcage": 5570,
      "Ġnicer": 5571,
      "arant": 5572,
      "Ġinse": 5573,
      "Ġrelease": 5574,
      "Ġultim": 5575,
      "Ġstairs": 5576,
      "ential": 5577,
      "ctober": 5578,
      "Ġdonate": 5579,
      "Ġpred": 5580,
      "Ġmos": 5581,
      "Ġaggress": 5582,
      "Ġscold": 5583,
      "Ġclu": 5584,
      "Ġclot": 5585,
      "Ġpretended": 5586,
      "ago": 5587,
      "ĠLots": 5588,
      "ĠFamily": 5589,
      "Ġdisney": 5590,
      "Ġslipped": 5591,
      "Ġdeals": 5592,
      "Ġrestroom": 5593,
      "Ġhandy": 5594,
      "rench": 5595,
      "Ġheading": 5596,
      "Ġcountries": 5597,
      "ĠThanksgiving": 5598,
      "Ġrepa": 5599,
      "Ġprices": 5600,
      "Ġcertification": 5601,
      "Ġvegan": 5602,
      "ledge": 5603,
      "Ġhumid": 5604,
      "Ġguilt": 5605,
      "Ġclosing": 5606,
      "Ġpregnancy": 5607,
      "Ġcomplained": 5608,
      "Ġsolid": 5609,
      "Ġpatience": 5610,
      "ĠAwww": 5611,
      "Ġfreshman": 5612,
      "Ġrewarded": 5613,
      "Ġposted": 5614,
      "Everyone": 5615,
      "Ġspoiled": 5616,
      "ĠSeeing": 5617,
      "Ġcasino": 5618,
      "Ġepis": 5619,
      "Ġtradition": 5620,
      "ĠMexican": 5621,
      "Ġtexting": 5622,
      "Ġmedicine": 5623,
      "Ġfolks": 5624,
      "Ġsunday": 5625,
      "irthday": 5626,
      "Ġcanceled": 5627,
      "),": 5628,
      "Glad": 5629,
      "See": 5630,
      "Ġtas": 5631,
      "otic": 5632,
      "Ġgather": 5633,
      "Ġhect": 5634,
      "tered": 5635,
      "ender": 5636,
      "ĠAd": 5637,
      "Ġchill": 5638,
      "Ġbetray": 5639,
      "Ġsurely": 5640,
      "Ġjoining": 5641,
      "Ġprove": 5642,
      "ples": 5643,
      "Ġuneasy": 5644,
      "Ġlets": 5645,
      "Ġcompare": 5646,
      "Ġtomato": 5647,
      "ĠStart": 5648,
      "Ġregard": 5649,
      "Ġstandard": 5650,
      "Ġgeneration": 5651,
      "Ġsending": 5652,
      "Ġcauses": 5653,
      "Ġtherapist": 5654,
      "Ġpleasure": 5655,
      "Ġchallenging": 5656,
      "Ġisolated": 5657,
      "Ġfemale": 5658,
      "Ġhectic": 5659,
      "uition": 5660,
      "vill": 5661,
      "vision": 5662,
      "watch": 5663,
      "Ġvent": 5664,
      "Ġhint": 5665,
      "Ġbound": 5666,
      "Ġduty": 5667,
      "Ġoven": 5668,
      "Ġonions": 5669,
      "adow": 5670,
      "Ġkiss": 5671,
      "Ġstro": 5672,
      "Ġnecessary": 5673,
      "ĠHA": 5674,
      "ĠHR": 5675,
      "ĠHoly": 5676,
      "Ġrap": 5677,
      "ĠAugust": 5678,
      "Ġexch": 5679,
      "Ġspit": 5680,
      "ĠBu": 5681,
      "ĠBy": 5682,
      "ĠBirthday": 5683,
      "Ġscored": 5684,
      "Ġcoach": 5685,
      "Ġfinds": 5686,
      "Ġintim": 5687,
      "aco": 5688,
      "Ġapple": 5689,
      "Ġputs": 5690,
      "ĠJo": 5691,
      "ĠJapan": 5692,
      "Ġexpired": 5693,
      "Ġmessy": 5694,
      "Ġcookie": 5695,
      "Ġincon": 5696,
      "bbing": 5697,
      "Ġpacking": 5698,
      "Ġdiscount": 5699,
      "phones": 5700,
      "Ġ70": 5701,
      "Ġexplore": 5702,
      "ĠMany": 5703,
      "Ġprofessor": 5704,
      "Ġadmire": 5705,
      "Ġghosts": 5706,
      "Ġjerks": 5707,
      "Ġcustomers": 5708,
      "Ġheartbreaking": 5709,
      "Ġmarketing": 5710,
      "Ġfrightened": 5711,
      "Ġtraumatic": 5712,
      "Ġvomit": 5713,
      "Ġnightmares": 5714,
      "Ġaddiction": 5715,
      "Ġhesit": 5716,
      "Ġrecognize": 5717,
      "Ġbarking": 5718,
      "Ġpokemon": 5719,
      "Ġpumpkin": 5720,
      "Ġcalculus": 5721,
      "Ġramen": 5722,
      "Ġbittersweet": 5723,
      "Ġfrequently": 5724,
      "ĠHawaii": 5725,
      "Ġmarathon": 5726,
      "ĠDecember": 5727,
      "AY": 5728,
      "Keep": 5729,
      "list": 5730,
      "eeling": 5731,
      "Ġpapers": 5732,
      "Ġanger": 5733,
      "ĠNetflix": 5734,
      "Ġbecomes": 5735,
      "hab": 5736,
      "Ġlasts": 5737,
      "Ġsadness": 5738,
      "Ġcontract": 5739,
      "Ġrefer": 5740,
      "Ġpossibly": 5741,
      "Ġcomplaining": 5742,
      "Ġcontacted": 5743,
      "Ġdetail": 5744,
      "doors": 5745,
      "Ġbutton": 5746,
      "ĠNOT": 5747,
      "Ġhiding": 5748,
      "Ġpassionate": 5749,
      "cons": 5750,
      "diving": 5751,
      "eans": 5752,
      "lace": 5753,
      "nies": 5754,
      "ton": 5755,
      "uable": 5756,
      "ĠER": 5757,
      "Ġwea": 5758,
      "ata": 5759,
      "Ġmic": 5760,
      "Ġbump": 5761,
      "Ġfest": 5762,
      "Ġfans": 5763,
      "Ġdess": 5764,
      "Ġdumped": 5765,
      "Ġcord": 5766,
      "Ġlon": 5767,
      "Ġlas": 5768,
      "Ġnet": 5769,
      "Ġnope": 5770,
      "Ġpatch": 5771,
      "itions": 5772,
      "omp": 5773,
      "Ġlift": 5774,
      "chy": 5775,
      "Ġjeans": 5776,
      "ĠHar": 5777,
      "Ġrate": 5778,
      "Ġknee": 5779,
      "Ġupgr": 5780,
      "ested": 5781,
      "urning": 5782,
      "Ġbaked": 5783,
      "Ġchair": 5784,
      "Ġchased": 5785,
      "Ġchamp": 5786,
      "ief": 5787,
      "Ġtrees": 5788,
      "uments": 5789,
      "Ġthrown": 5790,
      "Ġexcitement": 5791,
      "ĠLove": 5792,
      "Ġterms": 5793,
      "ĠOmg": 5794,
      "Ġreconnect": 5795,
      "ptember": 5796,
      "Ġblown": 5797,
      "new": 5798,
      "Ġretire": 5799,
      "Ġsnugg": 5800,
      "Ġstressing": 5801,
      "Ġfixing": 5802,
      "Ġentered": 5803,
      "ĠStay": 5804,
      "Ġdoors": 5805,
      "Ġsettle": 5806,
      "Ġconsiderate": 5807,
      "Ġsatur": 5808,
      "Ġoccur": 5809,
      "Ġsevere": 5810,
      "ĠFrance": 5811,
      "Ġvaluable": 5812,
      "arma": 5813,
      "Ġevil": 5814,
      "Ġborrowed": 5815,
      "Ġauto": 5816,
      "Ġtrauma": 5817,
      "Ġrelatives": 5818,
      "Ġvomited": 5819,
      "Ġhorrifying": 5820,
      "Ġtowel": 5821,
      "Ġdiagnosed": 5822,
      "Ġindependent": 5823,
      "Ġpotatoes": 5824,
      "Ġperspective": 5825,
      "Ġsignificant": 5826,
      "Ġtransit": 5827,
      "Ġmosquit": 5828,
      "Ġaggressive": 5829,
      "Ġdessert": 5830,
      "ware": 5831,
      "outube": 5832,
      "ĠHmm": 5833,
      "irting": 5834,
      "ĠMore": 5835,
      "ĠYoutube": 5836,
      "ĠAL": 5837,
      "Ġbaking": 5838,
      "iled": 5839,
      "ĠBoth": 5840,
      "place": 5841,
      "Ġthru": 5842,
      "ĠLittle": 5843,
      "ĠGe": 5844,
      "osis": 5845,
      "Ġwritten": 5846,
      "Ġstraw": 5847,
      "Ġcounselor": 5848,
      "dddddddddddddddd": 5849,
      "Ġactivity": 5850,
      "Ġromantic": 5851,
      "Ġclaim": 5852,
      "OMG": 5853,
      "PS": 5854,
      "ik": 5855,
      "nes": 5856,
      "oah": 5857,
      "yep": 5858,
      "Ġ/": 5859,
      "Ġweak": 5860,
      "Ġwishing": 5861,
      "Ġhomet": 5862,
      "Ġmur": 5863,
      "Ġbang": 5864,
      "Ġfirm": 5865,
      "Ġcu": 5866,
      "Ġcities": 5867,
      "Ġcreate": 5868,
      "esl": 5869,
      "owl": 5870,
      "Ġstain": 5871,
      "Ġtiming": 5872,
      "ĠSummer": 5873,
      "Ġweb": 5874,
      "Ġbags": 5875,
      "ils": 5876,
      "Ġjoined": 5877,
      "Ġguest": 5878,
      "icked": 5879,
      "Ġcock": 5880,
      "aging": 5881,
      "Ġintention": 5882,
      "ĠLosing": 5883,
      "ĠGive": 5884,
      "ables": 5885,
      "ĠFe": 5886,
      "Ġ2000": 5887,
      "Ġfla": 5888,
      "Ġflip": 5889,
      "Ġsurprises": 5890,
      "Ġdecl": 5891,
      "Ġhusky": 5892,
      "Ġhighway": 5893,
      "ĠUsually": 5894,
      "apped": 5895,
      "Ġpuppies": 5896,
      "Ġcounts": 5897,
      "Ġteams": 5898,
      "Ġbosses": 5899,
      "Awe": 5900,
      "Ġrice": 5901,
      "ĠVERY": 5902,
      "Ġregist": 5903,
      "Ġcatching": 5904,
      "Ġhumans": 5905,
      "Ġburden": 5906,
      "Ġairpl": 5907,
      "Ġparticip": 5908,
      "Ġsolve": 5909,
      "Ġemployer": 5910,
      "Ġinjury": 5911,
      "ĠHaving": 5912,
      "Ġpaperwork": 5913,
      "Ġmentioned": 5914,
      "Ġseafood": 5915,
      "Ġcommunicate": 5916,
      "Ġgained": 5917,
      "Ġmountains": 5918,
      "ĠRec": 5919,
      "Ġsmoothly": 5920,
      "Ġketo": 5921,
      "Ġtoddler": 5922,
      "Ġsweating": 5923,
      "Ġaggravating": 5924,
      "Ġchores": 5925,
      "Ġrepaired": 5926,
      "Ġhometown": 5927,
      "ih": 5928,
      "Ġ&": 5929,
      "Ġbri": 5930,
      "Ġcast": 5931,
      "Ġrehab": 5932,
      "verse": 5933,
      "ĠTalk": 5934,
      "ĠHonestly": 5935,
      "unities": 5936,
      "ĠActually": 5937,
      "Ġunhappy": 5938,
      "Ġtheirs": 5939,
      "Ġtested": 5940,
      "Ġclassm": 5941,
      "Ġ45": 5942,
      "Ġincident": 5943,
      "Ġopportunities": 5944,
      "Ġencoura": 5945,
      "Ex": 5946,
      "Mine": 5947,
      "Never": 5948,
      "Or": 5949,
      "Sh": 5950,
      "door": 5951,
      "iot": 5952,
      "pting": 5953,
      "rd": 5954,
      "rad": 5955,
      "ern": 5956,
      "inct": 5957,
      "Ġbun": 5958,
      "Ġdancing": 5959,
      "Ġcud": 5960,
      "Ġpitch": 5961,
      "Ġpics": 5962,
      "anch": 5963,
      "iment": 5964,
      "Ġnotes": 5965,
      "ĠMight": 5966,
      "ĠMade": 5967,
      "Ġtools": 5968,
      "ĠSa": 5969,
      "Ġbac": 5970,
      "Ġmold": 5971,
      "ĠBell": 5972,
      "ĠCroat": 5973,
      "Ġproc": 5974,
      "Ġprinter": 5975,
      "Ġarms": 5976,
      "Ġarrest": 5977,
      "play": 5978,
      "Ġrooting": 5979,
      "Ġdisag": 5980,
      "Ġdisaster": 5981,
      "ulture": 5982,
      "Ġreser": 5983,
      "Ġenjoyable": 5984,
      "Ġtries": 5985,
      "Ġflorida": 5986,
      "Ġmessing": 5987,
      "ibility": 5988,
      "ĠChinese": 5989,
      "Ġticked": 5990,
      "Ġindivid": 5991,
      "Ġlistened": 5992,
      "Ġgenerally": 5993,
      "Ġtastes": 5994,
      "Ġbothers": 5995,
      "Ġgrab": 5996,
      "Ġspecifically": 5997,
      "Ġshirts": 5998,
      "Ġbowling": 5999,
      "Ġreplacement": 6000,
      "Ġoccasionally": 6001,
      "Ġpushed": 6002,
      "Ġchallenge": 6003,
      "Ġtravelling": 6004,
      "Ġmagic": 6005,
      "Ġdreading": 6006,
      "Ġresponsibilities": 6007,
      "Ġescape": 6008,
      "Ġnecklace": 6009,
      "Ġinstructions": 6010,
      "ĠQu": 6011,
      "Ġlawyer": 6012,
      "ĠRecently": 6013,
      "bu": 6014,
      "uff": 6015,
      "Ġbully": 6016,
      "Ġnor": 6017,
      "ara": 6018,
      "ĠSU": 6019,
      "ĠDO": 6020,
      "Ġspread": 6021,
      "ELL": 6022,
      "about": 6023,
      "Ġblamed": 6024,
      "Ġ35": 6025,
      "Ġdescri": 6026,
      "Ġgaming": 6027,
      "Ġfreez": 6028,
      "Ġconsist": 6029,
      "Ġtreating": 6030,
      "Ġinfuri": 6031,
      "Ġzone": 6032,
      "Ġorganized": 6033,
      "ĠGotta": 6034,
      "Ġsearching": 6035,
      "Ġfurther": 6036,
      "ĠOtherwise": 6037,
      "Ġtasks": 6038,
      "!\"": 6039,
      "200": 6040,
      "About": 6041,
      "EA": 6042,
      "ium": 6043,
      "mb": 6044,
      "pr": 6045,
      "vv": 6046,
      "vember": 6047,
      "walk": 6048,
      "oni": 6049,
      "inated": 6050,
      "ĠInd": 6051,
      "rep": 6052,
      "ashing": 6053,
      "Ġpink": 6054,
      "Ġpup": 6055,
      "Ġowe": 6056,
      "itor": 6057,
      "ĠTra": 6058,
      "Ġkitt": 6059,
      "icago": 6060,
      "eague": 6061,
      "irl": 6062,
      "ĠMac": 6063,
      "Ġship": 6064,
      "Ġasap": 6065,
      "Ġtheme": 6066,
      "Ġawe": 6067,
      "Ġspa": 6068,
      "Ġconvenient": 6069,
      "igious": 6070,
      "cience": 6071,
      "because": 6072,
      "Ġvase": 6073,
      "Ġgrind": 6074,
      "Ġbrut": 6075,
      "Ġbrush": 6076,
      "agers": 6077,
      "plant": 6078,
      "Ġquarter": 6079,
      "Ġunit": 6080,
      "ĠLou": 6081,
      "Ġfinishing": 6082,
      "Ġthroughout": 6083,
      "ĠPart": 6084,
      "Ġsmoke": 6085,
      "aughter": 6086,
      "ĠIsn": 6087,
      "Ġtwins": 6088,
      "Ġstub": 6089,
      "Ġcraving": 6090,
      "ashed": 6091,
      "Ġannoun": 6092,
      "nah": 6093,
      "Ġdesign": 6094,
      "Ġ500": 6095,
      "ionship": 6096,
      "Ġpasta": 6097,
      "Ġinstantly": 6098,
      "Ġeachother": 6099,
      "Ġmothers": 6100,
      "uesday": 6101,
      "Ġwalls": 6102,
      "Ġclosest": 6103,
      "Ġsalary": 6104,
      "berry": 6105,
      "ĠITs": 6106,
      "Ġtheres": 6107,
      "Ġsticky": 6108,
      "Ġclearly": 6109,
      "Ġrequired": 6110,
      "Ġmatches": 6111,
      "Ġaffected": 6112,
      "employment": 6113,
      "Ġerrand": 6114,
      "Ġbeside": 6115,
      "Ġtreasure": 6116,
      "ĠSwitch": 6117,
      "Ġracing": 6118,
      "ĠMcDonalds": 6119,
      "Ġreleased": 6120,
      "Ġrejected": 6121,
      "Ġdiscipline": 6122,
      "Ġscheduled": 6123,
      "Ġslept": 6124,
      "ville": 6125,
      "Ġexchange": 6126,
      "Ġintimid": 6127,
      "Ch": 6128,
      "VER": 6129,
      "val": 6130,
      "Ġtit": 6131,
      "Ġgal": 6132,
      "Ġcy": 6133,
      "asy": 6134,
      "Ġoutdoors": 6135,
      "ĠYES": 6136,
      "Ġanyways": 6137,
      "Ġaware": 6138,
      "ĠLucky": 6139,
      "Ġrob": 6140,
      "ĠFingers": 6141,
      "Ġresol": 6142,
      "Ġflirting": 6143,
      "ohh": 6144,
      "wwww": 6145,
      "who": 6146,
      "Ġmale": 6147,
      "Ġextreme": 6148,
      "Ġcounter": 6149,
      "Ġcirc": 6150,
      "Ġcounseling": 6151,
      "ropriate": 6152,
      "FC": 6153,
      "LY": 6154,
      "ME": 6155,
      "Must": 6156,
      "ND": 6157,
      "Nah": 6158,
      "eve": 6159,
      "hor": 6160,
      "mark": 6161,
      "pon": 6162,
      "scle": 6163,
      "Ġtar": 6164,
      "err": 6165,
      "Ġwalmart": 6166,
      "Ġhike": 6167,
      "emember": 6168,
      "emade": 6169,
      "Ġmature": 6170,
      "Ġban": 6171,
      "Ġdressed": 6172,
      "Ġyoga": 6173,
      "Ġcav": 6174,
      "Ġyouth": 6175,
      "Ġnah": 6176,
      "Ġpic": 6177,
      "encies": 6178,
      "itis": 6179,
      "arily": 6180,
      "etime": 6181,
      "Ġsoda": 6182,
      "unting": 6183,
      "Ġhers": 6184,
      "riends": 6185,
      "Ġdonuts": 6186,
      "aker": 6187,
      "Ġdeb": 6188,
      "Ġmuscle": 6189,
      "ĠNah": 6190,
      "ĠBar": 6191,
      "Ġleash": 6192,
      "ĠCall": 6193,
      "ĠCity": 6194,
      "Ġwave": 6195,
      "Ġunne": 6196,
      "Ġplayers": 6197,
      "acu": 6198,
      "ĠOMG": 6199,
      "Ġmonday": 6200,
      "Ġmonsters": 6201,
      "Ġswallow": 6202,
      "Ġchew": 6203,
      "Ġsupporting": 6204,
      "Ġstrangers": 6205,
      "Ġleftovers": 6206,
      "Ġaccused": 6207,
      "Ġwins": 6208,
      "Ġhighschool": 6209,
      "Ġattem": 6210,
      "Ġsweetheart": 6211,
      "Ġpercent": 6212,
      "Ġserv": 6213,
      "Ġinterests": 6214,
      "Ġskating": 6215,
      "Ġcounty": 6216,
      "Ġpolite": 6217,
      "Ġhoped": 6218,
      "Thankfully": 6219,
      "Ġfailure": 6220,
      "Ġpulling": 6221,
      "ĠAlmost": 6222,
      "greed": 6223,
      "Ġcorrupt": 6224,
      "Ġhaircut": 6225,
      "Ġcompetitive": 6226,
      "Ġturtle": 6227,
      "Ġpieces": 6228,
      "Ġzero": 6229,
      "Ġevacu": 6230,
      "ĠSpanish": 6231,
      "olences": 6232,
      "Ġargue": 6233,
      "Ġsatisfying": 6234,
      "Ġignored": 6235,
      "Ġorganic": 6236,
      "Ġrecipes": 6237,
      "Ġglasses": 6238,
      "Ġtires": 6239,
      "Ġoverwhelmed": 6240,
      "ĠCollege": 6241,
      "Ġtotaled": 6242,
      "Ġskydiving": 6243,
      "Ġpolitical": 6244,
      "Ġconvin": 6245,
      "boys": 6246,
      "Ġrepeat": 6247,
      "Ġincrease": 6248,
      "Ġtrailer": 6249,
      "Ġcelebrating": 6250,
      "Ġspelling": 6251,
      "Ġincluding": 6252,
      "Ġtransportation": 6253,
      "Ġingred": 6254,
      "Ġmotorcy": 6255,
      "Ġgluten": 6256,
      "Ġappetite": 6257,
      "Ġunbelievable": 6258,
      "Ġsaturday": 6259,
      "Ġflavor": 6260,
      "Ġdisagree": 6261,
      "Actually": 6262,
      "ET": 6263,
      "Honestly": 6264,
      "Please": 6265,
      "ait": 6266,
      "Ġnut": 6267,
      "Ġabusive": 6268,
      "others": 6269,
      "ĠFeeling": 6270,
      "Ġeats": 6271,
      "Ġhits": 6272,
      "Ġcourses": 6273,
      "ĠCanada": 6274,
      "Ġforeign": 6275,
      "Ġtempor": 6276,
      "Ġscene": 6277,
      "ĠLooking": 6278,
      "Ġsoftware": 6279,
      "Ġlanguage": 6280,
      "An": 6281,
      "YY": 6282,
      "Yay": 6283,
      "cret": 6284,
      "ext": 6285,
      "free": 6286,
      "gu": 6287,
      "iant": 6288,
      "mel": 6289,
      "rant": 6290,
      "Ġut": 6291,
      "Ġtatt": 6292,
      "erry": 6293,
      "Ġwire": 6294,
      "Ġwings": 6295,
      "Ġthreat": 6296,
      "Ġsake": 6297,
      "ĠIll": 6298,
      "Ġhood": 6299,
      "Ġmouse": 6300,
      "Ġbake": 6301,
      "Ġfian": 6302,
      "Ġyep": 6303,
      "Ġgoogle": 6304,
      "Ġgorge": 6305,
      "Ġcig": 6306,
      "Ġtheater": 6307,
      "Ġnational": 6308,
      "Ġpin": 6309,
      "Ġpant": 6310,
      "Ġpushing": 6311,
      "Ġomg": 6312,
      "aries": 6313,
      "Ġbeating": 6314,
      "Ġec": 6315,
      "ĠTaking": 6316,
      "Ġstates": 6317,
      "ĠWar": 6318,
      "char": 6319,
      "Ġwheel": 6320,
      "Ġgoodbye": 6321,
      "ĠHonda": 6322,
      "Ġoutf": 6323,
      "Ġlover": 6324,
      "Ġshadow": 6325,
      "Ġawake": 6326,
      "Ġplants": 6327,
      "Ġmoon": 6328,
      "Ġcomed": 6329,
      "Ġspin": 6330,
      "ĠBro": 6331,
      "Ġfuneral": 6332,
      "Ġfac": 6333,
      "Ġkindness": 6334,
      "Ġunemployment": 6335,
      "Ġhousehold": 6336,
      "ache": 6337,
      "Ġwished": 6338,
      "ĠFort": 6339,
      "Ġ22": 6340,
      "Ġdrown": 6341,
      "Ġteh": 6342,
      "ĠRock": 6343,
      "Ġstuffed": 6344,
      "Ġruns": 6345,
      "Ġpromising": 6346,
      "Ġreturning": 6347,
      "Ġskip": 6348,
      "Ġaced": 6349,
      "Ġrepres": 6350,
      "Ġsmaller": 6351,
      "Ġvegg": 6352,
      "Ġ800": 6353,
      "Ġconcern": 6354,
      "Ġconcerns": 6355,
      "Ġsmells": 6356,
      "Ġmilest": 6357,
      "Ġimpression": 6358,
      "Ġcomputers": 6359,
      "lected": 6360,
      "Ġobject": 6361,
      "Ġunexpectedly": 6362,
      "Ġjoyful": 6363,
      "Ġbehave": 6364,
      "Ġinvestment": 6365,
      "Ġstarving": 6366,
      "ĠHaven": 6367,
      "Ġregularly": 6368,
      "Ġinspired": 6369,
      "Ġmortg": 6370,
      "Ġlifting": 6371,
      "ĠEngland": 6372,
      "Ġsuffer": 6373,
      "Only": 6374,
      "Ġdistracted": 6375,
      "Ġladies": 6376,
      "Ġcabin": 6377,
      "Ġelection": 6378,
      "Ġrotten": 6379,
      "standing": 6380,
      "Ġmiracle": 6381,
      "Ġkitty": 6382,
      "Ġbuffet": 6383,
      "Ġimprovement": 6384,
      "ĠCroatia": 6385,
      "Ġinfuriating": 6386,
      "ĠLouis": 6387,
      "Ġtattoo": 6388,
      "?\"": 6389,
      "OR": 6390,
      "overy": 6391,
      "Ġreass": 6392,
      "Ġur": 6393,
      "sey": 6394,
      "Ġexh": 6395,
      "Ġspr": 6396,
      "agging": 6397,
      "Ġstrate": 6398,
      "Ġpasses": 6399,
      "Ġjealousy": 6400,
      "Ġmilitary": 6401,
      "Ġinvestig": 6402,
      "Ġrespectful": 6403,
      "Ġtennis": 6404,
      "Ġsuggestions": 6405,
      "Ġbenefit": 6406,
      "Ġeffects": 6407,
      "Ġbelongings": 6408,
      "Ġhomeschool": 6409,
      "Ġchemistry": 6410,
      "Ġdocument": 6411,
      "Ġvaccine": 6412,
      "!.": 6413,
      ".,": 6414,
      "MY": 6415,
      "bour": 6416,
      "bull": 6417,
      "ds": 6418,
      "ipp": 6419,
      "ipping": 6420,
      "mo": 6421,
      "mission": 6422,
      "pack": 6423,
      "reen": 6424,
      "ser": 6425,
      "west": 6426,
      "yy": 6427,
      "Ġven": 6428,
      "Ġtun": 6429,
      "Ġtape": 6430,
      "Ġwound": 6431,
      "Ġthou": 6432,
      "ĠiP": 6433,
      "Ġbuck": 6434,
      "Ġboun": 6435,
      "Ġyummy": 6436,
      "Ġculture": 6437,
      "Ġhallow": 6438,
      "Ġpill": 6439,
      "Ġpity": 6440,
      "Ġobs": 6441,
      "Ġisland": 6442,
      "Ġbeans": 6443,
      "Ġego": 6444,
      "Ġforth": 6445,
      "ribut": 6446,
      "vert": 6447,
      "seas": 6448,
      "cha": 6449,
      "ament": 6450,
      "eable": 6451,
      "Ġoutcome": 6452,
      "Ġalert": 6453,
      "Ġfees": 6454,
      "Ġshady": 6455,
      "Ġshining": 6456,
      "Ġexotic": 6457,
      "Ġchest": 6458,
      "Ġdeer": 6459,
      "aint": 6460,
      "Ġbacked": 6461,
      "Ġshoulder": 6462,
      "Ġcarried": 6463,
      "venience": 6464,
      "Ġoverd": 6465,
      "Ġoverseas": 6466,
      "Ġneeding": 6467,
      "Ġfactor": 6468,
      "ĠCra": 6469,
      "Ġmadden": 6470,
      "Ġoffic": 6471,
      "Ġclick": 6472,
      "Ġintell": 6473,
      "ĠGame": 6474,
      "rats": 6475,
      "Ġswer": 6476,
      "Ġdiss": 6477,
      "Ġblo": 6478,
      "Ġ:-)": 6479,
      "acked": 6480,
      "Ġowners": 6481,
      "Ġneighbour": 6482,
      "ĠWhenever": 6483,
      "Ġmoves": 6484,
      "Ġhubby": 6485,
      "Ġinstinct": 6486,
      "Ġsket": 6487,
      "Ġskunk": 6488,
      "Ġraising": 6489,
      "Ġenter": 6490,
      "Ġprison": 6491,
      "Ġrip": 6492,
      "Ġrefuse": 6493,
      "hahah": 6494,
      "Ġfailing": 6495,
      "Ġdisturb": 6496,
      "Ġholds": 6497,
      "Ġlunches": 6498,
      "Ġcosts": 6499,
      "Ġlaws": 6500,
      "ground": 6501,
      "Ġdiscou": 6502,
      "Ġstruggled": 6503,
      "Ġreported": 6504,
      "Ġbench": 6505,
      "Ġartist": 6506,
      "Ġteenagers": 6507,
      "Ġfeedback": 6508,
      "Ġcondolences": 6509,
      "Being": 6510,
      "Ġgrandpa": 6511,
      "Ġcreatures": 6512,
      "Ġsquir": 6513,
      "going": 6514,
      "Ġhype": 6515,
      "Ġnieces": 6516,
      "Ġdrawing": 6517,
      "Ġpeeved": 6518,
      "Ġcrossing": 6519,
      "ĠMexico": 6520,
      "ĠBlack": 6521,
      "ĠSeptember": 6522,
      "Ġrabbit": 6523,
      "Ġslightly": 6524,
      "Ġhomemade": 6525,
      "Ġclothing": 6526,
      "Ġstroke": 6527,
      "Ġtransition": 6528,
      "Ġmurder": 6529,
      "ĠFelt": 6530,
      "Ġairplane": 6531,
      "Ġunnecessary": 6532,
      "Ġservices": 6533,
      "Ġingredients": 6534,
      "Ġmortgage": 6535,
      "Hi": 6536,
      "Ġsite": 6537,
      "really": 6538,
      "Ġlame": 6539,
      "roll": 6540,
      "usic": 6541,
      "Ġremoved": 6542,
      "Ġdisp": 6543,
      "Ġtele": 6544,
      "Ġelement": 6545,
      "Ġwalks": 6546,
      "certain": 6547,
      "Ġmeds": 6548,
      "Ġinvested": 6549,
      "Ġchallenges": 6550,
      "Ġroute": 6551,
      "ĠUSA": 6552,
      ".\".": 6553,
      "MW": 6554,
      "Time": 6555,
      "cee": 6556,
      "cast": 6557,
      "crif": 6558,
      "iens": 6559,
      "nn": 6560,
      "tr": 6561,
      "ught": 6562,
      "zen": 6563,
      "Ġot": 6564,
      "Ġast": 6565,
      "inos": 6566,
      "Ġshat": 6567,
      "Ġsens": 6568,
      "Ġhip": 6569,
      "Ġhates": 6570,
      "Ġhiring": 6571,
      "Ġmaster": 6572,
      "Ġble": 6573,
      "Ġbare": 6574,
      "Ġduck": 6575,
      "Ġgre": 6576,
      "orage": 6577,
      "Ġlun": 6578,
      "Ġnest": 6579,
      "Ġpace": 6580,
      "Ġoper": 6581,
      "itled": 6582,
      "aration": 6583,
      "ario": 6584,
      "aying": 6585,
      "oops": 6586,
      "Ġeast": 6587,
      "Ġrear": 6588,
      "Ġrenew": 6589,
      "hell": 6590,
      "adly": 6591,
      "ĠTook": 6592,
      "Ġkay": 6593,
      "Ġstable": 6594,
      "Ġstorage": 6595,
      "ĠWonder": 6596,
      "Ġmex": 6597,
      "Ġjunior": 6598,
      "Ġwhil": 6599,
      "ppings": 6600,
      "Ġnecess": 6601,
      "Ġknife": 6602,
      "Ġupd": 6603,
      "ĠSeriously": 6604,
      "Ġshout": 6605,
      "Ġshorter": 6606,
      "ĠAust": 6607,
      "Ġaspect": 6608,
      "urric": 6609,
      "Ġlotto": 6610,
      "Ġharsh": 6611,
      "ĠBMW": 6612,
      "ankees": 6613,
      "ffle": 6614,
      "Ġsacrif": 6615,
      "Ġlean": 6616,
      "igent": 6617,
      "Ġfaced": 6618,
      "ĠThough": 6619,
      "Ġkindergarten": 6620,
      "Ġdiving": 6621,
      "Ġcovers": 6622,
      "Ġfamous": 6623,
      "Ġbranch": 6624,
      "HAHA": 6625,
      "Ġacts": 6626,
      "ĠFebr": 6627,
      "ĠFeels": 6628,
      "Ġunderstands": 6629,
      "sole": 6630,
      "gets": 6631,
      "oster": 6632,
      "Ġphase": 6633,
      "Ġhorribly": 6634,
      "Ġinsist": 6635,
      "Ġtesting": 6636,
      "Ġpreparation": 6637,
      "Ġhighly": 6638,
      "Ġsweetest": 6639,
      "Ġdealt": 6640,
      "Ġdealership": 6641,
      "Ġhealing": 6642,
      "Ġperman": 6643,
      "Ġhahah": 6644,
      "Ġgrandch": 6645,
      "ventually": 6646,
      "Ġopens": 6647,
      "Ġmessages": 6648,
      "Ġinterviewed": 6649,
      "Ġpizzas": 6650,
      "shi": 6651,
      "Ġveg": 6652,
      "Ġlightning": 6653,
      "Ġreminder": 6654,
      "Ġassign": 6655,
      "Ġthanksgiving": 6656,
      "Ġbraves": 6657,
      "Ġstronger": 6658,
      "Ġpropose": 6659,
      "Ġstreets": 6660,
      "Ġadvise": 6661,
      "Ġsigns": 6662,
      "Ġmeantime": 6663,
      "Ġcopy": 6664,
      "Ġwrecking": 6665,
      "Someone": 6666,
      "Ġgunsh": 6667,
      "Ġanticipation": 6668,
      "Ġhyped": 6669,
      "Ġflooded": 6670,
      "Ġgoldfish": 6671,
      "Ġsuprised": 6672,
      "Ġbeef": 6673,
      "Ġinstructor": 6674,
      "Ġthunderst": 6675,
      "Ġathletic": 6676,
      "Ġradio": 6677,
      "Ġvegetables": 6678,
      "ursday": 6679,
      "Ġmechanic": 6680,
      "Going": 6681,
      "Ġdesperate": 6682,
      "Ġinsec": 6683,
      "Ġlonesome": 6684,
      "Ġbrutal": 6685,
      "Ġrepresent": 6686,
      "Ġhalloween": 6687,
      "ĠFebruary": 6688,
      "19": 6689,
      "Would": 6690,
      "car": 6691,
      "iry": 6692,
      "life": 6693,
      "rot": 6694,
      "your": 6695,
      "Ġbars": 6696,
      "rel": 6697,
      "anced": 6698,
      "Ġworri": 6699,
      "ĠDM": 6700,
      "Ġfruit": 6701,
      "there": 6702,
      "Ġuncertain": 6703,
      "Ġapps": 6704,
      "Ġretake": 6705,
      "Ġlocation": 6706,
      "Ġaddress": 6707,
      "Ġoccup": 6708,
      "Interesting": 6709,
      "Ġadoption": 6710,
      "Ġunsure": 6711,
      "Ġbottom": 6712,
      "Ġtroubles": 6713,
      "Ġexhausted": 6714,
      "Ġelementary": 6715,
      "%.": 6716,
      "11": 6717,
      "25": 6718,
      "300": 6719,
      "Has": 6720,
      "bul": 6721,
      "bucks": 6722,
      "house": 6723,
      "ift": 6724,
      "nic": 6725,
      "rud": 6726,
      "see": 6727,
      "zard": 6728,
      "Ġtag": 6729,
      "eries": 6730,
      "Ġwip": 6731,
      "Ġthick": 6732,
      "Ġmice": 6733,
      "Ġtoppings": 6734,
      "Ġdates": 6735,
      "Ġdata": 6736,
      "org": 6737,
      "orse": 6738,
      "Ġlent": 6739,
      "Ġlined": 6740,
      "ownt": 6741,
      "step": 6742,
      "static": 6743,
      "ris": 6744,
      "riors": 6745,
      "adill": 6746,
      "ĠTesl": 6747,
      "Ġgolf": 6748,
      "Ġsushi": 6749,
      "ĠItaly": 6750,
      "ĠMaster": 6751,
      "Ġaliens": 6752,
      "Ġshri": 6753,
      "Ġknowledge": 6754,
      "Ġhappiest": 6755,
      "Ġalley": 6756,
      "raft": 6757,
      "raph": 6758,
      "Ġnoble": 6759,
      "Ġwebs": 6760,
      "Ġawaiting": 6761,
      "then": 6762,
      "ilot": 6763,
      "Ġmoder": 6764,
      "Ġcomics": 6765,
      "ĠBoy": 6766,
      "ources": 6767,
      "Ġfeat": 6768,
      "olves": 6769,
      "Ġlease": 6770,
      "umes": 6771,
      "cist": 6772,
      "Ġcloud": 6773,
      "Ġdiab": 6774,
      "Ġdiaper": 6775,
      "Ġunb": 6776,
      "ĠOut": 6777,
      "Ġwishes": 6778,
      "ĠFin": 6779,
      "Ġswell": 6780,
      "Ġsurround": 6781,
      "Ġslide": 6782,
      "Ġmission": 6783,
      "Ġbelieved": 6784,
      "mercial": 6785,
      "Ġmemorable": 6786,
      "Ġannual": 6787,
      "Ġconfess": 6788,
      "Ġohh": 6789,
      "Ġdads": 6790,
      "Ġhealthier": 6791,
      "ograph": 6792,
      "Ġminds": 6793,
      "Ġheadphones": 6794,
      "Ġheadache": 6795,
      "Ġinterviewing": 6796,
      "umber": 6797,
      "Ġsett": 6798,
      "Ġsinger": 6799,
      "works": 6800,
      "Ġrained": 6801,
      "Ġbooked": 6802,
      "Ġbumper": 6803,
      "Ġirked": 6804,
      "Ġforgetting": 6805,
      "Ġfellow": 6806,
      "Ġwarrant": 6807,
      "Ġdisconnect": 6808,
      "ĠHahaha": 6809,
      "Ġfears": 6810,
      "Ġsecretly": 6811,
      "Ġfitness": 6812,
      "Ġgraph": 6813,
      "Ġcoping": 6814,
      "Ġwrecked": 6815,
      "Ġsunny": 6816,
      "Ġevicted": 6817,
      "Ġinternship": 6818,
      "Ġregrets": 6819,
      "Ġteenage": 6820,
      "Ġparcel": 6821,
      "ĠMostly": 6822,
      "otein": 6823,
      "Ġcreative": 6824,
      "Ġsmoking": 6825,
      "Ġnaturally": 6826,
      "Ġcrowded": 6827,
      "Ġclimate": 6828,
      "ĠKinda": 6829,
      "Ġcommunication": 6830,
      "Ġdirectly": 6831,
      "donald": 6832,
      "Ġcrawling": 6833,
      "Ġclimbing": 6834,
      "etti": 6835,
      "Ġcelebrated": 6836,
      "Ġfulfilling": 6837,
      "Ġwitnessed": 6838,
      "Ġchannel": 6839,
      "hopefully": 6840,
      "Amazing": 6841,
      "Ġinfluence": 6842,
      "iami": 6843,
      "Ġsource": 6844,
      "Ġinconvenient": 6845,
      "Ġstubborn": 6846,
      "Ġmotorcycle": 6847,
      "Ġgorgeous": 6848,
      "Ġecstatic": 6849,
      ",,": 6850,
      "Get": 6851,
      "Pretty": 6852,
      "ev": 6853,
      "ĠX": 6854,
      "ĠFI": 6855,
      "Ġwo": 6856,
      "anuary": 6857,
      "ĠWOW": 6858,
      "Ġamer": 6859,
      "Ġrange": 6860,
      "Ġworkplace": 6861,
      "think": 6862,
      "ĠNE": 6863,
      "Ġuni": 6864,
      "Ġrecovery": 6865,
      "Ġcouples": 6866,
      "Ġinteract": 6867,
      "Ġrealizing": 6868,
      "Ġheads": 6869,
      "ĠChrist": 6870,
      "Ġrefuses": 6871,
      "Ġreturns": 6872,
      "Ġcomplaint": 6873,
      "Ġcontacting": 6874,
      "Ġcrisis": 6875,
      "Ġconstru": 6876,
      "Ġautom": 6877,
      "Ġerror": 6878,
      "Ġstatus": 6879,
      "Perhaps": 6880,
      "af": 6881,
      "bowl": 6882,
      "ipe": 6883,
      "pot": 6884,
      "uct": 6885,
      "ura": 6886,
      "Ġ)": 6887,
      "Ġtie": 6888,
      "Ġais": 6889,
      "inc": 6890,
      "Ġwore": 6891,
      "Ġwand": 6892,
      "Ġthin": 6893,
      "Ġsir": 6894,
      "Ġsides": 6895,
      "Ġille": 6896,
      "Ġbre": 6897,
      "Ġtoes": 6898,
      "Ġdough": 6899,
      "Ġger": 6900,
      "Ġnood": 6901,
      "Ġnetflix": 6902,
      "Ġpeop": 6903,
      "enced": 6904,
      "iter": 6905,
      "Ġwashing": 6906,
      "Ġbegan": 6907,
      "Ġsore": 6908,
      "ĠTe": 6909,
      "usting": 6910,
      "Ġstood": 6911,
      "ĠWalmart": 6912,
      "ophy": 6913,
      "alian": 6914,
      "Ġworn": 6915,
      "Ġracking": 6916,
      "ĠSix": 6917,
      "Ġhero": 6918,
      "ĠDay": 6919,
      "ural": 6920,
      "Ġweigh": 6921,
      "Ġplates": 6922,
      "Ġchase": 6923,
      "Ġdebit": 6924,
      "thanks": 6925,
      "ĠBack": 6926,
      "ĠOhh": 6927,
      "Ġconsole": 6928,
      "cile": 6929,
      "Ġfaces": 6930,
      "bean": 6931,
      "Ġclo": 6932,
      "Ġprotein": 6933,
      "Ġwhoever": 6934,
      "Ġafterward": 6935,
      "ĠLas": 6936,
      "istics": 6937,
      "Ġbeforehand": 6938,
      "ĠOld": 6939,
      "Ġcarefree": 6940,
      "Ġchef": 6941,
      "Ġdisres": 6942,
      "Ġsurve": 6943,
      "ĠNovember": 6944,
      "Ġslip": 6945,
      "osit": 6946,
      "Which": 6947,
      "Ġtrigg": 6948,
      "Ġidiot": 6949,
      "Ġflags": 6950,
      "Ġdecember": 6951,
      "Ġinsan": 6952,
      "Ġcleaner": 6953,
      "Ġuseless": 6954,
      "Ġserved": 6955,
      "Ġstops": 6956,
      "Ġdaddy": 6957,
      "ementia": 6958,
      "Ġvisits": 6959,
      "Ġskate": 6960,
      "Ġpicky": 6961,
      "Ġpolicy": 6962,
      "Ġgrows": 6963,
      "Ġpoints": 6964,
      "ĠChicago": 6965,
      "Ġentitled": 6966,
      "Ġwatermel": 6967,
      "Ġcommand": 6968,
      "Ġcompleted": 6969,
      "ĠStr": 6970,
      "ĠAtl": 6971,
      "ception": 6972,
      "ahamas": 6973,
      "Ġcutest": 6974,
      "Ġrestaurants": 6975,
      "Ġhunt": 6976,
      "ĠAwe": 6977,
      "Ġcoverage": 6978,
      "Ġemotionally": 6979,
      "ĠDoesn": 6980,
      "Ġburrit": 6981,
      "Ġburgers": 6982,
      "Ġhospice": 6983,
      "Ġbands": 6984,
      "Ġcandid": 6985,
      "Ġnephews": 6986,
      "Ġturkey": 6987,
      "Ġenglish": 6988,
      "Ġdegrees": 6989,
      "Ġfireworks": 6990,
      "Ġscratched": 6991,
      "Ġmotivate": 6992,
      "Ġevidence": 6993,
      "Ġachieved": 6994,
      "Ġfantasy": 6995,
      "Ġemergencies": 6996,
      "Ġexercising": 6997,
      "Ġjudg": 6998,
      "Ġtraumat": 6999,
      "Ġgolden": 7000,
      "Ġprotective": 7001,
      "emicals": 7002,
      "Ġfondly": 7003,
      "Ġpitbull": 7004,
      "ĠLOT": 7005,
      "Ġdetermination": 7006,
      "Ġtournaments": 7007,
      "Ġoriginally": 7008,
      "Ġhorrified": 7009,
      "ootball": 7010,
      "Ġlabor": 7011,
      "Ġrollercoasters": 7012,
      "Ġinches": 7013,
      "Ġspooky": 7014,
      "Ġpepperoni": 7015,
      "Ġreserv": 7016,
      "errari": 7017,
      "Ġfiancee": 7018,
      "Ġveggies": 7019,
      "Ġmilestone": 7020,
      "Ġshattered": 7021,
      "Ġilleg": 7022,
      "IR": 7023,
      "lers": 7024,
      "Ġ....": 7025,
      "iner": 7026,
      "inate": 7027,
      "ĠIN": 7028,
      "Ġmate": 7029,
      "ases": 7030,
      "eter": 7031,
      "iding": 7032,
      "ĠTHE": 7033,
      "ĠWH": 7034,
      "ending": 7035,
      "ĠNeed": 7036,
      "umst": 7037,
      "Ġvir": 7038,
      "Ġtraged": 7039,
      "Ġupside": 7040,
      "Ġloudly": 7041,
      "Ġlevels": 7042,
      "Ġleads": 7043,
      "Ġconversations": 7044,
      "Ġbreathing": 7045,
      "Ġtypically": 7046,
      "ĠDMV": 7047,
      "From": 7048,
      "HH": 7049,
      "His": 7050,
      "SS": 7051,
      "Yum": 7052,
      "aid": 7053,
      "corn": 7054,
      "every": 7055,
      "foot": 7056,
      "live": 7057,
      "nope": 7058,
      "oors": 7059,
      "vard": 7060,
      "zum": 7061,
      "Ġ!!": 7062,
      "Ġtent": 7063,
      "Ġtense": 7064,
      "erence": 7065,
      "inist": 7066,
      "Ġwide": 7067,
      "eem": 7068,
      "Ġhill": 7069,
      "Ġdownt": 7070,
      "Ġdementia": 7071,
      "Ġge": 7072,
      "Ġlat": 7073,
      "Ġlemon": 7074,
      "Ġnause": 7075,
      "Ġnorth": 7076,
      "arp": 7077,
      "oosing": 7078,
      "ghetti": 7079,
      "verted": 7080,
      "Ġdos": 7081,
      "iser": 7082,
      "aded": 7083,
      "ĠTHAT": 7084,
      "ĠTotally": 7085,
      "ĠTaco": 7086,
      "ĠTuesday": 7087,
      "sequ": 7088,
      "Ġkis": 7089,
      "Ġkarma": 7090,
      "lying": 7091,
      "ĠWars": 7092,
      "ĠWinter": 7093,
      "Ġjugg": 7094,
      "alf": 7095,
      "Ġank": 7096,
      "Ġamong": 7097,
      "Ġsue": 7098,
      "ams": 7099,
      "Ġabro": 7100,
      "Ġjustice": 7101,
      "Ġrates": 7102,
      "Ġshed": 7103,
      "Ġshaken": 7104,
      "anta": 7105,
      "ĠAcc": 7106,
      "ula": 7107,
      "amel": 7108,
      "ĠTheir": 7109,
      "Ġcommercial": 7110,
      "ĠBab": 7111,
      "ĠBahamas": 7112,
      "ssss": 7113,
      "Ġconsequ": 7114,
      "olina": 7115,
      "umsy": 7116,
      "ĠCam": 7117,
      "Ġenem": 7118,
      "Ġclumsy": 7119,
      "Ġvit": 7120,
      "Ġvict": 7121,
      "Ġprovid": 7122,
      "Ġunw": 7123,
      "ĠLab": 7124,
      "Ġuses": 7125,
      "ĠGPA": 7126,
      "ĠGonna": 7127,
      "Ġrobb": 7128,
      "ĠOctober": 7129,
      "Ġreligious": 7130,
      "Ġkeeper": 7131,
      "Ġrecital": 7132,
      "ĠEver": 7133,
      "ĠFord": 7134,
      "Ġblocked": 7135,
      "Ġpayed": 7136,
      "ĠPan": 7137,
      "ĠPark": 7138,
      "Ġslim": 7139,
      "Ġboot": 7140,
      "Ġenjoys": 7141,
      "Ġrealistic": 7142,
      "Ġcraft": 7143,
      "Ġhighest": 7144,
      "ongratulation": 7145,
      "Ġcompanion": 7146,
      "ĠUK": 7147,
      "Ġhanded": 7148,
      "ĠKing": 7149,
      "Ġbreakup": 7150,
      "Ġmornings": 7151,
      "aware": 7152,
      "Ġpolic": 7153,
      "Ġminim": 7154,
      "Ġrepairs": 7155,
      "Ġdeposit": 7156,
      "Ġdisappear": 7157,
      "Ġsidewalk": 7158,
      "Ġroads": 7159,
      "Ġwarriors": 7160,
      "Ġabsolute": 7161,
      "Ġetern": 7162,
      "Ġstepping": 7163,
      "armacy": 7164,
      "Ġswitching": 7165,
      "Ġkeyboard": 7166,
      "Ġpricey": 7167,
      "Ġtechnically": 7168,
      "Ġrequest": 7169,
      "Ġrequires": 7170,
      "Ġpanc": 7171,
      "Ġmagical": 7172,
      "cellent": 7173,
      "Ġimproving": 7174,
      "Ġdeveloped": 7175,
      "Ġshipping": 7176,
      "Ġscenario": 7177,
      "Ġfarted": 7178,
      "Ġsuprising": 7179,
      "Ġconvince": 7180,
      "Ġbabysitter": 7181,
      "Ġtexas": 7182,
      "Ġloads": 7183,
      "ĠKorea": 7184,
      "Ġjacket": 7185,
      "Ġpoisoning": 7186,
      "Ġcritters": 7187,
      "Ġbusted": 7188,
      "Ġclubs": 7189,
      "Ġhesitant": 7190,
      "Ġfestival": 7191,
      "Ġguests": 7192,
      "Ġcockro": 7193,
      "Ġclassmates": 7194,
      "Ġbunnies": 7195,
      "Ġkittens": 7196,
      "Ġintimidating": 7197,
      "Ġpicnic": 7198,
      "ĠLouisiana": 7199,
      "Ġsketchy": 7200,
      "ĠTesla": 7201,
      "Ġwebsite": 7202,
      "Ġpeoples": 7203,
      "zumel": 7204,
      "Ġabroad": 7205,
      "Got": 7206,
      "hus": 7207,
      "rs": 7208,
      "rast": 7209,
      "ĠId": 7210,
      "atory": 7211,
      "Ġstare": 7212,
      "Ġconcent": 7213,
      "Ġunlike": 7214,
      "azz": 7215,
      "ptoms": 7216,
      "ĠPe": 7217,
      "Ġchildish": 7218,
      "Ġwondered": 7219,
      "pleas": 7220,
      "ĠUber": 7221,
      "Ġrelaxation": 7222,
      "ĠStud": 7223,
      "ugs": 7224,
      "ĠAnyway": 7225,
      "Ahh": 7226,
      "Ġbothered": 7227,
      "Ġefforts": 7228,
      "Ġallows": 7229,
      "ronic": 7230,
      "Ġsymptoms": 7231,
      "Ġvariety": 7232,
      "Ġessent": 7233,
      "Ġ;)": 7234,
      "althy": 7235,
      "Seems": 7236,
      "Ġreferring": 7237,
      "Ġtragedy": 7238,
      "FL": 7239,
      "OK": 7240,
      "Seriously": 7241,
      "WOW": 7242,
      "aff": 7243,
      "cement": 7244,
      "daughter": 7245,
      "even": 7246,
      "gly": 7247,
      "lif": 7248,
      "path": 7249,
      "prit": 7250,
      "sm": 7251,
      "tte": 7252,
      "ux": 7253,
      "uits": 7254,
      "Ġaud": 7255,
      "inci": 7256,
      "Ġthroat": 7257,
      "Ġsna": 7258,
      "oured": 7259,
      "ĠID": 7260,
      "Ġmild": 7261,
      "Ġbrew": 7262,
      "Ġfoster": 7263,
      "Ġtoll": 7264,
      "Ġdom": 7265,
      "Ġcer": 7266,
      "Ġcul": 7267,
      "Ġcakes": 7268,
      "Ġcaut": 7269,
      "Ġlap": 7270,
      "Ġlakers": 7271,
      "asc": 7272,
      "Ġpal": 7273,
      "Ġpier": 7274,
      "ednes": 7275,
      "enn": 7276,
      "itly": 7277,
      "itation": 7278,
      "Ġrev": 7279,
      "Ġreven": 7280,
      "Ġheav": 7281,
      "heat": 7282,
      "ĠTen": 7283,
      "Ġuh": 7284,
      "Ġsting": 7285,
      "ĠWHAT": 7286,
      "Ġjet": 7287,
      "Ġange": 7288,
      "ppers": 7289,
      "ĠHO": 7290,
      "ĠHurric": 7291,
      "Ġoutdoor": 7292,
      "Ġoutstanding": 7293,
      "ĠMiami": 7294,
      "ĠYay": 7295,
      "Ġtool": 7296,
      "ĠDri": 7297,
      "Ġasso": 7298,
      "Ġexter": 7299,
      "ulting": 7300,
      "Ġnovel": 7301,
      "Ġplaced": 7302,
      "Ġchemicals": 7303,
      "Ġmum": 7304,
      "Ġcomment": 7305,
      "Ġnewer": 7306,
      "ously": 7307,
      "ĠNone": 7308,
      "ĠNFL": 7309,
      "ĠBB": 7310,
      "ieving": 7311,
      "Ġconcret": 7312,
      "Ġmanners": 7313,
      "Ġmakeup": 7314,
      "Ġcarbs": 7315,
      "Ġcaramel": 7316,
      "Ġfunction": 7317,
      "ĠYouT": 7318,
      "Ġbru": 7319,
      "agine": 7320,
      "Ġunhe": 7321,
      "Ġunac": 7322,
      "Ġglo": 7323,
      "acing": 7324,
      "ĠOver": 7325,
      "Ġdownload": 7326,
      "Ġdownstairs": 7327,
      "Ġrecall": 7328,
      "ĠFL": 7329,
      "ĠFo": 7330,
      "Ġdisheart": 7331,
      "ĠPer": 7332,
      "Ġletters": 7333,
      "Ġslice": 7334,
      "Ġcompens": 7335,
      "Ġbodies": 7336,
      "osh": 7337,
      "ĠJuly": 7338,
      "Ġresources": 7339,
      "Ġasks": 7340,
      "Ġ300": 7341,
      "Ġdecades": 7342,
      "Ġcontribut": 7343,
      "ĠRo": 7344,
      "ĠRes": 7345,
      "ĠRemember": 7346,
      "Ġaccord": 7347,
      "Ġimagination": 7348,
      "Ġreasonable": 7349,
      "ealing": 7350,
      "Ġroomate": 7351,
      "Ġhug": 7352,
      "ĠKid": 7353,
      "Ġextension": 7354,
      "rency": 7355,
      "Ġsnap": 7356,
      "Ġfreel": 7357,
      "Ġpointed": 7358,
      "Ġraffle": 7359,
      "ibbean": 7360,
      "Ġspecialist": 7361,
      "Ġgifted": 7362,
      "Ġconsol": 7363,
      "Ġdifficulties": 7364,
      "Ġforest": 7365,
      "iances": 7366,
      "Ġmetal": 7367,
      "Ġbeaches": 7368,
      "Ġrains": 7369,
      "Ġkiller": 7370,
      "Ġpossess": 7371,
      "Ġhumble": 7372,
      "Ġseconds": 7373,
      "Ġapartments": 7374,
      "Ġpurs": 7375,
      "Ġceiling": 7376,
      "Ġadded": 7377,
      "Ġsubst": 7378,
      "mmm": 7379,
      "Ġdevil": 7380,
      "Ġcompeting": 7381,
      "ysics": 7382,
      "Ġvalid": 7383,
      "Ġkicking": 7384,
      "Ġappliances": 7385,
      "Ġsticking": 7386,
      "rilliant": 7387,
      "Ġapproached": 7388,
      "Ġconfronted": 7389,
      "Ġauthor": 7390,
      "Ġinspir": 7391,
      "Ġodds": 7392,
      "Ġ199": 7393,
      "Ġsmashed": 7394,
      "ĠAnother": 7395,
      "Ġhamster": 7396,
      "Ġmeaningful": 7397,
      "ĠLooks": 7398,
      "Ġdedicated": 7399,
      "ĠCaribbean": 7400,
      "Ġthousands": 7401,
      "Ġfunds": 7402,
      "Ġintroduced": 7403,
      "Ġbattery": 7404,
      "Ġthrift": 7405,
      "Ġinfection": 7406,
      "Ġdelayed": 7407,
      "Ġcommitment": 7408,
      "Ġslammed": 7409,
      "Ġdeclined": 7410,
      "Ġarrested": 7411,
      "Ġerrands": 7412,
      "Ġcavs": 7413,
      "Ġkayaking": 7414,
      "Ġvegas": 7415,
      "Ġdisrespect": 7416,
      "Ġwatermelon": 7417,
      "Ġculprit": 7418,
      "Could": 7419,
      "NE": 7420,
      "With": 7421,
      "bal": 7422,
      "gi": 7423,
      "Ġaid": 7424,
      "Ġfal": 7425,
      "any": 7426,
      "omg": 7427,
      "Ġanaly": 7428,
      "rof": 7429,
      "Ġmush": 7430,
      "Ġnewborn": 7431,
      "ĠCats": 7432,
      "ILL": 7433,
      "Ġbreeze": 7434,
      "Ġdowns": 7435,
      "ĠFriends": 7436,
      "ĠNobody": 7437,
      "nection": 7438,
      "Ġclassroom": 7439,
      "Ġaffair": 7440,
      "Ġmeetings": 7441,
      "Ġobl": 7442,
      "ĠFrom": 7443,
      "Ġtends": 7444,
      "OOD": 7445,
      "Ġvolunteer": 7446,
      "Ġsharks": 7447,
      "ĠALL": 7448,
      "Ġcircumst": 7449,
      "Ġworrisome": 7450,
      "Ġcircumstances": 7451,
      "**": 7452,
      "Kids": 7453,
      "UG": 7454,
      "afe": 7455,
      "aww": 7456,
      "bled": 7457,
      "dad": 7458,
      "fun": 7459,
      "face": 7460,
      "gl": 7461,
      "gile": 7462,
      "hone": 7463,
      "hole": 7464,
      "iors": 7465,
      "low": 7466,
      "mit": 7467,
      "met": 7468,
      "mers": 7469,
      "oons": 7470,
      "water": 7471,
      "year": 7472,
      "Ġtshirt": 7473,
      "Ġack": 7474,
      "errible": 7475,
      "ouri": 7476,
      "ĠIr": 7477,
      "ators": 7478,
      "Ġmer": 7479,
      "Ġbikes": 7480,
      "Ġfry": 7481,
      "Ġfib": 7482,
      "Ġdried": 7483,
      "Ġyuck": 7484,
      "Ġcere": 7485,
      "Ġcass": 7486,
      "Ġcure": 7487,
      "Ġnic": 7488,
      "anny": 7489,
      "ancer": 7490,
      "anoid": 7491,
      "arian": 7492,
      "arming": 7493,
      "leans": 7494,
      "hey": 7495,
      "Ġuber": 7496,
      "Ġumb": 7497,
      "Ġliking": 7498,
      "ales": 7499,
      "Ġsuspect": 7500,
      "cky": 7501,
      "Ġoutlook": 7502,
      "Ġrum": 7503,
      "Ġrash": 7504,
      "Ġrural": 7505,
      "Ġknees": 7506,
      "ĠYuck": 7507,
      "Ġsharp": 7508,
      "Ġhappily": 7509,
      "ĠAir": 7510,
      "raught": 7511,
      "Ġwouldve": 7512,
      "Ġmug": 7513,
      "Ġnewest": 7514,
      "ĠNY": 7515,
      "Ġjokes": 7516,
      "Ġfever": 7517,
      "usion": 7518,
      "igan": 7519,
      "ĠCost": 7520,
      "Ġgrump": 7521,
      "Ġthrones": 7522,
      "Ġterri": 7523,
      "Ġrelieve": 7524,
      "Whats": 7525,
      "Ġsadden": 7526,
      "Ġactor": 7527,
      "Ġfinance": 7528,
      "Ġours": 7529,
      "ĠEventually": 7530,
      "ĠFind": 7531,
      "Ġappear": 7532,
      "Ġappartment": 7533,
      "Ġ23": 7534,
      "Ġ26": 7535,
      "Ġresist": 7536,
      "Ġcatfish": 7537,
      "rowing": 7538,
      "Ġelses": 7539,
      "Ġwinner": 7540,
      "Ġcollection": 7541,
      "which": 7542,
      "Ġsupermark": 7543,
      "Ġbirthdays": 7544,
      "Ġcompliment": 7545,
      "Ġannoys": 7546,
      "Ġhealed": 7547,
      "Ġgrandkids": 7548,
      "Ġears": 7549,
      "Ġrooms": 7550,
      "Ġpetty": 7551,
      "Ġpuke": 7552,
      "Ġappreciates": 7553,
      "izza": 7554,
      "ceptable": 7555,
      "ĠEverybody": 7556,
      "Ġdisappoint": 7557,
      "Ġmusician": 7558,
      "Ġmusicians": 7559,
      "Ġdistraught": 7560,
      "Ġrolls": 7561,
      "Ġbrakes": 7562,
      "ĠOrleans": 7563,
      "Ġreceiving": 7564,
      "Ġpropos": 7565,
      "Ġproposed": 7566,
      "Ġprojects": 7567,
      "Ġpotential": 7568,
      "Ġblessings": 7569,
      "Ġdestination": 7570,
      "Ġmainten": 7571,
      "lando": 7572,
      "Ġlegal": 7573,
      "Ġpopcorn": 7574,
      "Ġdeeply": 7575,
      "Ġparanoid": 7576,
      "Ġloaned": 7577,
      "Ġconstant": 7578,
      "Ġarguing": 7579,
      "Ġoccasions": 7580,
      "ocate": 7581,
      "ĠDisneyland": 7582,
      "Ġdepending": 7583,
      "Ġcreating": 7584,
      "Ġcarrying": 7585,
      "Ġnailed": 7586,
      "Ġhambur": 7587,
      "Ġrecognition": 7588,
      "sychology": 7589,
      "Ġcases": 7590,
      "icycle": 7591,
      "Ġpunishment": 7592,
      "Ġsuprise": 7593,
      "ĠAmazing": 7594,
      "Ġladder": 7595,
      "Ġhostel": 7596,
      "ĠBrothers": 7597,
      "Ġracco": 7598,
      "Ġbutterf": 7599,
      "Ġsurprisingly": 7600,
      "minator": 7601,
      "Ġsneaky": 7602,
      "Ġfavour": 7603,
      "Ġfragile": 7604,
      "Ġmassive": 7605,
      "Ġepisode": 7606,
      "Ġweapon": 7607,
      "ĠHarvard": 7608,
      "Ġbachel": 7609,
      "ĠSUV": 7610,
      "Ġspaghetti": 7611,
      "Ġcigare": 7612,
      "Ġdiscoura": 7613,
      "Ġtelevision": 7614,
      "Ġgunshots": 7615,
      "Ġaisle": 7616,
      "Ġinsanely": 7617,
      "ĠAtlanta": 7618,
      "Ġconsequences": 7619,
      "Ġrevenge": 7620,
      "ĠHurricane": 7621,
      "Ġassoci": 7622,
      "Ġconcrete": 7623,
      "Ġunacceptable": 7624,
      "Ġcereal": 7625,
      "Best": 7626,
      "Especially": 7627,
      "YES": 7628,
      "dont": 7629,
      "gain": 7630,
      "hi": 7631,
      "nal": 7632,
      "Ġciv": 7633,
      "omy": 7634,
      "Ġugly": 7635,
      "ĠHome": 7636,
      "ĠDamn": 7637,
      "ĠARE": 7638,
      "Ġjoking": 7639,
      "Ġpod": 7640,
      "ĠGOOD": 7641,
      "ĠPres": 7642,
      "ĠJoh": 7643,
      "ĠRuss": 7644,
      "Ġsecure": 7645,
      "Ġdistant": 7646,
      "Ġsmelly": 7647,
      "ĠUnless": 7648,
      "Ġattending": 7649,
      "Ġfriendships": 7650,
      "Ġaddicted": 7651,
      "Ġscrewed": 7652,
      "Ġbetrayed": 7653,
      "Ġdispute": 7654,
      "Ġfalse": 7655,
      "AS": 7656,
      "IG": 7657,
      "Let": 7658,
      "Look": 7659,
      "NER": 7660,
      "Take": 7661,
      "VOUS": 7662,
      "VID": 7663,
      "Woah": 7664,
      "bra": 7665,
      "hard": 7666,
      "kill": 7667,
      "mate": 7668,
      "nite": 7669,
      "ocolate": 7670,
      "pa": 7671,
      "probably": 7672,
      "ras": 7673,
      "too": 7674,
      "ĠON": 7675,
      "Ġtuck": 7676,
      "Ġtap": 7677,
      "Ġtuition": 7678,
      "Ġwif": 7679,
      "eesh": 7680,
      "Ġhoney": 7681,
      "atley": 7682,
      "Ġbats": 7683,
      "Ġbumped": 7684,
      "Ġdies": 7685,
      "Ġdorm": 7686,
      "Ġdug": 7687,
      "Ġgall": 7688,
      "Ġgear": 7689,
      "Ġguts": 7690,
      "Ġcin": 7691,
      "Ġcough": 7692,
      "Ġled": 7693,
      "Ġlick": 7694,
      "Ġnaked": 7695,
      "Ġpad": 7696,
      "oma": 7697,
      "owboys": 7698,
      "Ġwasp": 7699,
      "Ġsober": 7700,
      "Ġdocile": 7701,
      "Ġheir": 7702,
      "ĠTher": 7703,
      "icians": 7704,
      "Ġstream": 7705,
      "chn": 7706,
      "Ġmelt": 7707,
      "pple": 7708,
      "Ġcans": 7709,
      "eapple": 7710,
      "ends": 7711,
      "ĠHill": 7712,
      "ĠHear": 7713,
      "ĠMiss": 7714,
      "Ġlocks": 7715,
      "Ohhh": 7716,
      "ĠYankees": 7717,
      "Ġherbs": 7718,
      "urpri": 7719,
      "Ġplain": 7720,
      "ainted": 7721,
      "ĠNavy": 7722,
      "Ġspots": 7723,
      "olar": 7724,
      "Ġkidd": 7725,
      "Ġovernight": 7726,
      "ĠCowboys": 7727,
      "Ġvan": 7728,
      "Ġlasted": 7729,
      "agna": 7730,
      "Ġunif": 7731,
      "ĠLe": 7732,
      "ĠLong": 7733,
      "ĠLaw": 7734,
      "Ġunderdog": 7735,
      "ĠDoctor": 7736,
      "Ġrelive": 7737,
      "izes": 7738,
      "Ġactors": 7739,
      "Ġcarefully": 7740,
      "ĠFootball": 7741,
      "Ġcooler": 7742,
      "Ġcoolest": 7743,
      "Ġpayday": 7744,
      "ĠPS": 7745,
      "aughty": 7746,
      "oston": 7747,
      "Ġdriven": 7748,
      "osen": 7749,
      "Ġbites": 7750,
      "ĠJanuary": 7751,
      "Ġstubbed": 7752,
      "Ġpharmacy": 7753,
      "Ġident": 7754,
      "Ġcleared": 7755,
      "Ġflown": 7756,
      "Ġflipped": 7757,
      "Ġ34": 7758,
      "Ġhorn": 7759,
      "Ġconference": 7760,
      "while": 7761,
      "Ġgirlfriends": 7762,
      "Ġvision": 7763,
      "ĠUFC": 7764,
      "Ġdifferently": 7765,
      "Ġretired": 7766,
      "Ġpuked": 7767,
      "Ġmanagers": 7768,
      "Ġcommend": 7769,
      "ĠVir": 7770,
      "Ġridden": 7771,
      "Ġboyfriends": 7772,
      "Ġrainy": 7773,
      "Ġpossibility": 7774,
      "Ġthrows": 7775,
      "orsche": 7776,
      "bron": 7777,
      "Ġbuddies": 7778,
      "Ġhalfway": 7779,
      "Ġdrain": 7780,
      "Ġmidnight": 7781,
      "Ġ95": 7782,
      "ĠAsia": 7783,
      "Ġdropping": 7784,
      "Ġsalt": 7785,
      "Ġredo": 7786,
      "Ġbuildings": 7787,
      "iversal": 7788,
      "Ġstruggles": 7789,
      "Ġburst": 7790,
      "Ġcandles": 7791,
      "Ġanswering": 7792,
      "Ġanswered": 7793,
      "Ġconcerts": 7794,
      "Ġrented": 7795,
      "Ġpatients": 7796,
      "Ġfreakin": 7797,
      "Ġbehaved": 7798,
      "Ġartic": 7799,
      "Ġfilms": 7800,
      "Ġexplained": 7801,
      "ĠSpain": 7802,
      "Ġdressing": 7803,
      "Ġdebts": 7804,
      "Ġballet": 7805,
      "Ġwinnings": 7806,
      "ĠWouldn": 7807,
      "Ġtexted": 7808,
      "Ġpriceless": 7809,
      "Ġanticipate": 7810,
      "Ġsprayed": 7811,
      "Ġhurricanes": 7812,
      "Ġcrowds": 7813,
      "Ġintroverted": 7814,
      "Ġsoftball": 7815,
      "Ġelev": 7816,
      "Ġbiology": 7817,
      "Ġdumpster": 7818,
      "Ġunlocked": 7819,
      "Ġtoddlers": 7820,
      "Ġsympath": 7821,
      "Ġelectricity": 7822,
      "ĠStarbucks": 7823,
      "Ġsilver": 7824,
      "Ġseparated": 7825,
      "Ġbatteries": 7826,
      "Ġjuice": 7827,
      "Ġcompassionate": 7828,
      "Ġcapable": 7829,
      "Ġultimately": 7830,
      "Ġoccurred": 7831,
      "Ġintentional": 7832,
      "Ġparticipate": 7833,
      "Ġprocrast": 7834,
      "Ġresolve": 7835,
      "Ġconvinced": 7836,
      "Ġtemporary": 7837,
      "Ġcomedy": 7838,
      "Ġwhilst": 7839,
      "Ġinsecure": 7840,
      "orgia": 7841,
      "Ġshrimp": 7842,
      "Ġdiabet": 7843,
      "donalds": 7844,
      "Ġconstruction": 7845,
      "Ġkissing": 7846,
      "Ġvitam": 7847,
      "Ġpancreat": 7848,
      "ĠPepper": 7849,
      "Ġcautious": 7850,
      "Ġheavily": 7851,
      "Ġexterminator": 7852,
      "Ġacknow": 7853,
      "Ġumbre": 7854,
      "Ġproposal": 7855,
      "NERVOUS": 7856,
      "Ġheirlo": 7857,
      "NERVOUSNESS": 7858,
      "Damn": 7859,
      "Her": 7860,
      "Ive": 7861,
      "Things": 7862,
      "cil": 7863,
      "lights": 7864,
      "put": 7865,
      "ram": 7866,
      "sometimes": 7867,
      "zil": 7868,
      "Ġtension": 7869,
      "Ġiphone": 7870,
      "Ġmask": 7871,
      "Ġddddddddddddddddd": 7872,
      "Ġyork": 7873,
      "Ġpile": 7874,
      "Ġwheels": 7875,
      "ĠHELL": 7876,
      "ĠME": 7877,
      "ĠAhh": 7878,
      "ĠNorth": 7879,
      "Ġguide": 7880,
      "Ġsaves": 7881,
      "Ġconnection": 7882,
      "Ġvul": 7883,
      "!!!!!": 7884,
      "rated": 7885,
      "Ġstudies": 7886,
      "ĠChildren": 7887,
      "Ġcharging": 7888,
      "Ġbasis": 7889,
      "Ġmeth": 7890,
      "working": 7891,
      "Ġaffordable": 7892,
      "Ġhidden": 7893,
      "Ġrejection": 7894,
      "Ġchannels": 7895,
      "Ġtypical": 7896,
      "Ġtitle": 7897,
      "Ġconcentrate": 7898,
      "pleasant": 7899,
      "40": 7900,
      "Agreed": 7901,
      "Kind": 7902,
      "Something": 7903,
      "Two": 7904,
      "awww": 7905,
      "bed": 7906,
      "com": 7907,
      "dom": 7908,
      "field": 7909,
      "hes": 7910,
      "kind": 7911,
      "long": 7912,
      "paper": 7913,
      "rang": 7914,
      "tell": 7915,
      "vo": 7916,
      "onic": 7917,
      "inst": 7918,
      "inary": 7919,
      "Ġsan": 7920,
      "ota": 7921,
      "ott": 7922,
      "Ġmand": 7923,
      "Ġmax": 7924,
      "Ġbunny": 7925,
      "Ġbrilliant": 7926,
      "react": 7927,
      "Ġfri": 7928,
      "Ġfash": 7929,
      "Ġfuss": 7930,
      "orian": 7931,
      "Ġnaughty": 7932,
      "Ġhah": 7933,
      "ancial": 7934,
      "ows": 7935,
      "ette": 7936,
      "still": 7937,
      "Ġbeers": 7938,
      "Ġreno": 7939,
      "Ġdove": 7940,
      "imm": 7941,
      "section": 7942,
      "lymp": 7943,
      "ĠWatch": 7944,
      "ĠWednes": 7945,
      "alu": 7946,
      "amond": 7947,
      "Ġneice": 7948,
      "eared": 7949,
      "Ġrats": 7950,
      "ĠMet": 7951,
      "Ġshr": 7952,
      "Ġshit": 7953,
      "uns": 7954,
      "unately": 7955,
      "ĠAN": 7956,
      "ĠAf": 7957,
      "asting": 7958,
      "urger": 7959,
      "Ġcha": 7960,
      "Ġchess": 7961,
      "gebra": 7962,
      "Ġmuse": 7963,
      "ĠBus": 7964,
      "ĠBreak": 7965,
      "Ġguarant": 7966,
      "Ġconvenience": 7967,
      "Ġmans": 7968,
      "Ġcarp": 7969,
      "oyal": 7970,
      "Ġoverthink": 7971,
      "Ġoverreact": 7972,
      "Ġlebron": 7973,
      "lps": 7974,
      "ĠComp": 7975,
      "ĠThr": 7976,
      "beat": 7977,
      "Ġclin": 7978,
      "Ġdip": 7979,
      "Ġdiamond": 7980,
      "udes": 7981,
      "ists": 7982,
      "Ġroaches": 7983,
      "Ġseats": 7984,
      "ĠFB": 7985,
      "ĠFunny": 7986,
      "Ġmonster": 7987,
      "Ġappropriate": 7988,
      "Ġbuzz": 7989,
      "Ġblink": 7990,
      "Ġnerd": 7991,
      "Ġsurreal": 7992,
      "Ġtrap": 7993,
      "Ġtraps": 7994,
      "Ġbelief": 7995,
      "ĠJack": 7996,
      "Ġparenting": 7997,
      "Ġcracked": 7998,
      "lley": 7999,
      "Ġdecade": 8000,
      "ichigan": 8001,
      "sites": 8002,
      "reshing": 8003,
      "Ġelsewhere": 8004,
      "Ġcram": 8005,
      "Ġhusbands": 8006,
      "Ġheals": 8007,
      "ongratulate": 8008,
      "Ġpaj": 8009,
      "Ġcheckout": 8010,
      "Ġinstalled": 8011,
      "Ġcooks": 8012,
      "Ġfasting": 8013,
      "Ġdelight": 8014,
      "itches": 8015,
      "Ġsets": 8016,
      "Ġrig": 8017,
      "Ġris": 8018,
      "nox": 8019,
      "Ġrefreshing": 8020,
      "ĠDonald": 8021,
      "ĠInst": 8022,
      "Ġlocally": 8023,
      "?!?": 8024,
      "Ġpresenting": 8025,
      "Ġentirely": 8026,
      "Ġcalories": 8027,
      "Ġdeadline": 8028,
      "Ġ75": 8029,
      "rica": 8030,
      "Ġtouching": 8031,
      "Ġcompete": 8032,
      "Ġcandies": 8033,
      "fficient": 8034,
      "Ġquitting": 8035,
      "Ġcelebration": 8036,
      "Ġmailbox": 8037,
      "ĠDeath": 8038,
      "ginia": 8039,
      "Ġparticularly": 8040,
      "Ġevalu": 8041,
      "Ġfiled": 8042,
      "Ġgrounded": 8043,
      "emony": 8044,
      "Ġtort": 8045,
      "Ġtempt": 8046,
      "Ġexperiencing": 8047,
      "Ġinformed": 8048,
      "Ġtexts": 8049,
      "Ġrequire": 8050,
      "Ġrushed": 8051,
      "Ġorganization": 8052,
      "Ġanticipated": 8053,
      "Ġdefense": 8054,
      "Ġprovider": 8055,
      "Ġlifetime": 8056,
      "Ġnails": 8057,
      "Ġgrandfathers": 8058,
      "Ġmachines": 8059,
      "Ġwashed": 8060,
      "Ġrecommendations": 8061,
      "Ġbooze": 8062,
      "ĠExcept": 8063,
      "Ġsweaty": 8064,
      "ombie": 8065,
      "Ġpunished": 8066,
      "ĠCarolina": 8067,
      "Ġmowing": 8068,
      "Ġcolleague": 8069,
      "Ġrepeated": 8070,
      "Ġallergies": 8071,
      "Ġjackpot": 8072,
      "Ġflashlight": 8073,
      "Ġunlock": 8074,
      "Ġshifts": 8075,
      "offs": 8076,
      "Ġjuicy": 8077,
      "Ġtemperature": 8078,
      "ĠCOVID": 8079,
      "Ġvarious": 8080,
      "ffffffff": 8081,
      "Ġreminiscing": 8082,
      "Ġskiing": 8083,
      "Ġinstrument": 8084,
      "Ġinstruments": 8085,
      "conscious": 8086,
      "Ġchampionship": 8087,
      "Ġsnuggle": 8088,
      "Ġmosquito": 8089,
      "ĠGeorgia": 8090,
      "Ġregister": 8091,
      "Ġcuddle": 8092,
      "Ġpineapple": 8093,
      "Ġinvestigate": 8094,
      "Ġintelligent": 8095,
      "Ġdissap": 8096,
      "Ġdisturbing": 8097,
      "Ġoperation": 8098,
      "ĠAustral": 8099,
      "Ġpermanent": 8100,
      "ruder": 8101,
      "Ġsettled": 8102,
      "Ġbreast": 8103,
      "Ġillegal": 8104,
      "Ġankle": 8105,
      "Ġenemy": 8106,
      "ĠPanama": 8107,
      "Ġdisrespectful": 8108,
      "Ġgrumpy": 8109,
      "Ġsupermarket": 8110,
      "Ġumbrella": 8111,
      "Ġfashion": 8112,
      "EP": 8113,
      "New": 8114,
      "crib": 8115,
      "from": 8116,
      "ona": 8117,
      "Ġhook": 8118,
      "Ġmates": 8119,
      "Ġdated": 8120,
      "Ġnagging": 8121,
      "Ġpills": 8122,
      "etter": 8123,
      "Ġatm": 8124,
      "ĠMed": 8125,
      "ĠMusic": 8126,
      "Ġsheet": 8127,
      "ctive": 8128,
      "ĠBad": 8129,
      "ĠCiv": 8130,
      "ĠThree": 8131,
      "Ġcoat": 8132,
      "Ġideal": 8133,
      "apping": 8134,
      "awesome": 8135,
      "Ġpuzz": 8136,
      "Ġgrace": 8137,
      "Ġparrot": 8138,
      "Ġempath": 8139,
      "ĠWithout": 8140,
      "ĠYOUR": 8141,
      "ĠThinking": 8142,
      "Ġchips": 8143,
      "Ġexhausting": 8144,
      "Ġoccupied": 8145,
      "ĠYouTube": 8146,
      "Ġvulner": 8147,
      "Ġmethod": 8148,
      "\",": 8149,
      "\"?": 8150,
      ",.": 8151,
      "30": 8152,
      "60": 8153,
      "80": 8154,
      "AC": 8155,
      "En": 8156,
      "Ew": 8157,
      "Give": 8158,
      "Happy": 8159,
      "Our": 8160,
      "Ooh": 8161,
      "Sc": 8162,
      "Sw": 8163,
      "Too": 8164,
      "Yuck": 8165,
      "aith": 8166,
      "bits": 8167,
      "ek": 8168,
      "gent": 8169,
      "gues": 8170,
      "gusting": 8171,
      "iu": 8172,
      "ios": 8173,
      "ker": 8174,
      "lbs": 8175,
      "mind": 8176,
      "uc": 8177,
      "vant": 8178,
      "zzy": 8179,
      "Ġ#": 8180,
      "Ġ!!!": 8181,
      "Ġtan": 8182,
      "Ġain": 8183,
      "erent": 8184,
      "inating": 8185,
      "Ġwrist": 8186,
      "Ġwheat": 8187,
      "Ġthirty": 8188,
      "Ġsi": 8189,
      "Ġsane": 8190,
      "ĠIR": 8191,
      "Ġhust": 8192,
      "atly": 8193,
      "Ġigu": 8194,
      "ERE": 8195,
      "Ġdoo": 8196,
      "Ġdust": 8197,
      "Ġdwell": 8198,
      "Ġyikes": 8199,
      "Ġlung": 8200,
      "asp": 8201,
      "Ġnach": 8202,
      "esus": 8203,
      "Ġpy": 8204,
      "Ġpra": 8205,
      "itting": 8206,
      "owed": 8207,
      "Ġbegging": 8208,
      "ooper": 8209,
      "adden": 8210,
      "ĠTw": 8211,
      "ĠTimes": 8212,
      "Ġstocked": 8213,
      "Ġstars": 8214,
      "Ġstaff": 8215,
      "ĠWOR": 8216,
      "ches": 8217,
      "Ġjew": 8218,
      "Ġgoin": 8219,
      "Ġsuic": 8220,
      "ĠHere": 8221,
      "irable": 8222,
      "Ġraw": 8223,
      "ĠMid": 8224,
      "ĠMain": 8225,
      "ĠMont": 8226,
      "ĠMMA": 8227,
      "Ġloser": 8228,
      "Ġupstairs": 8229,
      "ĠSomet": 8230,
      "Ġshave": 8231,
      "ĠApri": 8232,
      "ĠAunt": 8233,
      "urk": 8234,
      "Ġanyhow": 8235,
      "Ġbail": 8236,
      "Ġaww": 8237,
      "Ġorg": 8238,
      "Ġchunk": 8239,
      "Ġchees": 8240,
      "Ġprec": 8241,
      "this": 8242,
      "iles": 8243,
      "Ġmud": 8244,
      "Ġmob": 8245,
      "Ġspill": 8246,
      "Ġspaces": 8247,
      "ĠBen": 8248,
      "ĠBrit": 8249,
      "Ġnicely": 8250,
      "Ġgum": 8251,
      "Ġconcept": 8252,
      "Ġshoulders": 8253,
      "Ġtrade": 8254,
      "Ġfunn": 8255,
      "igning": 8256,
      "Ġfab": 8257,
      "ĠCong": 8258,
      "ĠCause": 8259,
      "ĠCup": 8260,
      "Ġclock": 8261,
      "Ġclients": 8262,
      "Ġvoted": 8263,
      "Ġprett": 8264,
      "Ġdogg": 8265,
      "Ġdoggy": 8266,
      "Ġstartled": 8267,
      "Ġquilt": 8268,
      "nderstand": 8269,
      "ĠLakers": 8270,
      "Ġrod": 8271,
      "ĠOoh": 8272,
      "ĠFrench": 8273,
      "ipolar": 8274,
      "Ġapples": 8275,
      "Ġremorse": 8276,
      "Ġchecks": 8277,
      "ĠPut": 8278,
      "ĠParents": 8279,
      "ĠPsychology": 8280,
      "Ġslack": 8281,
      "Ġslapped": 8282,
      "Ġinterst": 8283,
      "Ġinterrupt": 8284,
      "Ġtrapped": 8285,
      "ĠJeep": 8286,
      "ĠJames": 8287,
      "Ġresort": 8288,
      "Ġtwin": 8289,
      "Heck": 8290,
      "ormally": 8291,
      "emories": 8292,
      "ĠRain": 8293,
      "ĠRel": 8294,
      "Ġhorr": 8295,
      "Ġhorses": 8296,
      "Ġconfide": 8297,
      "aped": 8298,
      "Ġsuperbowl": 8299,
      "Ġcrank": 8300,
      "ĠImagine": 8301,
      "Ġmario": 8302,
      "Ġsickness": 8303,
      "Ġpastor": 8304,
      "Ġextended": 8305,
      "Ġhonk": 8306,
      "renal": 8307,
      "Ġache": 8308,
      "ansas": 8309,
      "Ġmini": 8310,
      "Ġracist": 8311,
      "Ġreply": 8312,
      "Ġhonesty": 8313,
      "Ġfruster": 8314,
      "veland": 8315,
      "Ġcertified": 8316,
      "uggets": 8317,
      "Ġshops": 8318,
      "odes": 8319,
      "Ġgenetic": 8320,
      "Ġhumor": 8321,
      "Ġbeauty": 8322,
      "Ġinfront": 8323,
      "Ġsorta": 8324,
      "Ġruins": 8325,
      "Ġrubbing": 8326,
      "Ġpractically": 8327,
      "Ġfathers": 8328,
      "Ġsalv": 8329,
      "Ġtourist": 8330,
      "Ġexplode": 8331,
      "Ġacceptance": 8332,
      "Ġsemi": 8333,
      "Ġtouched": 8334,
      "Ġpoorly": 8335,
      "Ġyellow": 8336,
      "ĠUniversity": 8337,
      "Ġchickens": 8338,
      "ublic": 8339,
      "Ġmarks": 8340,
      "Ġsticks": 8341,
      "Ġlegit": 8342,
      "Ġcrim": 8343,
      "Ġtempted": 8344,
      "Ġresearching": 8345,
      "Ġrecovering": 8346,
      "Ġleading": 8347,
      "Ġdaunting": 8348,
      "Ġloyalty": 8349,
      "Ġfortune": 8350,
      "Ġcreated": 8351,
      "Ġcorrectly": 8352,
      "Ġimmediate": 8353,
      "aska": 8354,
      "Ġflooding": 8355,
      "ĠSundays": 8356,
      "ĠKindergarten": 8357,
      "Ġhammer": 8358,
      "Ġcampus": 8359,
      "Ġemails": 8360,
      "Ġtricky": 8361,
      "Ġunsafe": 8362,
      "someone": 8363,
      "Ġreunited": 8364,
      "Ġblowing": 8365,
      "Ġtreas": 8366,
      "Ġskinny": 8367,
      "Ġbrownies": 8368,
      "ĠSweet": 8369,
      "Ġhumiliating": 8370,
      "rrrr": 8371,
      "Ġpoisonous": 8372,
      "Ġmirror": 8373,
      "ĠArmy": 8374,
      "Ġvegetarian": 8375,
      "Ġincluded": 8376,
      "ĠGrandma": 8377,
      "Ġfraud": 8378,
      "Ġtransferred": 8379,
      "Ġintroduce": 8380,
      "Ġordeal": 8381,
      "Ġgrilled": 8382,
      "ĠCleveland": 8383,
      "Ġinitial": 8384,
      "ĠZe": 8385,
      "Ġultimate": 8386,
      "Ġepisodes": 8387,
      "Ġhints": 8388,
      "Ġlasagna": 8389,
      "Ġmosquitos": 8390,
      "Ġwebsites": 8391,
      "Ġindividual": 8392,
      "Ġdescribe": 8393,
      "repared": 8394,
      "Ġattempt": 8395,
      "Ġevacuate": 8396,
      "ĠBros": 8397,
      "Ġbucket": 8398,
      "hello": 8399,
      "Ġthunderstorms": 8400,
      "Ġwarranty": 8401,
      "Ġreservations": 8402,
      "Ġdowntown": 8403,
      "Ġcommercials": 8404,
      "Ġpolicies": 8405,
      "lifting": 8406,
      "Ġceremony": 8407,
      "ĠDriving": 8408,
      "Ġbachelor": 8409,
      "Ġkiddos": 8410,
      "ĠVirginia": 8411,
      "Ġheirloom": 8412,
      "ĠANY": 8413,
      "Ġclinic": 8414,
      "Ġvulnerable": 8415,
      "800": 8416,
      ":)": 8417,
      "keep": 8418,
      "sure": 8419,
      "Ġ0": 8420,
      "Ġdim": 8421,
      "Ġgent": 8422,
      "Ġoops": 8423,
      "eng": 8424,
      "oooh": 8425,
      "Ġformer": 8426,
      "ĠHI": 8427,
      "ĠMoney": 8428,
      "ĠMarch": 8429,
      "ulty": 8430,
      "udos": 8431,
      "Ġunpleasant": 8432,
      "ĠFood": 8433,
      "ĠFound": 8434,
      "Ġresume": 8435,
      "gggg": 8436,
      "Ġdescrib": 8437,
      "ĠKnow": 8438,
      "Ġdifficulty": 8439,
      "ĠStress": 8440,
      "ĠInteresting": 8441,
      "Ġdraft": 8442,
      "estern": 8443,
      "ĠTrust": 8444,
      "Ġadvanced": 8445,
      "Ġfocusing": 8446,
      "Ġinvesting": 8447,
      "Ġowes": 8448,
      "eeeeeeee": 8449,
      "ĠBrazil": 8450,
      "Ġmutual": 8451,
      "Excellent": 8452,
      "Ġfreezing": 8453,
      "ĠChristian": 8454,
      "ĠNeedless": 8455,
      "ĠJohn": 8456,
      "15": 8457,
      "1000": 8458,
      "400": 8459,
      "64": 8460,
      "AM": 8461,
      "After": 8462,
      "EO": 8463,
      "Even": 8464,
      "Life": 8465,
      "School": 8466,
      "aire": 8467,
      "bble": 8468,
      "craft": 8469,
      "fo": 8470,
      "ht": 8471,
      "ius": 8472,
      "iac": 8473,
      "jack": 8474,
      "mower": 8475,
      "ointed": 8476,
      "saw": 8477,
      "tles": 8478,
      "uce": 8479,
      "Ġtad": 8480,
      "Ġties": 8481,
      "Ġtack": 8482,
      "Ġtied": 8483,
      "ini": 8484,
      "Ġwat": 8485,
      "Ġwing": 8486,
      "Ġthursday": 8487,
      "Ġsoo": 8488,
      "ouch": 8489,
      "ĠII": 8490,
      "Ġmat": 8491,
      "Ġbicycle": 8492,
      "reg": 8493,
      "Ġtore": 8494,
      "Ġtoast": 8495,
      "Ġdil": 8496,
      "Ġgag": 8497,
      "nding": 8498,
      "Ġcave": 8499,
      "orant": 8500,
      "especially": 8501,
      "edict": 8502,
      "Ġoy": 8503,
      "etto": 8504,
      "stop": 8505,
      "Ġinher": 8506,
      "Ġbell": 8507,
      "Ġrewards": 8508,
      "Ġreception": 8509,
      "Ġsof": 8510,
      "Ġsoph": 8511,
      "utter": 8512,
      "allas": 8513,
      "imp": 8514,
      "Ġheated": 8515,
      "ĠTO": 8516,
      "ĠTy": 8517,
      "icament": 8518,
      "Ġliber": 8519,
      "Ġlizard": 8520,
      "Ġstalk": 8521,
      "Ġjeez": 8522,
      "Ġgoss": 8523,
      "ented": 8524,
      "ĠItalian": 8525,
      "elled": 8526,
      "cepting": 8527,
      "Ġouts": 8528,
      "ĠMo": 8529,
      "ĠMother": 8530,
      "ĠMountain": 8531,
      "ĠSy": 8532,
      "ĠShow": 8533,
      "ĠSub": 8534,
      "ĠSAT": 8535,
      "ĠScience": 8536,
      "Ġshakes": 8537,
      "Ġallergy": 8538,
      "ĠDuring": 8539,
      "ĠAc": 8540,
      "ĠAv": 8541,
      "ĠASA": 8542,
      "ulk": 8543,
      "urrency": 8544,
      "Ġfruits": 8545,
      "Ġgotcha": 8546,
      "Ġplastic": 8547,
      "Ġornam": 8548,
      "Ġchir": 8549,
      "Ġchosen": 8550,
      "Ġdeck": 8551,
      "Ġdece": 8552,
      "Ġdevest": 8553,
      "Ġbackup": 8554,
      "ĠNormally": 8555,
      "ĠBeach": 8556,
      "Ġscan": 8557,
      "Ġfeature": 8558,
      "Ġsafer": 8559,
      "Ġtrunk": 8560,
      "Ġtrophy": 8561,
      "ished": 8562,
      "Ġovertime": 8563,
      "Ġoverfl": 8564,
      "igs": 8565,
      "ĠHeck": 8566,
      "ĠCon": 8567,
      "Ġvote": 8568,
      "Ġcoord": 8569,
      "Ġgreet": 8570,
      "Ġwage": 8571,
      "Ġintruder": 8572,
      "ĠLeg": 8573,
      "ĠGRE": 8574,
      "Ġnightlight": 8575,
      "acles": 8576,
      "Ġsection": 8577,
      "Ġselected": 8578,
      "ĠOb": 8579,
      "ĠOft": 8580,
      "Ġmisunder": 8581,
      "ĠEach": 8582,
      "Ġswam": 8583,
      "Ġmomma": 8584,
      "Ġimpat": 8585,
      "Ġ28": 8586,
      "ĠPar": 8587,
      "ĠPizza": 8588,
      "ĠPorsche": 8589,
      "Ġadrenal": 8590,
      "These": 8591,
      "Ġsurp": 8592,
      "Ġboom": 8593,
      "Ġbold": 8594,
      "Ġtracking": 8595,
      "ĠJob": 8596,
      "Ġsupper": 8597,
      "Ġdrums": 8598,
      "Ġdecline": 8599,
      "Ġdecides": 8600,
      "ĠRome": 8601,
      "ĠRam": 8602,
      "Ġdealer": 8603,
      "Ġpromises": 8604,
      "redo": 8605,
      "ĠSomehow": 8606,
      "Ġsummers": 8607,
      "ifying": 8608,
      "appens": 8609,
      "Ġpainted": 8610,
      "Ġexpense": 8611,
      "Ġheadaches": 8612,
      "Ġmessaging": 8613,
      "sicles": 8614,
      "Ġembarrasing": 8615,
      "ĠChar": 8616,
      "Ġfrustration": 8617,
      "shop": 8618,
      "Ġconsum": 8619,
      "Ġconsult": 8620,
      "Ġconscious": 8621,
      "umbled": 8622,
      "Ġrefusing": 8623,
      "Ġmusical": 8624,
      "Ġoffering": 8625,
      "itsu": 8626,
      "Ġfails": 8627,
      "Ġcurse": 8628,
      "Ġpulls": 8629,
      "Ġfigures": 8630,
      "Ġcrypt": 8631,
      "exactly": 8632,
      "Ġcalming": 8633,
      "Ġaddic": 8634,
      "Ġphotograph": 8635,
      "Ġsocialize": 8636,
      "Ġdieting": 8637,
      "Ġlandsc": 8638,
      "Ġburning": 8639,
      "Ġprofit": 8640,
      "Ġsignal": 8641,
      "Ġsuccessfully": 8642,
      "ĠFlags": 8643,
      "Ġsolo": 8644,
      "Ġzombie": 8645,
      "Ġvaledict": 8646,
[...]
