{
  "version": "1.0",
  "truncation": null,
  "padding": null,
  "added_tokens": [
    {
      "id": 0,
      "content": "[PAD]",
      "single_word": false,
      "lstrip": false,
      "rstrip": false,
      "normalized": false,
      "special": true
    },
    {
      "id": 1,
      "content": "[BOS]",
      "single_word": false,
      "lstrip": false,
      "rstrip": false,
      "normalized": false,
      "special": true
    },
    {
      "id": 2,
      "content": "[EOS]",
      "single_word": false,
      "lstrip": false,
      "rstrip": false,
      "normalized": false,
      "special": true
    },
    {
      "id": 3,
      "content": "[UNK]",
      "single_word": false,
      "lstrip": false,
      "rstrip": false,
      "normalized": false,
      "special": true
    },
    {
      "id": 4,
      "content": "[CLS]",
      "single_word": false,
      "lstrip": false,
      "rstrip": false,
      "normalized": false,
      "special": true
    },
    {
      "id": 5,
      "content": "[SEP]",
      "single_word": false,
      "lstrip": false,
      "rstrip": false,
      "normalized": false,
      "special": true
    },
    {
      "id": 6,
      "content": "[SEEKER]:",
      "single_word": false,
      "lstrip": false,
      "rstrip": false,
      "normalized": false,
      "special": true
    },
    {
      "id": 7,
      "content": "[SUPPORTER]:",
      "single_word": false,
      "lstrip": false,
      "rstrip": false,
      "normalized": false,
      "special": true
    },
    {
      "id": 8,
      "content": "[seeker_emotion_anxiety]",
      "single_word": false,
      "lstrip": false,
      "rstrip": false,
      "normalized": false,
      "special": true
    },
    {
      "id": 9,
      "content": "[seeker_emotion_sadness]",
      "single_word": false,
      "lstrip": false,
      "rstrip": false,
      "normalized": false,
      "special": true
    },
    {
      "id": 10,
      "content": "[seeker_emotion_anger]",
      "single_word": false,
      "lstrip": false,
      "rstrip": false,
      "normalized": false,
      "special": true
    },
    {
      "id": 11,
      "content": "[seeker_emotion_fear]",
      "single_word": false,
      "lstrip": false,
      "rstrip": false,
      "normalized": false,
      "special": true
    },
    {
      "id": 12,
      "content": "[seeker_emotion_disgust]",
      "single_word": false,
      "lstrip": false,
      "rstrip": false,
      "normalized": false,
      "special": true
    },
    {
      "id": 13,
      "content": "[seeker_emotion_joy]",
      "single_word": false,
      "lstrip": false,
      "rstrip": false,
      "normalized": false,
      "special": true
    },
    {
      "id": 14,
      "content": "[seeker_emotion_surprise]",
      "single_word": false,
      "lstrip": false,
      "rstrip": false,
      "normalized": false,
      "special": true
    },
    {
      "id": 15,
      "content": "[seeker_emotion_neutral]",
      "single_word": false,
      "lstrip": false,
      "rstrip": false,
      "normalized": false,
      "special": true
    },
    {
      "id": 16,
      "content": "[emotion_afraid]",
      "single_word": false,
      "lstrip": false,
      "rstrip": false,
      "normalized": false,
      "special": true
    },
    {
      "id": 17,
      "content": "[emotion_angry]",
      "single_word": false,
      "lstrip": false,
      "rstrip": false,
      "normalized": false,
      "special": true
    },
    {
      "id": 18,
      "content": "[emotion_annoyed]",
      "single_word": false,
      "lstrip": false,
      "rstrip": false,
      "normalized": false,
      "special": true
    },
    {
      "id": 19,
      "content": "[emotion_anticipating]",
      "single_word": false,
      "lstrip": false,
      "rstrip": false,
      "normalized": false,
      "special": true
    },
    {
      "id": 20,
      "content": "[emotion_anxious]",
      "single_word": false,
      "lstrip": false,
      "rstrip": false,
      "normalized": false,
      "special": true
    },
    {
      "id": 21,
      "content": "[emotion_apprehensive]",
      "single_word": false,
      "lstrip": false,
      "rstrip": false,
      "normalized": false,
      "special": true
    },
    {
      "id": 22,
      "content": "[emotion_ashamed]",
      "single_word": false,
      "lstrip": false,
      "rstrip": false,
      "normalized": false,
      "special": true
    },
    {
      "id": 23,
      "content": "[emotion_caring]",
      "single_word": false,
      "lstrip": false,
      "rstrip": false,
      "normalized": false,
      "special": true
    },
    {
      "id": 24,
      "content": "[emotion_confident]",
      "single_word": false,
      "lstrip": false,
      "rstrip": false,
      "normalized": false,
      "special": true
    },
    {
      "id": 25,
      "content": "[emotion_content]",
      "single_word": false,
      "lstrip": false,
      "rstrip": false,
      "normalized": false,
      "special": true
    },
    {
      "id": 26,
      "content": "[emotion_devastated]",
      "single_word": false,
      "lstrip": false,
      "rstrip": false,
      "normalized": false,
      "special": true
    },
    {
      "id": 27,
      "content": "[emotion_disappointed]",
      "single_word": false,
      "lstrip": false,
      "rstrip": false,
      "normalized": false,
      "special": true
    },
    {
      "id": 28,
      "content": "[emotion_disgusted]",
      "single_word": false,
      "lstrip": false,
      "rstrip": false,
      "normalized": false,
      "special": true
    },
    {
      "id": 29,
      "content": "[emotion_embarrassed]",
      "single_word": false,
      "lstrip": false,
      "rstrip": false,
      "normalized": false,
      "special": true
    },
    {
      "id": 30,
      "content": "[emotion_excited]",
      "single_word": false,
      "lstrip": false,
      "rstrip": false,
      "normalized": false,
      "special": true
    },
    {
      "id": 31,
      "content": "[emotion_faithful]",
      "single_word": false,
      "lstrip": false,
      "rstrip": false,
      "normalized": false,
      "special": true
    },
    {
      "id": 32,
      "content": "[emotion_furious]",
      "single_word": false,
      "lstrip": false,
      "rstrip": false,
      "normalized": false,
      "special": true
    },
    {
      "id": 33,
      "content": "[emotion_grateful]",
      "single_word": false,
      "lstrip": false,
      "rstrip": false,
      "normalized": false,
      "special": true
    },
    {
      "id": 34,
      "content": "[emotion_guilty]",
      "single_word": false,
      "lstrip": false,
      "rstrip": false,
      "normalized": false,
      "special": true
    },
    {
      "id": 35,
      "content": "[emotion_hopeful]",
      "single_word": false,
      "lstrip": false,
      "rstrip": false,
      "normalized": false,
      "special": true
    },
    {
      "id": 36,
      "content": "[emotion_impressed]",
      "single_word": false,
      "lstrip": false,
      "rstrip": false,
      "normalized": false,
      "special": true
    },
    {
      "id": 37,
      "content": "[emotion_jealous]",
      "single_word": false,
      "lstrip": false,
      "rstrip": false,
      "normalized": false,
      "special": true
    },
    {
      "id": 38,
      "content": "[emotion_joyful]",
      "single_word": false,
      "lstrip": false,
      "rstrip": false,
      "normalized": false,
      "special": true
    },
    {
      "id": 39,
      "content": "[emotion_lonely]",
      "single_word": false,
      "lstrip": false,
      "rstrip": false,
      "normalized": false,
      "special": true
    },
    {
      "id": 40,
      "content": "[emotion_nostalgic]",
      "single_word": false,
      "lstrip": false,
      "rstrip": false,
      "normalized": false,
      "special": true
    },
    {
      "id": 41,
      "content": "[emotion_prepared]",
      "single_word": false,
      "lstrip": false,
      "rstrip": false,
      "normalized": false,
      "special": true
    },
    {
      "id": 42,
      "content": "[emotion_proud]",
      "single_word": false,
      "lstrip": false,
      "rstrip": false,
      "normalized": false,
      "special": true
    },
    {
      "id": 43,
      "content": "[emotion_sad]",
      "single_word": false,
      "lstrip": false,
      "rstrip": false,
      "normalized": false,
      "special": true
    },
    {
      "id": 44,
      "content": "[emotion_sentimental]",
      "single_word": false,
      "lstrip": false,
      "rstrip": false,
      "normalized": false,
      "special": true
    },
    {
      "id": 45,
      "content": "[emotion_surprised]",
      "single_word": false,
      "lstrip": false,
      "rstrip": false,
      "normalized": false,
      "special": true
    },
    {
      "id": 46,
      "content": "[emotion_terrified]",
      "single_word": false,
      "lstrip": false,
      "rstrip": false,
      "normalized": false,
      "special": true
    },
    {
      "id": 47,
      "content": "[emotion_trusting]",
      "single_word": false,
      "lstrip": false,
      "rstrip": false,
      "normalized": false,
      "special": true
    },
    {
      "id": 48,
      "content": "[strategy_question]",
      "single_word": false,
      "lstrip": false,
      "rstrip": false,
      "normalized": false,
      "special": true
    },
    {
      "id": 49,
      "content": "[strategy_restatement]",
      "single_word": false,
      "lstrip": false,
      "rstrip": false,
      "normalized": false,
      "special": true
    },
    {
      "id": 50,
      "content": "[strategy_reflection]",
      "single_word": false,
      "lstrip": false,
      "rstrip": false,
      "normalized": false,
      "special": true
    },
    {
      "id": 51,
      "content": "[strategy_affirmation]",
      "single_word": false,
      "lstrip": false,
      "rstrip": false,
      "normalized": false,
      "special": true
    },
    {
      "id": 52,
      "content": "[strategy_suggestion]",
      "single_word": false,
      "lstrip": false,
      "rstrip": false,
      "normalized": false,
      "special": true
    },
    {
      "id": 53,
      "content": "[strategy_information]",
      "single_word": false,
      "lstrip": false,
      "rstrip": false,
      "normalized": false,
      "special": true
    },
    {
      "id": 54,
      "content": "[strategy_selfdisclosure]",
      "single_word": false,
      "lstrip": false,
      "rstrip": false,
      "normalized": false,
      "special": true
    },
    {
      "id": 55,
      "content": "[strategy_other]",
      "single_word": false,
      "lstrip": false,
      "rstrip": false,
      "normalized": false,
      "special": true
    },
    {
      "id": 56,
      "content": "[intensity_1]",
      "single_word": false,
      "lstrip": false,
      "rstrip": false,
      "normalized": false,
      "special": true
    },
    {
      "id": 57,
      "content": "[intensity_2]",
      "single_word": false,
      "lstrip": false,
      "rstrip": false,
      "normalized": false,
      "special": true
    },
    {
      "id": 58,
      "content": "[intensity_3]",
      "single_word": false,
      "lstrip": false,
      "rstrip": false,
      "normalized": false,
      "special": true
    },
    {
      "id": 59,
      "content": "[intensity_4]",
      "single_word": false,
      "lstrip": false,
      "rstrip": false,
      "normalized": false,
      "special": true
    },
    {
      "id": 60,
      "content": "[intensity_5]",
      "single_word": false,
      "lstrip": false,
      "rstrip": false,
      "normalized": false,
      "special": true
    }
  ],
  "normalizer": null,
  "pre_tokenizer": {
    "type": "ByteLevel",
    "add_prefix_space": false,
    "trim_offsets": true,
    "use_regex": true
  },
  "post_processor": {
    "type": "TemplateProcessing",
    "single": [
      {
        "SpecialToken": {
          "id": "[BOS]",
          "type_id": 0
        }
      },
      {
        "Sequence": {
          "id": "A",
          "type_id": 0
        }
      },
      {
        "SpecialToken": {
          "id": "[EOS]",
          "type_id": 0
        }
      }
    ],
    "pair": [
      {
        "SpecialToken": {
          "id": "[BOS]",
          "type_id": 0
        }
      },
      {
        "Sequence": {
          "id": "A",
          "type_id": 0
        }
      },
      {
        "SpecialToken": {
          "id": "[SEP]",
          "type_id": 0
        }
      },
      {
        "Sequence": {
          "id": "B",
          "type_id": 0
        }
      },
      {
        "SpecialToken": {
          "id": "[EOS]",
          "type_id": 0
        }
      }
    ],
    "special_tokens": {
      "[BOS]": {
        "id": "[BOS]",
        "ids": [
          1
        ],
        "tokens": [
          "[BOS]"
        ]
      },
      "[EOS]": {
        "id": "[EOS]",
        "ids": [
          2
        ],
        "tokens": [
          "[EOS]"
        ]
      },
      "[SEP]": {
        "id": "[SEP]",
        "ids": [
          5
        ],
        "tokens": [
          "[SEP]"
        ]
      }
    }
  },
  "decoder": {
    "type": "ByteLevel",
    "add_prefix_space": true,
    "trim_offsets": true,
    "use_regex": true
  },
  "model": {
    "type": "BPE",
    "dropout": null,
    "unk_token": "[UNK]",
    "continuing_subword_prefix": null,
    "end_of_word_suffix": null,
    "fuse_unk": false,
    "byte_fallback": false,
    "ignore_merges": false,
    "vocab": {
      "[PAD]": 0,
      "[BOS]": 1,
      "[EOS]": 2,
      "[UNK]": 3,
      "[CLS]": 4,
      "[SEP]": 5,
      "[SEEKER]:": 6,
      "[SUPPORTER]:": 7,
      "[seeker_emotion_anxiety]": 8,
      "[seeker_emotion_sadness]": 9,
      "[seeker_emotion_anger]": 10,
      "[seeker_emotion_fear]": 11,
      "[seeker_emotion_disgust]": 12,
      "[seeker_emotion_joy]": 13,
      "[seeker_emotion_surprise]": 14,
      "[seeker_emotion_neutral]": 15,
      "[emotion_afraid]": 16,
      "[emotion_angry]": 17,
      "[emotion_annoyed]": 18,
      "[emotion_anticipating]": 19,
      "[emotion_anxious]": 20,
      "[emotion_apprehensive]": 21,
      "[emotion_ashamed]": 22,
      "[emotion_caring]": 23,
      "[emotion_confident]": 24,
      "[emotion_content]": 25,
      "[emotion_devastated]": 26,
      "[emotion_disappointed]": 27,
      "[emotion_disgusted]": 28,
      "[emotion_embarrassed]": 29,
      "[emotion_excited]": 30,
      "[emotion_faithful]": 31,
      "[emotion_furious]": 32,
      "[emotion_grateful]": 33,
      "[emotion_guilty]": 34,
      "[emotion_hopeful]": 35,
      "[emotion_impressed]": 36,
      "[emotion_jealous]": 37,
      "[emotion_joyful]": 38,
      "[emotion_lonely]": 39,
      "[emotion_nostalgic]": 40,
      "[emotion_prepared]": 41,
      "[emotion_proud]": 42,
      "[emotion_sad]": 43,
      "[emotion_sentimental]": 44,
      "[emotion_surprised]": 45,
      "[emotion_terrified]": 46,
      "[emotion_trusting]": 47,
      "[strategy_question]": 48,
      "[strategy_restatement]": 49,
      "[strategy_reflection]": 50,
      "[strategy_affirmation]": 51,
      "[strategy_suggestion]": 52,
      "[strategy_information]": 53,
      "[strategy_selfdisclosure]": 54,
      "[strategy_other]": 55,
      "[intensity_1]": 56,
      "[intensity_2]": 57,
      "[intensity_3]": 58,
      "[intensity_4]": 59,
      "[intensity_5]": 60,
      "!": 61,
      "\"": 62,
      "#": 63,
      "$": 64,
      "%": 65,
      "&": 66,
      "'": 67,
      "(": 68,
      ")": 69,
      "*": 70,
      "+": 71,
      ",": 72,
      "-": 73,
      ".": 74,
      "/": 75,
      "0": 76,
      "1": 77,
      "2": 78,
      "3": 79,
      "4": 80,
      "5": 81,
      "6": 82,
      "7": 83,
      "8": 84,
      "9": 85,
      ":": 86,
      ";": 87,
      "<": 88,
      "=": 89,
      ">": 90,
      "?": 91,
      "@": 92,
      "A": 93,
      "B": 94,
      "C": 95,
      "D": 96,
      "E": 97,
      "F": 98,
      "G": 99,
      "H": 100,
      "I": 101,
      "J": 102,
      "K": 103,
      "L": 104,
      "M": 105,
      "N": 106,
      "O": 107,
      "P": 108,
      "Q": 109,
      "R": 110,
      "S": 111,
      "T": 112,
      "U": 113,
      "V": 114,
      "W": 115,
      "X": 116,
      "Y": 117,
      "Z": 118,
      "[": 119,
      "\\": 120,
      "]": 121,
      "^": 122,
      "_": 123,
      "a": 124,
      "b": 125,
      "c": 126,
      "d": 127,
      "e": 128,
      "f": 129,
      "g": 130,
      "h": 131,
      "i": 132,
      "j": 133,
      "k": 134,
      "l": 135,
      "m": 136,
      "n": 137,
      "o": 138,
      "p": 139,
      "q": 140,
      "r": 141,
      "s": 142,
      "t": 143,
      "u": 144,
      "v": 145,
      "w": 146,
      "x": 147,
      "y": 148,
      "z": 149,
      "{": 150,
      "|": 151,
      "}": 152,
      "~": 153,
      "£": 154,
      "Â": 155,
      "â": 156,
      "Ċ": 157,
      "Ġ": 158,
      "Ģ": 159,
      "Ļ": 160,
      "ł": 161,
      "Ġt": 162,
      "Ġa": 163,
      "er": 164,
      "en": 165,
      "Ġw": 166,
      "in": 167,
      "on": 168,
      "st": 169,
      "ĠI": 170,
      "Ġ:": 171,
      "Ġm": 172,
      "Ġth": 173,
      "Ġs": 174,
      "ot": 175,
      "Ġh": 176,
      "om": 177,
      "ou": 178,
      "ed": 179,
      "ent": 180,
      "Ġf": 181,
      "Ġb": 182,
      "ust": 183,
      "em": 184,
      "ing": 185,
      "Ġto": 186,
      "it": 187,
      "ion": 188,
      "at": 189,
      "re": 190,
      "otion": 191,
      "emotion": 192,
      "Ġd": 193,
      "omer": 194,
      "ustomer": 195,
      "gent": 196,
      "Customer": 197,
      "Agent": 198,
      "Ġc": 199,
      "Ġg": 200,
      "or": 201,
      "as": 202,
      "Ġthe": 203,
      "nd": 204,
      "Ġmy": 205,
      "ar": 206,
      "Ġl": 207,
      "ll": 208,
      "is": 209,
      "Ġp": 210,
      "an": 211,
      "Ġn": 212,
      "Ġwas": 213,
      "Ġand": 214,
      "Ġo": 215,
      "Ġha": 216,
      "ve": 217,
      "ay": 218,
      "Ġit": 219,
      "Ġbe": 220,
      "id": 221,
      "Ġin": 222,
      "Ġy": 223,
      "ri": 224,
      "et": 225,
      "Ġof": 226,
      "ow": 227,
      "es": 228,
      "Ġfor": 229,
      "el": 230,
      "gh": 231,
      "Ġre": 232,
      "im": 233,
      "ad": 234,
      "Ġwh": 235,
      "Ġon": 236,
      "Ġso": 237,
      "Ġme": 238,
      "oo": 239,
      "le": 240,
      "ver": 241,
      "out": 242,
      "Ġthat": 243,
      "al": 244,
      "ic": 245,
      "Ġyou": 246,
      "Ġe": 247,
      "ld": 248,
      "all": 249,
      "ch": 250,
      "Ġst": 251,
      "end": 252,
      "he": 253,
      "Ġu": 254,
      "pp": 255,
      "Ġis": 256,
      "ke": 257,
      "ut": 258,
      "'t": 259,
      "Ġne": 260,
      "Ġwe": 261,
      "Ġam": 262,
      "ght": 263,
      "Ġhave": 264,
      "Ġdo": 265,
      "ith": 266,
      "Ġj": 267,
      "ome": 268,
      "am": 269,
      "ir": 270,
      "ally": 271,
      "My": 272,
      "Ġat": 273,
      "ous": 274,
      "Ġi": 275,
      "her": 276,
      "fu": 277,
      "Ġwith": 278,
      "Ġgo": 279,
      "Ġk": 280,
      "ly": 281,
      "'s": 282,
      "Ġan": 283,
      "Ġli": 284,
      "ur": 285,
      "ac": 286,
      "Ġhe": 287,
      "Ġr": 288,
      "Ġwor": 289,
      "riend": 290,
      "Ġwhen": 291,
      "Ġhad": 292,
      "one": 293,
      "Ġget": 294,
      "ast": 295,
      "op": 296,
      "ĠMy": 297,
      "Ġout": 298,
      "ter": 299,
      "Ġab": 300,
      "ant": 301,
      "ful": 302,
      "Ġfe": 303,
      "ĠT": 304,
      "very": 305,
      "ere": 306,
      "sed": 307,
      "ould": 308,
      "hat": 309,
      "Ġbut": 310,
      "'m": 311,
      "Ġdid": 312,
      "ood": 313,
      "day": 314,
      "se": 315,
      "other": 316,
      "Ġreally": 317,
      "Ġnot": 318,
      "Ġup": 319,
      "Ġgot": 320,
      "king": 321,
      "ill": 322,
      "Ġjust": 323,
      "ĠIt": 324,
      "ĠW": 325,
      "Ġye": 326,
      "Ġsu": 327,
      "Ġfriend": 328,
      "ra": 329,
      "th": 330,
      "Ġtim": 331,
      "Ġabout": 332,
      "rou": 333,
      "ry": 334,
      "Ġal": 335,
      "Ġcan": 336,
      "Ġday": 337,
      "ek": 338,
      "Ġweek": 339,
      "art": 340,
      "oy": 341,
      "ate": 342,
      "Ġthis": 343,
      "Ġher": 344,
      "ard": 345,
      "Ġwork": 346,
      "Ġall": 347,
      "ro": 348,
      "Ġtime": 349,
      "ce": 350,
      "Ġse": 351,
      "Ġsome": 352,
      "Ġfeel": 353,
      "Ġsh": 354,
      "ĠS": 355,
      "Ġgoing": 356,
      "au": 357,
      "Ġfr": 358,
      "Ġex": 359,
      "il": 360,
      "Ġlo": 361,
      "Ġbeen": 362,
      "Ġmo": 363,
      "Ġthey": 364,
      "Ġkn": 365,
      "Ġhapp": 366,
      "Ġyear": 367,
      "Ġare": 368,
      "Ġlike": 369,
      "ight": 370,
      "Ġnew": 371,
      "way": 372,
      "ack": 373,
      "un": 374,
      "Ġshe": 375,
      "Ġgood": 376,
      "ec": 377,
      "..": 378,
      "ake": 379,
      "Ġas": 380,
      "res": 381,
      "ĠH": 382,
      "ty": 383,
      "ge": 384,
      "Ġvery": 385,
      "Ġtoo": 386,
      "Ġfrom": 387,
      "ck": 388,
      "ea": 389,
      "ind": 390,
      "ie": 391,
      "Ġpl": 392,
      "ool": 393,
      "Ġhim": 394,
      "Ġch": 395,
      "fe": 396,
      "Ġlast": 397,
      "ope": 398,
      "ĠĊ": 399,
      "Ġknow": 400,
      "ĠA": 401,
      "pr": 402,
      "ting": 403,
      "Ġsa": 404,
      "Ġone": 405,
      "hen": 406,
      "us": 407,
      "ied": 408,
      "ited": 409,
      "Ġcar": 410,
      "ive": 411,
      "ob": 412,
      "ont": 413,
      "Ġthin": 414,
      "ving": 415,
      "car": 416,
      "ely": 417,
      "pris": 418,
      "Ġcom": 419,
      "Ġwill": 420,
      "ame": 421,
      "ster": 422,
      "Ġback": 423,
      "Ġthem": 424,
      "That": 425,
      "Ġother": 426,
      "urpris": 427,
      "and": 428,
      "Ġwant": 429,
      "Ġwent": 430,
      "ice": 431,
      "ound": 432,
      "ore": 433,
      "ĠThe": 434,
      "ation": 435,
      "Ġno": 436,
      "Ġdidn": 437,
      "Ġwould": 438,
      "ted": 439,
      "Ġmad": 440,
      "Ġte": 441,
      "app": 442,
      "our": 443,
      "ong": 444,
      "Ġjob": 445,
      "Ġhappy": 446,
      "Ġpre": 447,
      "Ġnow": 448,
      "Ġany": 449,
      "Ġtoday": 450,
      "dis": 451,
      "Ġsp": 452,
      "chool": 453,
      "Ġdog": 454,
      "emb": 455,
      "ated": 456,
      "ost": 457,
      "cited": 458,
      "Ġaf": 459,
      "Ġthink": 460,
      "urprised": 461,
      "Ġold": 462,
      "Ġwere": 463,
      "Ġhome": 464,
      "Ġbad": 465,
      "Ġoff": 466,
      "elt": 467,
      "Ġwa": 468,
      "Ġwhat": 469,
      "ep": 470,
      "ating": 471,
      "ven": 472,
      "ip": 473,
      "Ġevery": 474,
      "Ġfelt": 475,
      "Ġover": 476,
      "Ġschool": 477,
      "Ġkid": 478,
      "ers": 479,
      "Ġfir": 480,
      "Ġhis": 481,
      "Ġpe": 482,
      "reat": 483,
      "Ġv": 484,
      "Ġcould": 485,
      "Ġsee": 486,
      "ang": 487,
      "Ġwait": 488,
      "Ġthere": 489,
      "Ġdon": 490,
      "ess": 491,
      "Ġlot": 492,
      "ked": 493,
      "Ġthou": 494,
      "Ġag": 495,
      "Ġloo": 496,
      "Ġor": 497,
      "ious": 498,
      "assed": 499,
      "Ġbec": 500,
      "Ġfirst": 501,
      "imp": 502,
      "Ġle": 503,
      "ab": 504,
      "Ġnight": 505,
      "ident": 506,
      "irl": 507,
      "ain": 508,
      "ause": 509,
      "Ġmu": 510,
      "Ġco": 511,
      "ouse": 512,
      "'ve": 513,
      "surprised": 514,
      "ily": 515,
      "Ġcl": 516,
      "Ġgirl": 517,
      "ways": 518,
      "ved": 519,
      "Ġac": 520,
      "omet": 521,
      "eal": 522,
      "igh": 523,
      "Ġgreat": 524,
      "Ġhow": 525,
      "hing": 526,
      "ig": 527,
      "um": 528,
      "Ġalways": 529,
      "ople": 530,
      "Ġmuch": 531,
      "roud": 532,
      "Ġstart": 533,
      "Ġfriends": 534,
      "Oh": 535,
      "os": 536,
      "Ġyears": 537,
      "row": 538,
      "Ġthing": 539,
      "Ġhouse": 540,
      "ash": 541,
      "ann": 542,
      "oin": 543,
      "Ġbecause": 544,
      "Ġby": 545,
      "Ġfin": 546,
      "Ġhas": 547,
      "Ġhard": 548,
      "ick": 549,
      "Ġpeople": 550,
      "Ġun": 551,
      "ex": 552,
      "ady": 553,
      "elf": 554,
      "to": 555,
      "ĠB": 556,
      "ak": 557,
      "atch": 558,
      "Ġfam": 559,
      "ĠHe": 560,
      "ies": 561,
      "oyed": 562,
      "Ġyour": 563,
      "raid": 564,
      "par": 565,
      "ide": 566,
      "Ġman": 567,
      "Ġsure": 568,
      "Ġscar": 569,
      "ish": 570,
      "ĠD": 571,
      "onf": 572,
      "thing": 573,
      "Ġfamily": 574,
      "aught": 575,
      "qu": 576,
      "Ġrec": 577,
      "Ġmade": 578,
      "rust": 579,
      "Ġafter": 580,
      "itt": 581,
      "fied": 582,
      "friend": 583,
      "Ġbr": 584,
      "Ġnever": 585,
      "ressed": 586,
      "ile": 587,
      "Ġtri": 588,
      "Ġsomet": 589,
      "ort": 590,
      "Ġstu": 591,
      "self": 592,
      "It": 593,
      "ite": 594,
      "Ġinto": 595,
      "own": 596,
      "Ġgu": 597,
      "Ġpar": 598,
      "joy": 599,
      "ĠM": 600,
      "Ġwho": 601,
      "ass": 602,
      "Ġpart": 603,
      "pared": 604,
      "ft": 605,
      "Ġsaw": 606,
      "Ġfa": 607,
      "Ġbet": 608,
      "Ġen": 609,
      "Ġfound": 610,
      "Ġwell": 611,
      "Ġweekend": 612,
      "ently": 613,
      "Ġaway": 614,
      "onfident": 615,
      "Ġri": 616,
      "Ġmon": 617,
      "onely": 618,
      "ĠWhen": 619,
      "Ġlove": 620,
      "Ġhope": 621,
      "Ġpr": 622,
      "are": 623,
      "Ġmake": 624,
      "rate": 625,
      "excited": 626,
      "ittle": 627,
      "ol": 628,
      "Ġsomeone": 629,
      "gu": 630,
      "ff": 631,
      "de": 632,
      "Ġpret": 633,
      "arr": 634,
      "Ġlittle": 635,
      "gust": 636,
      "Ġro": 637,
      "xious": 638,
      "Ġhel": 639,
      "sterday": 640,
      "gic": 641,
      "impressed": 642,
      "Ġpretty": 643,
      "Ġthan": 644,
      "appoin": 645,
      "xt": 646,
      "embarr": 647,
      "ealous": 648,
      "Ġkids": 649,
      "Ġlife": 650,
      "rateful": 651,
      "Ġlong": 652,
      "ilty": 653,
      "Ġnice": 654,
      "ĠShe": 655,
      "rified": 656,
      "ace": 657,
      "ĠWe": 658,
      "per": 659,
      "Ġif": 660,
      "angry": 661,
      "ning": 662,
      "Ġmonth": 663,
      "appointed": 664,
      "rious": 665,
      "Ġhelp": 666,
      "proud": 667,
      "amed": 668,
      "Ġneed": 669,
      "Ġgetting": 670,
      "annoyed": 671,
      "Ġwon": 672,
      "Ġeven": 673,
      "Ġdown": 674,
      "ag": 675,
      "Ġstill": 676,
      "Ġour": 677,
      "Ġnext": 678,
      "algic": 679,
      "gusted": 680,
      "Ġde": 681,
      "Ġbu": 682,
      "Ġdaught": 683,
      "Ġmore": 684,
      "af": 685,
      "Ġmis": 686,
      "Ġway": 687,
      "ents": 688,
      "icip": 689,
      "ĠN": 690,
      "Ġson": 691,
      "oney": 692,
      "Ġhappen": 693,
      "sad": 694,
      "Ġbest": 695,
      "ine": 696,
      "Ġcomp": 697,
      "embarrassed": 698,
      "ife": 699,
      "Ġright": 700,
      "ild": 701,
      "Ġmoney": 702,
      "Ġ1": 703,
      "Ġtry": 704,
      "ble": 705,
      "sive": 706,
      "vie": 707,
      "Ġwatch": 708,
      "Ġke": 709,
      "grateful": 710,
      "lonely": 711,
      "Ġplay": 712,
      "Ġmom": 713,
      "afraid": 714,
      "Ġqu": 715,
      "Ġdi": 716,
      "ontent": 717,
      "ĠC": 718,
      "disgusted": 719,
      "Ġaw": 720,
      "Ġtake": 721,
      "Ġrecently": 722,
      "terrified": 723,
      "anxious": 724,
      "guilty": 725,
      "furious": 726,
      "icipating": 727,
      "ental": 728,
      "confident": 729,
      "hope": 730,
      "Ġpro": 731,
      "pec": 732,
      "ostalgic": 733,
      "nostalgic": 734,
      "hopeful": 735,
      "round": 736,
      "Ġrem": 737,
      "Ġmyself": 738,
      "Ġtook": 739,
      "Ġbrother": 740,
      "jealous": 741,
      "Ġdaughter": 742,
      "nt": 743,
      "Ġready": 744,
      "disappointed": 745,
      "anticipating": 746,
      "here": 747,
      "joyful": 748,
      "Ġbel": 749,
      "vast": 750,
      "Ġdays": 751,
      "Ġche": 752,
      "Ġyesterday": 753,
      "Ġfeeling": 754,
      "Ġwife": 755,
      "entim": 756,
      "aking": 757,
      "Ġwhile": 758,
      "Ġscared": 759,
      "ru": 760,
      "wn": 761,
      "ĠL": 762,
      "pre": 763,
      "vastated": 764,
      "entimental": 765,
      "prepared": 766,
      "rusting": 767,
      "iz": 768,
      "Ġ2": 769,
      "content": 770,
      "ul": 771,
      "...": 772,
      "Ġthings": 773,
      "Ġbir": 774,
      "fore": 775,
      "Ġwal": 776,
      "ach": 777,
      "Ġner": 778,
      "Ġinter": 779,
      "ĠO": 780,
      "orrow": 781,
      "Ġapp": 782,
      "urn": 783,
      "ĠThey": 784,
      "ose": 785,
      "trusting": 786,
      "Ġus": 787,
      "Ġwanted": 788,
      "Yea": 789,
      "ĠWhat": 790,
      "der": 791,
      "Ġshould": 792,
      "Ġcame": 793,
      "Ġbelie": 794,
      "devastated": 795,
      "Ġsho": 796,
      "Ġdri": 797,
      "Ġlooking": 798,
      "Ġgirlfriend": 799,
      "rough": 800,
      "sentimental": 801,
      "caring": 802,
      "Ġthrough": 803,
      "Ġsomething": 804,
      "Ġthough": 805,
      "Ġthought": 806,
      "Ġfun": 807,
      "ĠF": 808,
      "Ġbefore": 809,
      "Ġago": 810,
      "Ġbeing": 811,
      "Ġmiss": 812,
      "bor": 813,
      "Ġchild": 814,
      "Ġbig": 815,
      "Ġcou": 816,
      "rand": 817,
      "Ġfew": 818,
      "Ġgr": 819,
      "Yes": 820,
      "ashamed": 821,
      "Ġend": 822,
      "Ġbirth": 823,
      "Ġsad": 824,
      "ried": 825,
      "Ġaround": 826,
      "Ġneigh": 827,
      "Ġhear": 828,
      "Ġbelieve": 829,
      "ree": 830,
      "Ġpay": 831,
      "ave": 832,
      "Ġput": 833,
      "Ġkind": 834,
      "ell": 835,
      "ward": 836,
      "akes": 837,
      "Ġcoll": 838,
      "Ġhus": 839,
      "rehen": 840,
      "Ġtest": 841,
      "rehensive": 842,
      "ough": 843,
      "Ġbetter": 844,
      "Ġable": 845,
      "band": 846,
      "cer": 847,
      "Ġneighbor": 848,
      "Ġleft": 849,
      "Ġbirthday": 850,
      "Ġhusband": 851,
      "Ġsi": 852,
      "Ġfind": 853,
      "Ġlost": 854,
      "Ġtheir": 855,
      "apprehensive": 856,
      "Yeah": 857,
      "Ġtal": 858,
      "ks": 859,
      "Ġlet": 860,
      "ought": 861,
      "ĠE": 862,
      "omorrow": 863,
      "Ġhaving": 864,
      "ct": 865,
      "ew": 866,
      "Ġused": 867,
      "pt": 868,
      "pped": 869,
      "Ġnerv": 870,
      "Ġsc": 871,
      "Ġexcited": 872,
      "ity": 873,
      "Ġcare": 874,
      "Ġnervous": 875,
      "Ġcat": 876,
      "Ġph": 877,
      "Ġsm": 878,
      "ork": 879,
      "ember": 880,
      "Ġsin": 881,
      "Ġcon": 882,
      "Ġtold": 883,
      "Ġthen": 884,
      "est": 885,
      "Ġbought": 886,
      "Ġdoes": 887,
      "Ġfl": 888,
      "ithful": 889,
      "Ġfood": 890,
      "ege": 891,
      "vor": 892,
      "Ġgrad": 893,
      "You": 894,
      "Ġbro": 895,
      "Ġalone": 896,
      "Ġsister": 897,
      "Ġsw": 898,
      "Ġshow": 899,
      "Ġbl": 900,
      "Ġhigh": 901,
      "Ġcollege": 902,
      "Ġtomorrow": 903,
      "ure": 904,
      "Ġonly": 905,
      "age": 906,
      "Ġkeep": 907,
      "Ġdis": 908,
      "Ġrel": 909,
      "fa": 910,
      "Ġsince": 911,
      "orry": 912,
      "Ġ3": 913,
      "Ġups": 914,
      "cked": 915,
      "Ġtrip": 916,
      "Ġdoing": 917,
      "Ġparty": 918,
      "ance": 919,
      "Ġcoming": 920,
      "ner": 921,
      "Ġtra": 922,
      "ually": 923,
      "Ġcall": 924,
      "Ġstud": 925,
      "Ġguy": 926,
      "ĠG": 927,
      "ĠBut": 928,
      "Ġupset": 929,
      "Ġpu": 930,
      "ect": 931,
      "ĠTh": 932,
      "Ġparents": 933,
      "Ġter": 934,
      "rible": 935,
      "Ġeverything": 936,
      "faithful": 937,
      "Ġsound": 938,
      "Ġdec": 939,
      "Ġcome": 940,
      "Ġpassed": 941,
      "Ġgrand": 942,
      "az": 943,
      "ist": 944,
      "Ġagain": 945,
      "Ġanything": 946,
      "get": 947,
      "What": 948,
      "Ġbab": 949,
      "Ġfavor": 950,
      "Ġtw": 951,
      "Ġlea": 952,
      "Ġlive": 953,
      "ne": 954,
      "Ġboy": 955,
      "Ġacc": 956,
      "view": 957,
      "ment": 958,
      "Ġcle": 959,
      "Ġvac": 960,
      "Ġremember": 961,
      "Ġfinally": 962,
      "ĠThat": 963,
      "Ġwish": 964,
      "Ġres": 965,
      "Ġknew": 966,
      "imes": 967,
      "Ġclass": 968,
      "'ll": 969,
      "nder": 970,
      "Ġtrying": 971,
      "orm": 972,
      "uck": 973,
      "Ġprom": 974,
      "00": 975,
      "Ġmany": 976,
      "Ġdone": 977,
      "Ġgame": 978,
      "Ġstarted": 979,
      "Ġfavorite": 980,
      "ather": 981,
      "Ġad": 982,
      "Ġhate": 983,
      "most": 984,
      "ater": 985,
      "Ġsupp": 986,
      "Ġstore": 987,
      "Ġsorry": 988,
      "Ġexpec": 989,
      "Ġwasn": 990,
      "pl": 991,
      "Ġsay": 992,
      "Ġdad": 993,
      "Ġpers": 994,
      "Ġgi": 995,
      "Ġmust": 996,
      "Ġmor": 997,
      "Ġalmost": 998,
      "Ġever": 999,
      "Ġworking": 1000,
      "Ġsuch": 1001,
      "esome": 1002,
      "act": 1003,
      "Ġinterview": 1004,
      "mer": 1005,
      "Ġfo": 1006,
      "ger": 1007,
      "Ġsaid": 1008,
      "'re": 1009,
      "Ġbit": 1010,
      "Ġvacation": 1011,
      "ros": 1012,
      "Ġtell": 1013,
      "Ġbaby": 1014,
      "Ġdr": 1015,
      "ise": 1016,
      "able": 1017,
      "Ġperson": 1018,
      "Ġsto": 1019,
      "Ġunder": 1020,
      "Ġmorning": 1021,
      "Ġwin": 1022,
      "Ġmonths": 1023,
      "Ġmakes": 1024,
      "ath": 1025,
      "Ġonce": 1026,
      "Ġplace": 1027,
      "Ġreal": 1028,
      "Ġcr": 1029,
      "ĠDid": 1030,
      "side": 1031,
      "The": 1032,
      "ap": 1033,
      "ump": 1034,
      "Ġhere": 1035,
      "ook": 1036,
      "Ġclean": 1037,
      "Ġmar": 1038,
      "Ġamaz": 1039,
      "Ġsuper": 1040,
      "Ġhit": 1041,
      "Ġwhere": 1042,
      "Ġrest": 1043,
      "Ġweeks": 1044,
      "Ġturn": 1045,
      "Ġgl": 1046,
      "Ġforward": 1047,
      "ress": 1048,
      "Ġhappened": 1049,
      "ĠP": 1050,
      "ĠĠ": 1051,
      "be": 1052,
      "Ġanother": 1053,
      "Ġbuy": 1054,
      "Ġsoon": 1055,
      "Ġact": 1056,
      "Ġstay": 1057,
      "pen": 1058,
      "Ġfi": 1059,
      "Ġseem": 1060,
      "Ġsit": 1061,
      "Ġroom": 1062,
      "Ġel": 1063,
      "Ġbus": 1064,
      "Ġgave": 1065,
      "Ġear": 1066,
      "ial": 1067,
      "ans": 1068,
      "Ġyoun": 1069,
      "Ġawesome": 1070,
      "ations": 1071,
      "Ġtwo": 1072,
      "Ġar": 1073,
      "ank": 1074,
      "Ġmeet": 1075,
      "ason": 1076,
      "Ġate": 1077,
      "ence": 1078,
      "Ġsick": 1079,
      "hy": 1080,
      "oth": 1081,
      "Ġim": 1082,
      "Ġwr": 1083,
      "ball": 1084,
      "Ġeat": 1085,
      "Ġwaiting": 1086,
      "Ġown": 1087,
      "ue": 1088,
      "Ġdied": 1089,
      "Ġtimes": 1090,
      "Ġorder": 1091,
      "leep": 1092,
      "!!": 1093,
      "ĠThere": 1094,
      "ult": 1095,
      "Ġtaking": 1096,
      "Ġits": 1097,
      "Ġhur": 1098,
      "ately": 1099,
      "Ġvis": 1100,
      "Ġcow": 1101,
      "Ġatt": 1102,
      "oss": 1103,
      "ha": 1104,
      "ĠHow": 1105,
      "Ġsounds": 1106,
      "Ġpa": 1107,
      "Ġbroke": 1108,
      "Ġimp": 1109,
      "Ġwithout": 1110,
      "Ġsame": 1111,
      "Ġcouldn": 1112,
      "ail": 1113,
      "Ġexam": 1114,
      "bl": 1115,
      "unch": 1116,
      "Ġok": 1117,
      "Ġbre": 1118,
      "Ġfront": 1119,
      "ten": 1120,
      "Ġmoved": 1121,
      "Ġproud": 1122,
      "Ġcowork": 1123,
      "Ġtr": 1124,
      "Ġtru": 1125,
      "Ġgive": 1126,
      "Ġmovie": 1127,
      "ross": 1128,
      "Ġann": 1129,
      "Ġrun": 1130,
      "Ġgrandm": 1131,
      "got": 1132,
      "Ġcont": 1133,
      "Ġla": 1134,
      "hood": 1135,
      "hip": 1136,
      "ĠR": 1137,
      "Ġamazing": 1138,
      "Ġtried": 1139,
      "Ġbo": 1140,
      "ĠSo": 1141,
      "Ġmost": 1142,
      "Ġthank": 1143,
      "Ġgradu": 1144,
      "No": 1145,
      "osed": 1146,
      "Ġwalking": 1147,
      "Ġboyfriend": 1148,
      "ich": 1149,
      "Ġeveryone": 1150,
      "ase": 1151,
      "Ġpast": 1152,
      "Ġsum": 1153,
      "gether": 1154,
      "Ġdin": 1155,
      "Ġdoor": 1156,
      "til": 1157,
      "Ġtogether": 1158,
      "Ġworried": 1159,
      "ĠSome": 1160,
      "Ġ5": 1161,
      "Ġsometimes": 1162,
      "Ġhour": 1163,
      "Ġhaven": 1164,
      "so": 1165,
      "Ġleave": 1166,
      "Ġ4": 1167,
      "Ġcra": 1168,
      "Ġsummer": 1169,
      "Th": 1170,
      "ition": 1171,
      "Ġpic": 1172,
      "Ġuntil": 1173,
      "Ġscary": 1174,
      "Ġhor": 1175,
      "Ġluck": 1176,
      "Ġfu": 1177,
      "vers": 1178,
      "Ġcut": 1179,
      "Ġlook": 1180,
      "Ġenough": 1181,
      "Ġterrible": 1182,
      "ĠJ": 1183,
      "Ġper": 1184,
      "Ġdate": 1185,
      "Ġvisit": 1186,
      "Ġshocked": 1187,
      "ple": 1188,
      "Ġquite": 1189,
      "Ġtrust": 1190,
      "Ġlate": 1191,
      "Ġforgot": 1192,
      "Ġsleep": 1193,
      "lly": 1194,
      "Ġglad": 1195,
      "ĠYou": 1196,
      "aybe": 1197,
      "Ġheard": 1198,
      "anc": 1199,
      "Ġsl": 1200,
      "gry": 1201,
      "He": 1202,
      "Ġid": 1203,
      "Ġton": 1204,
      "Ġdinner": 1205,
      "Ġwhole": 1206,
      "Ġaccident": 1207,
      "ided": 1208,
      "Ġmother": 1209,
      "Ġwatching": 1210,
      "ord": 1211,
      "ream": 1212,
      "Ġtick": 1213,
      "rew": 1214,
      "Ġsk": 1215,
      "Ġstuff": 1216,
      "Ġswe": 1217,
      "Wow": 1218,
      "Well": 1219,
      "Ġended": 1220,
      "any": 1221,
      "Ġafraid": 1222,
      "Ġticket": 1223,
      "ier": 1224,
      "Ġtown": 1225,
      "Ġdiff": 1226,
      "Ġhu": 1227,
      "Ġneeded": 1228,
      "Ġran": 1229,
      "ire": 1230,
      "Ġcant": 1231,
      "Ġmove": 1232,
      "gg": 1233,
      "Ġ$": 1234,
      "Ġasked": 1235,
      "Ġru": 1236,
      "Ġcouple": 1237,
      "Ġoutside": 1238,
      "Ġworked": 1239,
      "Ġdriving": 1240,
      "ond": 1241,
      "Ġfoot": 1242,
      "ctor": 1243,
      "Ġmem": 1244,
      "Ġsec": 1245,
      "Ġcool": 1246,
      "Ġdecided": 1247,
      "Ġthinking": 1248,
      "ĠOne": 1249,
      "izz": 1250,
      "Ġret": 1251,
      "ax": 1252,
      "Ġphone": 1253,
      "Ġmemor": 1254,
      "Ġdrive": 1255,
      "Ġopen": 1256,
      "Ġpromotion": 1257,
      "Ġactually": 1258,
      "Ġidea": 1259,
      "Ġthose": 1260,
      "Ġhop": 1261,
      "gn": 1262,
      "aur": 1263,
      "Ġpizz": 1264,
      "Ġent": 1265,
      "Ġwhy": 1266,
      "Ġcompany": 1267,
      "'d": 1268,
      "lled": 1269,
      "Ġap": 1270,
      "ange": 1271,
      "pping": 1272,
      "Ġcompl": 1273,
      "ying": 1274,
      "Ġplaying": 1275,
      "Ġguess": 1276,
      "ement": 1277,
      "Ġseen": 1278,
      "Ġyet": 1279,
      "Ġteam": 1280,
      "aurant": 1281,
      "Ġrestaurant": 1282,
      "Ġem": 1283,
      "uring": 1284,
      "Ġ,": 1285,
      "Ġmaking": 1286,
      "Ġpass": 1287,
      "Ġpizza": 1288,
      "Ġclose": 1289,
      "ĠY": 1290,
      "Ġsn": 1291,
      "rought": 1292,
      "Ġdidnt": 1293,
      "dd": 1294,
      "Ġmight": 1295,
      "Ġbed": 1296,
      "Ġalso": 1297,
      "ever": 1298,
      "Ġmine": 1299,
      "Ġrealiz": 1300,
      "Ġpres": 1301,
      "ered": 1302,
      "Ġnothing": 1303,
      "ĠThis": 1304,
      "iting": 1305,
      "ars": 1306,
      "Ġpet": 1307,
      "Ġplann": 1308,
      "Ġwrong": 1309,
      "Ġfell": 1310,
      "Ġser": 1311,
      "Ġboss": 1312,
      "Ġbrought": 1313,
      "Ġbreak": 1314,
      "itch": 1315,
      "Ġangry": 1316,
      "ĠDo": 1317,
      "oop": 1318,
      "Ġdoctor": 1319,
      "Ġsurprised": 1320,
      "Ġalre": 1321,
      "fully": 1322,
      "Ġhead": 1323,
      "Ġalready": 1324,
      "Ġtonight": 1325,
      "od": 1326,
      "stand": 1327,
      "ary": 1328,
      "Ġthese": 1329,
      "Ġstr": 1330,
      "Ġanyone": 1331,
      "Ġhurt": 1332,
      "Ġra": 1333,
      "Ġmet": 1334,
      "Ġthankful": 1335,
      "Did": 1336,
      "Ġfinal": 1337,
      "Ġtalk": 1338,
      "Ġwhich": 1339,
      "Ġroad": 1340,
      "Ġwonder": 1341,
      "ions": 1342,
      "illed": 1343,
      "Ġdoesn": 1344,
      "Ġgone": 1345,
      "Ġenjoy": 1346,
      "Ġmin": 1347,
      "oh": 1348,
      "Ġprepared": 1349,
      "ned": 1350,
      "Ġfar": 1351,
      "Ġlear": 1352,
      "oke": 1353,
      "Ġspend": 1354,
      "ane": 1355,
      "Ġmean": 1356,
      "Ġcoworker": 1357,
      "Ġdes": 1358,
      "Ġunderstand": 1359,
      "Ġelse": 1360,
      "ject": 1361,
      "Ġworld": 1362,
      "ee": 1363,
      "Ġheal": 1364,
      "Ġlol": 1365,
      "ush": 1366,
      "Ġtalking": 1367,
      "cks": 1368,
      "Ġcalled": 1369,
      "Ġapart": 1370,
      "fort": 1371,
      "ience": 1372,
      "Ġ10": 1373,
      "Ġsweet": 1374,
      "up": 1375,
      "zy": 1376,
      "ĠLast": 1377,
      "Ġmarried": 1378,
      "Ġmemories": 1379,
      "Ġhand": 1380,
      "Ġstole": 1381,
      "Ġpos": 1382,
      "ĠIts": 1383,
      "Ġcard": 1384,
      "Ġext": 1385,
      "Ġdont": 1386,
      "Ġsurpris": 1387,
      "Ġloved": 1388,
      "Ġexpecting": 1389,
      "Ġgrandmother": 1390,
      "ren": 1391,
      "Ġduring": 1392,
      "Ġstop": 1393,
      "Ġbor": 1394,
      "Ġgift": 1395,
      "Ġmeeting": 1396,
      "Ġpoop": 1397,
      "Ġfootball": 1398,
      "ired": 1399,
      "old": 1400,
      "Ġhours": 1401,
      "Ġhoping": 1402,
      "Ġheart": 1403,
      "room": 1404,
      "Ġordered": 1405,
      "oor": 1406,
      "Ġuse": 1407,
      "Ġleast": 1408,
      "Ġgrow": 1409,
      "Ġconcer": 1410,
      "Ġdeal": 1411,
      "Ġinst": 1412,
      "Ġseason": 1413,
      "Ġappl": 1414,
      "Ġgro": 1415,
      "Ġseeing": 1416,
      "Ġpaid": 1417,
      "Ġlooked": 1418,
      "Ġsupposed": 1419,
      "Ġokay": 1420,
      "iet": 1421,
      "Ġstarting": 1422,
      "Ġtea": 1423,
      "Ġeating": 1424,
      "Ġinv": 1425,
      "Ġwatched": 1426,
      "Ġgrocer": 1427,
      "Ġrep": 1428,
      "ĠEvery": 1429,
      "They": 1430,
      "Ġfix": 1431,
      "ah": 1432,
      "Ġfree": 1433,
      "Ġimport": 1434,
      "Ġhuge": 1435,
      "Ġlately": 1436,
      "Ġrece": 1437,
      "amp": 1438,
      "We": 1439,
      "ially": 1440,
      "ased": 1441,
      "oint": 1442,
      "Ġimportant": 1443,
      "onn": 1444,
      "Ġmanag": 1445,
      "ys": 1446,
      "ird": 1447,
      "ished": 1448,
      "ĠSomeone": 1449,
      "ĠU": 1450,
      "Ġwater": 1451,
      "ves": 1452,
      "Ġexper": 1453,
      "Ġpregn": 1454,
      "Ġchildhood": 1455,
      "Ġcount": 1456,
      "Ġturned": 1457,
      "Ġminut": 1458,
      "Ġfather": 1459,
      "that": 1460,
      "Ġfast": 1461,
      "Ġeach": 1462,
      "Ġtrain": 1463,
      "iness": 1464,
      "Ġtot": 1465,
      "Ġgam": 1466,
      "Ġpack": 1467,
      "Ġexc": 1468,
      "Ġcrazy": 1469,
      "Ġsurprise": 1470,
      "Ġneighbors": 1471,
      "She": 1472,
      "fin": 1473,
      "Ġbring": 1474,
      "Ġperf": 1475,
      "vious": 1476,
      "Ġbar": 1477,
      "Ġins": 1478,
      "Ġstudied": 1479,
      "Ġdogs": 1480,
      "iday": 1481,
      "Ġwalked": 1482,
      "oc": 1483,
      "Ġpark": 1484,
      "Ġfail": 1485,
      "Ġpupp": 1486,
      "ken": 1487,
      "tery": 1488,
      "How": 1489,
      "Ġrelax": 1490,
      "ĠAnd": 1491,
      "if": 1492,
      "Ġhorrible": 1493,
      "Ġhealth": 1494,
      "ling": 1495,
      "more": 1496,
      "Ġ\"": 1497,
      "Ġkept": 1498,
      "ĠK": 1499,
      "Ġgets": 1500,
      "reet": 1501,
      "Ġyoung": 1502,
      "Ġdel": 1503,
      "Ġdro": 1504,
      "Ġstorm": 1505,
      "ĠCh": 1506,
      "Ġbill": 1507,
      "Why": 1508,
      "ark": 1509,
      "Ġanymore": 1510,
      "Ġwalk": 1511,
      "ia": 1512,
      "Ġresult": 1513,
      "Ġteach": 1514,
      "Ġlater": 1515,
      "Ġseems": 1516,
      "Ġliving": 1517,
      "rat": 1518,
      "ount": 1519,
      "ret": 1520,
      "Ġpict": 1521,
      "work": 1522,
      "Ġeas": 1523,
      "Ġnear": 1524,
      "Ġthrew": 1525,
      "Ġsem": 1526,
      "Ġsing": 1527,
      "Ġspent": 1528,
      "Ġchange": 1529,
      "ĠNow": 1530,
      "Ġ20": 1531,
      "Ġdep": 1532,
      "Ġbeach": 1533,
      "Ġinc": 1534,
      "Ġconfident": 1535,
      "als": 1536,
      "blem": 1537,
      "So": 1538,
      "Ġcur": 1539,
      "Ġchildren": 1540,
      "Ġ6": 1541,
      "Ġpresent": 1542,
      "Ġbeh": 1543,
      "Ġev": 1544,
      "ĠAre": 1545,
      "les": 1546,
      "Ġmov": 1547,
      "Ġdrin": 1548,
      "ny": 1549,
      "ime": 1550,
      "Ġshopping": 1551,
      "Ġside": 1552,
      "Ġlunch": 1553,
      "Ġlottery": 1554,
      "Ġphot": 1555,
      "onna": 1556,
      "Ġsur": 1557,
      "Ġwouldn": 1558,
      "Ġproblem": 1559,
      "Ġearly": 1560,
      "Ġfull": 1561,
      "Ġfall": 1562,
      "Ġcity": 1563,
      "Ġmoving": 1564,
      "Ġyounger": 1565,
      "where": 1566,
      "Ġbas": 1567,
      "Ġcake": 1568,
      "ĠĠĠĠ": 1569,
      "Ġapartment": 1570,
      "unk": 1571,
      "ably": 1572,
      "Ġsitu": 1573,
      "ationship": 1574,
      "eb": 1575,
      "not": 1576,
      "Ġpain": 1577,
      "ons": 1578,
      "rist": 1579,
      "Ġaff": 1580,
      "Ġdiffer": 1581,
      "Ġpuppy": 1582,
      "Ġmovies": 1583,
      "Ġpick": 1584,
      "Ġyard": 1585,
      "ants": 1586,
      "Ġremind": 1587,
      "Ġboth": 1588,
      "Ġrain": 1589,
      "Ġrelationship": 1590,
      "Ġsat": 1591,
      "Ġspec": 1592,
      "ding": 1593,
      "Ġstreet": 1594,
      "ĠOn": 1595,
      "esterday": 1596,
      "ert": 1597,
      "Ġcomplet": 1598,
      "hew": 1599,
      "Ġusually": 1600,
      "ĠJust": 1601,
      "Ġmid": 1602,
      "Ġreturn": 1603,
      "Ġreason": 1604,
      "Ġentire": 1605,
      "ester": 1606,
      "sing": 1607,
      "Ġmus": 1608,
      "Ġpol": 1609,
      "ower": 1610,
      "Ġproject": 1611,
      "Ġsoc": 1612,
      "finit": 1613,
      "ĠSu": 1614,
      "Ġtruck": 1615,
      "Ġcook": 1616,
      "Ġlucky": 1617,
      "Ġchar": 1618,
      "ongrat": 1619,
      "Ġpregnant": 1620,
      "med": 1621,
      "og": 1622,
      "Ġwall": 1623,
      "ead": 1624,
      "Ġvide": 1625,
      "Ġhot": 1626,
      "Ġconcert": 1627,
      "Ġsemester": 1628,
      "Ġir": 1629,
      "Ġcour": 1630,
      "Ġgross": 1631,
      "umb": 1632,
      "Ġfight": 1633,
      "Ġworst": 1634,
      "ĠIm": 1635,
      "Ġnews": 1636,
      "Ġpartner": 1637,
      "Ġgonna": 1638,
      "ric": 1639,
      "urch": 1640,
      "Ġlaw": 1641,
      "Ġcaught": 1642,
      "Ġweight": 1643,
      "Ġlist": 1644,
      "unt": 1645,
      "finitely": 1646,
      "een": 1647,
      "Ġask": 1648,
      "umped": 1649,
      "bably": 1650,
      "Ġbehind": 1651,
      "lf": 1652,
      "ures": 1653,
      "Ġwind": 1654,
      "Ġmed": 1655,
      "Ġcous": 1656,
      "Ġrid": 1657,
      "Ġface": 1658,
      "Ġcousin": 1659,
      "ital": 1660,
      "Ġread": 1661,
      "ffic": 1662,
      "Ġapplied": 1663,
      "ike": 1664,
      "Ġbusiness": 1665,
      "Ġtough": 1666,
      "aw": 1667,
      "Ġraise": 1668,
      "Ġtotally": 1669,
      "Ġgames": 1670,
      "Ġmail": 1671,
      "Ġthrow": 1672,
      "hile": 1673,
      "anks": 1674,
      "Ġaccidentally": 1675,
      "air": 1676,
      "fter": 1677,
      "Ġanim": 1678,
      "line": 1679,
      "Ġmess": 1680,
      "Ġfore": 1681,
      "Ġexperience": 1682,
      "Ġresults": 1683,
      "Ġsituation": 1684,
      "my": 1685,
      "Ġcoo": 1686,
      "Ġash": 1687,
      "Ġcouldnt": 1688,
      "ivers": 1689,
      "Ġcheck": 1690,
      "mas": 1691,
      "Ġdoll": 1692,
      "Ġlight": 1693,
      "ĠIs": 1694,
      "Ġbunch": 1695,
      "Ġrunning": 1696,
      "ym": 1697,
      "yea": 1698,
      "Ġhang": 1699,
      "Ġweird": 1700,
      "Ġroll": 1701,
      "Ġdifferent": 1702,
      "Ġve": 1703,
      "Ġset": 1704,
      "Ġwonderful": 1705,
      "oud": 1706,
      "Aw": 1707,
      "When": 1708,
      "Ġ-": 1709,
      "Ġ8": 1710,
      "Ġwed": 1711,
      "Ġlonely": 1712,
      "osp": 1713,
      "Ġwow": 1714,
      "Ġmath": 1715,
      "Ġgraduated": 1716,
      "ristmas": 1717,
      "Ġthree": 1718,
      "uture": 1719,
      "ometimes": 1720,
      "Ġawful": 1721,
      "ible": 1722,
      "Ġdream": 1723,
      "Ġmusic": 1724,
      "Ġashamed": 1725,
      "Ġpants": 1726,
      "Ġhelped": 1727,
      "yp": 1728,
      "Ġmind": 1729,
      "Ġfuture": 1730,
      "Ġplans": 1731,
      "Ġgrocery": 1732,
      "Ġcamp": 1733,
      "Ġannoy": 1734,
      "Ġrealized": 1735,
      "vel": 1736,
      "Ġjealous": 1737,
      "ĠSt": 1738,
      "Ġloc": 1739,
      "Ġinterest": 1740,
      "Ġexpect": 1741,
      "ci": 1742,
      "ĠWas": 1743,
      "Ġcheated": 1744,
      "Ġbox": 1745,
      "enc": 1746,
      "Ġhosp": 1747,
      "yes": 1748,
      "ived": 1749,
      "Ġwoke": 1750,
      "Ġfly": 1751,
      "Ġstand": 1752,
      "Ġhappens": 1753,
      "Ġgrade": 1754,
      "Ġwear": 1755,
      "Ġcannot": 1756,
      "Ġafford": 1757,
      "erg": 1758,
      "Ġtrou": 1759,
      "Ġisn": 1760,
      "Ġenvious": 1761,
      "pecially": 1762,
      "Ġborn": 1763,
      "Ġsecond": 1764,
      "cess": 1765,
      "ffe": 1766,
      "Ġdent": 1767,
      "llow": 1768,
      "Ġword": 1769,
      "bs": 1770,
      "iece": 1771,
      "Ġcountry": 1772,
      "Ġwindow": 1773,
      "Ġnep": 1774,
      "Ġgotten": 1775,
      "Ġcoffe": 1776,
      "Ġkeeps": 1777,
      "Ġtraffic": 1778,
      "Ġbath": 1779,
      "Ġwedding": 1780,
      "Ġnephew": 1781,
      "Ġexciting": 1782,
      "ised": 1783,
      "ider": 1784,
      "Ġlied": 1785,
      "Ġdefinitely": 1786,
      "Ġcoffee": 1787,
      "Ġmat": 1788,
      "Ġhair": 1789,
      "Ġminutes": 1790,
      "iv": 1791,
      "Ġwom": 1792,
      "Ġste": 1793,
      "ounds": 1794,
      "Ġfine": 1795,
      "Ġsmall": 1796,
      "ĠIn": 1797,
      "irt": 1798,
      "ĠWhy": 1799,
      "ĠAll": 1800,
      "Ġpaying": 1801,
      "Ġpooped": 1802,
      "lier": 1803,
      "ative": 1804,
      "Ġiss": 1805,
      "Ġanxious": 1806,
      "rit": 1807,
      "Ġacce": 1808,
      "Ġsitting": 1809,
      "Ġplanned": 1810,
      "Ġgirls": 1811,
      "ign": 1812,
      "red": 1813,
      "Ġcloth": 1814,
      "Ġsmell": 1815,
      "Ġbusy": 1816,
      "Ġride": 1817,
      "Ġdropped": 1818,
      "Ġsingle": 1819,
      "Ġcomes": 1820,
      "dle": 1821,
      "Ġlau": 1822,
      "ĠMaybe": 1823,
      "Ġstate": 1824,
      "Ġmoment": 1825,
      "Ġspecial": 1826,
      "Ġloud": 1827,
      "Ġneighborhood": 1828,
      "Ġhalf": 1829,
      "iced": 1830,
      "Ġsucks": 1831,
      "Ġcomm": 1832,
      "Ġdist": 1833,
      "cel": 1834,
      "ness": 1835,
      "Ġannoying": 1836,
      "Do": 1837,
      "Ġless": 1838,
      "ined": 1839,
      "Ġoften": 1840,
      "ical": 1841,
      "Ġprobably": 1842,
      "Ġtickets": 1843,
      "Ġhospital": 1844,
      "Ġcert": 1845,
      "Ġland": 1846,
      "cle": 1847,
      "ĠYesterday": 1848,
      "Ġwallet": 1849,
      "Ġvideo": 1850,
      "ian": 1851,
      "Ġinside": 1852,
      "Not": 1853,
      "itive": 1854,
      "ates": 1855,
      "Ġearlier": 1856,
      "Ġmiddle": 1857,
      "Ġsent": 1858,
      "ĠHave": 1859,
      "Ġdead": 1860,
      "ming": 1861,
      "Ġgoes": 1862,
      "Ġlose": 1863,
      "Ġprop": 1864,
      "Ġstudying": 1865,
      "Ġclothes": 1866,
      "bed": 1867,
      "reci": 1868,
      "Ġinf": 1869,
      "ĠAfter": 1870,
      "Ġinstead": 1871,
      "ior": 1872,
      "Ġmil": 1873,
      "Ġfre": 1874,
      "Ġonline": 1875,
      "ney": 1876,
      "Ġtrash": 1877,
      "Ġes": 1878,
      "lling": 1879,
      "Ġexpen": 1880,
      "Ġacross": 1881,
      "Ġimpressed": 1882,
      "Ġthats": 1883,
      "gs": 1884,
      "led": 1885,
      "Ġgym": 1886,
      "Ġfinanc": 1887,
      "Ġreceived": 1888,
      "ustr": 1889,
      "Ġtrouble": 1890,
      "Ġappreci": 1891,
      "wards": 1892,
      "ention": 1893,
      "ither": 1894,
      "eak": 1895,
      "Ġclos": 1896,
      "Ġstarts": 1897,
      "ud": 1898,
      "what": 1899,
      "edit": 1900,
      "fortun": 1901,
      "ues": 1902,
      "onest": 1903,
      "Ġcancer": 1904,
      "Ġoffice": 1905,
      "Ġleaving": 1906,
      "Ġdiffic": 1907,
      "Ġbathroom": 1908,
      "Ġbag": 1909,
      "Ġple": 1910,
      "ĠNo": 1911,
      "Ġplayed": 1912,
      "Ġswim": 1913,
      "Ġextra": 1914,
      "ib": 1915,
      "int": 1916,
      "Ġfinished": 1917,
      "Ġtrue": 1918,
      "Ġpictures": 1919,
      "Ġair": 1920,
      "Ġcand": 1921,
      "Ġoffered": 1922,
      "Ġmissed": 1923,
      "eed": 1924,
      "Ġsch": 1925,
      "Ġhom": 1926,
      "Ġlady": 1927,
      "Ġlocal": 1928,
      "Ġdark": 1929,
      "Ġcredit": 1930,
      "Ġdifficult": 1931,
      "Ġmanager": 1932,
      "Ġcurr": 1933,
      "Ġforever": 1934,
      "ĠV": 1935,
      "right": 1936,
      "Ġcoworkers": 1937,
      "Ġchang": 1938,
      "Ġdisappointed": 1939,
      "Ġ9": 1940,
      "Ġquick": 1941,
      "Thank": 1942,
      "Ġice": 1943,
      "Ġtur": 1944,
      "Ġbook": 1945,
      "Ġcomput": 1946,
      "Ġimag": 1947,
      "Ġbur": 1948,
      "Ġcor": 1949,
      "aken": 1950,
      "Ġpract": 1951,
      "Ġparking": 1952,
      "Ġcompet": 1953,
      "Ġguys": 1954,
      "Ġgrandma": 1955,
      "ĠOnce": 1956,
      "ual": 1957,
      "Ġmaybe": 1958,
      "Ġself": 1959,
      "Ġborrow": 1960,
      "Ġbrand": 1961,
      "aster": 1962,
      "ĠNot": 1963,
      "Ġpoint": 1964,
      "Ġass": 1965,
      "Ġplanning": 1966,
      "oday": 1967,
      "Ġband": 1968,
      "Ġconf": 1969,
      "Ġpri": 1970,
      "Ġguilty": 1971,
      "Ġfair": 1972,
      "aut": 1973,
      "Ġma": 1974,
      "ings": 1975,
      "Ġpo": 1976,
      "Ġstress": 1977,
      "Ġline": 1978,
      "pected": 1979,
      "Ġappro": 1980,
      "Ġadv": 1981,
      "Ġweather": 1982,
      "Ġcomputer": 1983,
      "ho": 1984,
      "Ġ(": 1985,
      "ens": 1986,
      "Ġdra": 1987,
      "Ġyeah": 1988,
      "Ġfrustr": 1989,
      "gest": 1990,
      "Ġcry": 1991,
      "ics": 1992,
      "Ġlooks": 1993,
      "ĠMY": 1994,
      "ĠFr": 1995,
      "Ġposition": 1996,
      "Ġdue": 1997,
      "Ġfeels": 1998,
      "Thats": 1999,
      "Ġ15": 2000,
      "Ġfailed": 2001,
      "Ġcompletely": 2002,
      "Ġlaugh": 2003,
      "but": 2004,
      "Ġwar": 2005,
      "Ġgas": 2006,
      "Ġpulled": 2007,
      "ron": 2008,
      "Ġembarrassed": 2009,
      "ense": 2010,
      "ĠAt": 2011,
      "Ġquiet": 2012,
      "kes": 2013,
      "Ġhold": 2014,
      "Ġhonest": 2015,
      "Ġstep": 2016,
      "Ġarea": 2017,
      "Ġyourself": 2018,
      "ĠCan": 2019,
      "Ġbroken": 2020,
      "Ġrug": 2021,
      "Ġmatter": 2022,
      "Ġwoman": 2023,
      "mate": 2024,
      "Ġfig": 2025,
      "Ġbum": 2026,
      "Ġarri": 2027,
      "Ġlearned": 2028,
      "lor": 2029,
      "outh": 2030,
      "Ġolder": 2031,
      "Ġbuild": 2032,
      "Ġfollow": 2033,
      "acking": 2034,
      "Ġworth": 2035,
      "Ġpositive": 2036,
      "Ġirrit": 2037,
      "Are": 2038,
      "Ġmay": 2039,
      "rect": 2040,
      "Ġliked": 2041,
      "Ġfaith": 2042,
      "Ġcute": 2043,
      "Ġinvited": 2044,
      "co": 2045,
      "ipped": 2046,
      "Ġcash": 2047,
      "Ġcho": 2048,
      "Ġ30": 2049,
      "Ġcrash": 2050,
      "aked": 2051,
      "iving": 2052,
      "essed": 2053,
      "Ġred": 2054,
      "Ġworry": 2055,
      "Ġshort": 2056,
      "Ġunex": 2057,
      "Thanks": 2058,
      "itchen": 2059,
      "com": 2060,
      "Ġmist": 2061,
      "Ġhum": 2062,
      "nday": 2063,
      "Ġbeaut": 2064,
      "Ġkitchen": 2065,
      "Ġothers": 2066,
      "Ġagree": 2067,
      "Ġdiet": 2068,
      "Ġseemed": 2069,
      "ĠChristmas": 2070,
      "Ġpolice": 2071,
      "sh": 2072,
      "Ġtop": 2073,
      "Ġlived": 2074,
      "ĠSometimes": 2075,
      "Ġcover": 2076,
      "Ġexpected": 2077,
      "Ġtelling": 2078,
      "Ġsecret": 2079,
      "Ġunexpected": 2080,
      "Ġcru": 2081,
      "arch": 2082,
      "Ġmeal": 2083,
      "ĠHope": 2084,
      "Ġwants": 2085,
      "Ġdeser": 2086,
      "Ġsurger": 2087,
      "Ġpool": 2088,
      "Ġcrush": 2089,
      "Ġexpensive": 2090,
      "Ġgiven": 2091,
      "Ġeasy": 2092,
      "Ġlisten": 2093,
      "ratch": 2094,
      "000": 2095,
      "Ġcleaning": 2096,
      "ient": 2097,
      "iful": 2098,
      "Ġeveryday": 2099,
      "Ġcertain": 2100,
      "Ġpot": 2101,
      "Ġplan": 2102,
      "Ġmissing": 2103,
      "Ġresp": 2104,
      "Ġsupport": 2105,
      "Ġbills": 2106,
      "ically": 2107,
      "Ġeither": 2108,
      "Ġstopped": 2109,
      "ody": 2110,
      "pid": 2111,
      "sw": 2112,
      "time": 2113,
      "anger": 2114,
      "Ġfloor": 2115,
      "Ġperform": 2116,
      "Ġcourse": 2117,
      "ear": 2118,
      "Ġant": 2119,
      "ĠThen": 2120,
      "ĠMon": 2121,
      "Ġshowed": 2122,
      "Ġtrusted": 2123,
      "Ġtraining": 2124,
      "ongratul": 2125,
      "Ġimagine": 2126,
      "av": 2127,
      "Ġboo": 2128,
      "its": 2129,
      "Ġposs": 2130,
      "Ġchance": 2131,
      "Ġsmash": 2132,
      "Ġdeli": 2133,
      "lies": 2134,
      "Ġcatch": 2135,
      "Ġsurgery": 2136,
      "Ġtakes": 2137,
      "Ġgrateful": 2138,
      "eless": 2139,
      "Ġstuck": 2140,
      "actly": 2141,
      "Ġserious": 2142,
      "Ġtyp": 2143,
      "andom": 2144,
      "Ġperfect": 2145,
      "Ġespecially": 2146,
      "less": 2147,
      "Ġrandom": 2148,
      "Ġsub": 2149,
      "Ġworks": 2150,
      "Ġsever": 2151,
      "Ġdest": 2152,
      "Ġrealize": 2153,
      "ced": 2154,
      "pted": 2155,
      "ory": 2156,
      "Ġworse": 2157,
      "Ġsun": 2158,
      "Ġscratch": 2159,
      "eech": 2160,
      "lt": 2161,
      "no": 2162,
      "Ġhun": 2163,
      "Ġgen": 2164,
      "Ġname": 2165,
      "Ġsuc": 2166,
      "Ġhelping": 2167,
      "ploy": 2168,
      "Ġdrink": 2169,
      "Ġbeautiful": 2170,
      "ĠĠĊ": 2171,
      "Ġtaken": 2172,
      "Ġground": 2173,
      "Ġasking": 2174,
      "Ġphotos": 2175,
      "Some": 2176,
      "Ġbeat": 2177,
      "Ġint": 2178,
      "Ġyes": 2179,
      "Ġcancel": 2180,
      "....": 2181,
      "Ġsmart": 2182,
      "Ġsisters": 2183,
      "Ġevent": 2184,
      "Ġstepped": 2185,
      "by": 2186,
      "Ġcal": 2187,
      "ured": 2188,
      "ĠAs": 2189,
      "Ġspilled": 2190,
      "Ġspeech": 2191,
      "Ġoffer": 2192,
      "Ġstudy": 2193,
      "Ġcamping": 2194,
      "ĠMonday": 2195,
      "oing": 2196,
      "Ġ7": 2197,
      "Ġage": 2198,
      "Ġgrou": 2199,
      "Ġhaha": 2200,
      "Ġloan": 2201,
      "Its": 2202,
      "Ġeng": 2203,
      "Ġgroup": 2204,
      "Ġsal": 2205,
      "Ġcream": 2206,
      "tle": 2207,
      "Ġdress": 2208,
      "Ġnoticed": 2209,
      "Ġchurch": 2210,
      "ongratulations": 2211,
      "Ġ:)": 2212,
      "Ġhol": 2213,
      "Ġitem": 2214,
      "Ġforget": 2215,
      "Ġstru": 2216,
      "ĠTV": 2217,
      "Ġstupid": 2218,
      "Ġdeg": 2219,
      "Ġcons": 2220,
      "Ġclasses": 2221,
      "Ġteacher": 2222,
      "ph": 2223,
      "Ġ?": 2224,
      "ishing": 2225,
      "Ġsteal": 2226,
      "urance": 2227,
      "Ġrent": 2228,
      "eally": 2229,
      "Ġtired": 2230,
      "ompl": 2231,
      "Ġterrified": 2232,
      "Ġadd": 2233,
      "Ġcontest": 2234,
      "Ġreminded": 2235,
      "Ġcruise": 2236,
      "gan": 2237,
      "Ġtv": 2238,
      "Ġaunt": 2239,
      "Ġcase": 2240,
      "Ġcheating": 2241,
      "Ġrelaxing": 2242,
      "ified": 2243,
      "ery": 2244,
      "Ġwre": 2245,
      "Ġbank": 2246,
      "iss": 2247,
      "Ġpeace": 2248,
      "Ġ.": 2249,
      "Ġsong": 2250,
      "Ġcup": 2251,
      "Ġgar": 2252,
      "ors": 2253,
      "olut": 2254,
      "Ġprog": 2255,
      "worker": 2256,
      "how": 2257,
      "Ġtour": 2258,
      "Ġbother": 2259,
      "ĠTr": 2260,
      "Ġdeb": 2261,
      "Ġdollars": 2262,
      "Ġwanting": 2263,
      "Ġnost": 2264,
      "Ġdaughters": 2265,
      "Ġslow": 2266,
      "Ġgrowing": 2267,
      "Ġroommate": 2268,
      "Ġroller": 2269,
      "Ġemotion": 2270,
      "Ġlar": 2271,
      "issed": 2272,
      "Ġpiece": 2273,
      "Ġreg": 2274,
      "Ġones": 2275,
      "Ġsaving": 2276,
      "Ġvom": 2277,
      "Ġlots": 2278,
      "Nice": 2279,
      "oted": 2280,
      "Ġpower": 2281,
      "ade": 2282,
      "Ġrob": 2283,
      "Ġshoes": 2284,
      "Ġpromised": 2285,
      "!!!": 2286,
      "iety": 2287,
      "Ġreturned": 2288,
      "ged": 2289,
      "Ġnumb": 2290,
      "ald": 2291,
      "Ġcats": 2292,
      "Ġlives": 2293,
      "Ġdrunk": 2294,
      "Ġstayed": 2295,
      "ket": 2296,
      "Ġpat": 2297,
      "Ġawhile": 2298,
      "Ġaccompl": 2299,
      "dden": 2300,
      "Ġpresentation": 2301,
      "Ġquickly": 2302,
      "Ġdegree": 2303,
      "There": 2304,
      "Ġz": 2305,
      "Ġrough": 2306,
      "Ġalong": 2307,
      "Ġannoyed": 2308,
      "ĠĠĠĠĠĠĠĠ": 2309,
      "Ġchanged": 2310,
      "Me": 2311,
      "ĠIf": 2312,
      "Ġtor": 2313,
      "Ġjump": 2314,
      "Ġemploy": 2315,
      "Ġbon": 2316,
      "Ġstar": 2317,
      "ĠToday": 2318,
      "Ġsupplies": 2319,
      "Ġgraduate": 2320,
      "Ġholiday": 2321,
      "Ġball": 2322,
      "ities": 2323,
      "Ġattention": 2324,
      "Ġsnake": 2325,
      "Ġinsurance": 2326,
      "man": 2327,
      "ese": 2328,
      "Ġchick": 2329,
      "Ġlawn": 2330,
      "Ġcooking": 2331,
      "Ġspr": 2332,
      "Ġcost": 2333,
      "Ġansw": 2334,
      "Ġintern": 2335,
      "ĠFor": 2336,
      "Ġserv": 2337,
      "fortunately": 2338,
      "book": 2339,
      "Ġembarr": 2340,
      "Ġpissed": 2341,
      "Ġhopeful": 2342,
      "Ġterri": 2343,
      "dy": 2344,
      "ma": 2345,
      "Ġopt": 2346,
      "Ġsaved": 2347,
      "istic": 2348,
      "Ġgiving": 2349,
      "Ġexams": 2350,
      "Ġproblems": 2351,
      "Ġaccepted": 2352,
      "Ġcurrent": 2353,
      "father": 2354,
      "Ġcel": 2355,
      "Ġtreat": 2356,
      "Ġdish": 2357,
      "Ġgh": 2358,
      "Ġnoise": 2359,
      "pect": 2360,
      "io": 2361,
      "Ġmot": 2362,
      "Ġbat": 2363,
      "Ġill": 2364,
      "rol": 2365,
      "ressive": 2366,
      "Ġknows": 2367,
      "ĠBe": 2368,
      "Ġquit": 2369,
      "ized": 2370,
      "Ġphys": 2371,
      "fortable": 2372,
      "Ġcandy": 2373,
      "ĠTrump": 2374,
      "Ġlarge": 2375,
      "Have": 2376,
      "ĠAl": 2377,
      "Ġspeed": 2378,
      "Ġneeds": 2379,
      "ĠNever": 2380,
      "Ġtalked": 2381,
      "ific": 2382,
      "Ġceleb": 2383,
      "Ġcre": 2384,
      "Ġnorm": 2385,
      "key": 2386,
      "Ġbecome": 2387,
      "Ġtripped": 2388,
      "olog": 2389,
      "Ġsatis": 2390,
      "airs": 2391,
      "Ġcompetition": 2392,
      "olutely": 2393,
      "Don": 2394,
      "bo": 2395,
      "ink": 2396,
      "Ġrefu": 2397,
      "Ġpray": 2398,
      "ĠWell": 2399,
      "Ġcoun": 2400,
      "Ġbonus": 2401,
      "ored": 2402,
      "vest": 2403,
      "Ġsudden": 2404,
      "ili": 2405,
      "Ġcars": 2406,
      "Ġgrandfather": 2407,
      "Ġemp": 2408,
      "Ġanimals": 2409,
      "Ġnostalgic": 2410,
      "Ġpoor": 2411,
      "ado": 2412,
      "Ġissues": 2413,
      "Last": 2414,
      "Ġbra": 2415,
      "Ġshop": 2416,
      "Ġkinda": 2417,
      "ĠEven": 2418,
      "Ġextr": 2419,
      "ude": 2420,
      "owl": 2421,
      "Ġgod": 2422,
      "Ġknowing": 2423,
      "Ġeverywhere": 2424,
      "Ġquest": 2425,
      "Ġsaying": 2426,
      "Ġpackage": 2427,
      "Ġcried": 2428,
      "Ġhadn": 2429,
      "Ġsafe": 2430,
      "Ġappoint": 2431,
      "Ġfunny": 2432,
      "rossed": 2433,
      "Ġopened": 2434,
      "Ġstrugg": 2435,
      "Good": 2436,
      "Just": 2437,
      "Ġamount": 2438,
      "Ġcheat": 2439,
      "Ġblood": 2440,
      "Ġresc": 2441,
      "Ġfurious": 2442,
      "Ġsoccer": 2443,
      "intend": 2444,
      "Ġwast": 2445,
      "Ġsave": 2446,
      "Ġadop": 2447,
      "Ġpaper": 2448,
      "thats": 2449,
      "ricane": 2450,
      "Ġanimal": 2451,
      "Ġdestr": 2452,
      "intendo": 2453,
      "ots": 2454,
      "Ġhealthy": 2455,
      "ĠFriday": 2456,
      "ub": 2457,
      "Ġ:(": 2458,
      "Ġbase": 2459,
      "Ġfinish": 2460,
      "ĠNew": 2461,
      "Ġbird": 2462,
      "Ġscore": 2463,
      "Ġcleaned": 2464,
      "haha": 2465,
      "Ġcontrol": 2466,
      "Ġghost": 2467,
      "eel": 2468,
      "Ġtast": 2469,
      "Ġ18": 2470,
      "Ġtype": 2471,
      "Ġlit": 2472,
      "Ġnur": 2473,
      "ility": 2474,
      "ected": 2475,
      "Ġbros": 2476,
      "uckily": 2477,
      "Ġwinning": 2478,
      "Ġamazed": 2479,
      "Ġspending": 2480,
      "Ġpleased": 2481,
      "Ġtorn": 2482,
      "Ġservice": 2483,
      "Ġappointment": 2484,
      "Is": 2485,
      "du": 2486,
      "Ġhon": 2487,
      "Ġsand": 2488,
      "itten": 2489,
      "Ġblack": 2490,
      "ocol": 2491,
      "ĠSuper": 2492,
      "Ġinteresting": 2493,
      "Ġempty": 2494,
      "Ġextrem": 2495,
      "Ġspeak": 2496,
      "assing": 2497,
      "Ġpubl": 2498,
      "Ġfrustrating": 2499,
      "Ha": 2500,
      "ix": 2501,
      "ng": 2502,
      "Ġsy": 2503,
      "edu": 2504,
      "agn": 2505,
      "Ġbudd": 2506,
      "Ġfire": 2507,
      "pet": 2508,
      "ision": 2509,
      "Ġkilled": 2510,
      "Ġhimself": 2511,
      "ĠDis": 2512,
      "Ġdriver": 2513,
      "Ġattend": 2514,
      "Ġhomeless": 2515,
      "ote": 2516,
      "Ġabs": 2517,
      "eck": 2518,
      "Ġteen": 2519,
      "Ġskill": 2520,
      "Ġlearn": 2521,
      "Ġsuccess": 2522,
      "Ġfit": 2523,
      "Ġfart": 2524,
      "Ġrepl": 2525,
      "arden": 2526,
      "arely": 2527,
      "Ġtrans": 2528,
      "Ġgraduation": 2529,
      "Ġphoto": 2530,
      "land": 2531,
      "nam": 2532,
      "ror": 2533,
      "ses": 2534,
      "the": 2535,
      "Ġdie": 2536,
      "Ġpurch": 2537,
      "Ġexactly": 2538,
      "Ġjobs": 2539,
      "Ġanyway": 2540,
      "Ġnerves": 2541,
      "Ġrude": 2542,
      "Ġmiles": 2543,
      "Ġfinancial": 2544,
      "Ġsatisfied": 2545,
      "body": 2546,
      "sel": 2547,
      "used": 2548,
      "Ġsort": 2549,
      "Ġfil": 2550,
      "emon": 2551,
      "antly": 2552,
      "Ġchocol": 2553,
      "Ġruined": 2554,
      "Ġitems": 2555,
      "Ġbaseball": 2556,
      "Ġsimp": 2557,
      "Ġeff": 2558,
      "head": 2559,
      "Ġfear": 2560,
      "Ġpee": 2561,
      "Ġflight": 2562,
      "Ġpromoted": 2563,
      "Ġcomplain": 2564,
      "Ġbasement": 2565,
      "Ġsocial": 2566,
      "Ġcookies": 2567,
      "over": 2568,
      "Ġtree": 2569,
      "atur": 2570,
      "Ġlay": 2571,
      "ida": 2572,
      "ict": 2573,
      "icul": 2574,
      "ters": 2575,
      "ĠWere": 2576,
      "Ġshouldn": 2577,
      "iversity": 2578,
      "ock": 2579,
      "Ġcau": 2580,
      "orld": 2581,
      "Ġkill": 2582,
      "Ġplac": 2583,
      "Ġbadly": 2584,
      "Ġbrothers": 2585,
      "Ġbuying": 2586,
      "Ġstrange": 2587,
      "ĠEveryone": 2588,
      "Ġgener": 2589,
      "Ġav": 2590,
      "Ġfan": 2591,
      "ĠWhere": 2592,
      "Ġasleep": 2593,
      "Ġputting": 2594,
      "ction": 2595,
      "Ġannivers": 2596,
      "Ġmaj": 2597,
      "Ġcrashed": 2598,
      "bum": 2599,
      "cking": 2600,
      "eople": 2601,
      "Ġcontent": 2602,
      "ises": 2603,
      "Ġpost": 2604,
      "Ġopp": 2605,
      "ries": 2606,
      "lew": 2607,
      "icked": 2608,
      "uts": 2609,
      "Ġalbum": 2610,
      "ĠOur": 2611,
      "ĠGoing": 2612,
      "ongrats": 2613,
      "Ġdating": 2614,
      "Ġrese": 2615,
      "Ġusing": 2616,
      "Ġpacked": 2617,
      "ĠHopefully": 2618,
      "Ġnumber": 2619,
      "Ġlic": 2620,
      "unity": 2621,
      "Ġleg": 2622,
      "Ġfaithful": 2623,
      "Ġqual": 2624,
      "Ġseveral": 2625,
      "ĠDisney": 2626,
      "Ġanniversary": 2627,
      "joyed": 2628,
      "ss": 2629,
      "Ġwood": 2630,
      "Ġbike": 2631,
      "Ġsold": 2632,
      "aged": 2633,
      "Ġaward": 2634,
      "Ġclear": 2635,
      "This": 2636,
      "Ġswimming": 2637,
      "Ġirritated": 2638,
      "Ġresearch": 2639,
      "??": 2640,
      "fying": 2641,
      "ocked": 2642,
      "Ġten": 2643,
      "Ġmort": 2644,
      "Ġgrew": 2645,
      "Ġnotice": 2646,
      "Ġdeath": 2647,
      "Ġattack": 2648,
      "Ġimpressive": 2649,
      "Ġsleeping": 2650,
      "Ġstra": 2651,
      "resh": 2652,
      "Ġlonger": 2653,
      "Ġblue": 2654,
      "Ġpicked": 2655,
      "Ġminute": 2656,
      "Ġpicture": 2657,
      "coming": 2658,
      "Im": 2659,
      "Ġcart": 2660,
      "Ġjoy": 2661,
      "oyal": 2662,
      "Ġswitch": 2663,
      "Ġturns": 2664,
      "Ġfixed": 2665,
      "Ġproper": 2666,
      "Ġchocolate": 2667,
      "ram": 2668,
      "asing": 2669,
      "ets": 2670,
      "Ġparent": 2671,
      "ĠMe": 2672,
      "Ġriding": 2673,
      "Ġflying": 2674,
      "ler": 2675,
      "Ġsign": 2676,
      "Ġpur": 2677,
      "Ġshirt": 2678,
      "Ġexp": 2679,
      "Ġlosing": 2680,
      "Ġenjoyed": 2681,
      "ĠLuckily": 2682,
      "ptop": 2683,
      "Ġlaptop": 2684,
      "Ġinternet": 2685,
      "Ġextremely": 2686,
      "Was": 2687,
      "ber": 2688,
      "ouch": 2689,
      "Ġbeha": 2690,
      "ĠWent": 2691,
      "Ġprof": 2692,
      "Ġchecked": 2693,
      "Ġpull": 2694,
      "ĠThose": 2695,
      "ancy": 2696,
      "Ġchicken": 2697,
      "Ġpublic": 2698,
      "Ġmajor": 2699,
      "Ġaut": 2700,
      "oun": 2701,
      "Ġjumped": 2702,
      "Ġapply": 2703,
      "gged": 2704,
      "xiety": 2705,
      "Ġmall": 2706,
      "Ġwasnt": 2707,
      "Ġbeg": 2708,
      "imistic": 2709,
      "Ġanxiety": 2710,
      "Ġcarpet": 2711,
      "Ġ12": 2712,
      "ize": 2713,
      "Ġcontin": 2714,
      "ze": 2715,
      "ened": 2716,
      "Ġgra": 2717,
      "arm": 2718,
      "asty": 2719,
      "Ġlead": 2720,
      "Ġuniversity": 2721,
      "Ġhelps": 2722,
      "ager": 2723,
      "Ġ50": 2724,
      "Ġheartb": 2725,
      "Ġgroceries": 2726,
      "Ġwearing": 2727,
      "Ġschol": 2728,
      "Ġmistake": 2729,
      "Ġembarrassing": 2730,
      "Ġsandw": 2731,
      "Ġtax": 2732,
      "ering": 2733,
      "Ġfilled": 2734,
      "Ġtoil": 2735,
      "Ġgarden": 2736,
      "Ġhaun": 2737,
      "icious": 2738,
      "irty": 2739,
      "gue": 2740,
      "Ġdisgust": 2741,
      "Ġtrave": 2742,
      "ency": 2743,
      "Ġfigure": 2744,
      "Ġbuddy": 2745,
      "Ġhaunted": 2746,
      "50": 2747,
      "ract": 2748,
      "ones": 2749,
      "Ġsentimental": 2750,
      "Ġdou": 2751,
      "Ġdru": 2752,
      "Ġind": 2753,
      "ecently": 2754,
      "Ġspot": 2755,
      "Ġglass": 2756,
      "Ġpair": 2757,
      "ĠSunday": 2758,
      "Ġtoilet": 2759,
      "Ġahead": 2760,
      "Ġfresh": 2761,
      "Ġcheap": 2762,
      "Ġcouch": 2763,
      "Ġscre": 2764,
      "Ġcond": 2765,
      "Ġshows": 2766,
      "Aww": 2767,
      "Ġrespons": 2768,
      "cc": 2769,
      "sit": 2770,
      "Ġwer": 2771,
      "Ġsend": 2772,
      "Ġyelled": 2773,
      "ĠSchool": 2774,
      "Ġplane": 2775,
      "Ġagainst": 2776,
      "Ġvisiting": 2777,
      "Ġbummed": 2778,
      "Ġoptimistic": 2779,
      "aiting": 2780,
      "fer": 2781,
      "wow": 2782,
      "Ġtouch": 2783,
      "Ġach": 2784,
      "Ġnasty": 2785,
      "Ġbeer": 2786,
      "Ġstaying": 2787,
      "Ġaren": 2788,
      "Ġhurricane": 2789,
      "Ġmanaged": 2790,
      "ĠUn": 2791,
      "Ġdistance": 2792,
      "Ġbuilding": 2793,
      "Ġabsolutely": 2794,
      "ai": 2795,
      "sy": 2796,
      "Ġthri": 2797,
      "Ġsqu": 2798,
      "Ġfour": 2799,
      "Ġcam": 2800,
      "Ġrace": 2801,
      "Ġalive": 2802,
      "ilt": 2803,
      "Ġspider": 2804,
      "Ġval": 2805,
      "ached": 2806,
      "arship": 2807,
      "Ġdollar": 2808,
      "Maybe": 2809,
      "Ġbarely": 2810,
      "Ġob": 2811,
      "Ġfeed": 2812,
      "ession": 2813,
      "ĠDon": 2814,
      "Ġnerve": 2815,
      "Ġdrivers": 2816,
      "Ġdisgusted": 2817,
      "Ġbabies": 2818,
      "Ġcourt": 2819,
      "Ġappreciate": 2820,
      "Ġscholarship": 2821,
      "ĠIT": 2822,
      "Ġfing": 2823,
      "Ġtoys": 2824,
      "Ġstation": 2825,
      "pper": 2826,
      "Ġherself": 2827,
      "iest": 2828,
      "Ġcomfortable": 2829,
      "agles": 2830,
      "Ġadult": 2831,
      "Ġtournam": 2832,
      "Ġrobbed": 2833,
      "mit": 2834,
      "Ġtre": 2835,
      "ins": 2836,
      "Ġsou": 2837,
      "Ġtowards": 2838,
      "Ġloyal": 2839,
      "idge": 2840,
      "Ġinvest": 2841,
      "ĠWorld": 2842,
      "Ġ100": 2843,
      "Ġdiagn": 2844,
      "Ġfinding": 2845,
      "Ġdisc": 2846,
      "Ġelect": 2847,
      "Ġturning": 2848,
      "Ġsyst": 2849,
      "let": 2850,
      "ments": 2851,
      "Ġtable": 2852,
      "Ġdam": 2853,
      "Ġcustomer": 2854,
      "Ġcop": 2855,
      "riage": 2856,
      "ication": 2857,
      "Ġafterwards": 2858,
      "Ġdeep": 2859,
      "Ġkey": 2860,
      "Ġflood": 2861,
      "Ġstranger": 2862,
      "Ġchoice": 2863,
      "Ġhungry": 2864,
      "selves": 2865,
      "Really": 2866,
      "ycle": 2867,
      "ining": 2868,
      "Ġfact": 2869,
      "allow": 2870,
      "ama": 2871,
      "Ġfeet": 2872,
      "ĠSp": 2873,
      "Ġdevastated": 2874,
      "Ġhappening": 2875,
      "Ġconst": 2876,
      "Ġissue": 2877,
      "Ġapproved": 2878,
      "Ġdeserve": 2879,
      "One": 2880,
      "ye": 2881,
      "Ġburn": 2882,
      "Ġlow": 2883,
      "rim": 2884,
      "eth": 2885,
      "Ġmeant": 2886,
      "Ġmeans": 2887,
      "check": 2888,
      "Ġgold": 2889,
      "Ġkitten": 2890,
      "ault": 2891,
      "Ġtex": 2892,
      "Ġfired": 2893,
      "Ġhasn": 2894,
      "Ġtruly": 2895,
      "Ġdestroyed": 2896,
      "Ġlicense": 2897,
      "ok": 2898,
      "yard": 2899,
      "Ġniece": 2900,
      "vered": 2901,
      "Ġec": 2902,
      "Ġupcoming": 2903,
      "Ġexce": 2904,
      "Ġbecame": 2905,
      "ument": 2906,
      "ĠMc": 2907,
      "Ġdirect": 2908,
      "Ġshouldnt": 2909,
      "Ġscare": 2910,
      "Ġstudents": 2911,
      "ĠThank": 2912,
      "Ġdrop": 2913,
      "Ġfiance": 2914,
      "Ġbody": 2915,
      "Ġvet": 2916,
      "Ġdebt": 2917,
      "Ġsandwich": 2918,
      "eg": 2919,
      "port": 2920,
      "we": 2921,
      "Ġfault": 2922,
      "eld": 2923,
      "Ġeyes": 2924,
      "Ġstom": 2925,
      "Ġrather": 2926,
      "acks": 2927,
      "Ġspouse": 2928,
      "Ġclosed": 2929,
      "Ġhopefully": 2930,
      "Ġ13": 2931,
      "Ġshower": 2932,
      "Ġdepressed": 2933,
      "Ġmedical": 2934,
      "Ġhanging": 2935,
      "Ġvomited": 2936,
      "Ġtornado": 2937,
      "Ġsystem": 2938,
      "oid": 2939,
      "Ġjoin": 2940,
      "Ġstudent": 2941,
      "Ġ40": 2942,
      "Ġbooks": 2943,
      "Ġwreck": 2944,
      "fast": 2945,
      "ove": 2946,
      "vent": 2947,
      "Ġmill": 2948,
      "Ġsol": 2949,
      "Ġstressed": 2950,
      "ecause": 2951,
      "Ġvol": 2952,
      "Ġdecent": 2953,
      "Ġhandle": 2954,
      "Ġemotional": 2955,
      "ares": 2956,
      "Ġstol": 2957,
      "Ġexpl": 2958,
      "Ġtravel": 2959,
      "Ġart": 2960,
      "ĠRecently": 2961,
      "Ġdrinking": 2962,
      "Ġdentist": 2963,
      "Ġinform": 2964,
      "lorida": 2965,
      "Ġpossible": 2966,
      "Ġeffort": 2967,
      "Ġstolen": 2968,
      "?!": 2969,
      "ift": 2970,
      "Ġpig": 2971,
      "Ġwhenever": 2972,
      "Ġfridge": 2973,
      "Ġorgan": 2974,
      "igned": 2975,
      "ĠLoo": 2976,
      "Ġlearning": 2977,
      "Ġdelicious": 2978,
      "Ġdisgusting": 2979,
      "Ġstomach": 2980,
      "ween": 2981,
      "erc": 2982,
      "Ġwont": 2983,
      "Ġther": 2984,
      "Ġben": 2985,
      "Ġdet": 2986,
      "Ġgre": 2987,
      "Ġpush": 2988,
      "Ġcance": 2989,
      "roken": 2990,
      "Ġsell": 2991,
      "Ġdivor": 2992,
      "Ġfeelings": 2993,
      "ĠFlorida": 2994,
      "Ġhearing": 2995,
      "Ġaccount": 2996,
      "Ġbabysit": 2997,
      "Ġwinter": 2998,
      "Ġfollowing": 2999,
      "Ġtournament": 3000,
      "Ġgun": 3001,
      "Ġpop": 3002,
      "ĠWhile": 3003,
      "ĠAny": 3004,
      "ains": 3005,
      "Ġcoaster": 3006,
      "Ġuns": 3007,
      "Ġbetween": 3008,
      "ĠEagles": 3009,
      "Ġsky": 3010,
      "Ġperformance": 3011,
      "Ġskills": 3012,
      "Ġmatch": 3013,
      "Ġcross": 3014,
      "Ġham": 3015,
      "ĠHad": 3016,
      "ĠYork": 3017,
      "Ġbreakfast": 3018,
      "ĠKind": 3019,
      "Ġaccept": 3020,
      "Ġstressful": 3021,
      "Ġheartbroken": 3022,
      "Sorry": 3023,
      "come": 3024,
      "Ġfat": 3025,
      "Ġreun": 3026,
      "Ġnote": 3027,
      "Ġshare": 3028,
      "Ġexerc": 3029,
      "Ġuncle": 3030,
      "Ġsmo": 3031,
      "Ġarm": 3032,
      "Ġpets": 3033,
      "Ġburger": 3034,
      "Ġwake": 3035,
      "Ġdumb": 3036,
      "oof": 3037,
      "Ġegg": 3038,
      "Ġsport": 3039,
      "Ġpaycheck": 3040,
      "Ġtalent": 3041,
      "ĠGood": 3042,
      "Sounds": 3043,
      "den": 3044,
      "inter": 3045,
      "Ġmen": 3046,
      "iders": 3047,
      "Ġrat": 3048,
      "though": 3049,
      "Ġbackyard": 3050,
      "Ġnose": 3051,
      "Ġtext": 3052,
      "Ġloves": 3053,
      "Ġscream": 3054,
      "Ġgrades": 3055,
      "ĠPeople": 3056,
      "Ġgrown": 3057,
      "Ġdrove": 3058,
      "Ġbasket": 3059,
      "Ġreading": 3060,
      "Ġarrived": 3061,
      "Ġrandomly": 3062,
      "Someone": 3063,
      "Ġprogram": 3064,
      "Ġsuddenly": 3065,
      "20": 3066,
      "Ah": 3067,
      "Who": 3068,
      "ef": 3069,
      "ront": 3070,
      "ube": 3071,
      "Ġbot": 3072,
      "Ġcause": 3073,
      "Ġshel": 3074,
      "Ġwaited": 3075,
      "Ġflow": 3076,
      "Ġsays": 3077,
      "Ġstoked": 3078,
      "Ġemerg": 3079,
      "Ġreminds": 3080,
      "Ġeventually": 3081,
      "Ġgarage": 3082,
      "Ġbegin": 3083,
      "Hi": 3084,
      "Ġ!": 3085,
      "Ġmouth": 3086,
      "ices": 3087,
      "icle": 3088,
      "Ġign": 3089,
      "ĠTurn": 3090,
      "Ġanywhere": 3091,
      "Ġunfortunately": 3092,
      "ĠNintendo": 3093,
      "ĠGot": 3094,
      "ĠGod": 3095,
      "Ġvisited": 3096,
      "Ġboat": 3097,
      "ĠEverything": 3098,
      "ockey": 3099,
      "yeah": 3100,
      "Ġwords": 3101,
      "Ġcreep": 3102,
      "Ġachie": 3103,
      "MY": 3104,
      "Ġgrossed": 3105,
      "ids": 3106,
      "ended": 3107,
      "Ġrac": 3108,
      "asters": 3109,
      "Ġprep": 3110,
      "Ġcold": 3111,
      "Ġevening": 3112,
      "Ġprocess": 3113,
      "Ġrelie": 3114,
      "Ġcalling": 3115,
      "Ġdecision": 3116,
      "Ġreport": 3117,
      "Ġterrifying": 3118,
      "Ġspeeding": 3119,
      "Ġcelebr": 3120,
      "Congratulations": 3121,
      "Every": 3122,
      "Ġtas": 3123,
      "Ġfish": 3124,
      "ator": 3125,
      "Ġlon": 3126,
      "Ġpounds": 3127,
      "Ġwhate": 3128,
      "Ġstick": 3129,
      "appy": 3130,
      "Ġcolor": 3131,
      "ape": 3132,
      "Ġeasier": 3133,
      "Ġcloset": 3134,
      "Ġcrying": 3135,
      "Ġhonestly": 3136,
      "Ġconsider": 3137,
      "Ġhonor": 3138,
      "Haha": 3139,
      "Ġweren": 3140,
      "Ġwhatever": 3141,
      "AT": 3142,
      "fl": 3143,
      "Ġtire": 3144,
      "enior": 3145,
      "inally": 3146,
      "Ġocc": 3147,
      "Ġrequ": 3148,
      "alk": 3149,
      "Ġlie": 3150,
      "Ġshame": 3151,
      "ational": 3152,
      "Ġoldest": 3153,
      "Ġletter": 3154,
      "ption": 3155,
      "Ġgives": 3156,
      "ances": 3157,
      "Hey": 3158,
      "gging": 3159,
      "Ġreceive": 3160,
      "Ġcooked": 3161,
      "Ġopport": 3162,
      "Ġcancelled": 3163,
      "use": 3164,
      "Ġhockey": 3165,
      "Ġflew": 3166,
      "asy": 3167,
      "ising": 3168,
      "artment": 3169,
      "Ġallow": 3170,
      "Ġprepar": 3171,
      "Ġpeed": 3172,
      "Ġclim": 3173,
      "olved": 3174,
      "Ġthanks": 3175,
      "Ġtwice": 3176,
      "ĠUS": 3177,
      "Ġcashier": 3178,
      "Ġdelivery": 3179,
      "Ġmotor": 3180,
      "Donald": 3181,
      "Ġshelter": 3182,
      "did": 3183,
      "lish": 3184,
      "Ġtaught": 3185,
      "erally": 3186,
      "Ġthird": 3187,
      "Ġfed": 3188,
      "Ġcrow": 3189,
      "Ġlane": 3190,
      "Ġnail": 3191,
      "icer": 3192,
      "Ġstory": 3193,
      "Ġcaring": 3194,
      "Ġacting": 3195,
      "ext": 3196,
      "Ġattic": 3197,
      "Ġentered": 3198,
      "Ġheaded": 3199,
      "Ġ201": 3200,
      "avy": 3201,
      "Ġaccomplish": 3202,
      "Ġvolunt": 3203,
      "lord": 3204,
      "mart": 3205,
      "Ġfive": 3206,
      "Ġjer": 3207,
      "urs": 3208,
      "Ġrush": 3209,
      "ĠSatur": 3210,
      "Ġloss": 3211,
      "ĠHa": 3212,
      "rown": 3213,
      "Ġcareer": 3214,
      "Ġcraw": 3215,
      "Ġhorror": 3216,
      "Ġslipped": 3217,
      "Ġpassing": 3218,
      "Ġstrong": 3219,
      "Ġfarted": 3220,
      "Ġpurchased": 3221,
      "Ġplaces": 3222,
      "Ġmortified": 3223,
      "Ġvolunte": 3224,
      "ĠSaturday": 3225,
      "On": 3226,
      "cus": 3227,
      "iod": 3228,
      "ued": 3229,
      "Ġmessed": 3230,
      "Ġsigned": 3231,
      "Ġpan": 3232,
      "Ġbey": 3233,
      "Ġstor": 3234,
      "Ġgoal": 3235,
      "Ġsupris": 3236,
      "Ġsunday": 3237,
      "Ġrecip": 3238,
      "Ġkeys": 3239,
      "Ġbiggest": 3240,
      "apers": 3241,
      "Ġperiod": 3242,
      "Ġrescue": 3243,
      "Ġbehav": 3244,
      "Ġdiagnosed": 3245,
      "aper": 3246,
      "bbed": 3247,
      "under": 3248,
      "Ġsenior": 3249,
      "Ġlake": 3250,
      "Ġfort": 3251,
      "Ġchristmas": 3252,
      "Ġcarry": 3253,
      "Ġnoises": 3254,
      "Ġpride": 3255,
      "Ġconvers": 3256,
      "Ġrelative": 3257,
      "Ġmarriage": 3258,
      "Ġcrushed": 3259,
      "Ġmillion": 3260,
      "Ġcrowd": 3261,
      "gar": 3262,
      "kward": 3263,
      "well": 3264,
      "Ġtrusting": 3265,
      "Ġmain": 3266,
      "Ġsense": 3267,
      "Ġdirty": 3268,
      "Ġchat": 3269,
      "ison": 3270,
      "ayed": 3271,
      "idence": 3272,
      "Ġinj": 3273,
      "icing": 3274,
      "Ġstin": 3275,
      "Ġkick": 3276,
      "ights": 3277,
      "Ġbugs": 3278,
      "Ġ14": 3279,
      "ĠOr": 3280,
      "ĠFeel": 3281,
      "Ġletting": 3282,
      "Ġdrank": 3283,
      "Ġlights": 3284,
      "Ġfreaked": 3285,
      "Ġdishes": 3286,
      "ĠTurns": 3287,
      "Sometimes": 3288,
      "bit": 3289,
      "bly": 3290,
      "cul": 3291,
      "ging": 3292,
      "giving": 3293,
      "lar": 3294,
      "wh": 3295,
      "Ġtem": 3296,
      "eral": 3297,
      "Ġneck": 3298,
      "Ġabused": 3299,
      "Ġspo": 3300,
      "Ġspiders": 3301,
      "Ġparked": 3302,
      "Ġmoms": 3303,
      "Ġflat": 3304,
      "Ġcontact": 3305,
      "Ġhands": 3306,
      "Ġincred": 3307,
      "Ġlandlord": 3308,
      "Ġdraw": 3309,
      "Ġcanceled": 3310,
      "ĠĠĠĠĠĠĠĠĠĠĠĠĠĠĠĠ": 3311,
      "Ġnormal": 3312,
      "Ġflowers": 3313,
      "Ġemergency": 3314,
      "Ġbeyond": 3315,
      "ale": 3316,
      "back": 3317,
      "vis": 3318,
      "Ġtip": 3319,
      "ony": 3320,
      "Ġbowl": 3321,
      "Ġlif": 3322,
      "ilar": 3323,
      "Ġknocked": 3324,
      "ĠAn": 3325,
      "ained": 3326,
      "ĠMakes": 3327,
      "Ġripped": 3328,
      "Ġawkward": 3329,
      "ĠEng": 3330,
      "Ġboard": 3331,
      "Ġdesk": 3332,
      "Ġinsp": 3333,
      "ergy": 3334,
      "Ġsmelled": 3335,
      "Ġcloser": 3336,
      "Ġapplying": 3337,
      "Yep": 3338,
      "bout": 3339,
      "oll": 3340,
      "ug": 3341,
      "ines": 3342,
      "orn": 3343,
      "Ġlaz": 3344,
      "Ġoh": 3345,
      "Ġreview": 3346,
      "ĠTomorrow": 3347,
      "Ġshot": 3348,
      "Ġthemselves": 3349,
      "Ġ16": 3350,
      "Ġpays": 3351,
      "Ġremembered": 3352,
      "Ġsuppose": 3353,
      "Ġhitting": 3354,
      "Ġluckily": 3355,
      "Ġcharge": 3356,
      "Ġcorrect": 3357,
      "Ġlaughing": 3358,
      "Ġcalm": 3359,
      "Ġstealing": 3360,
      "Ġregret": 3361,
      "Ġanswer": 3362,
      "Ġreunion": 3363,
      "Ġbehavior": 3364,
      "Ġfortun": 3365,
      "OL": 3366,
      "uum": 3367,
      "vy": 3368,
      "Ġtin": 3369,
      "Ġdem": 3370,
      "Ġdump": 3371,
      "Ġcell": 3372,
      "Ġpumped": 3373,
      "Ġlikes": 3374,
      "acked": 3375,
      "Ġplant": 3376,
      "Ġteeth": 3377,
      "Ġagg": 3378,
      "akers": 3379,
      "Ġbull": 3380,
      "Ġskin": 3381,
      "ibly": 3382,
      "board": 3383,
      "Ġburned": 3384,
      "ĠMcDonald": 3385,
      "Ġtherap": 3386,
      "Ġbasketball": 3387,
      "onom": 3388,
      "Ġmower": 3389,
      "Ġhide": 3390,
      "Ġtooth": 3391,
      "Ġtodd": 3392,
      "Ġwash": 3393,
      "Ġeye": 3394,
      "Ġath": 3395,
      "Ġwithin": 3396,
      "Ġmoments": 3397,
      "Ġarg": 3398,
      "Ġimmed": 3399,
      "Ġimpro": 3400,
      "Ġbreaking": 3401,
      "Ġgifts": 3402,
      "Ġdepress": 3403,
      "ival": 3404,
      "Ġmilk": 3405,
      "Ġprogress": 3406,
      "Ġquestions": 3407,
      "Ġalbums": 3408,
      "Ġfingers": 3409,
      "Ġlazy": 3410,
      "Ġimmedi": 3411,
      "\".": 3412,
      "bage": 3413,
      "ey": 3414,
      "ikes": 3415,
      "Ġmow": 3416,
      "ides": 3417,
      "Ġreward": 3418,
      "Ġrot": 3419,
      "Ġhardly": 3420,
      "Ġgrandpar": 3421,
      "Ġgiant": 3422,
      "Ġdoctors": 3423,
      "Ġthrowing": 3424,
      "Ġwarm": 3425,
      "Ġcertainly": 3426,
      "Ġadopted": 3427,
      "alloween": 3428,
      "Yesterday": 3429,
      "Ġtoe": 3430,
      "Ġref": 3431,
      "Ġstage": 3432,
      "Ġju": 3433,
      "Ġroof": 3434,
      "Ġalright": 3435,
      "roat": 3436,
      "ĠSm": 3437,
      "iling": 3438,
      "Ġnowhere": 3439,
      "Ġvacuum": 3440,
      "Ġfully": 3441,
      "Ġmemory": 3442,
      "Ġcommit": 3443,
      "Ġphysics": 3444,
      "Ġstruggling": 3445,
      "In": 3446,
      "Where": 3447,
      "ps": 3448,
      "Ġmood": 3449,
      "Ġfright": 3450,
      "Ġfishing": 3451,
      "Ġditch": 3452,
      "Ġdumped": 3453,
      "orch": 3454,
      "orth": 3455,
      "Ġneg": 3456,
      "aced": 3457,
      "ushing": 3458,
      "Ġshock": 3459,
      "Ġsteps": 3460,
      "Ġarrive": 3461,
      "Ġpatient": 3462,
      "Ġaccomplished": 3463,
      "Ġprepare": 3464,
      "pite": 3465,
      "Ġwet": 3466,
      "ino": 3467,
      "Ġhi": 3468,
      "read": 3469,
      "Ġshift": 3470,
      "Ġgoodness": 3471,
      "Ġspell": 3472,
      "Ġloose": 3473,
      "Ġlevel": 3474,
      "Ġrock": 3475,
      "Ġ19": 3476,
      "Ġprodu": 3477,
      "ĠLife": 3478,
      "Ġshoot": 3479,
      "Ġscored": 3480,
      "Ġconv": 3481,
      "ection": 3482,
      "Ġwrote": 3483,
      "Ġowner": 3484,
      "Ġgraduating": 3485,
      "Ġnearly": 3486,
      "ebron": 3487,
      "Ġcomplete": 3488,
      "Ġveh": 3489,
      "Ġengaged": 3490,
      "Ġgarbage": 3491,
      "ĠBefore": 3492,
      "Ġliterally": 3493,
      "Ġfilm": 3494,
      "Ġcondition": 3495,
      "ienc": 3496,
      "Ġer": 3497,
      "Ġet": 3498,
      "Ġtill": 3499,
      "Ġmile": 3500,
      "Ġho": 3501,
      "Ġcas": 3502,
      "ays": 3503,
      "Ġregu": 3504,
      "Ġring": 3505,
      "illy": 3506,
      "Ġsomewhere": 3507,
      "Ġshar": 3508,
      "ĠSh": 3509,
      "ĠLebron": 3510,
      "Ġcareful": 3511,
      "Ġdoesnt": 3512,
      "Ġenjoying": 3513,
      "Ġconcerned": 3514,
      "Ġcharac": 3515,
      "Ġcurrently": 3516,
      "rones": 3517,
      "Ġspring": 3518,
      "ology": 3519,
      "Ġwasted": 3520,
      "Ġstinks": 3521,
      "Ġtiny": 3522,
      "Ġathlet": 3523,
      "Ġimmediately": 3524,
      "Ġregular": 3525,
      "For": 3526,
      "Man": 3527,
      "ister": 3528,
      "specially": 3529,
      "Ġed": 3530,
      "ening": 3531,
      "ince": 3532,
      "Ġfurn": 3533,
      "Ġtoy": 3534,
      "atic": 3535,
      "Ġdanger": 3536,
      "Ġcu": 3537,
      "Ġoil": 3538,
      "Ġamus": 3539,
      "Ġfriday": 3540,
      "ĠHalloween": 3541,
      "eaking": 3542,
      "Ġbacked": 3543,
      "Ġrecover": 3544,
      "Ġheld": 3545,
      "Ġprov": 3546,
      "Ġflies": 3547,
      "Ġyoungest": 3548,
      "ĠReally": 3549,
      "Ġdriveway": 3550,
      "Ġboring": 3551,
      "Ġinvolved": 3552,
      "Ġrepe": 3553,
      "Ġexperienc": 3554,
      "Ġsurv": 3555,
      "Ġraining": 3556,
      "Ġdreams": 3557,
      "Ġinterested": 3558,
      "Ġpracticing": 3559,
      "Ġquestion": 3560,
      "Ġstraight": 3561,
      "Ġconstantly": 3562,
      "Ġargument": 3563,
      "Were": 3564,
      "ev": 3565,
      "Ġhyp": 3566,
      "Ġbutt": 3567,
      "Ġshut": 3568,
      "ilities": 3569,
      "Ġsale": 3570,
      "Ġtech": 3571,
      "Ġafterno": 3572,
      "Ġblow": 3573,
      "ĠThanks": 3574,
      "Ġpicking": 3575,
      "Ġapolog": 3576,
      "Ġbedroom": 3577,
      "eeing": 3578,
      "Ġinvite": 3579,
      "Ġhotel": 3580,
      "awai": 3581,
      "Ġholidays": 3582,
      "Ġsuccessful": 3583,
      "icular": 3584,
      "Ġwoods": 3585,
      "Ġprofession": 3586,
      "100": 3587,
      "ER": 3588,
      "fto": 3589,
      "inis": 3590,
      "Ġhated": 3591,
      "Ġfence": 3592,
      "iture": 3593,
      "ato": 3594,
      "ames": 3595,
      "Ġalot": 3596,
      "Ġlefto": 3597,
      "Ġparticular": 3598,
      "Ġchees": 3599,
      "Ġtests": 3600,
      "Ġmostly": 3601,
      "Ġ90": 3602,
      "Ġborrowed": 3603,
      "Ġfrustrated": 3604,
      "Ġlaughed": 3605,
      "Ġsubject": 3606,
      "Ġpeaceful": 3607,
      "Ġnormally": 3608,
      "Ġpeeved": 3609,
      "Ġavoid": 3610,
      "Ġpurse": 3611,
      "ĠLooking": 3612,
      "Ġvehicle": 3613,
      "Ġfurniture": 3614,
      "Ġafternoon": 3615,
      "Cool": 3616,
      "you": 3617,
      "Ġemb": 3618,
      "Ġmass": 3619,
      "Ġbright": 3620,
      "Ġporch": 3621,
      "Ġrele": 3622,
      "Ġshining": 3623,
      "eces": 3624,
      "ĠAr": 3625,
      "Ġnights": 3626,
      "Ġunable": 3627,
      "Ġreminis": 3628,
      "Ġeaten": 3629,
      "Ġhurting": 3630,
      "Ġswear": 3631,
      "Ġdrives": 3632,
      "Ġairport": 3633,
      "Ġanticip": 3634,
      "Ġcaused": 3635,
      "Ġjerk": 3636,
      "Ġconversation": 3637,
      "culus": 3638,
      "Ġgrandparents": 3639,
      "Ġamusement": 3640,
      "At": 3641,
      "bing": 3642,
      "gers": 3643,
      "ients": 3644,
      "lu": 3645,
      "mates": 3646,
      "sion": 3647,
      "Ġmount": 3648,
      "Ġdance": 3649,
      "Ġcable": 3650,
      "Ġgri": 3651,
      "Ġonto": 3652,
      "Ġsomehow": 3653,
      "ĠHawai": 3654,
      "Ġtool": 3655,
      "Ġspl": 3656,
      "Ġbelong": 3657,
      "Ġgrass": 3658,
      "Ġsix": 3659,
      "Ġkeeping": 3660,
      "Ġdisco": 3661,
      "Ġremembering": 3662,
      "Ġmarket": 3663,
      "Ġemail": 3664,
      "Ġeasily": 3665,
      "Ġappreciative": 3666,
      "Ġfollowed": 3667,
      "Ġperfectly": 3668,
      "Ġloaned": 3669,
      "Ġrecipe": 3670,
      "light": 3671,
      "stairs": 3672,
      "Ġ:\"": 3673,
      "Ġhid": 3674,
      "ature": 3675,
      "arently": 3676,
      "Ġstairs": 3677,
      "Ġrad": 3678,
      "astic": 3679,
      "ĠHis": 3680,
      "Ġunfortun": 3681,
      "Ġ25": 3682,
      "achel": 3683,
      "meric": 3684,
      "Ġthankfully": 3685,
      "ancing": 3686,
      "Ġpregnancy": 3687,
      "Ġbummer": 3688,
      "Ġdivorce": 3689,
      "Ġmotorc": 3690,
      "If": 3691,
      "hich": 3692,
      "Ġmach": 3693,
      "Ġfant": 3694,
      "Ġcrim": 3695,
      "els": 3696,
      "Ġjo": 3697,
      "Ġkiss": 3698,
      "Ġyelling": 3699,
      "Ġalarm": 3700,
      "inder": 3701,
      "Ġprot": 3702,
      "Ġending": 3703,
      "Ġrepair": 3704,
      "Awesome": 3705,
      "ĠStar": 3706,
      "Ġcovered": 3707,
      "Ġmotorcycle": 3708,
      "Ex": 3709,
      "cing": 3710,
      "ieces": 3711,
      "night": 3712,
      "she": 3713,
      "ww": 3714,
      "why": 3715,
      "Ġmater": 3716,
      "orting": 3717,
      "ether": 3718,
      "icated": 3719,
      "alled": 3720,
      "arten": 3721,
      "Ġselling": 3722,
      "cket": 3723,
      "Ġguard": 3724,
      "Ġapprehensive": 3725,
      "ĠFace": 3726,
      "Ġlaid": 3727,
      "Ġtotal": 3728,
      "Ġhumili": 3729,
      "Ġsales": 3730,
      "Ġemployee": 3731,
      "Ġnursing": 3732,
      "Ġsimple": 3733,
      "Ġsoup": 3734,
      "Ġpigs": 3735,
      "Ġpreparing": 3736,
      "ursday": 3737,
      "Dang": 3738,
      "Ugh": 3739,
      "diving": 3740,
      "ky": 3741,
      "lace": 3742,
      "oot": 3743,
      "Ġhous": 3744,
      "ites": 3745,
      "Ġdude": 3746,
      "ndred": 3747,
      "Ġinde": 3748,
      "etting": 3749,
      "Ġwhite": 3750,
      "ĠWith": 3751,
      "ĠWho": 3752,
      "Ġhappier": 3753,
      "ĠAmeric": 3754,
      "ept": 3755,
      "ĠMan": 3756,
      "Ġ200": 3757,
      "Ġbelieved": 3758,
      "Ġfuneral": 3759,
      "Ġscience": 3760,
      "Ġblamed": 3761,
      "Ġdisappoin": 3762,
      "Ġsounded": 3763,
      "ployed": 3764,
      "Ġsupervis": 3765,
      "Ġfield": 3766,
      "Ġhundred": 3767,
      "Ġstorms": 3768,
      "Ġcommunity": 3769,
      "Ġlistening": 3770,
      "Ġstaring": 3771,
      "Ġcelebrate": 3772,
      "Ġproperty": 3773,
      "Ġtraveling": 3774,
      "Ġresponsib": 3775,
      "Ġinformation": 3776,
      "Ġsports": 3777,
      "Ġopportunity": 3778,
      "Ġtherapy": 3779,
      "Nope": 3780,
      "lo": 3781,
      "ta": 3782,
      "Ġhired": 3783,
      "Ġbrown": 3784,
      "Ġcab": 3785,
      "Ġgate": 3786,
      "Ġodd": 3787,
      "Ġreact": 3788,
      "Ġmeat": 3789,
      "ĠSO": 3790,
      "Ġlocked": 3791,
      "sters": 3792,
      "embers": 3793,
      "Ġbecom": 3794,
      "ĠBr": 3795,
      "Ġenergy": 3796,
      "ĠWhenever": 3797,
      "Ġhelpful": 3798,
      "ĠEspecially": 3799,
      "Ġblind": 3800,
      "Ġslam": 3801,
      "Ġdrinks": 3802,
      "Ġfalling": 3803,
      "Ġpolit": 3804,
      "ergarten": 3805,
      "Ġconfidence": 3806,
      "Ġirritating": 3807,
      "Ġhuman": 3808,
      "Ġengine": 3809,
      "Ġadopt": 3810,
      "whel": 3811,
      "wo": 3812,
      "Ġedu": 3813,
      "Ġthunder": 3814,
      "itar": 3815,
      "Ġlbs": 3816,
      "Ġwhether": 3817,
      "lept": 3818,
      "Ġgoals": 3819,
      "Ġheights": 3820,
      "ĠTinder": 3821,
      "ĠWaiting": 3822,
      "ecake": 3823,
      "ĠAm": 3824,
      "Ġwouldnt": 3825,
      "Ġspeaking": 3826,
      "Ġguitar": 3827,
      "Ġrode": 3828,
      "Ġ11": 3829,
      "ĠGrand": 3830,
      "Ġpersonal": 3831,
      "Ġopening": 3832,
      "Ġsnow": 3833,
      "Ġbored": 3834,
      "Ġbrings": 3835,
      "Ġcharged": 3836,
      "Ġfinancially": 3837,
      "Ġcorner": 3838,
      "Ġpractice": 3839,
      "Ġassum": 3840,
      "Ġconfront": 3841,
      "Ġrollerco": 3842,
      "Ġdangerous": 3843,
      "ĠHawaii": 3844,
      "Ġsupervisor": 3845,
      "coh": 3846,
      "hh": 3847,
      "mm": 3848,
      "school": 3849,
      "uch": 3850,
      "yle": 3851,
      "Ġtom": 3852,
      "Ġtend": 3853,
      "erm": 3854,
      "ential": 3855,
      "itude": 3856,
      "Ġlab": 3857,
      "Ġnob": 3858,
      "Ġsoft": 3859,
      "Ġugh": 3860,
      "Ġjud": 3861,
      "amas": 3862,
      "irst": 3863,
      "urity": 3864,
      "Ġrow": 3865,
      "Ġyea": 3866,
      "Ġalcoh": 3867,
      "Ġspace": 3868,
      "Ġbuff": 3869,
      "Ġsons": 3870,
      "ĠFinally": 3871,
      "Ġblessed": 3872,
      "Ġrespect": 3873,
      "Ġinterviews": 3874,
      "Ġtrack": 3875,
      "Ġpleas": 3876,
      "Ġpracticed": 3877,
      "Ġprice": 3878,
      "box": 3879,
      "Ġreplace": 3880,
      "iculous": 3881,
      "Ġoccas": 3882,
      "Ġindeed": 3883,
      "Ġeduc": 3884,
      "Ġalcohol": 3885,
      "Ġtil": 3886,
      "sted": 3887,
      "Ġhes": 3888,
      "enty": 3889,
      "ats": 3890,
      "Ġjack": 3891,
      "robably": 3892,
      "que": 3893,
      "Ġparcel": 3894,
      "Ġchecking": 3895,
      "ĠLike": 3896,
      "aches": 3897,
      "Ġhighway": 3898,
      "Ġrelaxed": 3899,
      "Ġbasically": 3900,
      "Ġpotty": 3901,
      "Ġspray": 3902,
      "Ġmotiv": 3903,
      "Ġcontinue": 3904,
      "Ġtexting": 3905,
      "ĠThankfully": 3906,
      "Ġskydiving": 3907,
      "bt": 3908,
      "boy": 3909,
      "ires": 3910,
      "now": 3911,
      "Ġtu": 3912,
      "omb": 3913,
      "Ġbal": 3914,
      "Ġbachel": 3915,
      "ett": 3916,
      "Ġgosh": 3917,
      "acted": 3918,
      "Ġheavy": 3919,
      "Ġsugar": 3920,
      "Ġharder": 3921,
      "Ġreco": 3922,
      "ĠNext": 3923,
      "born": 3924,
      "Ġhigher": 3925,
      "ementary": 3926,
      "Ġcards": 3927,
      "arket": 3928,
      "Ġhomes": 3929,
      "Ġwaste": 3930,
      "Ġdrugs": 3931,
      "Ġexcept": 3932,
      "Ġunsure": 3933,
      "Ġnecklace": 3934,
      "Ġunfortunate": 3935,
      "Can": 3936,
      "Today": 3937,
      "lol": 3938,
      "walk": 3939,
      "zz": 3940,
      "Ġace": 3941,
      "ination": 3942,
      "Ġmix": 3943,
      "Ġmembers": 3944,
      "Ġbow": 3945,
      "Ġbaked": 3946,
      "Ġda": 3947,
      "Ġcir": 3948,
      "Ġow": 3949,
      "Ġrely": 3950,
      "outube": 3951,
      "Ġest": 3952,
      "ute": 3953,
      "Ġrab": 3954,
      "Ġaband": 3955,
      "Ġworker": 3956,
      "road": 3957,
      "ĠSeeing": 3958,
      "ĠMom": 3959,
      "Ġparts": 3960,
      "Ġbigger": 3961,
      "Ġblast": 3962,
      "Ġdecide": 3963,
      "Ġadmit": 3964,
      "Ġattract": 3965,
      "ĠHowever": 3966,
      "Ġpresents": 3967,
      "ĠDoes": 3968,
      "Ġteaching": 3969,
      "workers": 3970,
      "Ġmedic": 3971,
      "Ġcousins": 3972,
      "Ġpok": 3973,
      "Ġdrag": 3974,
      "Ġwarning": 3975,
      "Ġdeserved": 3976,
      "Ġaddict": 3977,
      "Ġpraying": 3978,
      "edule": 3979,
      "Ġthrilled": 3980,
      "Ġabandon": 3981,
      "LL": 3982,
      "bu": 3983,
      "for": 3984,
      "la": 3985,
      "tt": 3986,
      "Ġcrossed": 3987,
      "Ġlying": 3988,
      "Ġpit": 3989,
      "tered": 3990,
      "Ġlock": 3991,
      "Ġchasing": 3992,
      "Ġcared": 3993,
      "Ġune": 3994,
      "Ġprinter": 3995,
      "Ġbud": 3996,
      "Ġdiapers": 3997,
      "ĠFall": 3998,
      "ĠFelt": 3999,
      "Ġdisney": 4000,
      "Ġfocus": 4001,
      "aps": 4002,
      "Ġmarry": 4003,
      "ĠPok": 4004,
      "bling": 4005,
      "Ġhorri": 4006,
      "Ġlanded": 4007,
      "Ġclosing": 4008,
      "Ġfairly": 4009,
      "Ġholding": 4010,
      "Ġdelivered": 4011,
      "Ġrefund": 4012,
      "ĠMcDonalds": 4013,
      "Ġspelling": 4014,
      "Ġproduct": 4015,
      "Ġetc": 4016,
      "Ġmachine": 4017,
      "ĠFacebook": 4018,
      "ĠPokemon": 4019,
      "Lol": 4020,
      "PA": 4021,
      "care": 4022,
      "ĠOh": 4023,
      "erable": 4024,
      "ina": 4025,
      "Ġbreat": 4026,
      "ari": 4027,
      "Ġhavent": 4028,
      "Ġjun": 4029,
      "Ġliv": 4030,
      "tern": 4031,
      "Ġabove": 4032,
      "ceed": 4033,
      "Ġshape": 4034,
      "Ġsaf": 4035,
      "Ġoverwhel": 4036,
      "exic": 4037,
      "Ġrecent": 4038,
      "ĠMar": 4039,
      "ĠMexic": 4040,
      "ages": 4041,
      "Ġcheer": 4042,
      "Ġflu": 4043,
      "Ġboys": 4044,
      "Ġinterviewed": 4045,
      "Ġdrama": 4046,
      "Ġannual": 4047,
      "Ġapplication": 4048,
      "Ġfigured": 4049,
      "Ġseriously": 4050,
      "iliar": 4051,
      "they": 4052,
      "Ġeconom": 4053,
      "Ġbeginning": 4054,
      "Ġtoddler": 4055,
      "Ġhiking": 4056,
      "Ġcasino": 4057,
      "Ġtechn": 4058,
      "gr": 4059,
      "just": 4060,
      "law": 4061,
      "Ġtall": 4062,
      "att": 4063,
      "Ġgest": 4064,
      "Ġnintendo": 4065,
      "Ġhall": 4066,
      "Ġform": 4067,
      "ĠWal": 4068,
      "Ġsearch": 4069,
      "Ġshots": 4070,
      "Ġchem": 4071,
      "Ġspoke": 4072,
      "Ġuncom": 4073,
      "Ġrecord": 4074,
      "Ġmonday": 4075,
      "Ġcollea": 4076,
      "Ġelementary": 4077,
      "Ġdepend": 4078,
      "Ġdepartment": 4079,
      "lloween": 4080,
      "Ġturtle": 4081,
      "Ġmistakes": 4082,
      "Ġregister": 4083,
      "Ġpushed": 4084,
      "Ġembar": 4085,
      "Ġdisappointing": 4086,
      "bowl": 4087,
      "happy": 4088,
      "oon": 4089,
      "uit": 4090,
      "Ġsim": 4091,
      "Ġsize": 4092,
      "omed": 4093,
      "Ġfem": 4094,
      "Ġfancy": 4095,
      "employed": 4096,
      "Ġpress": 4097,
      "icking": 4098,
      "Ġheat": 4099,
      "Ġris": 4100,
      "Ġsuit": 4101,
      "Ġknown": 4102,
      "Ġprefer": 4103,
      "ership": 4104,
      "ĠBig": 4105,
      "quit": 4106,
      "ffle": 4107,
      "Ġmiserable": 4108,
      "Ġ22": 4109,
      "Ġbless": 4110,
      "Ġblank": 4111,
      "Ġunderw": 4112,
      "Ġstray": 4113,
      "Ġvideos": 4114,
      "Ġboxes": 4115,
      "ission": 4116,
      "ĠBeing": 4117,
      "Ġnegative": 4118,
      "Ġathletic": 4119,
      "Ġprotect": 4120,
      "After": 4121,
      "IN": 4122,
      "fish": 4123,
      "nown": 4124,
      "Ġthrones": 4125,
      "Ġbi": 4126,
      "Ġbun": 4127,
      "ana": 4128,
      "Ġbee": 4129,
      "Ġep": 4130,
      "Ġstri": 4131,
      "Ġjail": 4132,
      "iring": 4133,
      "Ġkit": 4134,
      "illing": 4135,
      "Ġmos": 4136,
      "une": 4137,
      "ung": 4138,
      "Ġunk": 4139,
      "Ġplays": 4140,
      "ĠCongratulations": 4141,
      "izing": 4142,
      "Ġsink": 4143,
      "Ġtrail": 4144,
      "ĠThats": 4145,
      "Ġsuperm": 4146,
      "Ġsecurity": 4147,
      "Ġhurts": 4148,
      "Ġraised": 4149,
      "Ġairpl": 4150,
      "Ġadvant": 4151,
      "Ġbraves": 4152,
      "Ġteenager": 4153,
      "Ġdoubt": 4154,
      "Ġcamer": 4155,
      "Ġcreepy": 4156,
      "Ġprofessional": 4157,
      "Ġoccasion": 4158,
      "Ġsimilar": 4159,
      "EA": 4160,
      "cri": 4161,
      "tain": 4162,
      "was": 4163,
      "eng": 4164,
      "storm": 4165,
      "ĠIve": 4166,
      "Ġbang": 4167,
      "reed": 4168,
      "Ġdry": 4169,
      "Ġdancing": 4170,
      "Ġlim": 4171,
      "chan": 4172,
      "Ġsteak": 4173,
      "irement": 4174,
      "Ġgolf": 4175,
      "seas": 4176,
      "rage": 4177,
      "Ġdaycare": 4178,
      "ĠSounds": 4179,
      "ĠHer": 4180,
      "Ġchased": 4181,
      "ives": 4182,
      "Ġhomework": 4183,
      "Ġoverseas": 4184,
      "ĠBecause": 4185,
      "Ġbuilt": 4186,
      "ĠCal": 4187,
      "Ġhurry": 4188,
      "Ġhopes": 4189,
      "Ġpaint": 4190,
      "Ġappreciated": 4191,
      "Ġpriv": 4192,
      "Ġprize": 4193,
      "Ġadvice": 4194,
      "Ġtaxes": 4195,
      "Ġscreen": 4196,
      "ĠSmash": 4197,
      "Ġleftovers": 4198,
      "Ġcheesecake": 4199,
      "Ġgesture": 4200,
      ").": 4201,
      "Uh": 4202,
      "ees": 4203,
      "iot": 4204,
      "Ġtel": 4205,
      "Ġsel": 4206,
      "Ġhomet": 4207,
      "Ġfro": 4208,
      "Ġcent": 4209,
      "Ġnuts": 4210,
      "Ġhalloween": 4211,
      "Ġdoc": 4212,
      "Ġje": 4213,
      "Ġkicked": 4214,
      "Ġsus": 4215,
      "ĠAC": 4216,
      "Ġclient": 4217,
      "Ġawe": 4218,
      "Ġcheese": 4219,
      "fair": 4220,
      "ucks": 4221,
      "Ġadm": 4222,
      "Ġearn": 4223,
      "Ġhorse": 4224,
      "Ġsnacks": 4225,
      "Ġseries": 4226,
      "ĠFrance": 4227,
      "Ġsecrets": 4228,
      "Ġrespond": 4229,
      "Ġintro": 4230,
      "Ġemployer": 4231,
      "Ġanswers": 4232,
      "Ġcounting": 4233,
      "Ġdouble": 4234,
      "Ġdrug": 4235,
      "Ġeggs": 4236,
      "Ġinjured": 4237,
      "Ġhouses": 4238,
      "Ġnobody": 4239,
      "Ġmosquit": 4240,
      "Ġhometown": 4241,
      "eem": 4242,
      "Ġtail": 4243,
      "Ġwel": 4244,
      "Ġgather": 4245,
      "Ġlakers": 4246,
      "Ġbeard": 4247,
      "Ġmechan": 4248,
      "ĠWill": 4249,
      "rap": 4250,
      "rav": 4251,
      "Ġloving": 4252,
      "ecting": 4253,
      "Ġchamp": 4254,
      "Ġvase": 4255,
      "hings": 4256,
      "ĠBl": 4257,
      "Ġweekends": 4258,
      "Ġdef": 4259,
      "Ġdev": 4260,
      "aching": 4261,
      "Ġcalls": 4262,
      "Ġmark": 4263,
      "Ġrestroom": 4264,
      "Ġelder": 4265,
      "Ġearth": 4266,
      "Ġwriting": 4267,
      "bled": 4268,
      "Ġretirement": 4269,
      "Ġfacebook": 4270,
      "Ġmessage": 4271,
      "velop": 4272,
      "Ġwomen": 4273,
      "ĠInst": 4274,
      "Ġfrequ": 4275,
      "Ġsupportive": 4276,
      "sych": 4277,
      "Ġelectric": 4278,
      "Ġexercise": 4279,
      "Ġtask": 4280,
      "Ġaggrav": 4281,
      "Ġhumiliated": 4282,
      "Ġjunior": 4283,
      "Ġadvantage": 4284,
      "ES": 4285,
      "Our": 4286,
      "ians": 4287,
      "me": 4288,
      "Ġwit": 4289,
      "Ġmember": 4290,
      "Ġthous": 4291,
      "Ġfool": 4292,
      "Ġgig": 4293,
      "Ġnon": 4294,
      "Ġnap": 4295,
      "etfl": 4296,
      "icted": 4297,
      "Ġeager": 4298,
      "ury": 4299,
      "Ġram": 4300,
      "Ġabroad": 4301,
      "Ġseat": 4302,
      "ĠSouth": 4303,
      "iled": 4304,
      "Ġload": 4305,
      "Ġknock": 4306,
      "Ġwaitress": 4307,
      "Ġacted": 4308,
      "exas": 4309,
      "ĠBeen": 4310,
      "Ġtrick": 4311,
      "Ġenc": 4312,
      "Ġdevelop": 4313,
      "ĠFeb": 4314,
      "Ġpayment": 4315,
      "Ġblame": 4316,
      "istory": 4317,
      "Ġleague": 4318,
      "Ġpromise": 4319,
      "ples": 4320,
      "Ġstock": 4321,
      "ĠPl": 4322,
      "Ġbread": 4323,
      "Ġdespite": 4324,
      "Ġinstru": 4325,
      "Ġbringing": 4326,
      "Ġexpectations": 4327,
      "Ġposted": 4328,
      "Ġtravelling": 4329,
      "Ġscreamed": 4330,
      "egas": 4331,
      "Ġbottle": 4332,
      "Ġvolunteered": 4333,
      "Ġrelatives": 4334,
      "Ġuneasy": 4335,
      "Ġfemale": 4336,
      "Ġunknown": 4337,
      "Ġsupermarket": 4338,
      "Ġthousand": 4339,
      "etflix": 4340,
      ".\"": 4341,
      "Very": 4342,
      "Yup": 4343,
      "cious": 4344,
      "lad": 4345,
      "list": 4346,
      "nis": 4347,
      "ode": 4348,
      "rop": 4349,
      "some": 4350,
      "Ġwine": 4351,
      "Ġwild": 4352,
      "omm": 4353,
      "Ġbust": 4354,
      "arter": 4355,
      "Ġrear": 4356,
      "lex": 4357,
      "Ġisol": 4358,
      "Ġupon": 4359,
      "Ġchall": 4360,
      "Ġtear": 4361,
      "Ġprevious": 4362,
      "Ġspit": 4363,
      "ĠBy": 4364,
      "Ġstubbed": 4365,
      "Ġbug": 4366,
      "ĠLOL": 4367,
      "Ġshoe": 4368,
      "ĠER": 4369,
      "ĠDidn": 4370,
      "bles": 4371,
      "Ġski": 4372,
      "Ġtrained": 4373,
      "Ġspecific": 4374,
      "Ġ80": 4375,
      "ĠVery": 4376,
      "ĠVegas": 4377,
      "Ġlaying": 4378,
      "Ġqualified": 4379,
      "Ġjoyful": 4380,
      "Ġdamage": 4381,
      "Ġscreaming": 4382,
      "Ġstories": 4383,
      "ĠEnglish": 4384,
      "Ġcommitted": 4385,
      "eptember": 4386,
      "Ġbuffet": 4387,
      "Ġeducation": 4388,
      "Ġlivid": 4389,
      "Ġairplane": 4390,
      "10": 4391,
      "Congrats": 4392,
      "St": 4393,
      "do": 4394,
      "val": 4395,
      "ero": 4396,
      "Ġthursday": 4397,
      "Ġbite": 4398,
      "ements": 4399,
      "Ġded": 4400,
      "oring": 4401,
      "Ġpile": 4402,
      "ley": 4403,
      "Ġstro": 4404,
      "Ġket": 4405,
      "aco": 4406,
      "Ġren": 4407,
      "Ġsex": 4408,
      "ĠAbout": 4409,
      "Ġenvy": 4410,
      "Ġchef": 4411,
      "rupt": 4412,
      "Ġrelate": 4413,
      "Ġupsetting": 4414,
      "Ġmeaning": 4415,
      "Ġirked": 4416,
      "Ġridiculous": 4417,
      "ences": 4418,
      "Ġassign": 4419,
      "Ġadvance": 4420,
      "Ġcalculus": 4421,
      "Ġsalad": 4422,
      "Ġemotions": 4423,
      "Ġzoo": 4424,
      "Ġbirds": 4425,
      "Ġtaste": 4426,
      "Ġexplain": 4427,
      "Ġcrossing": 4428,
      "Exactly": 4429,
      "Ġmedicine": 4430,
      "Ġuncomfortable": 4431,
      "Ġunderwear": 4432,
      "Ġelderly": 4433,
      "ces": 4434,
      "cial": 4435,
      "don": 4436,
      "door": 4437,
      "pa": 4438,
      "worth": 4439,
      "Ġtight": 4440,
      "ergic": 4441,
      "Ġmal": 4442,
      "Ġfond": 4443,
      "Ġden": 4444,
      "Ġdread": 4445,
      "Ġpound": 4446,
      "Ġpunch": 4447,
      "Ġwasp": 4448,
      "Ġoce": 4449,
      "Ġreach": 4450,
      "Ġwheel": 4451,
      "Ġequ": 4452,
      "ending": 4453,
      "uty": 4454,
      "ĠTexas": 4455,
      "Ġsuff": 4456,
      "Ġworkout": 4457,
      "Ġplate": 4458,
      "Ġcock": 4459,
      "Ġunit": 4460,
      "ĠMade": 4461,
      "Ġtraum": 4462,
      "ĠGetting": 4463,
      "Ġwrite": 4464,
      "Ġattitude": 4465,
      "Ġtrad": 4466,
      "Ġsweat": 4467,
      "Ġpresident": 4468,
      "Ġfailing": 4469,
      "retty": 4470,
      "Ġfreak": 4471,
      "ĠNothing": 4472,
      "Ġanticipating": 4473,
      "avs": 4474,
      "Ġterribly": 4475,
      "Ġillness": 4476,
      "Ġcounty": 4477,
      "Ġrescued": 4478,
      "Ġattacked": 4479,
      "Ġorganized": 4480,
      "Ġsuprising": 4481,
      "Ġlifting": 4482,
      "Ġfrightened": 4483,
      "Ġditched": 4484,
      "Ġexperienced": 4485,
      "Ġrecogn": 4486,
      "Ġbowling": 4487,
      "Ġabandoned": 4488,
      "ON": 4489,
      "OU": 4490,
      "cut": 4491,
      "ton": 4492,
      "Ġmouse": 4493,
      "Ġpen": 4494,
      "Ġpun": 4495,
      "Ġnicer": 4496,
      "Ġoven": 4497,
      "Ġrout": 4498,
      "ĠTime": 4499,
      "ĠTwo": 4500,
      "others": 4501,
      "Ġsucked": 4502,
      "Ġallergic": 4503,
      "Ġsomebody": 4504,
      "Ġmold": 4505,
      "Ġchose": 4506,
      "omething": 4507,
      "ags": 4508,
      "Ġends": 4509,
      "athon": 4510,
      "Ġmarathon": 4511,
      "Ġimpress": 4512,
      "ĠRed": 4513,
      "Ġraffle": 4514,
      "ĠKore": 4515,
      "Ġincome": 4516,
      "Ġsidewalk": 4517,
      "Ġpainting": 4518,
      "Ġrides": 4519,
      "Ġcertific": 4520,
      "Nothing": 4521,
      "Ġschedule": 4522,
      "Ġsevere": 4523,
      "Ġscratched": 4524,
      "Ġsongs": 4525,
      "Ġvomit": 4526,
      "Ġphysical": 4527,
      "Ġquality": 4528,
      "ĠUnfortunately": 4529,
      "Ġbench": 4530,
      "Ġsmooth": 4531,
      "Ġincredible": 4532,
      "Ġradio": 4533,
      "Ġfantastic": 4534,
      "Ġcrime": 4535,
      "Ġbudget": 4536,
      "500": 4537,
      "FC": 4538,
      "da": 4539,
      "efinitely": 4540,
      "ih": 4541,
      "nes": 4542,
      "ship": 4543,
      "Ġing": 4544,
      "Ġticked": 4545,
      "Ġmental": 4546,
      "Ġhost": 4547,
      "oms": 4548,
      "edul": 4549,
      "inge": 4550,
      "Ġcord": 4551,
      "Ġpric": 4552,
      "Ġpian": 4553,
      "Ġnone": 4554,
      "Ġnatur": 4555,
      "esla": 4556,
      "Ġstat": 4557,
      "uth": 4558,
      "urope": 4559,
      "urger": 4560,
      "Ġalthough": 4561,
      "Ġshake": 4562,
      "ĠSeptember": 4563,
      "Ġchann": 4564,
      "Ġcomfort": 4565,
      "Ġdonuts": 4566,
      "Ġmult": 4567,
      "Ġclub": 4568,
      "Ġhowever": 4569,
      "Ġunhappy": 4570,
      "ĠBack": 4571,
      "atching": 4572,
      "Ġbucks": 4573,
      "Ġdiving": 4574,
      "Ġapparently": 4575,
      "Ġfoods": 4576,
      "Ġpuked": 4577,
      "plant": 4578,
      "apan": 4579,
      "Ġskating": 4580,
      "Ġbarking": 4581,
      "ocking": 4582,
      "Ġnearby": 4583,
      "Ġmedia": 4584,
      "uesday": 4585,
      "Ġbooked": 4586,
      "Ġhung": 4587,
      "Ġdebit": 4588,
      "Ġauto": 4589,
      "Ġbott": 4590,
      "Ġshooting": 4591,
      "Ġbecoming": 4592,
      "ĠInstead": 4593,
      "worthy": 4594,
      "Ind": 4595,
      "aff": 4596,
      "ught": 4597,
      "when": 4598,
      "Ġsilly": 4599,
      "Ġfries": 4600,
      "ingly": 4601,
      "real": 4602,
      "Ġcongrats": 4603,
      "Ġpanc": 4604,
      "iding": 4605,
      "Ġonions": 4606,
      "Ġsooo": 4607,
      "aly": 4608,
      "Ġjour": 4609,
      "urning": 4610,
      "ĠTesla": 4611,
      "ĠSw": 4612,
      "ĠHigh": 4613,
      "Ġchair": 4614,
      "apped": 4615,
      "Ġofficer": 4616,
      "Ġvo": 4617,
      "Ġunl": 4618,
      "Ġyours": 4619,
      "Ġsometime": 4620,
      "Ġlovely": 4621,
      "Ġways": 4622,
      "Ġ21": 4623,
      "Ġ24": 4624,
      "Ġusual": 4625,
      "Ġkinds": 4626,
      "Ġtrips": 4627,
      "Ġpulling": 4628,
      "Ġcontract": 4629,
      "Ġcrap": 4630,
      "Ġheading": 4631,
      "Ġteachers": 4632,
      "Ġsatur": 4633,
      "bsolutely": 4634,
      "ivid": 4635,
      "Ġchanging": 4636,
      "Ġmagic": 4637,
      "Ġsavings": 4638,
      "Ġjumping": 4639,
      "Ġrefused": 4640,
      "Ġobvious": 4641,
      "Ġsoul": 4642,
      "Ġdeterm": 4643,
      "Ġignored": 4644,
      "ĠFeels": 4645,
      "Ġcharacters": 4646,
      "Ġanticipation": 4647,
      "Ġdiscovered": 4648,
      "Ġrabbit": 4649,
      "Ġattractive": 4650,
      "Ġocean": 4651,
      "All": 4652,
      "Absolutely": 4653,
      "MW": 4654,
      "OT": 4655,
      "bre": 4656,
      "bron": 4657,
      "wise": 4658,
      "Ġwore": 4659,
      "Ġmention": 4660,
      "Ġblew": 4661,
      "Ġcig": 4662,
      "Ġcavs": 4663,
      "Ġlad": 4664,
      "Ġpump": 4665,
      "Ġya": 4666,
      "Ġnest": 4667,
      "Ġhell": 4668,
      "Ġloans": 4669,
      "Ġknee": 4670,
      "ober": 4671,
      "Ġoffic": 4672,
      "ephew": 4673,
      "Ġagreed": 4674,
      "Ġleash": 4675,
      "ĠBMW": 4676,
      "Ġbetr": 4677,
      "ĠNephew": 4678,
      "Ġawaiting": 4679,
      "Ġ2000": 4680,
      "Ġshocking": 4681,
      "Ġcouples": 4682,
      "ctober": 4683,
      "Ġscrew": 4684,
      "Ġscares": 4685,
      "Ġhighschool": 4686,
      "Ġdise": 4687,
      "ĠThese": 4688,
      "Ġarre": 4689,
      "Ġ500": 4690,
      "Ġfighting": 4691,
      "Ġlesson": 4692,
      "Ġbags": 4693,
      "Ġschedul": 4694,
      "Ġcorn": 4695,
      "Ġpocket": 4696,
      "Ġaddition": 4697,
      "Ġtreatment": 4698,
      "Ġdestroy": 4699,
      "Ġtasted": 4700,
      "Ġgeneral": 4701,
      "Ġproperly": 4702,
      "Ġexercising": 4703,
      "Ġallowed": 4704,
      "Ġaccomplishment": 4705,
      "Ġfortunate": 4706,
      "Ġdemand": 4707,
      "Ġhole": 4708,
      "Ġbachelor": 4709,
      "Ġchampions": 4710,
      "Ġisolated": 4711,
      "As": 4712,
      "IT": 4713,
      "iam": 4714,
      "mune": 4715,
      "sc": 4716,
      "year": 4717,
      "erv": 4718,
      "Ġwishing": 4719,
      "inated": 4720,
      "Ġhire": 4721,
      "Ġfac": 4722,
      "aters": 4723,
      "Ġdying": 4724,
      "Ġlent": 4725,
      "ades": 4726,
      "Ġsocks": 4727,
      "ooked": 4728,
      "alu": 4729,
      "ender": 4730,
      "Ġjunk": 4731,
      "Ġrap": 4732,
      "Ġabuse": 4733,
      "ĠThings": 4734,
      "ĠWhich": 4735,
      "raught": 4736,
      "Ġknife": 4737,
      "Ġbackp": 4738,
      "Ġlebron": 4739,
      "Ġmanage": 4740,
      "Ġcomplex": 4741,
      "Ġdiaper": 4742,
      "ĠCup": 4743,
      "Ġthroughout": 4744,
      "ĠEurope": 4745,
      "Ġphones": 4746,
      "Ġflash": 4747,
      "Ġblown": 4748,
      "Ġrelated": 4749,
      "istry": 4750,
      "Ġwondering": 4751,
      "iforn": 4752,
      "Ġincre": 4753,
      "Ġ60": 4754,
      "Ġevalu": 4755,
      "ĠSuch": 4756,
      "Ġpropos": 4757,
      "Ġproposed": 4758,
      "Ġfinances": 4759,
      "Ġcandid": 4760,
      "Ġstarved": 4761,
      "ĠAlthough": 4762,
      "Ġsimply": 4763,
      "Ġvalue": 4764,
      "Ġcops": 4765,
      "Ġachieve": 4766,
      "Ġrelief": 4767,
      "Ġchatting": 4768,
      "roatia": 4769,
      "Ġprovide": 4770,
      "Ġmaterial": 4771,
      "ĠAmerica": 4772,
      "Ġpokemon": 4773,
      "ĠWalmart": 4774,
      "Ġpiano": 4775,
      "Indeed": 4776,
      "ifornia": 4777,
      "bul": 4778,
      "ears": 4779,
      "nment": 4780,
      "âĢ": 4781,
      "ĠYes": 4782,
      "Ġslept": 4783,
      "Ġhistory": 4784,
      "Ġbak": 4785,
      "Ġdirt": 4786,
      "isions": 4787,
      "Ġpacking": 4788,
      "Ġpsych": 4789,
      "Ġwashing": 4790,
      "Ġbegan": 4791,
      "Ġinse": 4792,
      "Ġund": 4793,
      "Ġnecess": 4794,
      "acy": 4795,
      "Ġfest": 4796,
      "ĠTH": 4797,
      "Ġcoasters": 4798,
      "Ġfriendship": 4799,
      "Ġmonsters": 4800,
      "Ġdownstairs": 4801,
      "Ġplayer": 4802,
      "Ġsmile": 4803,
      "Ġdecisions": 4804,
      "Ġtrustworthy": 4805,
      "ementia": 4806,
      "Ġrained": 4807,
      "Ġdistraught": 4808,
      "Ġunexpectedly": 4809,
      "Ġdeliver": 4810,
      "Ġtransfer": 4811,
      "Ġpurchase": 4812,
      "Ġthanksgiving": 4813,
      "ĠĠĠĠĠĠĠĠĠĠĠĠĠĠĠĠĠĠĠĠĠĠĠĠĠĠĠĠĠĠĠĠ": 4814,
      "Ġrollercoaster": 4815,
      "Ġeconomy": 4816,
      "Ġepis": 4817,
      "Ġintrodu": 4818,
      "âĢĻ": 4819,
      "Ġbakery": 4820,
      "Hope": 4821,
      "Right": 4822,
      "go": 4823,
      "ique": 4824,
      "rom": 4825,
      "static": 4826,
      "Ġtho": 4827,
      "Ġshat": 4828,
      "Ġtow": 4829,
      "Ġtoward": 4830,
      "itis": 4831,
      "Ġcap": 4832,
      "orge": 4833,
      "Ġinch": 4834,
      "Ġrej": 4835,
      "vernment": 4836,
      "heart": 4837,
      "Ġoutf": 4838,
      "ĠWish": 4839,
      "Ġplenty": 4840,
      "Ġovercome": 4841,
      "Ġclown": 4842,
      "Ġaced": 4843,
      "osis": 4844,
      "ĠBell": 4845,
      "ĠDuring": 4846,
      "Ġplayers": 4847,
      "Ġbelt": 4848,
      "Ġkindergarten": 4849,
      "Ġhighest": 4850,
      "Ġdads": 4851,
      "Ġowned": 4852,
      "Ġstuffed": 4853,
      "Ġretired": 4854,
      "Ġfarm": 4855,
      "Ġsituations": 4856,
      "Ġfights": 4857,
      "Ġlaund": 4858,
      "Does": 4859,
      "Ġesc": 4860,
      "Ġpoison": 4861,
      "Ġapproached": 4862,
      "shirt": 4863,
      "Ġsubmit": 4864,
      "Ġsucceed": 4865,
      "Ġcausing": 4866,
      "Ġpurp": 4867,
      "Ġexpired": 4868,
      "Ġfreshman": 4869,
      "ĠSpan": 4870,
      "Ġecstatic": 4871,
      "Ġnailed": 4872,
      "ĠHaving": 4873,
      "Ġcrawling": 4874,
      "Ġdepressing": 4875,
      "Ġdepression": 4876,
      "Ġreminisce": 4877,
      "Ġsplit": 4878,
      "Ġslammed": 4879,
      "Ġthunderstorm": 4880,
      "boys": 4881,
      "Ġarrested": 4882,
      "Yikes": 4883,
      "gage": 4884,
      "ther": 4885,
      "vement": 4886,
      "zed": 4887,
      "inal": 4888,
      "Ġmut": 4889,
      "Ġsau": 4890,
      "Ġban": 4891,
      "Ġbri": 4892,
      "emade": 4893,
      "rel": 4894,
      "Ġpath": 4895,
      "adays": 4896,
      "Ġsoda": 4897,
      "verage": 4898,
      "Ġsuck": 4899,
      "uss": 4900,
      "Ġeverytime": 4901,
      "Ġord": 4902,
      "Ġorig": 4903,
      "Ġcla": 4904,
      "Ġrecomm": 4905,
      "Ġtries": 4906,
      "Ġtricks": 4907,
      "Ġparticip": 4908,
      "Ġrip": 4909,
      "Ġbully": 4910,
      "Ġcompan": 4911,
      "ĠCol": 4912,
      "ulf": 4913,
      "ĠFirst": 4914,
      "Ġscold": 4915,
      "Ġsmoke": 4916,
      "Ġsuperbowl": 4917,
      "Ġactiv": 4918,
      "Ġordering": 4919,
      "Ġannoun": 4920,
      "Ġleaves": 4921,
      "Ġpics": 4922,
      "ĠJapan": 4923,
      "Ġidiot": 4924,
      "Ġpuppies": 4925,
      "onsider": 4926,
      "Ġlessons": 4927,
      "Ġshorts": 4928,
      "Ġpotato": 4929,
      "phones": 4930,
      "Ġwrecked": 4931,
      "Ġbothers": 4932,
      "Ġslowly": 4933,
      "Ġsquid": 4934,
      "Ġflooded": 4935,
      "Ġjoined": 4936,
      "Ġtemper": 4937,
      "Ġconvin": 4938,
      "Ġedge": 4939,
      "Ġhyped": 4940,
      "ĠThanksgiving": 4941,
      "Ġpressure": 4942,
      "Ġjeans": 4943,
      "Ġcertification": 4944,
      "Ġprices": 4945,
      "%.": 4946,
      "afe": 4947,
      "eep": 4948,
      "lbs": 4949,
      "mission": 4950,
      "ugust": 4951,
      "ĠQ": 4952,
      "Ġaid": 4953,
      "Ġaverage": 4954,
      "step": 4955,
      "Ġmir": 4956,
      "Ġble": 4957,
      "Ġbomb": 4958,
      "Ġdar": 4959,
      "Ġgained": 4960,
      "Ġlu": 4961,
      "Ġlang": 4962,
      "Ġport": 4963,
      "Ġnaked": 4964,
      "etic": 4965,
      "iment": 4966,
      "chy": 4967,
      "Ġstyle": 4968,
      "aming": 4969,
      "Ġrare": 4970,
      "Ġabilities": 4971,
      "ĠTo": 4972,
      "ĠWould": 4973,
      "ĠWars": 4974,
      "Ġsomewhat": 4975,
      "Ġshy": 4976,
      "Ġship": 4977,
      "Ġshady": 4978,
      "Ġmod": 4979,
      "Ġprecious": 4980,
      "Ġspare": 4981,
      "iple": 4982,
      "ums": 4983,
      "Ġfinishing": 4984,
      "Ġunless": 4985,
      "ĠDec": 4986,
      "Ġrecital": 4987,
      "ĠMost": 4988,
      "Ġdear": 4989,
      "ĠCar": 4990,
      "ĠFound": 4991,
      "Ġcourage": 4992,
      "Ġneighb": 4993,
      "Ġpayday": 4994,
      "ello": 4995,
      "Ġlets": 4996,
      "Ġscrap": 4997,
      "Ġswer": 4998,
      "Ġcraving": 4999,
      "Those": 5000,
      "Ġdealing": 5001,
      "ify": 5002,
      "Ġsinging": 5003,
      "Ġreasons": 5004,
      "ĠStill": 5005,
      "Ġnephews": 5006,
      "Ġcatching": 5007,
      "Ġbothering": 5008,
      "Ġlitter": 5009,
      "Ġstorage": 5010,
      "Ġincredibly": 5011,
      "Ġinspired": 5012,
      "Ġcabin": 5013,
      "Ġjudge": 5014,
      "Ġselected": 5015,
      "Ġrenew": 5016,
      "Ġsaturday": 5017,
      "Ġscheduled": 5018,
      "Ġlangu": 5019,
      "Ok": 5020,
      "cl": 5021,
      "fted": 5022,
      "gy": 5023,
      "hand": 5024,
      "ik": 5025,
      "iol": 5026,
      "lined": 5027,
      "oved": 5028,
      "ris": 5029,
      "ĠYeah": 5030,
      "Ġtent": 5031,
      "Ġment": 5032,
      "Ġhob": 5033,
      "Ġfried": 5034,
      "reak": 5035,
      "Ġdressed": 5036,
      "Ġduty": 5037,
      "Ġdementia": 5038,
      "Ġpoin": 5039,
      "Ġnature": 5040,
      "Ġnieces": 5041,
      "idered": 5042,
      "Ġyouth": 5043,
      "icy": 5044,
      "Ġum": 5045,
      "ppy": 5046,
      "Ġank": 5047,
      "Ġability": 5048,
      "ĠSorry": 5049,
      "Ġplus": 5050,
      "Ġmadden": 5051,
      "Ġeverybody": 5052,
      "Ġclot": 5053,
      "Ġfamiliar": 5054,
      "Ġrole": 5055,
      "dered": 5056,
      "Ġscen": 5057,
      "Ġdecor": 5058,
      "Ġbitter": 5059,
      "Ġinsane": 5060,
      "Ġinconsider": 5061,
      "Ġpainful": 5062,
      "Ġemployees": 5063,
      "Ġbenef": 5064,
      "Ġgreen": 5065,
      "Ġtalented": 5066,
      "Ġconsidering": 5067,
      "Ġhesit": 5068,
      "Ġdragon": 5069,
      "Ġoverwhelming": 5070,
      "ĠBlack": 5071,
      "Ġfrequently": 5072,
      "Ġramen": 5073,
      "Ġnatural": 5074,
      "Ġvoice": 5075,
      "Ġdisease": 5076,
      "Ġlaundry": 5077,
      "Ġinconsiderate": 5078,
      "--": 5079,
      "Of": 5080,
      "Un": 5081,
      "bby": 5082,
      "cted": 5083,
      "like": 5084,
      "nessed": 5085,
      "pons": 5086,
      "Ġ:/": 5087,
      "Ġmag": 5088,
      "Ġhar": 5089,
      "Ġhike": 5090,
      "Ġfur": 5091,
      "Ġbumped": 5092,
      "orado": 5093,
      "Ġlap": 5094,
      "Ġpant": 5095,
      "Ġop": 5096,
      "Ġhabit": 5097,
      "Ġitself": 5098,
      "Ġinten": 5099,
      "Ġworkers": 5100,
      "ĠSaw": 5101,
      "Ġnowadays": 5102,
      "Ġschools": 5103,
      "osit": 5104,
      "ĠMac": 5105,
      "agers": 5106,
      "Ġ17": 5107,
      "ĠCongrats": 5108,
      "ĠCroatia": 5109,
      "ctic": 5110,
      "Ġstores": 5111,
      "Ġroommates": 5112,
      "Ġfund": 5113,
      "Ġfinals": 5114,
      "Ġunderstanding": 5115,
      "Ġdealership": 5116,
      "Ġdeposit": 5117,
      "Ġrolls": 5118,
      "Ġhaircut": 5119,
      "Ġprior": 5120,
      "Ġapproaching": 5121,
      "Ġsmashed": 5122,
      "Ġconsidered": 5123,
      "phone": 5124,
      "Ġbattle": 5125,
      "Ġcounter": 5126,
      "Ġreplaced": 5127,
      "Ġkilling": 5128,
      "Ġmortgage": 5129,
      "Ġresponsible": 5130,
      "Ġsending": 5131,
      "Ġtreated": 5132,
      "Ġinvested": 5133,
      "Ġelection": 5134,
      "Ġdirection": 5135,
      "Ġrelieved": 5136,
      "Ġcelebrated": 5137,
      "Ġclimbing": 5138,
      "Ġvolunteer": 5139,
      "ĠAnother": 5140,
      "Ġdumpster": 5141,
      "Ġimprove": 5142,
      "Ġrewarding": 5143,
      "Ġrotten": 5144,
      "Ġtools": 5145,
      "Ġresponsibility": 5146,
      "Ġtuition": 5147,
      "Ġbreath": 5148,
      "Ġrisk": 5149,
      "ength": 5150,
      "Ġmechanic": 5151,
      "Ġwitnessed": 5152,
      "Ġcockro": 5153,
      "Ġmultiple": 5154,
      "Ġchampionship": 5155,
      "Ġfestival": 5156,
      "ĠColorado": 5157,
      "Ġneighbour": 5158,
      "200": 5159,
      "Definitely": 5160,
      "cy": 5161,
      "dog": 5162,
      "hold": 5163,
      "iff": 5164,
      "Ġaud": 5165,
      "err": 5166,
      "Ġce": 5167,
      "Ġlend": 5168,
      "lla": 5169,
      "Ġpoo": 5170,
      "Ġbear": 5171,
      "Ġyoutube": 5172,
      "adill": 5173,
      "Ġwebs": 5174,
      "amily": 5175,
      "Ġrum": 5176,
      "anted": 5177,
      "Ġfriendly": 5178,
      "Ġalley": 5179,
      "ĠSAT": 5180,
      "ilies": 5181,
      "Ġhappiness": 5182,
      ".....": 5183,
      "Ġplants": 5184,
      "Ġchoo": 5185,
      "Ġchip": 5186,
      "ĠAugust": 5187,
      "usive": 5188,
      "epend": 5189,
      "Ġdonate": 5190,
      "essor": 5191,
      "Ġlegs": 5192,
      "Ġunf": 5193,
      "Ġrich": 5194,
      "Ġ1000": 5195,
      "ĠCl": 5196,
      "Ġchew": 5197,
      "Ġgrind": 5198,
      "ĠEx": 5199,
      "Ġshowing": 5200,
      "ĠGu": 5201,
      "ĠThink": 5202,
      "Ġterm": 5203,
      "Ġwritten": 5204,
      "Ġheadphones": 5205,
      "Ġhanded": 5206,
      "Ġfixing": 5207,
      "Ġmanagement": 5208,
      "Ġgaming": 5209,
      "Ġevents": 5210,
      "Ġveget": 5211,
      "Ġcommon": 5212,
      "Ġhomemade": 5213,
      "ĠCanad": 5214,
      "shi": 5215,
      "Ġphysically": 5216,
      "Ġgrandfathers": 5217,
      "Ġgrabbed": 5218,
      "Ġsmoking": 5219,
      "Ġtasks": 5220,
      "Ġcolors": 5221,
      "Ġjugg": 5222,
      "Ġregularly": 5223,
      "evision": 5224,
      "Ġapologized": 5225,
      "Ġbrownies": 5226,
      "Ġdaily": 5227,
      "Ġcolleague": 5228,
      "Ġembarassed": 5229,
      "Ġtelevision": 5230,
      "Ġstroke": 5231,
      "Ġrejected": 5232,
      "Ġclaim": 5233,
      "eat": 5234,
      "ground": 5235,
      "gia": 5236,
      "nity": 5237,
      "pting": 5238,
      "vember": 5239,
      "Ġ..": 5240,
      "Ġthroat": 5241,
      "Ġfulf": 5242,
      "Ġcreat": 5243,
      "Ġcongratulations": 5244,
      "orable": 5245,
      "Ġlas": 5246,
      "Ġpitch": 5247,
      "Ġol": 5248,
      "Ġwhil": 5249,
      "Ġisnt": 5250,
      "Ġang": 5251,
      "urricane": 5252,
      "ops": 5253,
      "antic": 5254,
      "Ġgotta": 5255,
      "ĠSc": 5256,
      "ĠSince": 5257,
      "Ġexh": 5258,
      "Ġnewborn": 5259,
      "iew": 5260,
      "Ġview": 5261,
      "ummer": 5262,
      "ago": 5263,
      "Ġdeer": 5264,
      "Ġquiz": 5265,
      "Ġquarter": 5266,
      "Ġconn": 5267,
      "Ġdisaster": 5268,
      "Ġ35": 5269,
      "Ġadorable": 5270,
      "Ġcrack": 5271,
      "Ġactual": 5272,
      "Ġtrop": 5273,
      "Ġpassion": 5274,
      "ĠUFC": 5275,
      "Ġsemi": 5276,
      "Ġincl": 5277,
      "Ġsociety": 5278,
      "Ġveg": 5279,
      "Ġstepping": 5280,
      "Ġexpenses": 5281,
      "Ġbands": 5282,
      "Ġrespon": 5283,
      "Ġenglish": 5284,
      "Ġstruggled": 5285,
      "Ġnurse": 5286,
      "Ġplaced": 5287,
      "ĠDisneyland": 5288,
      "Ġclearly": 5289,
      "Ġfinger": 5290,
      "Ġdamaged": 5291,
      "ĠUSA": 5292,
      "Ġsurvive": 5293,
      "Ġmountains": 5294,
      "ĠBrothers": 5295,
      "Ġengineering": 5296,
      "Ġlimit": 5297,
      "ĠCalifornia": 5298,
      "Ġchallen": 5299,
      "nesday": 5300,
      "Ġpancreat": 5301,
      "ĠSpanish": 5302,
      "About": 5303,
      "Be": 5304,
      "Great": 5305,
      "Probably": 5306,
      "RE": 5307,
      "mother": 5308,
      "oom": 5309,
      "off": 5310,
      "watch": 5311,
      "Ġ'": 5312,
      "Ġess": 5313,
      "Ġtatt": 5314,
      "onder": 5315,
      "Ġmer": 5316,
      "edict": 5317,
      "Ġbout": 5318,
      "Ġbaking": 5319,
      "Ġcin": 5320,
      "ashing": 5321,
      "Ġtheater": 5322,
      "Ġlan": 5323,
      "Ġlines": 5324,
      "Ġpink": 5325,
      "Ġheck": 5326,
      "Ġround": 5327,
      "term": 5328,
      "ĠTaco": 5329,
      "ĠHurricane": 5330,
      "apping": 5331,
      "Ġthinks": 5332,
      "ĠOctober": 5333,
      "Ġletters": 5334,
      "ĠGlad": 5335,
      "isted": 5336,
      "Ġsupporting": 5337,
      "Ġgifted": 5338,
      "Ġmarks": 5339,
      "!!!!": 5340,
      "Ġbreed": 5341,
      "Ġforgotten": 5342,
      "Ġslight": 5343,
      "Ġmothers": 5344,
      "Ġreturning": 5345,
      "Ġenter": 5346,
      "ahamas": 5347,
      "Ġdelayed": 5348,
      "Ġbasic": 5349,
      "Ġthrown": 5350,
      "Ġlocation": 5351,
      "Ġstanding": 5352,
      "Ġwindows": 5353,
      "Ġchores": 5354,
      "Ġnumbers": 5355,
      "Ġstraw": 5356,
      "Ġindepend": 5357,
      "Ġobject": 5358,
      "Ġgoldfish": 5359,
      "Ġdirections": 5360,
      "Ġrequest": 5361,
      "Ġpanic": 5362,
      "ĠEngland": 5363,
      "Ġerrand": 5364,
      "ERY": 5365,
      "Ġreleased": 5366,
      "ootball": 5367,
      "Ġhorribly": 5368,
      "Ġprotective": 5369,
      "Ġconvinced": 5370,
      "Ġclothing": 5371,
      "Ġtattoo": 5372,
      "An": 5373,
      "OM": 5374,
      "OW": 5375,
      "Ouch": 5376,
      "People": 5377,
      "cur": 5378,
      "cony": 5379,
      "eet": 5380,
      "kin": 5381,
      "mg": 5382,
      "mp": 5383,
      "mare": 5384,
      "son": 5385,
      "vir": 5386,
      "Ġver": 5387,
      "Ġvers": 5388,
      "Ġtit": 5389,
      "inking": 5390,
      "ĠIr": 5391,
      "Ġhill": 5392,
      "Ġbinge": 5393,
      "Ġdrow": 5394,
      "Ġcope": 5395,
      "llent": 5396,
      "Ġpie": 5397,
      "elie": 5398,
      "eliness": 5399,
      "icycle": 5400,
      "Ġive": 5401,
      "Ġlik": 5402,
      "Ġlies": 5403,
      "Ġrage": 5404,
      "Ġoutdoor": 5405,
      "ĠWatching": 5406,
      "raph": 5407,
      "Ġaltern": 5408,
      "Ġsea": 5409,
      "ĠSU": 5410,
      "Ġcompared": 5411,
      "Ġwilling": 5412,
      "Ġtheme": 5413,
      "Ġoverall": 5414,
      "ables": 5415,
      "ume": 5416,
      "Ġdevest": 5417,
      "Ġremain": 5418,
      "ruary": 5419,
      "Ġwalmart": 5420,
      "ache": 5421,
      "Ġthoughts": 5422,
      "ctions": 5423,
      "Ġtwins": 5424,
      "Ġreserv": 5425,
      "Ġcrit": 5426,
      "ĠPh": 5427,
      "ĠPretty": 5428,
      "Ġacts": 5429,
      "Ġwracking": 5430,
      "Ġboyfriends": 5431,
      "Ġsket": 5432,
      "Ġruin": 5433,
      "Ġhoped": 5434,
      "Ġsnuck": 5435,
      "ĠUgh": 5436,
      "Ġlunches": 5437,
      "Ġdifference": 5438,
      "ograph": 5439,
      "umber": 5440,
      "Ġ800": 5441,
      "Ġburst": 5442,
      "Ġstruggle": 5443,
      "Ġpaperwork": 5444,
      "hahaha": 5445,
      "Ġghosted": 5446,
      "Ġoppos": 5447,
      "Ġtexted": 5448,
      "Whoa": 5449,
      "Ġ2018": 5450,
      "Ġcarrying": 5451,
      "Ġcharacter": 5452,
      "luding": 5453,
      "Ġbelongings": 5454,
      "Ġbalcony": 5455,
      "Ġchemistry": 5456,
      "Ġprivate": 5457,
      "Ġingred": 5458,
      "Ġladies": 5459,
      "Ġevaluation": 5460,
      "Hopefully": 5461,
      "Ġpurpose": 5462,
      "Ġlanguage": 5463,
      "Ġintense": 5464,
      "Ġresponse": 5465,
      "Ġdevestated": 5466,
      "Because": 5467,
      "ED": 5468,
      "FL": 5469,
      "Same": 5470,
      "fi": 5471,
      "haps": 5472,
      "lif": 5473,
      "rd": 5474,
      "Ġ...": 5475,
      "Ġast": 5476,
      "Ġais": 5477,
      "Ġwound": 5478,
      "Ġmur": 5479,
      "itting": 5480,
      "itary": 5481,
      "Ġpieces": 5482,
      "Ġnor": 5483,
      "Ġnational": 5484,
      "Ġnetflix": 5485,
      "Ġinit": 5486,
      "riger": 5487,
      "Ġforce": 5488,
      "aded": 5489,
      "adow": 5490,
      "Ġwhom": 5491,
      "uten": 5492,
      "acing": 5493,
      "Ġrul": 5494,
      "ĠTook": 5495,
      "ĠTuesday": 5496,
      "rag": 5497,
      "raged": 5498,
      "thank": 5499,
      "atest": 5500,
      "roll": 5501,
      "ĠSan": 5502,
      "Ġexten": 5503,
      "ilot": 5504,
      "Ġyearbook": 5505,
      "ĠHas": 5506,
      "ĠAN": 5507,
      "Ġovernight": 5508,
      "Ġages": 5509,
      "Ġstartled": 5510,
      "ashed": 5511,
      "anna": 5512,
      "Ġhardest": 5513,
      "Ġunp": 5514,
      "ĠBu": 5515,
      "Ġfamilies": 5516,
      "Ġafterward": 5517,
      "olf": 5518,
      "aging": 5519,
      "ĠNFL": 5520,
      "ĠCost": 5521,
      "Ġchest": 5522,
      "Ġapple": 5523,
      "Ġuses": 5524,
      "Ġmission": 5525,
      "Ġhusky": 5526,
      "Ġtalks": 5527,
      "Ġadjust": 5528,
      "Ġhits": 5529,
      "Ġdoors": 5530,
      "Ġslide": 5531,
      "Ġbreaks": 5532,
      "Ġstrang": 5533,
      "ĠKids": 5534,
      "Ġevicted": 5535,
      "Ġfallen": 5536,
      "Ġmessy": 5537,
      "iversal": 5538,
      "Ġassured": 5539,
      "ĠAlways": 5540,
      "Ġbrakes": 5541,
      "Ġtastes": 5542,
      "Ġteenagers": 5543,
      "lando": 5544,
      "Ġclearance": 5545,
      "Ġsignific": 5546,
      "Ġgrab": 5547,
      "Ġhamb": 5548,
      "Ġrequired": 5549,
      "Once": 5550,
      "Ġspoken": 5551,
      "Ġrefriger": 5552,
      "ĠShould": 5553,
      "Ġrepeat": 5554,
      "Ġtotaled": 5555,
      "Ġassume": 5556,
      "Ġlabor": 5557,
      "Ġsoftball": 5558,
      "tte": 5559,
      "ĠMexico": 5560,
      "Ġblessing": 5561,
      "Ġblanket": 5562,
      "Ġtrailer": 5563,
      "Ġcenter": 5564,
      "Ġbearded": 5565,
      "Ġencou": 5566,
      "ĠFebruary": 5567,
      "Ġinstructor": 5568,
      "ropri": 5569,
      "Ġdedicated": 5570,
      "Ġassignment": 5571,
      "donald": 5572,
      "Ġjourney": 5573,
      "ĠSwitch": 5574,
      "Ġobviously": 5575,
      "Ġwhilst": 5576,
      "Ġlikely": 5577,
      "Ġingredients": 5578,
      "Ġrefrigerator": 5579,
      "40": 5580,
      "RI": 5581,
      "To": 5582,
      "hab": 5583,
      "nic": 5584,
      "zer": 5585,
      "Ġwra": 5586,
      "inese": 5587,
      "Ġthick": 5588,
      "Ġsomed": 5589,
      "Ġdated": 5590,
      "Ġgorge": 5591,
      "orida": 5592,
      "Ġlung": 5593,
      "Ġpin": 5594,
      "Ġpal": 5595,
      "Ġpapers": 5596,
      "anke": 5597,
      "aying": 5598,
      "Ġkay": 5599,
      "Ġkitt": 5600,
      "acle": 5601,
      "Ġbutter": 5602,
      "thy": 5603,
      "respect": 5604,
      "ĠHar": 5605,
      "ĠAp": 5606,
      "ĠApp": 5607,
      "Ġpepper": 5608,
      "Ġlotto": 5609,
      "ability": 5610,
      "Ġcol": 5611,
      "Ġunus": 5612,
      "Ġfav": 5613,
      "ĠChe": 5614,
      "ĠLakers": 5615,
      "ization": 5616,
      "ĠOf": 5617,
      "Ġappartment": 5618,
      "ĠFootball": 5619,
      "Ġconfu": 5620,
      "Ġflorida": 5621,
      "Ġ300": 5622,
      "Ġfavorites": 5623,
      "Ġclassmates": 5624,
      "Ġdrun": 5625,
      "Ġcracked": 5626,
      "Ġattached": 5627,
      "Ġruns": 5628,
      "Ġtons": 5629,
      "Ġsnakes": 5630,
      "Ġstrength": 5631,
      "ĠEverytime": 5632,
      "Ġcookie": 5633,
      "Ġhospice": 5634,
      "Ġloudly": 5635,
      "Ġdistr": 5636,
      "sweet": 5637,
      "Ġbeaten": 5638,
      "Ġinternship": 5639,
      "Ġattending": 5640,
      "Ġteenage": 5641,
      "Ġeffect": 5642,
      "Ġtennis": 5643,
      "Ġexpress": 5644,
      "Ġprofessor": 5645,
      "Ġtouched": 5646,
      "Ġcustomers": 5647,
      "Ġbabysitter": 5648,
      "Ġaggressive": 5649,
      "Ġshifts": 5650,
      "ĠArmy": 5651,
      "Ġreminiscing": 5652,
      "Ġpolitical": 5653,
      "ĠGrandma": 5654,
      "Ġjacket": 5655,
      "Ġsafely": 5656,
      "ĠMario": 5657,
      "ING": 5658,
      "Ġcameras": 5659,
      "Ġmosquito": 5660,
      "Ġdetermined": 5661,
      "Ġcigare": 5662,
      "Ġshattered": 5663,
      "Ġmodel": 5664,
      "ĠDecember": 5665,
      "Ġmentally": 5666,
      "Ġhesitant": 5667,
      "Ġopin": 5668,
      "Ġceiling": 5669,
      "Ġrules": 5670,
      "ropriate": 5671,
      "400": 5672,
      "And": 5673,
      "apt": 5674,
      "dge": 5675,
      "down": 5676,
      "house": 5677,
      "ium": 5678,
      "ipper": 5679,
      "mower": 5680,
      "ores": 5681,
      "pon": 5682,
      "uly": 5683,
      "Ġtar": 5684,
      "inc": 5685,
      "otally": 5686,
      "Ġfile": 5687,
      "Ġbree": 5688,
      "Ġdip": 5689,
      "Ġdig": 5690,
      "Ġgain": 5691,
      "orking": 5692,
      "orted": 5693,
      "Ġlord": 5694,
      "Ġbeating": 5695,
      "riving": 5696,
      "immune": 5697,
      "ading": 5698,
      "Ġmeals": 5699,
      "icago": 5700,
      "ĠiP": 5701,
      "Ġigu": 5702,
      "Ġgovernment": 5703,
      "acting": 5704,
      "Ġhey": 5705,
      "Ġhectic": 5706,
      "Ġnotes": 5707,
      "Ġupstairs": 5708,
      "ille": 5709,
      "ĠWH": 5710,
      "Ġshes": 5711,
      "ĠSomething": 5712,
      "unities": 5713,
      "eaks": 5714,
      "Ġanybody": 5715,
      "Ġoverd": 5716,
      "Ġovers": 5717,
      "abor": 5718,
      "Ġnightlight": 5719,
      "Ġnightmare": 5720,
      "Ġunb": 5721,
      "ĠBar": 5722,
      "ĠBest": 5723,
      "Ġstub": 5724,
      "ĠMine": 5725,
      "assion": 5726,
      "Ġourselves": 5727,
      "ĠCould": 5728,
      "Ġproc": 5729,
      "ĠLos": 5730,
      "Ġinterst": 5731,
      "ĠOver": 5732,
      "Ġbelief": 5733,
      "Ġgirlfriends": 5734,
      "Ġcollect": 5735,
      "Ġhighly": 5736,
      "Ġpup": 5737,
      "Ġgrandpa": 5738,
      "Ġaccess": 5739,
      "Ġclassic": 5740,
      "ĠPar": 5741,
      "Ġarent": 5742,
      "Ġattem": 5743,
      "Ġ45": 5744,
      "Ġheadache": 5745,
      "eez": 5746,
      "Ġrepa": 5747,
      "ĠOnly": 5748,
      "Ġcharity": 5749,
      "oga": 5750,
      "Ġweights": 5751,
      "Ġmeds": 5752,
      "Ġmailbox": 5753,
      "Ġvegan": 5754,
      "Ġtroubles": 5755,
      "Ġinflu": 5756,
      "ibility": 5757,
      "Ġmale": 5758,
      "Ġworrying": 5759,
      "Ġsubway": 5760,
      "Ġbothered": 5761,
      "Ġpatients": 5762,
      "Ġzero": 5763,
      "Ġballet": 5764,
      "Ġlawnmower": 5765,
      "Ġavail": 5766,
      "Ġleading": 5767,
      "Ġglasses": 5768,
      "ĠDonald": 5769,
      "Ġexcellent": 5770,
      "Ġgreatest": 5771,
      "Ġarms": 5772,
      "Ġloneliness": 5773,
      "Ġclimate": 5774,
      "ollege": 5775,
      "Ġcurious": 5776,
      "Ġblowing": 5777,
      "Ġhundreds": 5778,
      "Ġhomeschool": 5779,
      "cription": 5780,
      "Ġtradition": 5781,
      "ĠKorean": 5782,
      "ihu": 5783,
      "Ġankle": 5784,
      "errari": 5785,
      "Ġgorgeous": 5786,
      ",,": 5787,
      "avor": 5788,
      "bucks": 5789,
      "cent": 5790,
      "cting": 5791,
      "ios": 5792,
      "noc": 5793,
      "pot": 5794,
      "racking": 5795,
      "sorry": 5796,
      "ware": 5797,
      "Ġtun": 5798,
      "Ġwanna": 5799,
      "stood": 5800,
      "Ġthru": 5801,
      "ott": 5802,
      "Ġbased": 5803,
      "Ġboun": 5804,
      "Ġdess": 5805,
      "Ġduck": 5806,
      "Ġgal": 5807,
      "Ġgear": 5808,
      "Ġlack": 5809,
      "ism": 5810,
      "Ġnames": 5811,
      "Ġowe": 5812,
      "Ġbegging": 5813,
      "Ġinnoc": 5814,
      "Ġreached": 5815,
      "che": 5816,
      "Ġjoke": 5817,
      "lymp": 5818,
      "Ġupgr": 5819,
      "ĠWar": 5820,
      "Ġyell": 5821,
      "Ġsushi": 5822,
      "then": 5823,
      "rying": 5824,
      "Ġali": 5825,
      "cept": 5826,
      "Ġareas": 5827,
      "resent": 5828,
      "ĠHappy": 5829,
      "Ġchill": 5830,
      "Ġotherwise": 5831,
      "Ġanytime": 5832,
      "irlfriend": 5833,
      "Ġcos": 5834,
      "Ġcloud": 5835,
      "igs": 5836,
      "Ġuncer": 5837,
      "ĠBahamas": 5838,
      "ĠDad": 5839,
      "Ġbrac": 5840,
      "Ġguest": 5841,
      "Ġroach": 5842,
      "rue": 5843,
      "ular": 5844,
      "ĠOb": 5845,
      "Ġappet": 5846,
      "Ġshoulder": 5847,
      "Ġgranted": 5848,
      "Ġtesting": 5849,
      "Ġflipped": 5850,
      "Ġflavor": 5851,
      "ĠThough": 5852,
      "Ġdeck": 5853,
      "Ġadn": 5854,
      "play": 5855,
      "place": 5856,
      "ossible": 5857,
      "Ġbreast": 5858,
      "gots": 5859,
      "Ġcontacted": 5860,
      "ĠJuly": 5861,
      "anced": 5862,
      "Ġskunk": 5863,
      "Ġhubby": 5864,
      "Ġrange": 5865,
      "Ġcomplicated": 5866,
      "Ġrestaurants": 5867,
      "ĠYanke": 5868,
      "Ġserving": 5869,
      "Ġdesper": 5870,
      "Ġdesign": 5871,
      "Ġsweetest": 5872,
      "rency": 5873,
      "Ġinstalled": 5874,
      "ahu": 5875,
      "Ġreception": 5876,
      "Ġexcit": 5877,
      "Ġexcuse": 5878,
      "Ġrelationships": 5879,
      "Ġsett": 5880,
      "enced": 5881,
      "Ġdeadline": 5882,
      "Ġinfront": 5883,
      "Ġfreaking": 5884,
      "Ġplease": 5885,
      "Ġdeserves": 5886,
      "Ġlistened": 5887,
      "Ġpossibly": 5888,
      "cedes": 5889,
      "Ġhunting": 5890,
      "Ġembarrased": 5891,
      "Ġtransport": 5892,
      "Ġsorts": 5893,
      "Ġindivid": 5894,
      "Awww": 5895,
      "Ġinformed": 5896,
      "Ġgunsh": 5897,
      "Ġhamster": 5898,
      "Ġcelebration": 5899,
      "ĠFeeling": 5900,
      "Ġdrawing": 5901,
      "Ġrepeated": 5902,
      "Ġhype": 5903,
      "Ġmountain": 5904,
      "Ġresponsibilities": 5905,
      "Ġmixed": 5906,
      "Ġaddiction": 5907,
      "ĠMexican": 5908,
      "Ġbusted": 5909,
      "Ġincreasing": 5910,
      "Ġepisode": 5911,
      "Ġhobby": 5912,
      "Ġbenefits": 5913,
      "Ġwebsite": 5914,
      "ĠCanada": 5915,
      "Ġessential": 5916,
      "Ġkayaking": 5917,
      "Ġopinion": 5918,
      "ihuahu": 5919,
      "Ġdessert": 5920,
      "Ġuncertain": 5921,
      "AM": 5922,
      "But": 5923,
      "Ch": 5924,
      "Going": 5925,
      "Most": 5926,
      "Now": 5927,
      "have": 5928,
      "oly": 5929,
      "rary": 5930,
      "sides": 5931,
      "suit": 5932,
      "were": 5933,
      "Ġx": 5934,
      "Ġide": 5935,
      "erence": 5936,
      "Ġsil": 5937,
      "Ġsight": 5938,
      "Ġsym": 5939,
      "Ġfill": 5940,
      "Ġfake": 5941,
      "Ġcher": 5942,
      "orse": 5943,
      "Ġpill": 5944,
      "Ġpushing": 5945,
      "Ġole": 5946,
      "Ġbeside": 5947,
      "Ġbesides": 5948,
      "owboys": 5949,
      "espite": 5950,
      "Ġease": 5951,
      "Ġstaff": 5952,
      "Ġur": 5953,
      "irting": 5954,
      "fun": 5955,
      "Ġgoss": 5956,
      "Ġrushing": 5957,
      "Ġshred": 5958,
      "ĠAf": 5959,
      "Ġwaking": 5960,
      "Ġwhats": 5961,
      "Ġkidd": 5962,
      "Ġfirm": 5963,
      "Ġcoast": 5964,
      "uments": 5965,
      "ĠBoy": 5966,
      "Ġreconn": 5967,
      "olks": 5968,
      "Ġdevast": 5969,
      "ĠNe": 5970,
      "Ġcompassion": 5971,
      "ĠCowboys": 5972,
      "ruction": 5973,
      "ĠLately": 5974,
      "Ġcareless": 5975,
      "Ġflip": 5976,
      "ĠGPA": 5977,
      "Ġdeclined": 5978,
      "Ġaccused": 5979,
      "Ġclassroom": 5980,
      "Ġtells": 5981,
      "Ġstocked": 5982,
      "ĠPark": 5983,
      "Ġargu": 5984,
      "Ġpaj": 5985,
      "Ġtruth": 5986,
      "Ġskip": 5987,
      "Ġhuh": 5988,
      "onda": 5989,
      "Ġsnu": 5990,
      "Ġrepresent": 5991,
      "Ġeachother": 5992,
      "Ġpresented": 5993,
      "Ġbehold": 5994,
      "Ġphotograph": 5995,
      "Ġcompleted": 5996,
      "Ġmidnight": 5997,
      "Ġboxing": 5998,
      "Ġseconds": 5999,
      "ledge": 6000,
      "Ġzipper": 6001,
      "ĠAlso": 6002,
      "Ġghosts": 6003,
      "Ġtasty": 6004,
      "Ġfiancee": 6005,
      "Ġacceptance": 6006,
      "Ġachievement": 6007,
      "Everyone": 6008,
      "Everything": 6009,
      "Ġopportunities": 6010,
      "Ġcrowded": 6011,
      "Ġspoiled": 6012,
      "ĠStarbucks": 6013,
      "Ġadoption": 6014,
      "Ġbiology": 6015,
      "Ġkitty": 6016,
      "eems": 6017,
      "someone": 6018,
      "Ġketo": 6019,
      "Ġscrewed": 6020,
      "Ġproposal": 6021,
      "Ġnecessary": 6022,
      "Ġcapable": 6023,
      "Ġoutfit": 6024,
      "Ġmutual": 6025,
      "Ġparticipate": 6026,
      "Ġactivities": 6027,
      "Ġumbre": 6028,
      "Unfortunately": 6029,
      "Ġmaggots": 6030,
      "Ġindependent": 6031,
      "ĠIrma": 6032,
      "Ġsketchy": 6033,
      "Ġdrunken": 6034,
      "Ġstubborn": 6035,
      "Ġinterstate": 6036,
      "Ġinnocent": 6037,
      "igslist": 6038,
      "60": 6039,
      "Got": 6040,
      "HH": 6041,
      "LOL": 6042,
      "Omg": 6043,
      "Went": 6044,
      "aved": 6045,
      "can": 6046,
      "cure": 6047,
      "cons": 6048,
      "cused": 6049,
      "dad": 6050,
      "iable": 6051,
      "ipping": 6052,
      "of": 6053,
      "oons": 6054,
      "rot": 6055,
      "sounds": 6056,
      "ts": 6057,
      "ville": 6058,
      "Ġwip": 6059,
      "style": 6060,
      "Ġmic": 6061,
      "Ġhy": 6062,
      "Ġhood": 6063,
      "Ġdang": 6064,
      "Ġcage": 6065,
      "Ġgreet": 6066,
      "orian": 6067,
      "Ġpour": 6068,
      "Ġforg": 6069,
      "Ġforth": 6070,
      "ooh": 6071,
      "char": 6072,
      "Ġstood": 6073,
      "hey": 6074,
      "Ġneat": 6075,
      "Ġneither": 6076,
      "Ġrarely": 6077,
      "Ġabusive": 6078,
      "Ġworkplace": 6079,
      "Ġshed": 6080,
      "Ġshaking": 6081,
      "ĠSpr": 6082,
      "Ġmoon": 6083,
      "Ġhappiest": 6084,
      "respons": 6085,
      "Ġplates": 6086,
      "Ġchain": 6087,
      "ĠAunt": 6088,
      "Ġteh": 6089,
      "Ġtears": 6090,
      "Ġspa": 6091,
      "Ġwaiter": 6092,
      "Ġunfair": 6093,
      "ĠDr": 6094,
      "Ġbrush": 6095,
      "Ġrice": 6096,
      "Ġprison": 6097,
      "ĠCPA": 6098,
      "Ġremained": 6099,
      "Ġdried": 6100,
      "Ġthoughtful": 6101,
      "Ġbeforehand": 6102,
      "elled": 6103,
      "ĠEar": 6104,
      "Ġdisrespect": 6105,
      "ĠGe": 6106,
      "ĠGo": 6107,
      "Ġpuzz": 6108,
      "azing": 6109,
      "Ġwished": 6110,
      "ucky": 6111,
      "Ġfocused": 6112,
      "Ġvacations": 6113,
      "Ġreality": 6114,
      "Ġgluten": 6115,
      "ĠPe": 6116,
      "Ġaction": 6117,
      "Ġpicnic": 6118,
      "Ġskipped": 6119,
      "ĠYoutube": 6120,
      "Ġsnack": 6121,
      "Ġserve": 6122,
      "ĠDoctor": 6123,
      "Ġapartments": 6124,
      "Ġfaster": 6125,
      "Ġstorming": 6126,
      "ĠChinese": 6127,
      "Ġmuscle": 6128,
      "Ġmedication": 6129,
      "Ġmailman": 6130,
      "Ġmusical": 6131,
      "Ġpropose": 6132,
      "Ġinfo": 6133,
      "Ġconference": 6134,
      "Ġchoices": 6135,
      "Ġpatio": 6136,
      "Ġbattery": 6137,
      "Ġswitching": 6138,
      "Ġsquir": 6139,
      "Ġdirectly": 6140,
      "Ġdetail": 6141,
      "Ġdivorced": 6142,
      "Ġreviews": 6143,
      "Ġwashed": 6144,
      "Ġapologize": 6145,
      "Ġreaction": 6146,
      "Ġtomato": 6147,
      "Ġpleasant": 6148,
      "Ġcamera": 6149,
      "Ġwelcome": 6150,
      "Ġeagerly": 6151,
      "Ġwheels": 6152,
      "Ġimpression": 6153,
      "Ġbottom": 6154,
      "Ġrecommend": 6155,
      "Ġpotatoes": 6156,
      "Ġbittersweet": 6157,
      "Ġalternative": 6158,
      "Ġopposite": 6159,
      "ĠCostco": 6160,
      "Ġdistracted": 6161,
      "Ġideas": 6162,
      "Al": 6163,
      "Am": 6164,
      "Holy": 6165,
      "PS": 6166,
      "cast": 6167,
      "every": 6168,
      "foot": 6169,
      "hes": 6170,
      "iver": 6171,
      "lers": 6172,
      "pto": 6173,
      "ring": 6174,
      "uable": 6175,
      "onment": 6176,
      "ĠID": 6177,
      "Ġsens": 6178,
      "edy": 6179,
      "ented": 6180,
      "Ġfolks": 6181,
      "Ġbake": 6182,
      "ustry": 6183,
      "Ġcer": 6184,
      "Ġcere": 6185,
      "Ġgoo": 6186,
      "Ġgut": 6187,
      "orks": 6188,
      "Ġyoga": 6189,
      "ribut": 6190,
      "ety": 6191,
      "ooks": 6192,
      "algia": 6193,
      "allas": 6194,
      "Ġstates": 6195,
      "Ġkar": 6196,
      "Ġanger": 6197,
      "aces": 6198,
      "Ġhero": 6199,
      "Ġshadow": 6200,
      "Ġchase": 6201,
      "Ġchihuahu": 6202,
      "Ġcomics": 6203,
      "Ġspir": 6204,
      "Ġaffair": 6205,
      "abet": 6206,
      "Ġmug": 6207,
      "Ġcoach": 6208,
      "ĠBros": 6209,
      "ĠDI": 6210,
      "ĠDespite": 6211,
      "Ġparks": 6212,
      "Ġparrot": 6213,
      "ĠMaster": 6214,
      "Ġenvir": 6215,
      "Ġprank": 6216,
      "arring": 6217,
      "Ġroot": 6218,
      "ĠNavy": 6219,
      "Ġawoke": 6220,
      "Ġremorse": 6221,
      "ĠLove": 6222,
      "Ġsadd": 6223,
      "Ġsadly": 6224,
      "Ġcollection": 6225,
      "Ġscam": 6226,
      "Ġflirt": 6227,
      "Ġswallow": 6228,
      "Ġpartying": 6229,
      "neath": 6230,
      "Ġunderneath": 6231,
      "aped": 6232,
      "Ġstays": 6233,
      "Ġfirew": 6234,
      "Ġroomate": 6235,
      "Ġelated": 6236,
      "Ġelses": 6237,
      "ĠRock": 6238,
      "ĠJames": 6239,
      "Ġskate": 6240,
      "Ġretail": 6241,
      "Ġserved": 6242,
      "ups": 6243,
      "Ġgambling": 6244,
      "ĠKing": 6245,
      "ĠChicago": 6246,
      "rats": 6247,
      "Ġincor": 6248,
      "Ġevil": 6249,
      "Ġaffect": 6250,
      "Ġirrespons": 6251,
      "ĠStr": 6252,
      "ĠStud": 6253,
      "Ġdistant": 6254,
      "Ġswimsuit": 6255,
      "ints": 6256,
      "ĠVERY": 6257,
      "Ġdraft": 6258,
      "Ġcrypto": 6259,
      "Ġsecretly": 6260,
      "Ġpossibility": 6261,
      "Ġtypes": 6262,
      "Ġrefuse": 6263,
      "Ġspeaker": 6264,
      "Ġbehaved": 6265,
      "Ġindustry": 6266,
      "Ġthrift": 6267,
      "Ġcamper": 6268,
      "Ġvaledict": 6269,
      "Ġvaluable": 6270,
      "Ġtreas": 6271,
      "Ġtrees": 6272,
      "Ġdiscount": 6273,
      "ĠKinda": 6274,
      "ĠKindergarten": 6275,
      "Ġlonesome": 6276,
      "Ġpreparation": 6277,
      "Ġsuprised": 6278,
      "ĠOrlando": 6279,
      "Ġrecovered": 6280,
      "Ġrelease": 6281,
      "Ġgrill": 6282,
      "Ġjogging": 6283,
      "ĠAmerican": 6284,
      "Ġmotivated": 6285,
      "Ġbalance": 6286,
      "Ġaggravated": 6287,
      "Ġdreading": 6288,
      "Ġchannels": 6289,
      "Ġmentioned": 6290,
      "Ġbackpack": 6291,
      "Ġcandidate": 6292,
      "Ġinsecure": 6293,
      "Ġsomeday": 6294,
      "Ġiguana": 6295,
      "Ġappetite": 6296,
      "ĠYankees": 6297,
      "Ġessentials": 6298,
      "function": 6299,
      "Ġcereal": 6300,
      "Ġchihuahua": 6301,
      "Ġenvironment": 6302,
      "Ġvaledictorian": 6303,
      "AN": 6304,
      "Any": 6305,
      "School": 6306,
      "While": 6307,
      "Your": 6308,
      "good": 6309,
      "hor": 6310,
      "ii": 6311,
      "lin": 6312,
      "mo": 6313,
      "ners": 6314,
      "rast": 6315,
      "sually": 6316,
      "uper": 6317,
      "Ġtires": 6318,
      "Ġwolf": 6319,
      "Ġhat": 6320,
      "Ġbom": 6321,
      "Ġbid": 6322,
      "Ġbacking": 6323,
      "Ġtore": 6324,
      "iter": 6325,
      "itor": 6326,
      "reaking": 6327,
      "Ġdrew": 6328,
      "Ġcoy": 6329,
      "Ġcakes": 6330,
      "Ġgum": 6331,
      "aring": 6332,
      "arant": 6333,
      "anes": 6334,
      "anoid": 6335,
      "Ġyum": 6336,
      "Ġrehab": 6337,
      "Ġsore": 6338,
      "Ġey": 6339,
      "Ġstain": 6340,
      "Ġjury": 6341,
      "irth": 6342,
      "Ġheav": 6343,
      "Ġrom": 6344,
      "ĠToo": 6345,
      "Ġshaken": 6346,
      "Ġcomfor": 6347,
      "Ġnightma": 6348,
      "Ġclo": 6349,
      "iger": 6350,
      "umes": 6351,
      "Ġunw": 6352,
      "Ġparanoid": 6353,
      "ĠMust": 6354,
      "Ġparties": 6355,
      "gues": 6356,
      "Ġrolled": 6357,
      "ĠNOT": 6358,
      "ĠCity": 6359,
      "ĠCollege": 6360,
      "Ġawake": 6361,
      "Ġ23": 6362,
      "ĠFl": 6363,
      "Ġdisapp": 6364,
      "Ġ34": 6365,
      "Ġtrapped": 6366,
      "ista": 6367,
      "Ġinterviewing": 6368,
      "Ġcris": 6369,
      "ĠPres": 6370,
      "Ġactive": 6371,
      "Ġhorrified": 6372,
      "Ġpizzas": 6373,
      "Ġguessing": 6374,
      "Ġteams": 6375,
      "Ġsneak": 6376,
      "Ġsurprising": 6377,
      "Ġinstantly": 6378,
      "Ġreceiving": 6379,
      "Ġbarista": 6380,
      "ifying": 6381,
      "Ġ64": 6382,
      "Ġpresenting": 6383,
      "Ġmessing": 6384,
      "Ġcheckout": 6385,
      "Ġcommun": 6386,
      "onestly": 6387,
      "ĠNovember": 6388,
      "Ġburrit": 6389,
      "Ġconfir": 6390,
      "Ġmatters": 6391,
      "Ġpotential": 6392,
      "Ġperformed": 6393,
      "Ġforgetting": 6394,
      "Ġstruck": 6395,
      "Ġconsist": 6396,
      "Ġrented": 6397,
      "orsche": 6398,
      "Ġvomiting": 6399,
      "Ġpatience": 6400,
      "Ġterrif": 6401,
      "Ġbuddies": 6402,
      "Ġwooded": 6403,
      "Ġcontinues": 6404,
      "ĠUniversal": 6405,
      "Ġconstruction": 6406,
      "Ġartist": 6407,
      "Ġpopular": 6408,
      "Ġracist": 6409,
      "Ġracco": 6410,
      "ugget": 6411,
      "Ġfortune": 6412,
      "Ġplanted": 6413,
      "Ġskinny": 6414,
      "Ġtoddlers": 6415,
      "Ġfrightening": 6416,
      "etti": 6417,
      "Ġcirc": 6418,
      "Ġestate": 6419,
      "Ġdocument": 6420,
      "Ġsusp": 6421,
      "Ġmosquitos": 6422,
      "Ġaggravating": 6423,
      "Ġloads": 6424,
      "ĠPlus": 6425,
      "cials": 6426,
      "Ġmalfunction": 6427,
      "Ġroutine": 6428,
      "Ġtransferred": 6429,
      "Ġcockroach": 6430,
      "Ġtrophy": 6431,
      "Ġvegas": 6432,
      "Ġstrawber": 6433,
      "OMG": 6434,
      "ĠSUV": 6435,
      "Ġaston": 6436,
      "Ġaisle": 6437,
      "Ġstrangers": 6438,
      "Ġsignificant": 6439,
      "Ġavailable": 6440,
      "Ġgossip": 6441,
      "Ġumbrella": 6442,
      "ĠSpring": 6443,
      "Ġsquirrel": 6444,
      "Ġsaddened": 6445,
      "Ġfireworks": 6446,
      "Ġnightmares": 6447,
      "EE": 6448,
      "IC": 6449,
      "KEA": 6450,
      "OH": 6451,
      "OP": 6452,
      "Tomorrow": 6453,
      "True": 6454,
      "VE": 6455,
      "because": 6456,
      "kids": 6457,
      "nival": 6458,
      "por": 6459,
      "vard": 6460,
      "who": 6461,
      "zard": 6462,
      "Ġ&": 6463,
      "ĠX": 6464,
      "Ġot": 6465,
      "Ġtab": 6466,
      "ona": 6467,
      "ĠInd": 6468,
      "ĠIKEA": 6469,
      "Ġmel": 6470,
      "Ġthor": 6471,
      "Ġsite": 6472,
      "Ġharm": 6473,
      "Ġhilar": 6474,
      "Ġfb": 6475,
      "Ġbond": 6476,
      "Ġbicycle": 6477,
      "Ġtopping": 6478,
      "Ġdough": 6479,
      "Ġdorm": 6480,
      "Ġpy": 6481,
      "anch": 6482,
      "Ġnood": 6483,
      "Ġnach": 6484,
      "Ġnugget": 6485,
      "Ġinapp": 6486,
      "ril": 6487,
      "ghetti": 6488,
      "imch": 6489,
      "adem": 6490,
      "lest": 6491,
      "Ġult": 6492,
      "Ġkimch": 6493,
      "Ġlift": 6494,
      "section": 6495,
      "ĠWonder": 6496,
      "Ġhers": 6497,
      "ĠSitting": 6498,
      "aun": 6499,
      "Ġfruit": 6500,
      "Ġexact": 6501,
      "ils": 6502,
      "ĠHA": 6503,
      "Ġchunk": 6504,
      "Ġcarnival": 6505,
      "Ġspooked": 6506,
      "Ġspaces": 6507,
      "Ġvar": 6508,
      "Ġlean": 6509,
      "Ġlease": 6510,
      "Ġacadem": 6511,
      "Ġunc": 6512,
      "Ġuni": 6513,
      "Ġunif": 6514,
      "Ġscariest": 6515,
      "Ġbuzz": 6516,
      "Ġmomma": 6517,
      "Ġquilt": 6518,
      "ĠLas": 6519,
      "ĠLol": 6520,
      "ĠOK": 6521,
      "Ġpayed": 6522,
      "Ġblock": 6523,
      "Ġdislike": 6524,
      "ĠThinking": 6525,
      "nee": 6526,
      "Ġclassmate": 6527,
      "Ġcleaner": 6528,
      "Ġattacking": 6529,
      "Ġpaw": 6530,
      "ĠRe": 6531,
      "ĠRo": 6532,
      "ĠRight": 6533,
      "ĠRuss": 6534,
      "Ġcutting": 6535,
      "Ġcutest": 6536,
      "Ġhugged": 6537,
      "Ġcompliment": 6538,
      "ddle": 6539,
      "Ġrealizing": 6540,
      "Ġhealing": 6541,
      "Ġhandling": 6542,
      "Ġfreeway": 6543,
      "Ġfreezer": 6544,
      "Ġinspect": 6545,
      "Ġfailure": 6546,
      "ifically": 6547,
      "ĠKeep": 6548,
      "Ġincom": 6549,
      "Ġreminder": 6550,
      "Ġpolic": 6551,
      "Ġcharging": 6552,
      "Ġlightning": 6553,
      "Ġstandard": 6554,
      "Ġsteam": 6555,
      "Ġsmelly": 6556,
      "uded": 6557,
      "Ġ95": 6558,
      "Ġcompetitive": 6559,
      "Ġstressing": 6560,
      "Ġadvent": 6561,
      "hole": 6562,
      "Ġ70": 6563,
      "Ġaddress": 6564,
      "Ġregard": 6565,
      "Ġstarving": 6566,
      "Ġtreats": 6567,
      "Ġattended": 6568,
      "Ġtransplant": 6569,
      "Ġcomplained": 6570,
      "Ġtaxi": 6571,
      "Ġdeeply": 6572,
      "Ġkeyboard": 6573,
      "Ġsolo": 6574,
      "Ġbabysitting": 6575,
      "Ġracing": 6576,
      "Ġconsiderate": 6577,
      "ĠHaha": 6578,
      "Ġperiods": 6579,
      "Ġmainly": 6580,
      "Ġmaintain": 6581,
      "Ġinspiring": 6582,
      "Ġmowing": 6583,
      "Ġexperiences": 6584,
      "Ġsurvived": 6585,
      "Ġmaternity": 6586,
      "Ġrollercoasters": 6587,
      "Ġsoftware": 6588,
      "Ġowl": 6589,
      "Ġhorrifying": 6590,
      "laws": 6591,
      "Ġcolleagues": 6592,
      "Ġpunched": 6593,
      "Ġhostel": 6594,
      "Ġofficially": 6595,
      "Ġbetrayed": 6596,
      "iams": 6597,
      "Ġpointed": 6598,
      "ĠGuess": 6599,
      "Ġchallenge": 6600,
      "Ġhamburger": 6601,
      "Ġkittens": 6602,
      "Ġoverslept": 6603,
      "Ġprocrast": 6604,
      "Ġgunshots": 6605,
      "Ġkiddos": 6606,
      "Ġphotographs": 6607,
      "Ġincorrect": 6608,
      "Ġcryptocur": 6609,
      "Ġthorough": 6610,
      "Ġhilarious": 6611,
      "Ġinappropriate": 6612,
      "Ġkimchi": 6613,
      "Ġuniform": 6614,
      "),": 6615,
      "300": 6616,
      "AA": 6617,
      "Hmm": 6618,
      "Like": 6619,
      "Sure": 6620,
      "Super": 6621,
      "TH": 6622,
      "corn": 6623,
      "iant": 6624,
      "nel": 6625,
      "oided": 6626,
      "town": 6627,
      "vable": 6628,
      "word": 6629,
      "wracking": 6630,
      "yy": 6631,
      "zzy": 6632,
      "Ġ;": 6633,
      "ene": 6634,
      "ench": 6635,
      "ĠIN": 6636,
      "ĠIS": 6637,
      "Ġmac": 6638,
      "Ġthreat": 6639,
      "Ġsession": 6640,
      "otle": 6641,
      "Ġhiring": 6642,
      "Ġbare": 6643,
      "Ġcass": 6644,
      "ask": 6645,
      "Ġlower": 6646,
      "issing": 6647,
      "Ġpage": 6648,
      "Ġobs": 6649,
      "Ġwhis": 6650,
      "alian": 6651,
      "icles": 6652,
      "icians": 6653,
      "Ġego": 6654,
      "amond": 6655,
      "Ġrate": 6656,
      "Ġworries": 6657,
      "Ġfee": 6658,
      "ĠTotally": 6659,
      "raft": 6660,
      "Ġalter": 6661,
      "ĠSad": 6662,
      "ĠSix": 6663,
      "Ġlover": 6664,
      "Ġknocking": 6665,
      "ĠHard": 6666,
      "inds": 6667,
      "Ġplumber": 6668,
      "Ġchains": 6669,
      "ĠAustr": 6670,
      "carriage": 6671,
      "Ġwave": 6672,
      "ephen": 6673,
      "Ġoverchar": 6674,
      "Ġvan": 6675,
      "Ġviol": 6676,
      "Ġmum": 6677,
      "Ġmuse": 6678,
      "umbled": 6679,
      "Ġmansion": 6680,
      "ĠDay": 6681,
      "ĠMRI": 6682,
      "Ġripping": 6683,
      "Ġpretend": 6684,
      "Ġmiscarriage": 6685,
      "Ġdiabet": 6686,
      "Ġdiamond": 6687,
      "Ġinterrupt": 6688,
      "Ġpayments": 6689,
      "esting": 6690,
      "Ġflown": 6691,
      "Ġflirting": 6692,
      "Ġblocking": 6693,
      "Ġtragic": 6694,
      "ĠThrones": 6695,
      "Ġdecades": 6696,
      "Ġbiting": 6697,
      "ĠPer": 6698,
      "ĠPart": 6699,
      "ĠProbably": 6700,
      "Ġsooner": 6701,
      "Ġargue": 6702,
      "Ġhurric": 6703,
      "Ġimpact": 6704,
      "blings": 6705,
      "ĠRem": 6706,
      "Ġpasta": 6707,
      "Ġdoorstep": 6708,
      "Ġslapped": 6709,
      "Ġskirt": 6710,
      "ĠYour": 6711,
      "Ġunderstands": 6712,
      "Ġgrandmothers": 6713,
      "ĠUber": 6714,
      "Ġcountries": 6715,
      "Ġhealthier": 6716,
      "ĠChrist": 6717,
      "Ġincluding": 6718,
      "Ġsurround": 6719,
      "Ġprojects": 6720,
      "Ġwalls": 6721,
      "airy": 6722,
      "Ġcooks": 6723,
      "Ġsetting": 6724,
      "Ġmusician": 6725,
      "Ġsmaller": 6726,
      "Ġhalfway": 6727,
      "Ġdistur": 6728,
      "Ġturbul": 6729,
      "Ġpractically": 6730,
      "Ġholds": 6731,
      "Ġcoverage": 6732,
      "Ġsalary": 6733,
      "Ġadded": 6734,
      "Ġsuccessfully": 6735,
      "emony": 6736,
      "Ġsimpler": 6737,
      "Ġgeneration": 6738,
      "Ġavoided": 6739,
      "Ġheartbreaking": 6740,
      "Ġdisconn": 6741,
      "Ġorganization": 6742,
      "Ġcelebrating": 6743,
      "Ġlongest": 6744,
      "Ġclimb": 6745,
      "Ġnails": 6746,
      "Ġcorrectly": 6747,
      "Ġbullied": 6748,
      "Ġrotting": 6749,
      "Ġshared": 6750,
      "Ġsharing": 6751,
      "Ġfantasy": 6752,
      "Ġpleasantly": 6753,
      "Ġtucked": 6754,
      "Ġcircus": 6755,
      "build": 6756,
      "Ġsearching": 6757,
      "Ġadmire": 6758,
      "Ġequip": 6759,
      "Ġpunish": 6760,
      "Ġchannel": 6761,
      "Ġintroduced": 6762,
      "Ġsubmitted": 6763,
      "Ġsauce": 6764,
      "Ġannounced": 6765,
      "Ġswerve": 6766,
      "Ġclaimed": 6767,
      "Ġcinem": 6768,
      "Ġslightly": 6769,
      "Ġversion": 6770,
      "Ġreservations": 6771,
      "lifting": 6772,
      "donalds": 6773,
      "ĠHarvard": 6774,
      "Ġfavour": 6775,
      "Ġtarget": 6776,
      "Ġunbelie": 6777,
      "Ġsnugg": 6778,
      "Ġirresponsible": 6779,
      "Ġheavily": 6780,
      "Ġincompet": 6781,
      "Ġchainsaw": 6782,
      "Ġovercharged": 6783,
      ".\".": 6784,
      "1000": 6785,
      "30": 6786,
      "AY": 6787,
      "Hello": 6788,
      "MA": 6789,
      "Nah": 6790,
      "OD": 6791,
      "UG": 6792,
      "Will": 6793,
      "aven": 6794,
      "bits": 6795,
      "cause": 6796,
      "gle": 6797,
      "gie": 6798,
      "ls": 6799,
      "life": 6800,
      "world": 6801,
      "ĠZ": 6802,
      "Ġtum": 6803,
      "Ġagent": 6804,
      "Ġwide": 6805,
      "Ġwings": 6806,
      "Ġmasters": 6807,
      "Ġbump": 6808,
      "Ġcares": 6809,
      "Ġgall": 6810,
      "Ġgir": 6811,
      "Ġgang": 6812,
      "Ġled": 6813,
      "Ġlice": 6814,
      "lls": 6815,
      "Ġpity": 6816,
      "Ġpunk": 6817,
      "adden": 6818,
      "Ġstre": 6819,
      "Ġstable": 6820,
      "Ġjar": 6821,
      "amiliar": 6822,
      "ously": 6823,
      "Ġlip": 6824,
      "astian": 6825,
      "ĠTalk": 6826,
      "arting": 6827,
      "Ġsepar": 6828,
      "Ġshark": 6829,
      "ĠHonda": 6830,
      "gee": 6831,
      "Ġcommer": 6832,
      "Ġclue": 6833,
      "osen": 6834,
      "ĠBet": 6835,
      "ĠBirth": 6836,
      "ĠDM": 6837,
      "ĠDallas": 6838,
      "Ġbranch": 6839,
      "ĠMay": 6840,
      "Ġmakeup": 6841,
      "afood": 6842,
      "Ġmisunder": 6843,
      "ĠNetflix": 6844,
      "ĠCle": 6845,
      "ĠChip": 6846,
      "ĠLet": 6847,
      "ĠLabor": 6848,
      "ĠOut": 6849,
      "Ġfunction": 6850,
      "Ġsiblings": 6851,
      "Ġconven": 6852,
      "Ġflush": 6853,
      "Ġdisp": 6854,
      "Ġtwent": 6855,
      "Ġtwenty": 6856,
      "Ġpersonally": 6857,
      "Ġcrank": 6858,
      "ĠPet": 6859,
      "beat": 6860,
      "Ġactions": 6861,
      "Ġpastor": 6862,
      "Ġdiner": 6863,
      "Ġcrappy": 6864,
      "Ġfuel": 6865,
      "Ġslice": 6866,
      "Ġslap": 6867,
      "Ġretire": 6868,
      "Ġopens": 6869,
      "Ġpasses": 6870,
      "Ġsnap": 6871,
      "odel": 6872,
      "Ġsweetheart": 6873,
      "Ġdeals": 6874,
      "Ġinstr": 6875,
      "Ġrepairs": 6876,
      "ĠUsually": 6877,
      "Ġtrainer": 6878,
      "Ġspecifically": 6879,
      "Ġstreets": 6880,
      "Ġreturns": 6881,
      "Ġchargers": 6882,
      "Ġforest": 6883,
      "Ġforeign": 6884,
      "Ġsettle": 6885,
      "Ġcommand": 6886,
      "Ġmilitary": 6887,
      "Ġchanges": 6888,
      "Thankfully": 6889,
      "Ġturkey": 6890,
      "Ġpoints": 6891,
      "Ġchoked": 6892,
      "Ġshortly": 6893,
      "Ġdieting": 6894,
      "eared": 6895,
      "Ġantique": 6896,
      "Ġdestination": 6897,
      "Ġsunny": 6898,
      "Ġintim": 6899,
      "Ġcalmed": 6900,
      "Ġnostalgia": 6901,
      "Ġanswered": 6902,
      "Ġcounsel": 6903,
      "Ġtransmission": 6904,
      "Ġpeeing": 6905,
      "Ġcomplaining": 6906,
      "Ġwerent": 6907,
      "Ġdiagnosis": 6908,
      "Ġgolden": 6909,
      "Ġsolve": 6910,
      "ĠAnytime": 6911,
      "Ġeggplant": 6912,
      "ĠHaven": 6913,
      "olley": 6914,
      "Ġimproving": 6915,
      "Ġnegle": 6916,
      "Ġconvince": 6917,
      "Ġbecomes": 6918,
      "Ġassumed": 6919,
      "Ġjackpot": 6920,
      "LLY": 6921,
      "Ġsafety": 6922,
      "Ġoverwhelmed": 6923,
      "Ġgathering": 6924,
      "Ġautoimmune": 6925,
      "Ġthunderstorms": 6926,
      "Ġoriginal": 6927,
      "ĠQu": 6928,
      "Ġmirror": 6929,
      "dogs": 6930,
      "Ġunfamiliar": 6931,
      "Ġfulfilling": 6932,
      "Ġtitle": 6933,
      "Ġextension": 6934,
      "Ġconfused": 6935,
      "Ġbreeze": 6936,
      "Ġrepaired": 6937,
      "Ġindividual": 6938,
      "Ġceremony": 6939,
      "Ġmelted": 6940,
      "Ġcryptocurrency": 6941,
      "Ġthoroughly": 6942,
      "ĠAustral": 6943,
      "Ġturbulence": 6944,
      "Ġequipment": 6945,
      "ĠBirthday": 6946,
      "Ġcranky": 6947,
      "!\"": 6948,
      "!?": 6949,
      "Luckily": 6950,
      "Must": 6951,
      "OR": 6952,
      "flies": 6953,
      "ges": 6954,
      "gly": 6955,
      "kill": 6956,
      "live": 6957,
      "maybe": 6958,
      "paper": 6959,
      "ubl": 6960,
      "uition": 6961,
      "Ġ#": 6962,
      "Ġtack": 6963,
      "Ġtied": 6964,
      "Ġtipped": 6965,
      "erious": 6966,
      "Ġwaters": 6967,
      "inate": 6968,
      "stone": 6969,
      "Ġthirty": 6970,
      "Ġsouth": 6971,
      "eding": 6972,
      "Ġfits": 6973,
      "Ġbars": 6974,
      "Ġdoo": 6975,
      "Ġcri": 6976,
      "Ġgeez": 6977,
      "Ġlect": 6978,
      "Ġbeers": 6979,
      "elet": 6980,
      "Ġugly": 6981,
      "pple": 6982,
      "Ġjam": 6983,
      "Ġjew": 6984,
      "amn": 6985,
      "Ġkicking": 6986,
      "Ġliking": 6987,
      "Ġheaven": 6988,
      "season": 6989,
      "Ġallergy": 6990,
      "Ġseafood": 6991,
      "ĠSummer": 6992,
      "Ġexist": 6993,
      "Ġhappend": 6994,
      "eapple": 6995,
      "ief": 6996,
      "Ġchances": 6997,
      "ĠAd": 6998,
      "ĠAir": 6999,
      "ontreal": 7000,
      "Ġcomment": 7001,
      "Ġpreseason": 7002,
      "Ġpeel": 7003,
      "Ġvit": 7004,
      "Ġvolley": 7005,
      "about": 7006,
      "Ġgreatly": 7007,
      "igious": 7008,
      "ĠBen": 7009,
      "aker": 7010,
      "Ġrecall": 7011,
      "Ġrecru": 7012,
      "Ġenraged": 7013,
      "Ġpretended": 7014,
      "Ġroaches": 7015,
      "peration": 7016,
      "Ġbugging": 7017,
      "ĠCall": 7018,
      "Ġcheaper": 7019,
      "ruct": 7020,
      "ĠLea": 7021,
      "ĠLots": 7022,
      "Ġappalled": 7023,
      "Ġfinds": 7024,
      "Ġscores": 7025,
      "Ġphase": 7026,
      "Ġconso": 7027,
      "Ġflags": 7028,
      "Ġdiss": 7029,
      "Ġreliable": 7030,
      "ĠGame": 7031,
      "ĠGreat": 7032,
      "Ġpuddle": 7033,
      "ĠThursday": 7034,
      "Ġdaddy": 7035,
      "Ġwins": 7036,
      "ĠPS": 7037,
      "ansion": 7038,
      "hys": 7039,
      "Ġowners": 7040,
      "Ġexample": 7041,
      "Ġaccidents": 7042,
      "Ġrub": 7043,
      "Ġheadaches": 7044,
      "Ġrav": 7045,
      "Ġmetal": 7046,
      "Ġextended": 7047,
      "Ġstops": 7048,
      "Ġfathers": 7049,
      "ocrats": 7050,
      "Ġdepl": 7051,
      "Ġevidence": 7052,
      "Ġpainted": 7053,
      "fficient": 7054,
      "ĠStephen": 7055,
      "udes": 7056,
      "inton": 7057,
      "Ġwarri": 7058,
      "Ġhumans": 7059,
      "Ġscratching": 7060,
      "Ġintention": 7061,
      "Ġwrest": 7062,
      "Ġwrecking": 7063,
      "Ġzomb": 7064,
      "Ġdishwas": 7065,
      "Ġbathing": 7066,
      "ĠAlmost": 7067,
      "Ġextreme": 7068,
      "???": 7069,
      "Ġshirts": 7070,
      "Ġleadership": 7071,
      "Ġadults": 7072,
      "Ġinvestig": 7073,
      "Ġcopy": 7074,
      "Ġsolid": 7075,
      "Ġpopcorn": 7076,
      "ĠAnything": 7077,
      "Ġignore": 7078,
      "Ġsticky": 7079,
      "Ġcrawled": 7080,
      "Only": 7081,
      "Ġpanicked": 7082,
      "Ġdumps": 7083,
      "Ġconditioning": 7084,
      "Ġleftover": 7085,
      "Ġmassive": 7086,
      "Ġmassage": 7087,
      "Ġhiding": 7088,
      "Ġjokes": 7089,
      "Ġregistered": 7090,
      "Ġblankets": 7091,
      "Ġbungee": 7092,
      "ĠCalculus": 7093,
      "Ġinstructions": 7094,
      "Ġskiing": 7095,
      "Ġsuffering": 7096,
      "Ġsweaty": 7097,
      "Ġmoldy": 7098,
      "Ġunlocked": 7099,
      "Ġpumpkin": 7100,
      "iami": 7101,
      "ĠĠĠĠĠĠĠĠĠĠĠĠĠĠĠĠĠĠĠĠĠĠĠĠĠĠĠĠĠĠĠĠĠĠĠĠĠĠĠĠĠĠĠĠĠĠĠĠĠĠĠĠĠĠĠĠĠĠĠĠĠĠĠĠ": 7102,
      "Ġescaped": 7103,
      "Ġbanana": 7104,
      "ĠJapanese": 7105,
      "Ġchoose": 7106,
      "Ġerrands": 7107,
      "ĠApparently": 7108,
      "Ġtuna": 7109,
      "Ġaliens": 7110,
      "Ġsettled": 7111,
      "Ġtransportation": 7112,
      "Ġrepeatedly": 7113,
      "Ġcherish": 7114,
      "Ġpoured": 7115,
      "Ġspaghetti": 7116,
      "ĠPepper": 7117,
      "Ġeyed": 7118,
      "Ġclogged": 7119,
      "Ġastonished": 7120,
      "Ġtoppings": 7121,
      "Ġdoughn": 7122,
      "Ġinspection": 7123,
      "Ġmuseum": 7124,
      "Ġinterrupts": 7125,
      "ĠDMV": 7126,
      "ĠAustralia": 7127,
      "Ġvolleyball": 7128,
      "Ġconsole": 7129,
      "Ġdishwasher": 7130,
      "12": 7131,
      "Next": 7132,
      "Tell": 7133,
      "cop": 7134,
      "ein": 7135,
      "even": 7136,
      "going": 7137,
      "hone": 7138,
      "met": 7139,
      "nec": 7140,
      "ov": 7141,
      "rang": 7142,
      "too": 7143,
      "there": 7144,
      "uh": 7145,
      "uing": 7146,
      "uries": 7147,
      "working": 7148,
      "zen": 7149,
      "Ġven": 7150,
      "Ġtut": 7151,
      "Ġward": 7152,
      "inst": 7153,
      "oni": 7154,
      "Ġsang": 7155,
      "ota": 7156,
      "omp": 7157,
      "edom": 7158,
      "ednesday": 7159,
      "Ġferrari": 7160,
      "eman": 7161,
      "emption": 7162,
      "Ġtoes": 7163,
      "Ġgains": 7164,
      "ories": 7165,
      "arily": 7166,
      "ario": 7167,
      "Ġlamp": 7168,
      "Ġpacing": 7169,
      "Ġnause": 7170,
      "Ġbeef": 7171,
      "Ġinher": 7172,
      "Ġyo": 7173,
      "ows": 7174,
      "esh": 7175,
      "Ġforced": 7176,
      "Ġsoph": 7177,
      "alcons": 7178,
      "icate": 7179,
      "ications": 7180,
      "Ġeast": 7181,
      "alling": 7182,
      "Ġsticking": 7183,
      "ends": 7184,
      "Ġuber": 7185,
      "Ġneice": 7186,
      "heres": 7187,
      "furi": 7188,
      "Ġgoin": 7189,
      "Ġliqu": 7190,
      "uro": 7191,
      "acation": 7192,
      "Ġheater": 7193,
      "Ġrink": 7194,
      "Ġoutcome": 7195,
      "anta": 7196,
      "Ġfees": 7197,
      "ĠTen": 7198,
      "ĠTaking": 7199,
      "Ġupd": 7200,
      "ĠItalian": 7201,
      "ĠWow": 7202,
      "Ġsomeones": 7203,
      "Ġshout": 7204,
      "ĠSeb": 7205,
      "ĠSeems": 7206,
      "Ġloaf": 7207,
      "Ġasks": 7208,
      "Ġasap": 7209,
      "ĠALL": 7210,
      "uses": 7211,
      "Ġcomb": 7212,
      "Ġcompar": 7213,
      "Ġspread": 7214,
      "Ġcovers": 7215,
      "anny": 7216,
      "Ġunprepared": 7217,
      "Ġunfaithful": 7218,
      "Ġunnec": 7219,
      "ĠBra": 7220,
      "Ġtrim": 7221,
      "Ġguide": 7222,
      "ĠMer": 7223,
      "ĠMiami": 7224,
      "assic": 7225,
      "Ġprote": 7226,
      "Ġdowntown": 7227,
      "Ġbuck": 7228,
      "ĠNone": 7229,
      "Ġplayoff": 7230,
      "Ġremodel": 7231,
      "ĠLittle": 7232,
      "ĠOther": 7233,
      "ĠFamily": 7234,
      "ĠFalcons": 7235,
      "Ġcough": 7236,
      "Ġsadness": 7237,
      "Ġputs": 7238,
      "Ġtalents": 7239,
      "ctually": 7240,
      "Ġpharm": 7241,
      "Ġblo": 7242,
      "Ġblocked": 7243,
      "Ġdisag": 7244,
      "ĠGre": 7245,
      "ĠGonna": 7246,
      "Ġgrandson": 7247,
      "getic": 7248,
      "Ġsuppl": 7249,
      "Ġfoster": 7250,
      "rosse": 7251,
      "Ġunderstood": 7252,
      "Ġmario": 7253,
      "ĠPorsche": 7254,
      "bean": 7255,
      "Ġactors": 7256,
      "Ġrooms": 7257,
      "Ġbushes": 7258,
      "Ġimage": 7259,
      "Ġgrandmas": 7260,
      "Ġsleeps": 7261,
      "Ġsweating": 7262,
      "Ġpassen": 7263,
      "Ġbosses": 7264,
      "Ġmini": 7265,
      "Ġminor": 7266,
      "Ġtote": 7267,
      "Ġdropping": 7268,
      "Ġstormed": 7269,
      "Ġincident": 7270,
      "Ġbasis": 7271,
      "Ġrains": 7272,
      "Ġmidterm": 7273,
      "Ġcampus": 7274,
      "Ġsmells": 7275,
      "Ġsmelling": 7276,
      "Ġlanding": 7277,
      "Ġfreedom": 7278,
      "ĠVen": 7279,
      "Ġcorrupt": 7280,
      "Ġassist": 7281,
      "Ġpole": 7282,
      "Ġfigures": 7283,
      "Ġarrival": 7284,
      "Ġperforming": 7285,
      "Ġantsy": 7286,
      "itsu": 7287,
      "Ġintru": 7288,
      "Ġdressing": 7289,
      "Ġzone": 7290,
      "pective": 7291,
      "Ġrefuses": 7292,
      "Ġnursed": 7293,
      "Ġreplac": 7294,
      "Ġlicen": 7295,
      "Ġexpansion": 7296,
      "Ġautonom": 7297,
      "Ġcontinued": 7298,
      "ĠSundays": 7299,
      "Ġinvesting": 7300,
      "Ġdiscus": 7301,
      "weight": 7302,
      "ventually": 7303,
      "Ġmatches": 7304,
      "Ġcrowds": 7305,
      "Ġtempor": 7306,
      "Ġjuice": 7307,
      "Ġsharp": 7308,
      "Ġbelonged": 7309,
      "Ġdiscover": 7310,
      "ttes": 7311,
      "Ġtechnology": 7312,
      "ĠACT": 7313,
      "Ġmeaningful": 7314,
      "Ġassignments": 7315,
      "ĠKorea": 7316,
      "Ġsmoothly": 7317,
      "Ġofficial": 7318,
      "Ġcandidates": 7319,
      "Ġbrief": 7320,
      "Ġoriginally": 7321,
      "Ġfunds": 7322,
      "adillac": 7323,
      "Ġchips": 7324,
      "Ġchewed": 7325,
      "Ġvegetables": 7326,
      "Ġjuggle": 7327,
      "Ġpassionate": 7328,
      "Ġpancreatitis": 7329,
      "Ġdrowned": 7330,
      "Ġbutterflies": 7331,
      "Ġeffects": 7332,
      "Ġcigarettes": 7333,
      "Ġarguing": 7334,
      "Ġpajamas": 7335,
      "Ġhyper": 7336,
      "Ġdisrespectful": 7337,
      "Ġcoyote": 7338,
      "ĠFlags": 7339,
      "Ġcrisis": 7340,
      "ĠPresident": 7341,
      "Ġstrawberry": 7342,
      "Ġhurricanes": 7343,
      "ublic": 7344,
      "eriously": 7345,
      "Ġdoughnuts": 7346,
      "ĠSebastian": 7347,
      "Ġunnecess": 7348,
      "Ġprotein": 7349,
      ".,": 7350,
      "FA": 7351,
      "HA": 7352,
      "Has": 7353,
      "SA": 7354,
      "WH": 7355,
      "aire": 7356,
      "bon": 7357,
      "bra": 7358,
      "books": 7359,
      "cake": 7360,
      "eve": 7361,
      "iu": 7362,
      "iqu": 7363,
      "ker": 7364,
      "nope": 7365,
      "point": 7366,
      "sle": 7367,
      "yep": 7368,
      "zok": 7369,
      "Ġwo": 7370,
      "Ġwing": 7371,
      "Ġwif": 7372,
      "onven": 7373,
      "Ġmate": 7374,
      "Ġsnee": 7375,
      "Ġhunt": 7376,
      "Ġhaters": 7377,
      "Ġfra": 7378,
      "Ġbunk": 7379,
      "ingers": 7380,
      "ington": 7381,
      "ordered": 7382,
      "Ġlun": 7383,
      "Ġpier": 7384,
      "Ġrev": 7385,
      "ooo": 7386,
      "least": 7387,
      "ician": 7388,
      "Ġearr": 7389,
      "Ġstrand": 7390,
      "Ġweed": 7391,
      "Ġweak": 7392,
      "Ġjet": 7393,
      "Ġjello": 7394,
      "Ġkissing": 7395,
      "Ġworn": 7396,
      "opsy": 7397,
      "tering": 7398,
      "ĠTra": 7399,
      "sequ": 7400,
      "ĠWinter": 7401,
      "ryst": 7402,
      "Ġexha": 7403,
      "Ġlog": 7404,
      "Ġmob": 7405,
      "Ġhappily": 7406,
      "Ġyearly": 7407,
      "cky": 7408,
      "Ġchess": 7409,
      "obia": 7410,
      "Ġwilliams": 7411,
      "Ġsparring": 7412,
      "ipline": 7413,
      "ighbor": 7414,
      "umst": 7415,
      "Ġhasnt": 7416,
      "ĠBB": 7417,
      "ĠBowl": 7418,
      "ĠDe": 7419,
      "ĠMight": 7420,
      "ĠMile": 7421,
      "Ġwellington": 7422,
      "Ġmonster": 7423,
      "olina": 7424,
      "Ġneeding": 7425,
      "Ġmommy": 7426,
      "ĠCo": 7427,
      "ĠCra": 7428,
      "Ġremote": 7429,
      "ĠLA": 7430,
      "Ġ29": 7431,
      "ulted": 7432,
      "ĠOlive": 7433,
      "ĠFort": 7434,
      "Ġgram": 7435,
      "Ġgrump": 7436,
      "Ġcollap": 7437,
      "Ġcollecting": 7438,
      "Ġhusbands": 7439,
      "Ġscout": 7440,
      "Ġphobia": 7441,
      "Ġconsequ": 7442,
      "Ġ33": 7443,
      "ĠGarden": 7444,
      "Ġpromises": 7445,
      "Ġdrums": 7446,
      "Ġsits": 7447,
      "Ġsickened": 7448,
      "Ġimm": 7449,
      "Ġeats": 7450,
      "ailing": 7451,
      "Ġtrunk": 7452,
      "Ġtracking": 7453,
      "Ġcontribut": 7454,
      "ĠREA": 7455,
      "Ġboot": 7456,
      "ĠJacks": 7457,
      "Ġslip": 7458,
      "Ġretake": 7459,
      "Ġclosest": 7460,
      "Ġbreakup": 7461,
      "standing": 7462,
      "Ġraises": 7463,
      "Ġroadkill": 7464,
      "ohn": 7465,
      "Ġhealed": 7466,
      "Ġhandful": 7467,
      "Ġgrowth": 7468,
      "Ġdealer": 7469,
      "Ġappli": 7470,
      "Ġexcuses": 7471,
      "ĠChina": 7472,
      "Ġinconven": 7473,
      "Ġsurreal": 7474,
      "eber": 7475,
      "Ġpolite": 7476,
      "Ġnewspaper": 7477,
      "Ġmedal": 7478,
      "Ġcoolest": 7479,
      "Ġlandsc": 7480,
      "iana": 7481,
      "Ġinfection": 7482,
      "ibbean": 7483,
      "Ġburnt": 7484,
      "Ġstepmother": 7485,
      "Ġbumper": 7486,
      "Ġhumble": 7487,
      "Ġboost": 7488,
      "Ġsalt": 7489,
      "Ġrobber": 7490,
      "Ġoption": 7491,
      "Ġtreatments": 7492,
      "Ġbatter": 7493,
      "Ġcreek": 7494,
      "Ġcreated": 7495,
      "Ġpoorly": 7496,
      "Ġbrain": 7497,
      "Ġwasting": 7498,
      "Ġsynd": 7499,
      "Ġcauses": 7500,
      "Ġqualify": 7501,
      "Ġthrill": 7502,
      "Ġloyalty": 7503,
      "ĠSpent": 7504,
      "rimp": 7505,
      "Ġtexas": 7506,
      "Ġdebts": 7507,
      "Ġefforts": 7508,
      "Ġunsafe": 7509,
      "Ġarmadill": 7510,
      "Ġachieved": 7511,
      "Ġshameful": 7512,
      "Ġcrawl": 7513,
      "ĠSaturdays": 7514,
      "Ġspoil": 7515,
      "Ġdrawer": 7516,
      "Ġtips": 7517,
      "Ġfortunately": 7518,
      "Ġrewarded": 7519,
      "Ġrefle": 7520,
      "Ġ199": 7521,
      "Ġgrilled": 7522,
      "Ġhidden": 7523,
      "Ġradi": 7524,
      "Ġsalesman": 7525,
      "Ġjudg": 7526,
      "Ġmotivation": 7527,
      "Ġhallway": 7528,
      "Ġbiopsy": 7529,
      "Ġtailg": 7530,
      "Ġchefs": 7531,
      "Ġrecognition": 7532,
      "Ġdemanded": 7533,
      "Ġpoisoning": 7534,
      "ĠCaribbean": 7535,
      "Okay": 7536,
      "ĠMacs": 7537,
      "Ġolives": 7538,
      "Ġinitial": 7539,
      "Ġpineapple": 7540,
      "ĠApril": 7541,
      "Ġexcitement": 7542,
      "Ġforgive": 7543,
      "ĠStudios": 7544,
      "Ġnachos": 7545,
      "aunting": 7546,
      "Ġcinema": 7547,
      "Ġincompetent": 7548,
      "Ġgallon": 7549,
      "Ġcommercials": 7550,
      "ĠChipotle": 7551,
      "Ġwarriors": 7552,
      "Ġunnecessary": 7553,
      "Ġbunker": 7554,
      "Ġearrings": 7555,
      "Ġexhaust": 7556,
      "Ġarmadillo": 7557,
      "80": 7558,
      "Pretty": 7559,
      "Recently": 7560,
      "Then": 7561,
      "Tube": 7562,
      "VER": 7563,
      "Would": 7564,
      "cade": 7565,
      "hus": 7566,
      "ij": 7567,
      "mine": 7568,
      "nies": 7569,
      "nia": 7570,
      "pm": 7571,
      "ration": 7572,
      "xic": 7573,
      "Ġtong": 7574,
      "Ġtag": 7575,
      "Ġtap": 7576,
      "Ġtank": 7577,
      "Ġwrist": 7578,
      "ini": 7579,
      "inct": 7580,
      "Ġmc": 7581,
      "Ġmann": 7582,
      "Ġmax": 7583,
      "Ġmaster": 7584,
      "Ġsour": 7585,
      "Ġhip": 7586,
      "oma": 7587,
      "Ġfought": 7588,
      "Ġbac": 7589,
      "Ġbound": 7590,
      "Ġbaff": 7591,
      "rex": 7592,
      "really": 7593,
      "Ġdust": 7594,
      "Ġdates": 7595,
      "Ġducks": 7596,
      "Ġcafe": 7597,
      "Ġlined": 7598,
      "lliant": 7599,
      "Ġpatch": 7600,
      "Ġnar": 7601,
      "Ġnine": 7602,
      "Ġbell": 7603,
      "especially": 7604,
      "Ġrefin": 7605,
      "icals": 7606,
      "Ġstink": 7607,
      "Ġstumbled": 7608,
      "heal": 7609,
      "uted": 7610,
      "uting": 7611,
      "Ġweb": 7612,
      "Ġdos": 7613,
      "Ġjog": 7614,
      "ams": 7615,
      "fume": 7616,
      "ural": 7617,
      "oping": 7618,
      "Ġfeat": 7619,
      "ĠTrying": 7620,
      "sey": 7621,
      "Ġnotified": 7622,
      "ĠItaly": 7623,
      "Ġalw": 7624,
      "Ġshaved": 7625,
      "ĠSk": 7626,
      "Ġexited": 7627,
      "Ġnewest": 7628,
      "Ġgoodby": 7629,
      "ĠHill": 7630,
      "feed": 7631,
      "Ġknowledge": 7632,
      "Ġjobless": 7633,
      "Ġprevent": 7634,
      "Ġspook": 7635,
      "Ġspilling": 7636,
      "Ġdoggie": 7637,
      "Ġoverhe": 7638,
      "Ġvict": 7639,
      "essions": 7640,
      "Ġcoc": 7641,
      "Ġclock": 7642,
      "Ġcliff": 7643,
      "rowing": 7644,
      "Ġhousehold": 7645,
      "Ġunemployed": 7646,
      "ĠBab": 7647,
      "ĠBreak": 7648,
      "Ġsurely": 7649,
      "Ġbrut": 7650,
      "ĠMic": 7651,
      "ĠMany": 7652,
      "ĠMMA": 7653,
      "Ġriver": 7654,
      "Ġmonkey": 7655,
      "ĠNeed": 7656,
      "Ġdire": 7657,
      "ĠCD": 7658,
      "Ġprove": 7659,
      "Ġproceed": 7660,
      "Ġremoved": 7661,
      "ĠLeg": 7662,
      "ĠEl": 7663,
      "ĠEventually": 7664,
      "ptoms": 7665,
      "Ġswar": 7666,
      "Ġdisheart": 7667,
      "Ġdisplay": 7668,
      "ĠGold": 7669,
      "ĠThought": 7670,
      "Ġleaking": 7671,
      "Ġresist": 7672,
      "Ġsupply": 7673,
      "Ġmustard": 7674,
      "action": 7675,
      "Ġmarked": 7676,
      "Ġactor": 7677,
      "Ġroomie": 7678,
      "ulture": 7679,
      "Ġimpossible": 7680,
      "Ġcraft": 7681,
      "Ġperfume": 7682,
      "pleas": 7683,
      "Ġlatest": 7684,
      "ĠYouTube": 7685,
      "Ġslower": 7686,
      "Ġsecure": 7687,
      "Ġentering": 7688,
      "Ġheads": 7689,
      "jection": 7690,
      "Ġpooping": 7691,
      "Ġseasons": 7692,
      "Ġbark": 7693,
      "ĠKid": 7694,
      "Ġdelight": 7695,
      "Ġcursed": 7696,
      "Ġcurse": 7697,
      "Ġpains": 7698,
      "ĠSudden": 7699,
      "Ġvideog": 7700,
      "Ġcourses": 7701,
      "rica": 7702,
      "Ġwednesday": 7703,
      "Ġmates": 7704,
      "Ġselfish": 7705,
      "Ġconfl": 7706,
      "Ġapproval": 7707,
      "Ġdrain": 7708,
      "Ġarriving": 7709,
      "Ġpossum": 7710,
      "Ġoffering": 7711,
      "Ġgroups": 7712,
      "Ġbats": 7713,
      "Ġrefusing": 7714,
      "Ġbrave": 7715,
      "Ġgenerations": 7716,
      "Ġsigns": 7717,
      "Ġautom": 7718,
      "Ġflooding": 7719,
      "ĠSpain": 7720,
      "Ġjoining": 7721,
      "Ġexplode": 7722,
      "ĠLooks": 7723,
      "Ġignoring": 7724,
      "Ġoccur": 7725,
      "Ġrecipes": 7726,
      "Ġconversations": 7727,
      "Ġmilestone": 7728,
      "Ġsharks": 7729,
      "Ġcudd": 7730,
      "Ġrepeating": 7731,
      "Ġparticularly": 7732,
      "Ġhumiliating": 7733,
      "Ġrespectful": 7734,
      "Ġadmitted": 7735,
      "Ġpoker": 7736,
      "force": 7737,
      "Ġcheerle": 7738,
      "Ġeconomic": 7739,
      "Ġbunnies": 7740,
      "enges": 7741,
      "Ġdocuments": 7742,
      "Ġgigantic": 7743,
      "Ġchallenges": 7744,
      "erole": 7745,
      "Ġdedication": 7746,
      "Ġtrauma": 7747,
      "Ġrecognize": 7748,
      "Ġhello": 7749,
      "Ġbetray": 7750,
      "Ġfacility": 7751,
      "Ġintroduce": 7752,
      "Ġcompanion": 7753,
      "Ġmiracle": 7754,
      "Ġbleeding": 7755,
      "Ġrenewed": 7756,
      "ĠSATs": 7757,
      "Ġconnect": 7758,
      "Ġincluded": 7759,
      "Ġpancreatic": 7760,
      "Ġlanai": 7761,
      "Ġobjects": 7762,
      "Ġverb": 7763,
      "field": 7764,
      "Ġpepperoni": 7765,
      "Ġmosquitoes": 7766,
      "Ġattempt": 7767,
      "Ġinfluenced": 7768,
      "Ġsymptoms": 7769,
      "Ġskateboard": 7770,
      "ĠStrzok": 7771,
      "liner": 7772,
      "Ġcircumst": 7773,
      "Ġcasserole": 7774,
      "Ġdisturbing": 7775,
      "Ġunbelievable": 7776,
      "Ġinherited": 7777,
      "furiating": 7778,
      "ĠMercedes": 7779,
      "Ġautonomy": 7780,
      "ĠCraigslist": 7781,
      "Ġgrumpy": 7782,
      "Ġbaffled": 7783,
      "Ġgoodbye": 7784,
      "Ġspooky": 7785,
      "Ġcircumstances": 7786,
      "**": 7787,
      ",.": 7788,
      "15": 7789,
      "2000": 7790,
      "EO": 7791,
      "GH": 7792,
      "Kids": 7793,
      "SS": 7794,
      "Two": 7795,
      "YY": 7796,
      "Yay": 7797,
      "bike": 7798,
      "brary": 7799,
      "dom": 7800,
      "iers": 7801,
      "mar": 7802,
      "pit": 7803,
      "rad": 7804,
      "tles": 7805,
      "uine": 7806,
      "uct": 7807,
      "uary": 7808,
      "yh": 7809,
      "yer": 7810,
      "ziest": 7811,
      "Ġtub": 7812,
      "Ġtuesday": 7813,
      "Ġtshirt": 7814,
      "Ġah": 7815,
      "ergetic": 7816,
      "inating": 7817,
      "inist": 7818,
      "inary": 7819,
      "onym": 7820,
      "ĠIll": 7821,
      "Ġmice": 7822,
      "otic": 7823,
      "Ġhose": 7824,
      "omg": 7825,
      "oul": 7826,
      "ouqu": 7827,
      "Ġfal": 7828,
      "Ġfaced": 7829,
      "Ġbouqu": 7830,
      "eme": 7831,
      "employ": 7832,
      "itable": 7833,
      "ional": 7834,
      "atley": 7835,
      "Ġdim": 7836,
      "Ġdies": 7837,
      "Ġcast": 7838,
      "Ġgears": 7839,
      "Ġgrosse": 7840,
      "Ġlat": 7841,
      "Ġpra": 7842,
      "Ġpip": 7843,
      "Ġpilot": 7844,
      "aned": 7845,
      "Ġobed": 7846,
      "Ġoperation": 7847,
      "elity": 7848,
      "Ġrejection": 7849,
      "imony": 7850,
      "lease": 7851,
      "vert": 7852,
      "alking": 7853,
      "ica": 7854,
      "chup": 7855,
      "Ġstunk": 7856,
      "Ġstares": 7857,
      "utr": 7858,
      "Ġamong": 7859,
      "Ġambul": 7860,
      "Ġdove": 7861,
      "Ġjiu": 7862,
      "Ġatleast": 7863,
      "Ġanonym": 7864,
      "Ġlizard": 7865,
      "Ġlibrary": 7866,
      "urassic": 7867,
      "Ġrally": 7868,
      "Ġrates": 7869,
      "Ġrural": 7870,
      "oples": 7871,
      "opilot": 7872,
      "ĠTer": 7873,
      "ĠTom": 7874,
      "ĠTell": 7875,
      "ĠTheres": 7876,
      "ĠWednesday": 7877,
      "Ġsug": 7878,
      "Ġweekly": 7879,
      "robe": 7880,
      "Ġshrimp": 7881,
      "Ġexch": 7882,
      "Ġsheets": 7883,
      "Ġaside": 7884,
      "ĠHE": 7885,
      "ĠHI": 7886,
      "each": 7887,
      "ĠAv": 7888,
      "ĠAng": 7889,
      "cargot": 7890,
      "Ġbackfl": 7891,
      "orette": 7892,
      "Ġteary": 7893,
      "Ġanyways": 7894,
      "Ġoverweight": 7895,
      "Ġkidding": 7896,
      "Ġpeoples": 7897,
      "Ġvivid": 7898,
      "Ġdonated": 7899,
      "Ġaged": 7900,
      "Ġgirlfi": 7901,
      "igning": 7902,
      "Ohh": 7903,
      "ĠBrit": 7904,
      "aky": 7905,
      "atched": 7906,
      "ĠDriving": 7907,
      "Ġtrials": 7908,
      "Ġguilt": 7909,
      "Ġens": 7910,
      "Ġenergetic": 7911,
      "Ġpred": 7912,
      "dest": 7913,
      "Ġnicest": 7914,
      "agging": 7915,
      "ĠNE": 7916,
      "ĠNational": 7917,
      "ĠNES": 7918,
      "Ġdigest": 7919,
      "ĠCEO": 7920,
      "ĠLO": 7921,
      "ĠLaw": 7922,
      "Ġ28": 7923,
      "ĠOlymp": 7924,
      "ĠFren": 7925,
      "ĠFingers": 7926,
      "reece": 7927,
      "Ġtestimony": 7928,
      "ĠEn": 7929,
      "Ġconcent": 7930,
      "Ġreluct": 7931,
      "ĠGirlfriend": 7932,
      "ĠGreece": 7933,
      "Ġdecember": 7934,
      "azed": 7935,
      "Ġresident": 7936,
      "Ġresolved": 7937,
      "Ġinterviewer": 7938,
      "Ġwinner": 7939,
      "ĠPro": 7940,
      "Ġelev": 7941,
      "Ġimpr": 7942,
      "hael": 7943,
      "Ġtrump": 7944,
      "Ġcontain": 7945,
      "Ġcontacting": 7946,
      "Ġdining": 7947,
      "Ġcraziest": 7948,
      "ĠJurassic": 7949,
      "Ġvisits": 7950,
      "Ġslim": 7951,
      "Ġhug": 7952,
      "ggies": 7953,
      "Ġruining": 7954,
      "Ġentert": 7955,
      "Ġpreschool": 7956,
      "Ġfellow": 7957,
      "ĠDogs": 7958,
      "Ġspends": 7959,
      "Ġdesire": 7960,
      "Ġconcern": 7961,
      "Ġapples": 7962,
      "Ġrepul": 7963,
      "ĠEverybody": 7964,
      "Ġcurb": 7965,
      "Ġentirely": 7966,
      "Ġanxiously": 7967,
      "Ġcomments": 7968,
      "Ġinfant": 7969,
      "Ġburning": 7970,
      "Ġburden": 7971,
      "Ġapproach": 7972,
      "ĠAtl": 7973,
      "Ġirritates": 7974,
      "Ġmistaken": 7975,
      "Ġplanet": 7976,
      "Ġintell": 7977,
      "Ġintuition": 7978,
      "......": 7979,
      "ĠAsia": 7980,
      "Ġzip": 7981,
      "Ġjumpsc": 7982,
      "Ġemployment": 7983,
      "Ġservices": 7984,
      "Ġilleg": 7985,
      "hahah": 7986,
      "Ġwinnings": 7987,
      "Hahaha": 7988,
      "agna": 7989,
      "Ġtransition": 7990,
      "Ġgenerous": 7991,
      "Ġresearching": 7992,
      "Ġautopilot": 7993,
      "Ġdamn": 7994,
      "ĠSpider": 7995,
      "years": 7996,
      "Ġbodybuild": 7997,
      "Ġorganic": 7998,
      "ĠLooked": 7999,
      "Ġtexts": 8000,
      "Ġsticks": 8001,
      "Ġfederal": 8002,
      "Ġ2017": 8003,
      "Ġinjury": 8004,
      "Ġinspir": 8005,
      "Ġdemocrats": 8006,
      "Ġtherapist": 8007,
      "Ġmowed": 8008,
      "Ġconditioner": 8009,
      "Ġeter": 8010,
      "Ġhoard": 8011,
      "Ġanticipated": 8012,
      "Ġjoking": 8013,
      "loaf": 8014,
      "Ġtomor": 8015,
      "Ġbachelorette": 8016,
      "Ġesteem": 8017,
      "Ġchemicals": 8018,
      "Ġembarassing": 8019,
      "Ġfrog": 8020,
      "Ġaweful": 8021,
      "Ġdevoted": 8022,
      "Ġencoun": 8023,
      "Ġtearing": 8024,
      "Ġketchup": 8025,
      "Ġtraumat": 8026,
      "Ġstatus": 8027,
      "Ġhungover": 8028,
      "Ġdirtbike": 8029,
      "Ġtowel": 8030,
      "Ġbrilliant": 8031,
      "Ġorders": 8032,
      "Ġcompanies": 8033,
      "ĠCarolina": 8034,
      "Ġscenario": 8035,
      "Ġfurther": 8036,
      "ĠClinton": 8037,
      "Ġgrinding": 8038,
      "Ġcreative": 8039,
      "Before": 8040,
      "Ġseagu": 8041,
      "Ġadjusting": 8042,
      "Ġcolon": 8043,
      "incip": 8044,
      "ĠLosing": 8045,
      "Ġguests": 8046,
      "Ġdesperately": 8047,
      "Ġdevastating": 8048,
      "ĠNeighbor": 8049,
      "Ġcompassionate": 8050,
      "Ġpuzzle": 8051,
      "Ġraccoon": 8052,
      "ĠIndia": 8053,
      "Ġpyrex": 8054,
      "Ġnoodles": 8055,
      "Ġultim": 8056,
      "Ġvariety": 8057,
      "Ġdiabetes": 8058,
      "Ġtackle": 8059,
      "Ġdissap": 8060,
      "Ġwardrobe": 8061,
      "Ġpharmacy": 8062,
      "Ġsupplements": 8063,
      "Ġreplacement": 8064,
      "Ġlicensing": 8065,
      "Ġwoken": 8066,
      "feedback": 8067,
      "ĠMichael": 8068,
      "ĠSuddenly": 8069,
      "Ġconflict": 8070,
      "Ġgrossest": 8071,
      "Ġbackflip": 8072,
      "ĠFrench": 8073,
      "Ġreluctant": 8074,
      "Ġjumpscares": 8075,
      "Ġbodybuilding": 8076,
      "!.": 8077,
      ",\"": 8078,
      "25": 8079,
      "800": 8080,
      "Actually": 8081,
      "CK": 8082,
      "Eww": 8083,
      "GA": 8084,
      "Getting": 8085,
      "His": 8086,
      "Honestly": 8087,
      "Ive": 8088,
      "ME": 8089,
      "NT": 8090,
      "Never": 8091,
      "OOD": 8092,
      "Since": 8093,
      "Seeing": 8094,
      "Something": 8095,
      "Seriously": 8096,
      "Which": 8097,
      "aving": 8098,
      "cere": 8099,
      "cret": 8100,
      "craft": 8101,
      "ded": 8102,
      "fty": 8103,
      "face": 8104,
      "gun": 8105,
      "gus": 8106,
      "iing": 8107,
      "kind": 8108,
      "last": 8109,
      "mv": 8110,
      "nal": 8111,
      "nite": 8112,
      "nah": 8113,
      "ped": 8114,
      "rr": 8115,
      "rs": 8116,
      "rome": 8117,
      "race": 8118,
      "rance": 8119,
      "west": 8120,
      "while": 8121,
      "yo": 8122,
      "Ġident": 8123,
      "Ġtand": 8124,
      "Ġtaco": 8125,
      "Ġwis": 8126,
      "Ġwise": 8127,
      "once": 8128,
      "stop": 8129,
      "Ġsides": 8130,
      "Ġfer": 8131,
      "Ġfri": 8132,
      "Ġfans": 8133,
      "Ġbent": 8134,
      "Ġdom": 8135,
      "Ġdat": 8136,
      "Ġdug": 8137,
      "Ġdmv": 8138,
      "Ġcub": 8139,
      "Ġculture": 8140,
      "Ġgn": 8141,
      "Ġgau": 8142,
      "Ġlump": 8143,
      "Ġlemon": 8144,
      "Ġped": 8145,
      "anking": 8146,
      "anked": 8147,
      "ancer": 8148,
      "Ġnamed": 8149,
      "Ġod": 8150,
      "Ġformer": 8151,
      "eles": 8152,
      "elry": 8153,
      "Ġreall": 8154,
      "Ġmexic": 8155,
      "ooking": 8156,
      "alf": 8157,
      "Ġeve": 8158,
      "Ġsteaks": 8159,
      "Ġisland": 8160,
      "Ġneare": 8161,
      "amins": 8162,
      "Ġrope": 8163,
      "opath": 8164,
      "ĠTw": 8165,
      "ĠTur": 8166,
      "ĠToy": 8167,
      "ĠTony": 8168,
      "ĠWI": 8169,
      "Ġallerg": 8170,
      "Ġshelf": 8171,
      "Ġshave": 8172,
      "Ġlos": 8173,
      "Ġmoder": 8174,
      "Ġknees": 8175,
      "Ġnewly": 8176,
      "eable": 8177,
      "ieved": 8178,
      "Ġplastic": 8179,
      "Ġchub": 8180,
      "Ġlasts": 8181,
      "ĠAAA": 8182,
      "obal": 8183,
      "Ġnovel": 8184,
      "ongress": 8185,
      "Ġoverwatch": 8186,
      "Ġvoted": 8187,
      "ometime": 8188,
      "hington": 8189,
      "anning": 8190,
      "Ġhassle": 8191,
      "ĠBus": 8192,
      "Ġbride": 8193,
      "ĠME": 8194,
      "ĠMake": 8195,
      "ĠMount": 8196,
      "ĠMadden": 8197,
      "Ġbeta": 8198,
      "Ġrocks": 8199,
      "Ġthanked": 8200,
      "affe": 8201,
      "ĠNO": 8202,
      "Ġcompare": 8203,
      "Ġplayground": 8204,
      "Ġdiary": 8205,
      "ĠCV": 8206,
      "ĠCadillac": 8207,
      "Ġpros": 8208,
      "Ġremeber": 8209,
      "rudge": 8210,
      "ĠLe": 8211,
      "ĠLong": 8212,
      "Ġwalks": 8213,
      "Ġinterru": 8214,
      "Ġdripping": 8215,
      "Ġsibling": 8216,
      "ĠEver": 8217,
      "ĠEach": 8218,
      "Ġscient": 8219,
      "Ġsincere": 8220,
      "Ġrelive": 8221,
      "Ġreliving": 8222,
      "Ġ350": 8223,
      "Ġupside": 8224,
      "ĠGrudge": 8225,
      "ĠThree": 8226,
      "istics": 8227,
      "Whats": 8228,
      "Ġresch": 8229,
      "Ġresume": 8230,
      "Ġadren": 8231,
      "Ġrealistic": 8232,
      "ĠPr": 8233,
      "Ġbuys": 8234,
      "Ġearning": 8235,
      "Ġearned": 8236,
      "Ġimmune": 8237,
      "Ġcowboys": 8238,
      "Ġcrapped": 8239,
      "These": 8240,
      "ĠJord": 8241,
      "ĠJohn": 8242,
      "Ġperhaps": 8243,
      "Ġhugs": 8244,
      "Ġcooler": 8245,
      "Ġpassword": 8246,
      "ĠYear": 8247,
      "odes": 8248,
      "Ġraising": 8249,
      "Ġhandy": 8250,
      "Ġinstalling": 8251,
      "Ġinstinct": 8252,
      "ĠUpon": 8253,
      "Ġinsan": 8254,
      "ocal": 8255,
      "Ġpickles": 8256,
      "Ġpolicy": 8257,
      "Ġlawyer": 8258,
      "Awe": 8259,
      "Ġinterests": 8260,
      "ĠWashington": 8261,
      "Ġdented": 8262,
      "Ġmature": 8263,
      "ivic": 8264,
      "Ġcloths": 8265,
      "Ġescargot": 8266,
      "udated": 8267,
      "ibiot": 8268,
      "Ġcompete": 8269,
      "Ġborrowing": 8270,
      "Ġassemb": 8271,
      "Ġpopped": 8272,
      "Ġstepdad": 8273,
      "Ġbuildings": 8274,
      "Ġhumid": 8275,
      "shine": 8276,
      "Ġantibiot": 8277,
      "Ġdestruct": 8278,
      "Ġsunshine": 8279,
      "however": 8280,
      "Ġchicks": 8281,
      "Ġcostumes": 8282,
      "Ġanswering": 8283,
      "ifications": 8284,
      "ĠSupercop": 8285,
      "Ġfearful": 8286,
      "Ġlegos": 8287,
      "Ġcleared": 8288,
      "Ġbehaving": 8289,
      "ounting": 8290,
      "Ġgraudated": 8291,
      "Ġtouching": 8292,
      "Ġfeedback": 8293,
      "Ġtrepid": 8294,
      "Ġdeepest": 8295,
      "Ġsolved": 8296,
      "?!?!": 8297,
      "Ġpiggy": 8298,
      "Ġpops": 8299,
      "Ġcrosswalk": 8300,
      "Ġcreeped": 8301,
      "Ġrequires": 8302,
      "Ġjerks": 8303,
      "Ġrushed": 8304,
      "Ġmainten": 8305,
      "Ġinjuries": 8306,
      "which": 8307,
      "Ġdrawers": 8308,
      "Ġathlete": 8309,
      "Ġmeatloaf": 8310,
      "Ġhumanity": 8311,
      "Ġpersonality": 8312,
      "hhh": 8313,
      "Ġdisneyworld": 8314,
      "Ġproducts": 8315,
      "Ġblessings": 8316,
      "Ġbunny": 8317,
      "Ġdryer": 8318,
      "Ġearns": 8319,
      "Ġfrequent": 8320,
      "Ġwitness": 8321,
      "Ġdeveloped": 8322,
      "Ġdenied": 8323,
      "Ġsuffered": 8324,
      "Ġdemanding": 8325,
      "Ġflashlight": 8326,
      "ĠTHE": 8327,
      "Ġepisodes": 8328,
      "Ġescape": 8329,
      "Ġrecommended": 8330,
      "Ġdarn": 8331,
      "Ġdecorated": 8332,
      "Ġaudition": 8333,
      "Ġlasagna": 8334,
      "Ġdrowning": 8335,
      "ĠANY": 8336,
      "Ġwrapped": 8337,
      "ĠObama": 8338,
      "Ġshredded": 8339,
      "ĠAfrica": 8340,
      "Ġrepresentative": 8341,
      "ĠEarth": 8342,
      "Ġrooting": 8343,
      "Ġbombs": 8344,
      "Ġromantic": 8345,
      "Ġburrito": 8346,
      "Ġconsistently": 8347,
      "Ġnuggets": 8348,
      "Ġacademic": 8349,
      "ĠReady": 8350,
      "ĠBetter": 8351,
      "Ġneglected": 8352,
      "Ġjewelry": 8353,
      "Ġvitamins": 8354,
      "Ġzombie": 8355,
      "urofeedback": 8356,
      "ĠTennis": 8357,
      "Ġintruder": 8358,
      "Ġsneezed": 8359,
      "Ġstranded": 8360,
      "Ġtongue": 8361,
      "Ġdirector": 8362,
      "employment": 8363,
      "Ġambulance": 8364,
      "Ġelevator": 8365,
      "Ġentertain": 8366,
      "ĠAtlanta": 8367,
      "incipal": 8368,
      "Ġtandem": 8369,
      "Ġnearest": 8370,
      "Ġallergies": 8371,
      "Ġchubby": 8372,
      "Ġadrenal": 8373,
      "ĠSupercopa": 8374,
      "11": 8375,
      "Back": 8376,
      "Friend": 8377,
      "From": 8378,
      "Had": 8379,
      "ION": 8380,
      "NE": 8381,
      "Or": 8382,
      "Ooh": 8383,
      "Time": 8384,
      "With": 8385,
      "ait": 8386,
      "cal": 8387,
      "dam": 8388,
      "ders": 8389,
      "fir": 8390,
      "free": 8391,
      "form": 8392,
      "gown": 8393,
      "gling": 8394,
      "igent": 8395,
      "iac": 8396,
      "jitsu": 8397,
      "ms": 8398,
      "min": 8399,
      "mental": 8400,
      "rrow": 8401,
      "sery": 8402,
      "taking": 8403,
      "whe": 8404,
      "Ġ/": 8405,
      "Ġeth": 8406,
      "Ġtie": 8407,
      "Ġack": 8408,
      "Ġairl": 8409,
      "ensive": 8410,
      "enial": 8411,
      "inted": 8412,
      "inos": 8413,
      "onight": 8414,
      "stick": 8415,
      "Ġmask": 8416,
      "Ġsiz": 8417,
      "Ġhook": 8418,
      "omore": 8419,
      "entions": 8420,
      "Ġfist": 8421,
      "itudes": 8422,
      "atar": 8423,
      "Ġdil": 8424,
      "aries": 8425,
      "lle": 8426,
      "llen": 8427,
      "llible": 8428,
      "Ġpc": 8429,
      "Ġpimp": 8430,
      "anuary": 8431,
      "Ġnet": 8432,
      "Ġwasps": 8433,
      "Ġolymp": 8434,
      "aylor": 8435,
      "idated": 8436,
      "Ġyuck": 8437,
      "owing": 8438,
      "Ġreass": 8439,
      "adium": 8440,
      "Ġsober": 8441,
      "verse": 8442,
      "Ġeer": 8443,
      "Ġeagles": 8444,
      "Ġstream": 8445,
      "Ġstreak": 8446,
      "Ġstadium": 8447,
      "endy": 8448,
      "Ġweigh": 8449,
      "Ġweap": 8450,
      "Ġdoomed": 8451,
      "amo": 8452,
      "Ġkart": 8453,
      "Ġliver": 8454,
      "acu": 8455,
      "Ġrental": 8456,
      "ĠTop": 8457,
      "ĠTake": 8458,
      "see": 8459,
      "this": 8460,
      "Ġtiming": 8461,
      "Ġcans": 8462,
      "Ġallig": 8463,
      "Ġsection": 8464,
      "Ġshor": 8465,
      "Ġnewer": 8466,
      "acker": 8467,
      "ecube": 8468,
      "ĠHon": 8469,
      "ĠHUG": 8470,
      "ĠHoping": 8471,
      "gebra": 8472,
      "few": 8473,
      "Ġlasted": 8474,
      "usic": 8475,
      "Ġcarbs": 8476,
      "prised": 8477,
      "Ġcomic": 8478,
      "sterdam": 8479,
      "Ġbackground": 8480,
      "Ġpreordered": 8481,
      "eping": 8482,
      "Ġoverfl": 8483,
      "Ġvirt": 8484,
      "Ġdonut": 8485,
      "aburger": 8486,
      "Ġnightgown": 8487,
      "Ġclu": 8488,
      "umn": 8489,
      "osure": 8490,
      "Ġhousework": 8491,
      "Ġunt": 8492,
      "Ġunique": 8493,
      "ĠBA": 8494,
      "ĠBoth": 8495,
      "ĠBrought": 8496,
      "Ġfamilly": 8497,
      "park": 8498,
      "ĠDO": 8499,
      "ĠDrag": 8500,
      "owned": 8501,
      "Ġguarant": 8502,
      "Ġgullible": 8503,
      "Ġparach": 8504,
      "ĠMI": 8505,
      "ĠMet": 8506,
      "Ġricky": 8507,
      "Ġprett": 8508,
      "Ġlifestyle": 8509,
      "Ġours": 8510,
      "Ġbucket": 8511,
      "Ġdiv": 8512,
      "ĠCr": 8513,
      "ĠLost": 8514,
      "izer": 8515,
      "Ġ26": 8516,
      "ula": 8517,
      "Ġdriven": 8518,
      "ĠFord": 8519,
      "Ġcollected": 8520,
      "Ġtested": 8521,
      "ĠEm": 8522,
      "ĠEmer": 8523,
      "Ġscan": 8524,
      "Ġcarefully": 8525,
      "Ġcatf": 8526,
      "Ġpho": 8527,
      "Ġsmacked": 8528,
      "Ġsmarter": 8529,
      "Ġtrap": 8530,
      "ĠGen": 8531,
      "ĠGun": 8532,
      "ĠGirl": 8533,
      "Ġupsets": 8534,
      "Ġsounding": 8535,
      "Ġaccounting": 8536,
      "Ġvacc": 8537,
      "Ġpromising": 8538,
      "Ġmornings": 8539,
      "Ġfires": 8540,
      "Ġears": 8541,
      "Ġsickness": 8542,
      "Ġattitudes": 8543,
      "ĠRob": 8544,
      "ĠReal": 8545,
      "ĠRoll": 8546,
      "Ġboom": 8547,
      "Ġ400": 8548,
      "Ġcuts": 8549,
      "Ġpermission": 8550,
      "Ġsleepy": 8551,
      "Ġfootstep": 8552,
      "Ġentrance": 8553,
      "Ġenjoys": 8554,
[...]
