{
  "0": "[PAD]",
  "1": "[UNK]",
  "2": "[BOS]",
  "3": "[EOS]",
  "4": "[CLS]",
  "5": "[SEEKER]:",
  "6": "[SUPPORTER]:",
  "7": "[SITUATION]:",
  "8": "[seeker_emotion_SENTIMENTAL]",
  "9": "[seeker_emotion_AFRAID]",
  "10": "[seeker_emotion_PROUD]",
  "11": "[seeker_emotion_FAITHFUL]",
  "12": "[seeker_emotion_TERRIFIED]",
  "13": "[seeker_emotion_JOYFUL]",
  "14": "[seeker_emotion_ANGRY]",
  "15": "[seeker_emotion_SAD]",
  "16": "[seeker_emotion_JEALOUS]",
  "17": "[seeker_emotion_GRATEFUL]",
  "18": "[seeker_emotion_PREPARED]",
  "19": "[seeker_emotion_EMBARRASSED]",
  "20": "[seeker_emotion_EXCITED]",
  "21": "[seeker_emotion_ANNOYED]",
  "22": "[seeker_emotion_LONELY]",
  "23": "[seeker_emotion_ASHAMED]",
  "24": "[seeker_emotion_SURPRISED]",
  "25": "[seeker_emotion_DISGUSTED]",
  "26": "[seeker_emotion_ANTICIPATING]",
  "27": "[seeker_emotion_CONFIDENT]",
  "28": "[seeker_emotion_FURIOUS]",
  "29": "[seeker_emotion_DEVASTATED]",
  "30": "[seeker_emotion_HOPEFUL]",
  "31": "[seeker_emotion_ANXIOUS]",
  "32": "[seeker_emotion_TRUSTING]",
  "33": "[seeker_emotion_CONTENT]",
  "34": "[seeker_emotion_IMPRESSED]",
  "35": "[seeker_emotion_APPREHENSIVE]",
  "36": "[seeker_emotion_CARING]",
  "37": "[seeker_emotion_GUILTY]",
  "38": "[seeker_emotion_CURIOUS]",
  "39": "[seeker_emotion_NEUTRAL]",
  "40": "[seeker_emotion_ANXIETY]",
  "41": "[seeker_emotion_DEPRESSION]",
  "42": "[seeker_emotion_SADNESS]",
  "43": "[seeker_emotion_ANGER]",
  "44": "[seeker_emotion_FEAR]",
  "45": "[seeker_emotion_DISGUST]",
  "46": "[strategy_QUESTION]",
  "47": "[strategy_RESTATEMENT]",
  "48": "[strategy_AFFIRMATION_AND_REASSURANCE]",
  "49": "[strategy_SUGGESTION]",
  "50": "[strategy_INFORMATION]",
  "51": "[strategy_SELF_DISCLOSURE]",
  "52": "[strategy_OTHERS_EXPERIENCES]",
  "53": "[strategy_TRANSITION_TO_PROBLEM]",
  "54": "[intensity_1]",
  "55": "[intensity_2]",
  "56": "[intensity_3]",
  "57": "[intensity_4]",
  "58": "[intensity_5]",
  "59": "!",
  "60": "\"",
  "61": "#",
  "62": "$",
  "63": "%",
  "64": "&",
  "65": "'",
  "66": "(",
  "67": ")",
  "68": "*",
  "69": "+",
  "70": ",",
  "71": "-",
  "72": ".",
  "73": "/",
  "74": "0",
  "75": "1",
  "76": "2",
  "77": "3",
  "78": "4",
  "79": "5",
  "80": "6",
  "81": "7",
  "82": "8",
  "83": "9",
  "84": ":",
  "85": ";",
  "86": "<",
  "87": "=",
  "88": ">",
  "89": "?",
  "90": "@",
  "91": "A",
  "92": "B",
  "93": "C",
  "94": "D",
  "95": "E",
  "96": "F",
  "97": "G",
  "98": "H",
  "99": "I",
  "100": "J",
  "101": "K",
  "102": "L",
  "103": "M",
  "104": "N",
  "105": "O",
  "106": "P",
  "107": "Q",
  "108": "R",
  "109": "S",
  "110": "T",
  "111": "U",
  "112": "V",
  "113": "W",
  "114": "X",
  "115": "Y",
  "116": "Z",
  "117": "[",
  "118": "\\",
  "119": "]",
  "120": "^",
  "121": "_",
  "122": "a",
  "123": "b",
  "124": "c",
  "125": "d",
  "126": "e",
  "127": "f",
  "128": "g",
  "129": "h",
  "130": "i",
  "131": "j",
  "132": "k",
  "133": "l",
  "134": "m",
  "135": "n",
  "136": "o",
  "137": "p",
  "138": "q",
  "139": "r",
  "140": "s",
  "141": "t",
  "142": "u",
  "143": "v",
  "144": "w",
  "145": "x",
  "146": "y",
  "147": "z",
  "148": "{",
  "149": "|",
  "150": "}",
  "151": "~",
  "152": "\u00a2",
  "153": "\u00a3",
  "154": "\u00c2",
  "155": "\u00e2",
  "156": "\u00f0",
  "157": "\u010a",
  "158": "\u0120",
  "159": "\u0122",
  "160": "\u012c",
  "161": "\u012d",
  "162": "\u0134",
  "163": "\u0136",
  "164": "\u013a",
  "165": "\u013b",
  "166": "\u0141",
  "167": "\u0120t",
  "168": "\u0120a",
  "169": "er",
  "170": "on",
  "171": "in",
  "172": "\u0120w",
  "173": "\u0120th",
  "174": "\u0120s",
  "175": "ou",
  "176": "\u0120I",
  "177": "ee",
  "178": "ot",
  "179": "\u0120h",
  "180": "at",
  "181": "em",
  "182": "\u0120i",
  "183": "\u0120m",
  "184": "SE",
  "185": "ion",
  "186": "\u0120b",
  "187": "ER",
  "188": "re",
  "189": "eek",
  "190": "\u0120[",
  "191": "]:",
  "192": "][",
  "193": "EK",
  "194": "SEEK",
  "195": "SEEKER",
  "196": "otion",
  "197": "emotion",
  "198": "LS",
  "199": "eeker",
  "200": "CLS",
  "201": "seeker",
  "202": "\u0120f",
  "203": "\u0120to",
  "204": "ing",
  "205": "\u0120d",
  "206": "\u0120y",
  "207": "\u0120g",
  "208": "nd",
  "209": "\u0120c",
  "210": "or",
  "211": "\u0120you",
  "212": "\u0120the",
  "213": "ll",
  "214": "\u0120l",
  "215": "as",
  "216": "ve",
  "217": "\u0120n",
  "218": "\u0120it",
  "219": "\u0120ha",
  "220": "es",
  "221": "\u0120p",
  "222": "ed",
  "223": "an",
  "224": "\u0120o",
  "225": "en",
  "226": "it",
  "227": "om",
  "228": "ar",
  "229": "\u0120and",
  "230": "ow",
  "231": "\u0120that",
  "232": "et",
  "233": "hat",
  "234": "st",
  "235": "ay",
  "236": "\u0120was",
  "237": "id",
  "238": "\u0120my",
  "239": "\u0120of",
  "240": "\u0120is",
  "241": "\u0120in",
  "242": "\u0120be",
  "243": "oo",
  "244": "\u0120e",
  "245": "\u0120re",
  "246": "\u0120so",
  "247": "\u0120for",
  "248": "'s",
  "249": "gh",
  "250": "ri",
  "251": "ld",
  "252": "le",
  "253": "ver",
  "254": "\u0120have",
  "255": "\u0120do",
  "256": "ut",
  "257": "\u0120on",
  "258": "all",
  "259": "ke",
  "260": "im",
  "261": "ED",
  "262": "is",
  "263": "\u0120he",
  "264": "out",
  "265": "he",
  "266": "ad",
  "267": "'t",
  "268": "\u0120T",
  "269": "\u0120u",
  "270": "se",
  "271": "\u0120k",
  "272": "ic",
  "273": "ly",
  "274": "ust",
  "275": "\u0120li",
  "276": "\u0120st",
  "277": "\u0120W",
  "278": "ch",
  "279": "NT",
  "280": "\u0120me",
  "281": "\u0120j",
  "282": "ally",
  "283": "ome",
  "284": "ere",
  "285": "op",
  "286": "\u0120wh",
  "287": "al",
  "288": "ould",
  "289": "\u0120an",
  "290": "PR",
  "291": "ood",
  "292": "\u0120but",
  "293": "\u0120did",
  "294": "ith",
  "295": "\u0120am",
  "296": "\u0120go",
  "297": "\u0120su",
  "298": "ght",
  "299": "ill",
  "300": "pp",
  "301": "\u0120are",
  "302": "ent",
  "303": "\u0120get",
  "304": "ck",
  "305": "\u0120with",
  "306": "US",
  "307": "am",
  "308": "\u0120It",
  "309": "\u0120can",
  "310": "FU",
  "311": "\u0120ab",
  "312": "\u0120ne",
  "313": "\u0120not",
  "314": "\u0120wor",
  "315": "ea",
  "316": "'m",
  "317": "one",
  "318": "very",
  "319": "\u0120just",
  "320": "ell",
  "321": "\u0120at",
  "322": "\u0120like",
  "323": "\u0120they",
  "324": "ter",
  "325": "end",
  "326": "\u0120good",
  "327": "\u0120H",
  "328": "ry",
  "329": "ir",
  "330": "\u0120really",
  "331": "NG",
  "332": "ce",
  "333": "\u0120your",
  "334": "\u0120out",
  "335": "\u0120r",
  "336": "\u0120M",
  "337": "\u0120tim",
  "338": "\u0120al",
  "339": "\u0120lo",
  "340": "\u0120fee",
  "341": "..",
  "342": "FUL",
  "343": "Oh",
  "344": "\u0120kn",
  "345": "\u0120Y",
  "346": "\u0120about",
  "347": "SED",
  "348": "her",
  "349": "\u0120feel",
  "350": "\u0120That",
  "351": "\u0120up",
  "352": "hing",
  "353": "\u0120too",
  "354": "That",
  "355": "\u0120S",
  "356": "een",
  "357": "\u0120had",
  "358": "\u0120sh",
  "359": "\u0120time",
  "360": "ct",
  "361": "ound",
  "362": "\u0120know",
  "363": "ink",
  "364": "TED",
  "365": "ope",
  "366": "un",
  "367": "ant",
  "368": "\u0120she",
  "369": "\u0120happ",
  "370": "\u0120some",
  "371": "ore",
  "372": "\u0120all",
  "373": "ake",
  "374": "\u0120will",
  "375": "\u0120when",
  "376": "OUS",
  "377": "RA",
  "378": "RI",
  "379": "\u0120her",
  "380": "ind",
  "381": "\u0120D",
  "382": "PRE",
  "383": "\u0120A",
  "384": "\u0120work",
  "385": "\u0120as",
  "386": "\u0120ex",
  "387": "AL",
  "388": "ul",
  "389": "riend",
  "390": "ENT",
  "391": "ro",
  "392": "\u0120been",
  "393": "ate",
  "394": "ast",
  "395": "ear",
  "396": "\u0120think",
  "397": "\u0120what",
  "398": "ough",
  "399": "ra",
  "400": "ays",
  "401": "\u0120them",
  "402": "are",
  "403": "\u0120no",
  "404": "art",
  "405": "ice",
  "406": "est",
  "407": "\u0120don",
  "408": "reat",
  "409": "ur",
  "410": "\u0120would",
  "411": "other",
  "412": "\u0120going",
  "413": "\u0120hope",
  "414": "\u0120him",
  "415": "\u0120we",
  "416": "nt",
  "417": "\u0120fr",
  "418": "\u0120got",
  "419": "ong",
  "420": "\u0120What",
  "421": "\u0120any",
  "422": "\u0120one",
  "423": "\u0120very",
  "424": "au",
  "425": "\u0120friend",
  "426": "\u0120this",
  "427": "ess",
  "428": "eah",
  "429": "ON",
  "430": "\u0120ba",
  "431": "SU",
  "432": "SA",
  "433": "\u0120aw",
  "434": "AN",
  "435": "\u0120pl",
  "436": "\u0120great",
  "437": "CI",
  "438": "\u0120see",
  "439": "\u0120My",
  "440": "ak",
  "441": "NO",
  "442": "\u0120or",
  "443": "\u0120ch",
  "444": "\u0120de",
  "445": "\u0120bet",
  "446": "omet",
  "447": "\u0120now",
  "448": "FI",
  "449": "\u0120there",
  "450": "DI",
  "451": "EFUL",
  "452": "\u0120sure",
  "453": "\u0120pre",
  "454": "PA",
  "455": "\u0120year",
  "456": "fe",
  "457": "\u0120thing",
  "458": "ation",
  "459": "ight",
  "460": "sed",
  "461": "ST",
  "462": "SSED",
  "463": "ge",
  "464": "TI",
  "465": "IM",
  "466": "ame",
  "467": "th",
  "468": "TING",
  "469": "\u0120want",
  "470": "ble",
  "471": "il",
  "472": "\u0120mu",
  "473": "ool",
  "474": "lf",
  "475": "\u0120The",
  "476": "day",
  "477": "and",
  "478": "\u0120how",
  "479": "\u0120somet",
  "480": "\u0120hear",
  "481": "\u0120were",
  "482": "ive",
  "483": "ook",
  "484": "\u0120mo",
  "485": "\u0120com",
  "486": "\u0120every",
  "487": "\u0120new",
  "488": "\u0120happen",
  "489": "\u0120from",
  "490": "ous",
  "491": "orry",
  "492": "\u0120bad",
  "493": "eop",
  "494": "ain",
  "495": "TER",
  "496": "\u0120love",
  "497": "ways",
  "498": "eople",
  "499": "\u0120lot",
  "500": "\u0120back",
  "501": "\u0120N",
  "502": "\u0120sp",
  "503": "\u0120har",
  "504": "\u0120B",
  "505": "eed",
  "506": "\u0120well",
  "507": "ie",
  "508": "PP",
  "509": "\u0120week",
  "510": "\u0120much",
  "511": "PPO",
  "512": "ting",
  "513": "\u0120always",
  "514": "PRI",
  "515": "SUR",
  "516": "SURPRI",
  "517": "\u0120day",
  "518": "SURPRISED",
  "519": "\u0120could",
  "520": "\u0120ag",
  "521": "ful",
  "522": "\u0120hard",
  "523": "\u0120nice",
  "524": "\u0120Oh",
  "525": "ss",
  "526": "It",
  "527": "ank",
  "528": "\u0120people",
  "529": "ers",
  "530": "\u0120sc",
  "531": "our",
  "532": "ort",
  "533": "ving",
  "534": "ounds",
  "535": "\u0120jo",
  "536": "ite",
  "537": "\u0120if",
  "538": "'ve",
  "539": "thing",
  "540": "\u0120gu",
  "541": "\u0120sorry",
  "542": "ty",
  "543": "\u0120fe",
  "544": "ause",
  "545": "ff",
  "546": "\u0120sa",
  "547": "\u0120con",
  "548": "\u0120Did",
  "549": "\u0120man",
  "550": "right",
  "551": "us",
  "552": "\u0120bec",
  "553": "ol",
  "554": "ine",
  "555": "\u0120should",
  "556": "\u0120make",
  "557": "\u0120car",
  "558": "\u0120tr",
  "559": "\u0120fun",
  "560": "\u0120im",
  "561": "oy",
  "562": "\u0120kid",
  "563": "\u0120Wh",
  "564": "\u0120never",
  "565": "\u0120old",
  "566": "eep",
  "567": "ish",
  "568": "ven",
  "569": "\u0120job",
  "570": "\u0120You",
  "571": "\u0120over",
  "572": "ies",
  "573": "\u0120didn",
  "574": "\u0120more",
  "575": "\u0120le",
  "576": "\u0120try",
  "577": "ig",
  "578": "lp",
  "579": "ity",
  "580": "\u0120He",
  "581": "\u0120other",
  "582": "\u0120help",
  "583": "SAD",
  "584": "um",
  "585": "\u0120need",
  "586": "ci",
  "587": "\u0120fa",
  "588": "\u0120happy",
  "589": "\u0120long",
  "590": "\u0120C",
  "591": "ily",
  "592": "\u0120because",
  "593": "\u0120has",
  "594": "\u0120mad",
  "595": "\u0120Th",
  "596": "\u0120off",
  "597": "ose",
  "598": "EX",
  "599": "\u0120kind",
  "600": "CITED",
  "601": "EXCITED",
  "602": "\u0120something",
  "603": "self",
  "604": "\u0120look",
  "605": "\u0120right",
  "606": "\u0120en",
  "607": "ick",
  "608": "be",
  "609": "pe",
  "610": "ANG",
  "611": "\u0120must",
  "612": "\u0120cl",
  "613": "\u0120sounds",
  "614": "\u0120af",
  "615": "\u0120though",
  "616": "\u0120v",
  "617": "\u0120pro",
  "618": "qu",
  "619": "\u0120How",
  "620": "\u0120still",
  "621": "ought",
  "622": "uck",
  "623": "OU",
  "624": "\u0120better",
  "625": "RY",
  "626": "\u0120pret",
  "627": "ANGRY",
  "628": "XI",
  "629": "ANXI",
  "630": "TY",
  "631": "itt",
  "632": "alk",
  "633": "DE",
  "634": "\u0120does",
  "635": "\u0120his",
  "636": "\u0120di",
  "637": "OUD",
  "638": "PROUD",
  "639": "\u0120way",
  "640": "\u0120co",
  "641": "\u0120pretty",
  "642": "\u0120even",
  "643": "NOY",
  "644": "ANNOY",
  "645": "ANNOYED",
  "646": "\u0120dog",
  "647": "\u0120things",
  "648": "ha",
  "649": "int",
  "650": "\u0120home",
  "651": "...",
  "652": "EL",
  "653": "\u0120gr",
  "654": "Yes",
  "655": "GUS",
  "656": "SGUS",
  "657": "DISGUS",
  "658": "\u0120life",
  "659": "\u0120last",
  "660": "esome",
  "661": "ard",
  "662": "Yeah",
  "663": "\u0120pr",
  "664": "ID",
  "665": "\u0120take",
  "666": "ELY",
  "667": "LON",
  "668": "\u0120friends",
  "669": "LONELY",
  "670": "RAT",
  "671": "GRAT",
  "672": "GRATEFUL",
  "673": "irst",
  "674": "RIFI",
  "675": "TERRIFI",
  "676": "TERRIFIED",
  "677": "\u0120years",
  "678": "aybe",
  "679": "AF",
  "680": "RAID",
  "681": "AFRAID",
  "682": "FURI",
  "683": "FURIOUS",
  "684": "ide",
  "685": "DISGUSTED",
  "686": "ull",
  "687": "IL",
  "688": "\u0120fam",
  "689": "'re",
  "690": "\u0120first",
  "691": "ANXIOUS",
  "692": "ANT",
  "693": "GU",
  "694": "ittle",
  "695": "ILTY",
  "696": "GUILTY",
  "697": "PRESSED",
  "698": "IMPRESSED",
  "699": "CON",
  "700": "DENT",
  "701": "FIDENT",
  "702": "CONFIDENT",
  "703": "\u0120sch",
  "704": "ICI",
  "705": "PATING",
  "706": "ANTICI",
  "707": "ANTICIPATING",
  "708": "HO",
  "709": "\u0120went",
  "710": "IC",
  "711": "ud",
  "712": "PEFUL",
  "713": "HOPEFUL",
  "714": "own",
  "715": "atch",
  "716": "GIC",
  "717": "ALGIC",
  "718": "NOST",
  "719": "NOSTALGIC",
  "720": "\u0120who",
  "721": "\u0120br",
  "722": "\u0120Yes",
  "723": "\u0120little",
  "724": "SI",
  "725": "INT",
  "726": "SAPPO",
  "727": "DISAPPO",
  "728": "INTED",
  "729": "DISAPPOINTED",
  "730": "\u0120They",
  "731": "AR",
  "732": "EAL",
  "733": "JO",
  "734": "JOY",
  "735": "JEAL",
  "736": "JEALOUS",
  "737": "JOYFUL",
  "738": "ens",
  "739": "PAR",
  "740": "PREPAR",
  "741": "PREPARED",
  "742": "\u0120family",
  "743": "'ll",
  "744": "\u0120ar",
  "745": "\u0120exc",
  "746": "\u0120find",
  "747": "ag",
  "748": "\u0120start",
  "749": "ONT",
  "750": "CONT",
  "751": "CONTENT",
  "752": "\u0120best",
  "753": "\u0120won",
  "754": "\u0120then",
  "755": "\u0120by",
  "756": "\u0120She",
  "757": "\u0120wa",
  "758": "VA",
  "759": "EM",
  "760": "per",
  "761": "pl",
  "762": "\u0120qu",
  "763": "ATED",
  "764": "STATED",
  "765": "DEVA",
  "766": "DEVASTATED",
  "767": "ually",
  "768": "\u0120kids",
  "769": "BAR",
  "770": "RASSED",
  "771": "EMBAR",
  "772": "EMBARRASSED",
  "773": "\u0120po",
  "774": "\u0120thr",
  "775": "\u0120awesome",
  "776": "\u0120school",
  "777": "HA",
  "778": "ue",
  "779": "\u0120un",
  "780": "\u0120We",
  "781": "ass",
  "782": "nder",
  "783": "akes",
  "784": "ure",
  "785": "\u0120part",
  "786": "\u0120int",
  "787": "\u0120But",
  "788": "ried",
  "789": "SENT",
  "790": "ENTAL",
  "791": "IMENTAL",
  "792": "SENTIMENTAL",
  "793": "CA",
  "794": "lt",
  "795": "\u0120wait",
  "796": "\u0120feeling",
  "797": "\u0120after",
  "798": "RING",
  "799": "CARING",
  "800": "TR",
  "801": "USTING",
  "802": "TRUSTING",
  "803": "ared",
  "804": "\u0120excit",
  "805": "\u0120someone",
  "806": "HAM",
  "807": "SHAM",
  "808": "\u0120L",
  "809": "\u0120under",
  "810": "oney",
  "811": "\u0120us",
  "812": "\u0120G",
  "813": "emb",
  "814": "\u0120Do",
  "815": "xt",
  "816": "\u0120ok",
  "817": "ist",
  "818": "ASHAM",
  "819": "ASHAMED",
  "820": "\u0120money",
  "821": "\u0120made",
  "822": "ave",
  "823": "\u01201",
  "824": "ouse",
  "825": "fore",
  "826": "\u0120today",
  "827": "\u0120felt",
  "828": "ady",
  "829": "\u0120away",
  "830": "VE",
  "831": "\u0120happened",
  "832": "\u0120play",
  "833": "HE",
  "834": "ile",
  "835": "ft",
  "836": "rible",
  "837": "\u0120before",
  "838": "ning",
  "839": "imes",
  "840": "\u0120Yeah",
  "841": "!!",
  "842": "\u0120doing",
  "843": "HEN",
  "844": "AP",
  "845": "\u0120ter",
  "846": "\u0120ro",
  "847": "PREHEN",
  "848": "SIVE",
  "849": "APPREHEN",
  "850": "APPREHENSIVE",
  "851": "\u0120being",
  "852": "\u0120getting",
  "853": "igh",
  "854": "\u0120lol",
  "855": "\u0120able",
  "856": "\u0120gl",
  "857": "\u0120house",
  "858": "\u0120night",
  "859": "ac",
  "860": "\u0120se",
  "861": "\u0120only",
  "862": "\u0120O",
  "863": "\u0120anything",
  "864": "\u0120rel",
  "865": "\u0120live",
  "866": "\u0120next",
  "867": "\u0120into",
  "868": "aking",
  "869": "rat",
  "870": "\u0120down",
  "871": "What",
  "872": "\u0120their",
  "873": "\u0120sad",
  "874": "\u0120end",
  "875": "\u0120keep",
  "876": "ild",
  "877": "\u0120luck",
  "878": "ary",
  "879": "iz",
  "880": "\u0120big",
  "881": "\u0120mis",
  "882": "\u0120than",
  "883": "\u0120rec",
  "884": "ations",
  "885": "ace",
  "886": "\u0120act",
  "887": "\u0120care",
  "888": "eet",
  "889": "\u0120around",
  "890": "\u0120fin",
  "891": "ab",
  "892": "\u0120underst",
  "893": "\u0120its",
  "894": "\u0120wish",
  "895": "\u0120yes",
  "896": "\u0120gir",
  "897": "urn",
  "898": "\u0120talk",
  "899": "\u0120say",
  "900": "Well",
  "901": "\u0120our",
  "902": "wn",
  "903": "\u0120E",
  "904": "ully",
  "905": "IT",
  "906": "der",
  "907": "\u0120days",
  "908": "\u0120F",
  "909": "\u0120watch",
  "910": "\u0120thought",
  "911": "ach",
  "912": "\u0120mon",
  "913": "cc",
  "914": "\u0120sw",
  "915": "\u0120glad",
  "916": "\u0120plan",
  "917": "\u0120prob",
  "918": "ip",
  "919": "\u0120mom",
  "920": "\u0120myself",
  "921": "\u0120app",
  "922": "\u0120rem",
  "923": "\u0120understand",
  "924": "\u0120imp",
  "925": "\u0120bu",
  "926": "\u0120guess",
  "927": "az",
  "928": "RTER",
  "929": "SUPPO",
  "930": "SUPPORTER",
  "931": "\u0120cool",
  "932": "\u0120same",
  "933": "FA",
  "934": "\u0120again",
  "935": "\u0120everything",
  "936": "ITH",
  "937": "FAITH",
  "938": "FAITHFUL",
  "939": "\u01202",
  "940": "\u0120hate",
  "941": "\u0120che",
  "942": "fully",
  "943": "\u0120cou",
  "944": "\u0120pers",
  "945": "\u0120many",
  "946": "ved",
  "947": "pt",
  "948": "so",
  "949": "\u0120through",
  "950": "\u0120dis",
  "951": "\u0120Are",
  "952": "\u0120So",
  "953": "\u0120bl",
  "954": "\u0120pay",
  "955": "\u0120P",
  "956": "ince",
  "957": "\u0120guy",
  "958": "\u0120few",
  "959": "ensity",
  "960": "\u0120month",
  "961": "\u0120sm",
  "962": "\u0120why",
  "963": "intensity",
  "964": "\u0120seem",
  "965": "\u0120ad",
  "966": "ated",
  "967": "ire",
  "968": "ress",
  "969": "You",
  "970": "\u0120person",
  "971": "get",
  "972": "\u0120call",
  "973": "Th",
  "974": "\u0120:",
  "975": "\u0120tell",
  "976": "ious",
  "977": "\u0120ner",
  "978": "\u0120sur",
  "979": "aught",
  "980": "\u0120let",
  "981": "\u0120makes",
  "982": "\u0120those",
  "983": "ance",
  "984": "\u0120least",
  "985": "ng",
  "986": "\u0120No",
  "987": "\u0120since",
  "988": "\u0120ever",
  "989": "\u0120Well",
  "990": "\u0120come",
  "991": "able",
  "992": "ating",
  "993": "\u0120sl",
  "994": "\u0120inter",
  "995": "\u0120such",
  "996": "ward",
  "997": "ost",
  "998": "\u0120comp",
  "999": "arent",
  "1000": "\u0120miss",
  "1001": "\u0120mean",
  "1002": "\u0120having",
  "1003": "pect",
  "1004": "\u0120found",
  "1005": "ence",
  "1006": "\u0120while",
  "1007": "\u0120dri",
  "1008": "\u0120where",
  "1009": "\u0120done",
  "1010": "\u0120child",
  "1011": "\u0120put",
  "1012": "vie",
  "1013": "\u0120sometimes",
  "1014": "\u0120give",
  "1015": "ember",
  "1016": "\u0120amaz",
  "1017": "anks",
  "1018": "age",
  "1019": "\u0120bo",
  "1020": "ult",
  "1021": "ack",
  "1022": "oud",
  "1023": "os",
  "1024": "ment",
  "1025": "\u0120terrible",
  "1026": "\u0120tra",
  "1027": "\u0120scared",
  "1028": "\u0120Is",
  "1029": "\u0120used",
  "1030": "\u0120wanted",
  "1031": "The",
  "1032": "Wow",
  "1033": "vor",
  "1034": "\u0120bit",
  "1035": "\u0120bel",
  "1036": "ang",
  "1037": "\u0120also",
  "1038": "\u0120ago",
  "1039": "\u0120J",
  "1040": "\u0120looking",
  "1041": "\u0120res",
  "1042": "\u0120show",
  "1043": "ark",
  "1044": "joy",
  "1045": "\u0120here",
  "1046": "\u0120scary",
  "1047": "\u0120ask",
  "1048": "\u0120trying",
  "1049": "\u0120food",
  "1050": "\u0120Why",
  "1051": "\u0120sit",
  "1052": "\u0120excited",
  "1053": "\u0120tw",
  "1054": "\u0120amazing",
  "1055": "No",
  "1056": "\u0120stu",
  "1057": "ongrat",
  "1058": "pri",
  "1059": "\u0120supp",
  "1060": "ife",
  "1061": "ieve",
  "1062": "Wh",
  "1063": "\u0120soon",
  "1064": "\u0120dr",
  "1065": "ently",
  "1066": "\u0120weekend",
  "1067": "\u0120Maybe",
  "1068": "\u0120okay",
  "1069": "\u0120place",
  "1070": "\u0120enjoy",
  "1071": "\u0120most",
  "1072": "ree",
  "1073": "\u0120stud",
  "1074": "\u0120took",
  "1075": "\u0120wow",
  "1076": "\u0120thats",
  "1077": "\u0120tri",
  "1078": "act",
  "1079": "\u0120ph",
  "1080": "oth",
  "1081": "fin",
  "1082": "\u0120real",
  "1083": "\u0120diff",
  "1084": "\u0120saw",
  "1085": "\u0120str",
  "1086": "\u0120wasn",
  "1087": "\u0120parent",
  "1088": "vous",
  "1089": "\u0120stay",
  "1090": "\u0120favor",
  "1091": "'d",
  "1092": "\u0120another",
  "1093": "\u0120times",
  "1094": "\u0120cat",
  "1095": "ason",
  "1096": "\u0120nervous",
  "1097": "\u0120actually",
  "1098": "\u0120left",
  "1099": "ably",
  "1100": "\u0120id",
  "1101": "\u0120,",
  "1102": "\u0120believe",
  "1103": "\u0120cra",
  "1104": "ater",
  "1105": "\u0120cle",
  "1106": "\u0120fl",
  "1107": "He",
  "1108": "\u0120own",
  "1109": "\u0120Have",
  "1110": "mer",
  "1111": "\u0120remember",
  "1112": "cks",
  "1113": "\u0120lea",
  "1114": "itely",
  "1115": "ise",
  "1116": "\u0120surpri",
  "1117": "\u0120ups",
  "1118": "\u01203",
  "1119": "\u0120turn",
  "1120": "\u0120might",
  "1121": "\u0120yet",
  "1122": "finitely",
  "1123": "lle",
  "1124": "\u0120dec",
  "1125": "\u0120ready",
  "1126": "ase",
  "1127": "row",
  "1128": "\u0120brother",
  "1129": "ident",
  "1130": "\u0120proud",
  "1131": "\u0120wr",
  "1132": "ied",
  "1133": "orm",
  "1134": "\u0120said",
  "1135": "emor",
  "1136": "\u0120cont",
  "1137": "rand",
  "1138": "\u0120recently",
  "1139": "oh",
  "1140": "by",
  "1141": "\u0120hur",
  "1142": "\u0120memor",
  "1143": "\u0120wife",
  "1144": "00",
  "1145": "\u0120buy",
  "1146": "\u0120everyone",
  "1147": "cial",
  "1148": "\u0120came",
  "1149": "\u0120upset",
  "1150": "\u0120te",
  "1151": "ne",
  "1152": "dd",
  "1153": "\u0120R",
  "1154": "assed",
  "1155": "\u0120favorite",
  "1156": "\u0120lost",
  "1157": "\u0120el",
  "1158": "\u0120yourself",
  "1159": "ately",
  "1160": "ock",
  "1161": "\u0120fo",
  "1162": "ten",
  "1163": "\u0120hor",
  "1164": "\u0120acc",
  "1165": "\u0120walk",
  "1166": "\u0120quite",
  "1167": "\u0120two",
  "1168": "\u0120-",
  "1169": "\u0120alone",
  "1170": "Did",
  "1171": "terday",
  "1172": "\u0120Wow",
  "1173": "bor",
  "1174": "\u0120eat",
  "1175": "\u0120son",
  "1176": "\u0120ins",
  "1177": "\u0120told",
  "1178": "\u0120win",
  "1179": "\u0120stuff",
  "1180": "\u0120colle",
  "1181": "ner",
  "1182": "fort",
  "1183": "\u0120thank",
  "1184": "\u0120Its",
  "1185": "\u0120idea",
  "1186": "ash",
  "1187": "that",
  "1188": "gether",
  "1189": "\u0120maybe",
  "1190": "\u0120working",
  "1191": "\u0120bir",
  "1192": "ute",
  "1193": "\u0120Was",
  "1194": "ork",
  "1195": "ich",
  "1196": "\u0120together",
  "1197": "\u0120game",
  "1198": "\u0120wonder",
  "1199": "\u0120ann",
  "1200": "\u0120daught",
  "1201": "\u0120clean",
  "1202": "\u0120neigh",
  "1203": "ather",
  "1204": "\u0120girl",
  "1205": "\u0120And",
  "1206": "\u0120enough",
  "1207": "\u0120conf",
  "1208": "ew",
  "1209": "\u0120once",
  "1210": "\u0120test",
  "1211": "\u0120When",
  "1212": "\u0120true",
  "1213": "\u0120doesn",
  "1214": "ap",
  "1215": "\u0120yeah",
  "1216": "\u0120eas",
  "1217": "\u0120bus",
  "1218": "\u0120lear",
  "1219": "\u0120prep",
  "1220": "\u0120grad",
  "1221": "ny",
  "1222": "\u0120gro",
  "1223": "\u0120definitely",
  "1224": "hip",
  "1225": "ww",
  "1226": "sit",
  "1227": "\u0120hus",
  "1228": "res",
  "1229": "\u0120neighbor",
  "1230": "\u0120haven",
  "1231": "wh",
  "1232": "\u0120parents",
  "1233": "\u0120high",
  "1234": "\u0120att",
  "1235": "\u0120happens",
  "1236": "cer",
  "1237": "most",
  "1238": "\u0120tried",
  "1239": "\u0120oh",
  "1240": "ange",
  "1241": "\u0120else",
  "1242": "\u0120dont",
  "1243": "ple",
  "1244": "\u0120young",
  "1245": "\u0120nothing",
  "1246": "band",
  "1247": "\u0120move",
  "1248": "\u0120Not",
  "1249": "orrow",
  "1250": "ath",
  "1251": "\u0120Just",
  "1252": "ix",
  "1253": "\u0120super",
  "1254": "reak",
  "1255": "gg",
  "1256": "\u0120cr",
  "1257": "\u0120probably",
  "1258": "\u0120exciting",
  "1259": "\u0120sucks",
  "1260": "\u0120trust",
  "1261": "\u0120sweet",
  "1262": "cially",
  "1263": "\u0120agree",
  "1264": "\u0120college",
  "1265": "\u0120expect",
  "1266": "\u0120husband",
  "1267": "\u0120deal",
  "1268": "\u0120vac",
  "1269": "\u0120rest",
  "1270": "\u0120class",
  "1271": "ned",
  "1272": "\u0120almost",
  "1273": "lem",
  "1274": "\u0120far",
  "1275": "\u0120coming",
  "1276": "ump",
  "1277": "How",
  "1278": "\u0120daughter",
  "1279": "\u0120anyone",
  "1280": "ying",
  "1281": "\u0120\"",
  "1282": "\u0120thinking",
  "1283": "ep",
  "1284": "\u0120yesterday",
  "1285": "\u0120birth",
  "1286": "\u0120exper",
  "1287": "\u0120situ",
  "1288": "\u0120fine",
  "1289": "zy",
  "1290": "na",
  "1291": "\u0120There",
  "1292": "\u0120:)",
  "1293": "\u0120Hope",
  "1294": "\u0120taking",
  "1295": "\u0120unt",
  "1296": "\u0120compl",
  "1297": "\u0120gi",
  "1298": "ond",
  "1299": "lfriend",
  "1300": "\u0120memories",
  "1301": "ience",
  "1302": "\u0120imag",
  "1303": "\u0120close",
  "1304": "They",
  "1305": "\u0120started",
  "1306": "\u0120import",
  "1307": "\u0120annoy",
  "1308": "\u0120lucky",
  "1309": "\u0120heal",
  "1310": "\u0120hurt",
  "1311": "\u0120months",
  "1312": "\u0120per",
  "1313": "\u0120use",
  "1314": "\u0120problem",
  "1315": "\u0120trip",
  "1316": "\u0120boy",
  "1317": "\u0120bro",
  "1318": "dy",
  "1319": "\u0120reason",
  "1320": "\u0120girlfriend",
  "1321": "ither",
  "1322": "\u0120guys",
  "1323": "\u0120wrong",
  "1324": "\u0120important",
  "1325": "\u0120ser",
  "1326": "ax",
  "1327": "ord",
  "1328": "\u0120until",
  "1329": "\u0120des",
  "1330": "\u0120haha",
  "1331": "\u0120seems",
  "1332": "\u0120Im",
  "1333": "\u0120run",
  "1334": "\u0120leave",
  "1335": "\u0120posit",
  "1336": "\u0120grand",
  "1337": "\u0120without",
  "1338": "ont",
  "1339": "pecially",
  "1340": "\u0120alre",
  "1341": "\u0120sleep",
  "1342": "\u0120ear",
  "1343": "\u0120already",
  "1344": "\u01205",
  "1345": "\u0120stop",
  "1346": "\u0120party",
  "1347": "\u0120hour",
  "1348": "ongratul",
  "1349": "eal",
  "1350": "\u0120bought",
  "1351": "\u0120heard",
  "1352": "\u0120birthday",
  "1353": "\u0120tough",
  "1354": "unch",
  "1355": "\u0120these",
  "1356": "\u0120crazy",
  "1357": "She",
  "1358": "\u0120spe",
  "1359": "\u0120baby",
  "1360": "\u0120prom",
  "1361": "\u0120finally",
  "1362": "ail",
  "1363": "\u0120mar",
  "1364": "ling",
  "1365": "\u0120tom",
  "1366": "ions",
  "1367": "\u0120couldn",
  "1368": "\u0120room",
  "1369": "\u0120both",
  "1370": "\u0120usually",
  "1371": "\u0120imagine",
  "1372": "als",
  "1373": "\u0120hit",
  "1374": "\u0120emb",
  "1375": "\u0120sick",
  "1376": "\u0120pa",
  "1377": "\u0120vis",
  "1378": "ongratulations",
  "1379": "ever",
  "1380": "\u0120compan",
  "1381": "\u0120passed",
  "1382": "\u0120U",
  "1383": "\u0120store",
  "1384": "\u0120forward",
  "1385": "red",
  "1386": "\u0120differ",
  "1387": "\u0120situation",
  "1388": "ves",
  "1389": "ier",
  "1390": "\u0120knew",
  "1391": "\u0120awful",
  "1392": "\u0120embar",
  "1393": "vent",
  "1394": "\u0120hand",
  "1395": "\u0120Some",
  "1396": "\u0120weeks",
  "1397": "\u0120sec",
  "1398": "\u0120dad",
  "1399": "view",
  "1400": "gry",
  "1401": "\u0120movie",
  "1402": "\u0120vacation",
  "1403": "\u0120hu",
  "1404": "less",
  "1405": "\u0120sist",
  "1406": "\u0120pet",
  "1407": "\u0120check",
  "1408": "ness",
  "1409": "ream",
  "1410": "vers",
  "1411": "\u0120wonderful",
  "1412": "\u01204",
  "1413": "\u0120worst",
  "1414": "Why",
  "1415": "\u0120tomorrow",
  "1416": "\u0120K",
  "1417": "ement",
  "1418": "up",
  "1419": "\u0120Good",
  "1420": "\u0120health",
  "1421": "\u0120visit",
  "1422": "og",
  "1423": "\u0120past",
  "1424": "\u0120ret",
  "1425": "\u0120mor",
  "1426": "\u0120seen",
  "1427": "\u0120horrible",
  "1428": "\u0120gave",
  "1429": "\u0120whole",
  "1430": "\u0120sound",
  "1431": "\u0120worried",
  "1432": "\u0120spend",
  "1433": "\u0120experience",
  "1434": "\u0120ho",
  "1435": "\u0120making",
  "1436": "\u0120break",
  "1437": "\u0120which",
  "1438": "\u0120appre",
  "1439": "\u0120pass",
  "1440": "\u0120couple",
  "1441": "\u0120ap",
  "1442": "\u0120sum",
  "1443": "\u0120world",
  "1444": "if",
  "1445": "\u0120ext",
  "1446": "\u0120If",
  "1447": "\u0120hon",
  "1448": "\u0120either",
  "1449": "app",
  "1450": "ball",
  "1451": "\u0120prepared",
  "1452": "where",
  "1453": "\u0120inst",
  "1454": "raid",
  "1455": "\u0120afraid",
  "1456": "ons",
  "1457": "ctor",
  "1458": "\u0120bring",
  "1459": "ren",
  "1460": "\u0120interest",
  "1461": "\u0120gets",
  "1462": "fortun",
  "1463": "\u0120morning",
  "1464": "\u0120mind",
  "1465": "\u0120gone",
  "1466": "\u0120late",
  "1467": "\u0120pain",
  "1468": "\u0120Thank",
  "1469": "\u0120worked",
  "1470": "\u0120talking",
  "1471": "\u0120relax",
  "1472": "onna",
  "1473": "\u0120change",
  "1474": "\u0120sk",
  "1475": "ible",
  "1476": "\u0120worth",
  "1477": "\u0120?",
  "1478": "\u0120exp",
  "1479": "ometimes",
  "1480": "\u0120op",
  "1481": "\u0120em",
  "1482": "ert",
  "1483": "\u0120cour",
  "1484": "\u0120didnt",
  "1485": "\u0120Where",
  "1486": "\u0120summer",
  "1487": "\u0120head",
  "1488": "aw",
  "1489": "\u0120tot",
  "1490": "\u0120company",
  "1491": "\u0120pick",
  "1492": "\u0120mess",
  "1493": "\u0120moment",
  "1494": "We",
  "1495": "\u0120pu",
  "1496": "rif",
  "1497": "\u0120count",
  "1498": "actly",
  "1499": "sic",
  "1500": "\u0120ac",
  "1501": "\u0120cook",
  "1502": "each",
  "1503": "\u0120needed",
  "1504": "\u0120drive",
  "1505": "\u0120annoying",
  "1506": "ect",
  "1507": "\u0120es",
  "1508": "\u0120pol",
  "1509": "ize",
  "1510": "ired",
  "1511": "ict",
  "1512": "\u0120goes",
  "1513": "\u0120sn",
  "1514": "\u0120park",
  "1515": "\u0120Hopefully",
  "1516": "more",
  "1517": "\u0120gross",
  "1518": "\u0120ended",
  "1519": "\u0120news",
  "1520": "\u0120phone",
  "1521": "\u0120team",
  "1522": "hood",
  "1523": "\u0120gam",
  "1524": "\u0120different",
  "1525": "Do",
  "1526": "side",
  "1527": "\u0120appreci",
  "1528": "\u0120gonna",
  "1529": "\u0120inc",
  "1530": "ude",
  "1531": "ces",
  "1532": "\u0120moved",
  "1533": "\u0120sister",
  "1534": "\u0120anymore",
  "1535": "\u0120wouldn",
  "1536": "ationship",
  "1537": "\u0120embarr",
  "1538": "\u0120isn",
  "1539": "\u0120free",
  "1540": "yes",
  "1541": "\u0120fast",
  "1542": "\u0120waiting",
  "1543": "\u0120ty",
  "1544": "ery",
  "1545": "\u0120stress",
  "1546": "\u0120mine",
  "1547": "\u0120grow",
  "1548": "\u0120ke",
  "1549": "\u0120heart",
  "1550": "\u0120boss",
  "1551": "fect",
  "1552": "\u0120worry",
  "1553": "ret",
  "1554": "ime",
  "1555": "ia",
  "1556": "\u0120cant",
  "1557": "\u0120forg",
  "1558": "\u0120relationship",
  "1559": "\u0120dogs",
  "1560": "\u0120interview",
  "1561": "\u0120outside",
  "1562": "\u0120called",
  "1563": "aha",
  "1564": "\u0120often",
  "1565": "\u0120playing",
  "1566": "osed",
  "1567": "ans",
  "1568": "\u0120feels",
  "1569": "\u0120surprise",
  "1570": "ocked",
  "1571": "\u0120fix",
  "1572": "ressed",
  "1573": "\u0120$",
  "1574": "\u0120min",
  "1575": "ely",
  "1576": "\u0120hop",
  "1577": "\u0120Were",
  "1578": "\u0120may",
  "1579": "\u0120yea",
  "1580": "\u0120teach",
  "1581": "ider",
  "1582": "ird",
  "1583": "les",
  "1584": "\u0120point",
  "1585": "\u0120watching",
  "1586": "\u0120each",
  "1587": "\u0120ra",
  "1588": "ib",
  "1589": "\u0120anim",
  "1590": "izz",
  "1591": "bo",
  "1592": "\u0120special",
  "1593": "ike",
  "1594": "ped",
  "1595": "\u0120worse",
  "1596": "\u0120exam",
  "1597": "\u0120Thanks",
  "1598": "\u0120hours",
  "1599": "My",
  "1600": "\u0120Ch",
  "1601": "\u0120easy",
  "1602": "ping",
  "1603": "\u0120angry",
  "1604": "\u0120rep",
  "1605": "Thats",
  "1606": "iness",
  "1607": "\u0120order",
  "1608": "\u0120gift",
  "1609": "ense",
  "1610": "\u0120especially",
  "1611": "ES",
  "1612": "Thank",
  "1613": "\u0120ent",
  "1614": "\u012010",
  "1615": "\u0120honest",
  "1616": "\u0120doctor",
  "1617": "\u0120loved",
  "1618": "iv",
  "1619": "eak",
  "1620": "\u0120less",
  "1621": "\u0120tick",
  "1622": "\u0120pizz",
  "1623": "\u0120frust",
  "1624": "\u0120cow",
  "1625": "\u0120list",
  "1626": "\u0120accident",
  "1627": "\u0120meet",
  "1628": "vel",
  "1629": "\u0120diffic",
  "1630": "sh",
  "1631": "\u0120din",
  "1632": "way",
  "1633": "\u0120iss",
  "1634": "line",
  "1635": "\u0120This",
  "1636": "vice",
  "1637": "\u0120manag",
  "1638": "ract",
  "1639": "sing",
  "1640": "uring",
  "1641": "ongrats",
  "1642": "\u0120open",
  "1643": "pped",
  "1644": "\u0120anx",
  "1645": "\u0120broke",
  "1646": "what",
  "1647": "iet",
  "1648": "ensive",
  "1649": "\u0120totally",
  "1650": "Thanks",
  "1651": "\u0120del",
  "1652": "\u0120dep",
  "1653": "SION",
  "1654": "PRES",
  "1655": "\u0120pres",
  "1656": "\u0120cons",
  "1657": "PRESSION",
  "1658": "itch",
  "1659": "Not",
  "1660": "DEPRESSION",
  "1661": "\u0120water",
  "1662": "\u0120difficult",
  "1663": "\u0120lose",
  "1664": "ouble",
  "1665": "\u0120event",
  "1666": "\u0120cho",
  "1667": "rew",
  "1668": "\u0120ton",
  "1669": "\u0120hot",
  "1670": "umb",
  "1671": "\u0120lone",
  "1672": "\u0120front",
  "1673": "\u0120seeing",
  "1674": "\u0120Can",
  "1675": "\u0120comm",
  "1676": "\u0120died",
  "1677": "\u0120mother",
  "1678": "\u0120unfortun",
  "1679": "\u0120pizza",
  "1680": "\u0120complet",
  "1681": "\u0120terrif",
  "1682": "ject",
  "1683": "\u0120course",
  "1684": "\u0120date",
  "1685": "\u0120games",
  "1686": "\u0120later",
  "1687": "\u0120St",
  "1688": "\u0120ate",
  "1689": "\u0120door",
  "1690": "Are",
  "1691": "\u0120hopefully",
  "1692": "\u0120At",
  "1693": "\u0120card",
  "1694": "\u0120children",
  "1695": "\u0120frustrat",
  "1696": "ided",
  "1697": "\u0120Thats",
  "1698": "\u0120dinner",
  "1699": "\u0120town",
  "1700": "\u0120surprised",
  "1701": "\u0120foot",
  "1702": "cept",
  "1703": "Yea",
  "1704": "ked",
  "1705": "ount",
  "1706": "\u0120cam",
  "1707": "\u0120char",
  "1708": "\u0120positive",
  "1709": "\u0120quick",
  "1710": "\u0120ticket",
  "1711": "atter",
  "1712": "\u0120lau",
  "1713": "\u0120Sometimes",
  "1714": "\u0120Every",
  "1715": "\u0120set",
  "1716": "\u0120asked",
  "1717": "\u0120pri",
  "1718": "Good",
  "1719": "\u0120ones",
  "1720": "\u0120apart",
  "1721": "el",
  "1722": "\u0120ran",
  "1723": "\u0120forgot",
  "1724": "Aw",
  "1725": "ush",
  "1726": "\u0120deser",
  "1727": "\u0120learn",
  "1728": "\u0120gradu",
  "1729": "\u0120ind",
  "1730": "\u0120small",
  "1731": "\u0120inv",
  "1732": "ills",
  "1733": "\u0120Now",
  "1734": "\u0120paid",
  "1735": "ead",
  "1736": "kes",
  "1737": "\u0120near",
  "1738": "ealous",
  "1739": "\u0120cert",
  "1740": "\u0120support",
  "1741": "\u0120married",
  "1742": "\u0120others",
  "1743": "\u0120turned",
  "1744": "\u0120confident",
  "1745": "\u0120drink",
  "1746": "ues",
  "1747": "\u0120older",
  "1748": "\u0120jealous",
  "1749": "\u0120driving",
  "1750": "\u0120hoping",
  "1751": "\u0120weird",
  "1752": "\u0120looked",
  "1753": "\u0120ri",
  "1754": "\u0120during",
  "1755": "\u0120eating",
  "1756": "\u0120bas",
  "1757": "\u0120read",
  "1758": "\u0120disapp",
  "1759": "\u0120type",
  "1760": "\u0120:(",
  "1761": "\u0120V",
  "1762": "\u0120bed",
  "1763": "\u01206",
  "1764": "\u0120busy",
  "1765": "bs",
  "1766": "NES",
  "1767": "\u0120Me",
  "1768": "amed",
  "1769": "\u0120huge",
  "1770": "yea",
  "1771": "ined",
  "1772": "\u0120funny",
  "1773": "\u0120fore",
  "1774": "ug",
  "1775": "rist",
  "1776": "\u0120med",
  "1777": "friend",
  "1778": "\u0120fan",
  "1779": "NESS",
  "1780": "eally",
  "1781": "Maybe",
  "1782": "\u0120lonely",
  "1783": "ah",
  "1784": "ized",
  "1785": "\u0120works",
  "1786": "\u0120safe",
  "1787": "\u0120police",
  "1788": "ian",
  "1789": "\u0120living",
  "1790": "\u012020",
  "1791": "\u0120online",
  "1792": "erg",
  "1793": "\u0120side",
  "1794": "\u0120decided",
  "1795": "\u0120(",
  "1796": "\u0120met",
  "1797": "\u0120beach",
  "1798": "\u0120mov",
  "1799": "\u0120comes",
  "1800": "\u0120road",
  "1801": "\u0120interesting",
  "1802": "\u0120\u0120",
  "1803": "ppy",
  "1804": "ars",
  "1805": "\u0120shop",
  "1806": "Nice",
  "1807": "uture",
  "1808": "\u0120sho",
  "1809": "not",
  "1810": "od",
  "1811": "\u0120grandm",
  "1812": "aur",
  "1813": "\u0120cowork",
  "1814": "\u0120future",
  "1815": "\u0120brought",
  "1816": "\u0120god",
  "1817": "\u0120ve",
  "1818": "\u0120laugh",
  "1819": "\u0120full",
  "1820": "\u0120reg",
  "1821": "!!!",
  "1822": "\u0120sing",
  "1823": "\u0120cut",
  "1824": "\u0120self",
  "1825": "vious",
  "1826": "ps",
  "1827": "ates",
  "1828": "\u0120rid",
  "1829": "\u0120shocked",
  "1830": "work",
  "1831": "\u0120sim",
  "1832": "\u0120mist",
  "1833": "\u0120Sounds",
  "1834": "\u0120face",
  "1835": "\u0120movies",
  "1836": "no",
  "1837": "SADNESS",
  "1838": "\u0120plans",
  "1839": "\u0120thankful",
  "1840": "\u0120restaur",
  "1841": "\u0120chang",
  "1842": "\u0120promotion",
  "1843": "\u0120restaurant",
  "1844": "\u0120Yea",
  "1845": "olute",
  "1846": "gn",
  "1847": "\u0120disappo",
  "1848": "\u0120boyfriend",
  "1849": "\u0120norm",
  "1850": "\u0120word",
  "1851": "\u0120ref",
  "1852": "ition",
  "1853": "haha",
  "1854": "\u0120expensive",
  "1855": "\u01208",
  "1856": "\u0120treat",
  "1857": "\u0120city",
  "1858": "orn",
  "1859": "\u0120appreciate",
  "1860": "\u0120fall",
  "1861": "\u0120rain",
  "1862": "ower",
  "1863": "\u0120aff",
  "1864": "\u0120Don",
  "1865": "\u0120trouble",
  "1866": "\u0120finish",
  "1867": "ted",
  "1868": "\u0120rough",
  "1869": "\u0120Be",
  "1870": "ign",
  "1871": "\u0120vide",
  "1872": "\u0120return",
  "1873": "\u0120extra",
  "1874": "??",
  "1875": "\u0120takes",
  "1876": "\u0120gen",
  "1877": "ures",
  "1878": "\u0120exactly",
  "1879": "\u0120smart",
  "1880": "\u0120hang",
  "1881": "aster",
  "1882": "\u0120name",
  "1883": "....",
  "1884": "\u0120disg",
  "1885": "\u0120instead",
  "1886": "eeting",
  "1887": "\u0120catch",
  "1888": "\u0120kill",
  "1889": "cy",
  "1890": "\u0120certain",
  "1891": "ative",
  "1892": "\u0120fight",
  "1893": "\u0120sto",
  "1894": "aut",
  "1895": "\u0120lately",
  "1896": "\u0120concer",
  "1897": "\u0120poss",
  "1898": "air",
  "1899": "\u0120area",
  "1900": "\u0120Congratulations",
  "1901": "olutely",
  "1902": "unk",
  "1903": "olog",
  "1904": "wards",
  "1905": "\u0120In",
  "1906": "\u0120early",
  "1907": "ular",
  "1908": "\u0120frustrating",
  "1909": "\u0120music",
  "1910": "\u0120meeting",
  "1911": "\u0120planning",
  "1912": "\u0120supposed",
  "1913": "\u0120serious",
  "1914": "\u0120walking",
  "1915": "\u0120kept",
  "1916": "\u0120cute",
  "1917": "\u0120offer",
  "1918": "\u0120resp",
  "1919": "its",
  "1920": "\u0120helped",
  "1921": "\u0120starting",
  "1922": "\u0120caught",
  "1923": "\u0120matter",
  "1924": "\u0120moving",
  "1925": "ger",
  "1926": "ents",
  "1927": "\u0120expecting",
  "1928": "\u0120book",
  "1929": "\u0120fail",
  "1930": "mas",
  "1931": "\u0120cake",
  "1932": "\u0120stand",
  "1933": "\u0120chance",
  "1934": "\u0120dist",
  "1935": "ugg",
  "1936": "\u0120bum",
  "1937": "\u0120ir",
  "1938": "led",
  "1939": "\u0120light",
  "1940": "\u0120Who",
  "1941": "\u0120throw",
  "1942": "\u0120disgust",
  "1943": "\u0120pict",
  "1944": "assing",
  "1945": "ory",
  "1946": "body",
  "1947": "bt",
  "1948": "urance",
  "1949": "ming",
  "1950": "med",
  "1951": "\u0120sent",
  "1952": "\u0120ple",
  "1953": "\u0120gotten",
  "1954": "\u0120completely",
  "1955": "\u0120study",
  "1956": "thats",
  "1957": "\u0120afford",
  "1958": "bb",
  "1959": "\u0120beh",
  "1960": "\u0120business",
  "1961": "ane",
  "1962": "ention",
  "1963": "room",
  "1964": "ristmas",
  "1965": "Is",
  "1966": "\u0120age",
  "1967": "\u0120train",
  "1968": "\u0120football",
  "1969": "\u0120hold",
  "1970": "\u0120raise",
  "1971": "\u0120tonight",
  "1972": "\u0120forget",
  "1973": "\u0120fly",
  "1974": "ors",
  "1975": "ities",
  "1976": "\u0120needs",
  "1977": "\u0120hum",
  "1978": "ploy",
  "1979": "\u0120paying",
  "1980": "\u0120listen",
  "1981": "Sounds",
  "1982": "\u0120pack",
  "1983": "\u0120wind",
  "1984": "\u0120cur",
  "1985": "Me",
  "1986": "ken",
  "1987": "\u0120season",
  "1988": "ced",
  "1989": "ical",
  "1990": "\u0120loc",
  "1991": "\u0120fair",
  "1992": "\u0120ash",
  "1993": "\u0120insurance",
  "1994": "aken",
  "1995": "Its",
  "1996": "\u0120dream",
  "1997": "\u0120wom",
  "1998": "\u0120pull",
  "1999": "\u0120consider",
  "2000": "\u0120forever",
  "2001": "\u0120lots",
  "2002": "llow",
  "2003": "\u0120studying",
  "2004": "ding",
  "2005": "\u0120childhood",
  "2006": "\u0120beaut",
  "2007": "\u0120helps",
  "2008": "how",
  "2009": "\u0120inf",
  "2010": "\u0120faith",
  "2011": "br",
  "2012": "\u0120bunch",
  "2013": "\u0120fell",
  "2014": "\u0120smell",
  "2015": "but",
  "2016": "\u0120mil",
  "2017": "\u0120behind",
  "2018": "\u0120hun",
  "2019": "\u0120aren",
  "2020": "\u0120played",
  "2021": "OL",
  "2022": "\u0120case",
  "2023": "sel",
  "2024": "\u0120sort",
  "2025": "\u0120lunch",
  "2026": "ically",
  "2027": "\u0120ashamed",
  "2028": "iful",
  "2029": "\u0120healthy",
  "2030": "und",
  "2031": "\u0120fig",
  "2032": "\u0120One",
  "2033": "ETY",
  "2034": "rit",
  "2035": "\u0120Al",
  "2036": "ANXIETY",
  "2037": "anger",
  "2038": "\u0120bud",
  "2039": "\u0120cry",
  "2040": "\u0120knows",
  "2041": "\u0120country",
  "2042": "\u0120second",
  "2043": "\u0120animals",
  "2044": "\u0120speak",
  "2045": "ex",
  "2046": "\u0120Aw",
  "2047": "\u0120guil",
  "2048": "\u0120Sorry",
  "2049": "ross",
  "2050": "\u0120position",
  "2051": "\u0120apartment",
  "2052": "\u0120impress",
  "2053": "\u0120wear",
  "2054": "over",
  "2055": "\u0120partner",
  "2056": "\u0120remind",
  "2057": "\u0120grade",
  "2058": "\u0120ass",
  "2059": "dddd",
  "2060": "\u0120war",
  "2061": "?!",
  "2062": "\u0120ma",
  "2063": "\u0120ride",
  "2064": "\u0120Any",
  "2065": "\u0120kinda",
  "2066": "you",
  "2067": "\u0120quickly",
  "2068": "\u0120Nice",
  "2069": "\u0120weight",
  "2070": "\u0120result",
  "2071": "\u0120realize",
  "2072": "\u0120beautiful",
  "2073": "\u0120thanks",
  "2074": "\u0120inside",
  "2075": "ased",
  "2076": "\u0120half",
  "2077": "\u0120jump",
  "2078": "\u0120ru",
  "2079": "\u0120three",
  "2080": "\u0120gener",
  "2081": "\u0120state",
  "2082": "\u0120shouldn",
  "2083": "ym",
  "2084": "\u0120step",
  "2085": "\u0120cost",
  "2086": "utes",
  "2087": "ction",
  "2088": "\u0120law",
  "2089": "\u0120roll",
  "2090": "\u0120perfect",
  "2091": "uly",
  "2092": "\u0120All",
  "2093": "\u0120present",
  "2094": "Haha",
  "2095": "\u0120video",
  "2096": "\u0120along",
  "2097": "\u0120weather",
  "2098": "\u0120dark",
  "2099": "stal",
  "2100": "\u0120Last",
  "2101": "ings",
  "2102": "\u0120dra",
  "2103": "cess",
  "2104": "\u0120younger",
  "2105": "\u0120pur",
  "2106": "\u0120goodness",
  "2107": "\u0120save",
  "2108": "\u0120studied",
  "2109": "gr",
  "2110": "\u0120taken",
  "2111": "\u0120finan",
  "2112": "\u0120entire",
  "2113": "\u0120mid",
  "2114": "\u0120la",
  "2115": "\u0120stink",
  "2116": "\u0120cover",
  "2117": "\u0120cannot",
  "2118": "ient",
  "2119": "\u0120minutes",
  "2120": "So",
  "2121": "\u0120pract",
  "2122": "ited",
  "2123": "\u0120repl",
  "2124": "\u0120learned",
  "2125": "\u0120wall",
  "2126": "\u0120issues",
  "2127": "\u0120sat",
  "2128": "ompl",
  "2129": "\u0120av",
  "2130": "\u0120disc",
  "2131": "\u0120girls",
  "2132": "\u0120puppy",
  "2133": "stalg",
  "2134": "\u0120ce",
  "2135": "\u0120alright",
  "2136": "\u0120looks",
  "2137": "\u0120embarrassing",
  "2138": "\u0120bra",
  "2139": "\u0120lives",
  "2140": "\u0120stole",
  "2141": "\u0120dam",
  "2142": "\u0120cor",
  "2143": "\u0120anyway",
  "2144": "\u0120follow",
  "2145": "outh",
  "2146": "\u0120watched",
  "2147": "uri",
  "2148": "\u0120eventually",
  "2149": "\u0120yard",
  "2150": "iday",
  "2151": "\u0120figure",
  "2152": "oke",
  "2153": "\u0120father",
  "2154": "\u0120emotion",
  "2155": "\u0120tast",
  "2156": "\u0120scr",
  "2157": "ester",
  "2158": "\u0120poo",
  "2159": "\u0120cal",
  "2160": "\u0120On",
  "2161": "\u0120anxious",
  "2162": "lic",
  "2163": "ph",
  "2164": "\u01209",
  "2165": "\u0120abs",
  "2166": "irt",
  "2167": "ateful",
  "2168": "iced",
  "2169": "ilar",
  "2170": "\u0120planned",
  "2171": "\u0120loss",
  "2172": "Ah",
  "2173": "\u0120succ",
  "2174": "\u0120clos",
  "2175": "\u0120running",
  "2176": "ney",
  "2177": "\u0120nostalg",
  "2178": "\u0120add",
  "2179": "\u0120neighbors",
  "2180": "king",
  "2181": "sw",
  "2182": "\u0120grateful",
  "2183": "\u0120manager",
  "2184": "\u0120doll",
  "2185": "ants",
  "2186": "ys",
  "2187": "\u0120phot",
  "2188": "fortable",
  "2189": "\u0120easier",
  "2190": "\u0120everyday",
  "2191": "\u0120problems",
  "2192": "cus",
  "2193": "ics",
  "2194": "\u0120Haha",
  "2195": "ual",
  "2196": "\u0120.",
  "2197": "\u0120deserve",
  "2198": "\u0120guilty",
  "2199": "\u0120As",
  "2200": "\u0120single",
  "2201": "\u0120bills",
  "2202": "\u0120social",
  "2203": "\u0120spent",
  "2204": "\u0120Or",
  "2205": "\u0120grocer",
  "2206": "Just",
  "2207": "Was",
  "2208": "used",
  "2209": "\u0120lived",
  "2210": "\u0120accompl",
  "2211": "edu",
  "2212": "\u0120dead",
  "2213": "\u0120Does",
  "2214": "\u0120cats",
  "2215": "\u0120relaxing",
  "2216": "\u0120window",
  "2217": "selves",
  "2218": "well",
  "2219": "\u0120drop",
  "2220": "\u0120sal",
  "2221": "oup",
  "2222": "\u01207",
  "2223": "\u0120tou",
  "2224": "wow",
  "2225": "Aww",
  "2226": "gs",
  "2227": "\u0120keeps",
  "2228": "\u0120stressful",
  "2229": "\u0120rece",
  "2230": "\u0120cele",
  "2231": "\u0120red",
  "2232": "\u0120pregn",
  "2233": "\u0120strong",
  "2234": "the",
  "2235": "\u0120expl",
  "2236": "\u0120wants",
  "2237": "\u0120prop",
  "2238": "\u0120suppose",
  "2239": "ior",
  "2240": "\u0120short",
  "2241": "unt",
  "2242": "\u0120saying",
  "2243": "\u0120walked",
  "2244": "\u0120complain",
  "2245": "rol",
  "2246": "\u0120accept",
  "2247": "\u0120bother",
  "2248": "\u0120happening",
  "2249": "\u0120saving",
  "2250": "\u0120advice",
  "2251": "my",
  "2252": "\u0120sense",
  "2253": "ital",
  "2254": "\u0120Someone",
  "2255": "\u0120accomplish",
  "2256": "ric",
  "2257": "\u0120honestly",
  "2258": "\u0120To",
  "2259": "\u0120cloth",
  "2260": "dle",
  "2261": "\u0120sem",
  "2262": "\u0120Tr",
  "2263": "\u0120couldnt",
  "2264": "\u0120shopping",
  "2265": "\u0120local",
  "2266": "\u0120project",
  "2267": "\u0120bar",
  "2268": "\u0120telling",
  "2269": "\u0120street",
  "2270": "\u0120hair",
  "2271": "Don",
  "2272": "\u0120cause",
  "2273": "\u0120sub",
  "2274": "\u0120truly",
  "2275": "\u0120embarrassed",
  "2276": "\u0120diet",
  "2277": "\u0120coworker",
  "2278": "\u0120opp",
  "2279": "\u0120rude",
  "2280": "mm",
  "2281": "yeah",
  "2282": "ishing",
  "2283": "\u0120dev",
  "2284": "\u0120unfortunately",
  "2285": "\u0120stinks",
  "2286": "\u0120unc",
  "2287": "\u0120possible",
  "2288": "hew",
  "2289": "\u0120Really",
  "2290": "\u0120Christmas",
  "2291": "\u0120impressive",
  "2292": "\u0120top",
  "2293": "ised",
  "2294": "iety",
  "2295": "\u0120cred",
  "2296": "\u0120land",
  "2297": "illed",
  "2298": "eace",
  "2299": "\u0120talked",
  "2300": "come",
  "2301": "inted",
  "2302": "\u0120build",
  "2303": "ivers",
  "2304": "\u0120slow",
  "2305": "\u0120normal",
  "2306": "\u0120clothes",
  "2307": "\u0120mot",
  "2308": "ision",
  "2309": "\u0120truck",
  "2310": "\u0120touch",
  "2311": "\u0120tired",
  "2312": "\u0120fear",
  "2313": "\u0120due",
  "2314": "specially",
  "2315": "\u0120adv",
  "2316": "\u0120disgusting",
  "2317": "ikes",
  "2318": "\u0120Those",
  "2319": "\u012015",
  "2320": "\u0120grandmother",
  "2321": "\u0120maj",
  "2322": "\u0120poor",
  "2323": "cause",
  "2324": "ones",
  "2325": "use",
  "2326": "\u0120peace",
  "2327": "\u0120opt",
  "2328": "\u0120storm",
  "2329": "\u0120Hi",
  "2330": "\u0120strugg",
  "2331": "\u0120neighborhood",
  "2332": "\u0120credit",
  "2333": "\u0120bur",
  "2334": "\u0120asking",
  "2335": "\u0120numb",
  "2336": "ffee",
  "2337": "\u0120mistake",
  "2338": "hh",
  "2339": "oor",
  "2340": "\u0120air",
  "2341": "\u0120send",
  "2342": "ots",
  "2343": "\u0120giving",
  "2344": "\u0120prof",
  "2345": "osp",
  "2346": "\u0120secret",
  "2347": "pid",
  "2348": "\u0120dent",
  "2349": "\u0120envious",
  "2350": "\u0120final",
  "2351": "\u0120changed",
  "2352": "\u0120die",
  "2353": "\u0120box",
  "2354": "\u0120control",
  "2355": "ial",
  "2356": "ins",
  "2357": "ries",
  "2358": "\u0120pictures",
  "2359": "\u0120hosp",
  "2360": "\u0120band",
  "2361": "\u0120helping",
  "2362": "\u0120semester",
  "2363": "Have",
  "2364": "oid",
  "2365": "uch",
  "2366": "\u0120wed",
  "2367": "\u0120steal",
  "2368": "uckily",
  "2369": "\u0120service",
  "2370": "ru",
  "2371": "chool",
  "2372": "\u0120certainly",
  "2373": "\u0120beat",
  "2374": "\u0120sport",
  "2375": "\u0120swim",
  "2376": "\u0120sitting",
  "2377": "\u0120contact",
  "2378": "\u0120animal",
  "2379": "\u0120threw",
  "2380": "\u0120bath",
  "2381": "aces",
  "2382": "\u0120seemed",
  "2383": "ms",
  "2384": "rob",
  "2385": "\u0120100",
  "2386": "\u0120choice",
  "2387": "lad",
  "2388": "Hope",
  "2389": "\u0120hol",
  "2390": "rent",
  "2391": "\u0120coffee",
  "2392": "ber",
  "2393": "time",
  "2394": "\u0120occ",
  "2395": "\u0120feelings",
  "2396": "\u0120means",
  "2397": "\u0120major",
  "2398": "du",
  "2399": "\u0120office",
  "2400": "\u0120terrifying",
  "2401": "man",
  "2402": "\u0120LOL",
  "2403": "\u0120careful",
  "2404": "\u0120liked",
  "2405": "tery",
  "2406": "\u0120rather",
  "2407": "unity",
  "2408": "\u0120longer",
  "2409": "\u0120stupid",
  "2410": "read",
  "2411": "\u0120jobs",
  "2412": "\u0120fault",
  "2413": "\u0120results",
  "2414": "pected",
  "2415": "\u0120shows",
  "2416": "\u0120growing",
  "2417": "\u0120et",
  "2418": "\u0120realized",
  "2419": "fer",
  "2420": "ses",
  "2421": "\u0120sign",
  "2422": "\u0120yell",
  "2423": "ello",
  "2424": "\u0120For",
  "2425": "\u0120teacher",
  "2426": "\u0120tickets",
  "2427": "\u0120loud",
  "2428": "\u0120power",
  "2429": "\u0120trash",
  "2430": "\u0120enjoyed",
  "2431": "\u0120Congrats",
  "2432": "\u0120compet",
  "2433": "\u0120comput",
  "2434": "\u0120unfortunate",
  "2435": "lect",
  "2436": "\u0120become",
  "2437": "\u0120disappointed",
  "2438": "tle",
  "2439": "\u0120math",
  "2440": "\u0120cand",
  "2441": "ade",
  "2442": "ffic",
  "2443": "\u0120impressed",
  "2444": "\u0120anxiety",
  "2445": "\u0120receive",
  "2446": "vest",
  "2447": "\u0120losing",
  "2448": "\u0120Un",
  "2449": "ysic",
  "2450": "\u0120fit",
  "2451": "\u0120nep",
  "2452": "\u0120shame",
  "2453": "ility",
  "2454": "\u0120relie",
  "2455": "\u0120Especially",
  "2456": "\u0120terrified",
  "2457": "\u0120current",
  "2458": "urious",
  "2459": "\u0120wedding",
  "2460": "\u0120partic",
  "2461": "\u0120absolutely",
  "2462": "io",
  "2463": "\u0120indeed",
  "2464": "\u0120success",
  "2465": "Im",
  "2466": "Sorry",
  "2467": "erc",
  "2468": "icious",
  "2469": "\u0120Man",
  "2470": "rove",
  "2471": "\u0120quiet",
  "2472": "\u0120blame",
  "2473": "\u0120nerve",
  "2474": "\u0120nostalgic",
  "2475": "\u0120nephew",
  "2476": "\u0120answ",
  "2477": "\u0120cancer",
  "2478": "\u0120middle",
  "2479": "\u0120pregnant",
  "2480": "xactly",
  "2481": "\u0120tur",
  "2482": "\u0120cau",
  "2483": "\u0120cous",
  "2484": "\u0120lar",
  "2485": "\u0120pie",
  "2486": "cked",
  "2487": "\u0120turns",
  "2488": "\u0120issue",
  "2489": "gan",
  "2490": "gree",
  "2491": "reaking",
  "2492": "\u0120gym",
  "2493": "iting",
  "2494": "\u0120sever",
  "2495": "\u0120pray",
  "2496": "\u0120quit",
  "2497": "\u0120People",
  "2498": "hile",
  "2499": "oring",
  "2500": "\u0120meant",
  "2501": "\u0120woman",
  "2502": "\u0120sy",
  "2503": "aring",
  "2504": "head",
  "2505": "ental",
  "2506": "arely",
  "2507": "\u0120contin",
  "2508": "\u0120eng",
  "2509": "\u0120Fl",
  "2510": "\u0120concert",
  "2511": "\u0120irrit",
  "2512": "ls",
  "2513": "rem",
  "2514": "to",
  "2515": "\u0120born",
  "2516": "\u0120lottery",
  "2517": "olved",
  "2518": "cing",
  "2519": "rect",
  "2520": "\u0120sol",
  "2521": "\u0120somewhere",
  "2522": "\u0120leaving",
  "2523": "ida",
  "2524": "\u0120rent",
  "2525": "\u0120awhile",
  "2526": "\u0120missed",
  "2527": "\u0120pets",
  "2528": "\u0120z",
  "2529": "\u0120share",
  "2530": "\u0120across",
  "2531": "\u0120respons",
  "2532": "orida",
  "2533": "\u0120classes",
  "2534": "idence",
  "2535": "robably",
  "2536": "old",
  "2537": "ssed",
  "2538": "\u0120pot",
  "2539": "\u0120noticed",
  "2540": "\u0120degree",
  "2541": "\u0120missing",
  "2542": "\u0120focus",
  "2543": "\u0120fixed",
  "2544": "Congratulations",
  "2545": "\u0120stuck",
  "2546": "\u0120everywhere",
  "2547": "\u0120scare",
  "2548": "\u0120cars",
  "2549": "\u0120bless",
  "2550": "\u0120finished",
  "2551": "\u0120bummer",
  "2552": "\u0120fire",
  "2553": "\u0120ob",
  "2554": "\u0120Fr",
  "2555": "\u0120chick",
  "2556": "\u0120hospital",
  "2557": "If",
  "2558": "fter",
  "2559": "lier",
  "2560": "\u0120ant",
  "2561": "\u0120learning",
  "2562": "\u0120ordered",
  "2563": "\u0120tv",
  "2564": "\u0120sell",
  "2565": "\u0120gra",
  "2566": "\u0120group",
  "2567": "atur",
  "2568": "\u0120unex",
  "2569": "ees",
  "2570": "\u0120pants",
  "2571": "Who",
  "2572": "ub",
  "2573": "\u0120wer",
  "2574": "\u0120pat",
  "2575": "\u0120cheated",
  "2576": "\u0120words",
  "2577": "\u0120buddy",
  "2578": "\u0120celebr",
  "2579": "av",
  "2580": "\u0120dest",
  "2581": "\u0120Will",
  "2582": "\u0120Nothing",
  "2583": "\u0120mail",
  "2584": "\u0120amount",
  "2585": "\u0120employ",
  "2586": "\u0120similar",
  "2587": "ray",
  "2588": "\u0120bank",
  "2589": "\u0120freak",
  "2590": "\u0120De",
  "2591": "\u0120Aww",
  "2592": "\u0120val",
  "2593": "\u0120cheap",
  "2594": "\u0120cleaning",
  "2595": "ering",
  "2596": "\u0120main",
  "2597": "\u0120chat",
  "2598": "\u0120cash",
  "2599": "ids",
  "2600": "\u0120roomm",
  "2601": "Awesome",
  "2602": "\u0120wasnt",
  "2603": "\u0120black",
  "2604": "Yep",
  "2605": "col",
  "2606": "\u0120dou",
  "2607": "\u0120eff",
  "2608": "\u0120gosh",
  "2609": "\u0120saved",
  "2610": "\u0120Then",
  "2611": "form",
  "2612": "\u0120line",
  "2613": "There",
  "2614": "\u0120attention",
  "2615": "te",
  "2616": "\u0120earlier",
  "2617": "\u0120report",
  "2618": "\u0120Everyone",
  "2619": "\u0120unexpected",
  "2620": "\u0120effort",
  "2621": "\u0120!",
  "2622": "\u0120kick",
  "2623": "ters",
  "2624": "\u0120places",
  "2625": "\u0120fact",
  "2626": "\u0120shoes",
  "2627": "\u0120ice",
  "2628": "\u0120lit",
  "2629": "\u0120eyes",
  "2630": "\u0120TV",
  "2631": "\u0120MY",
  "2632": "ored",
  "2633": "\u0120themselves",
  "2634": "\u0120loves",
  "2635": "\u0120spo",
  "2636": "\u0120cold",
  "2637": "\u0120qual",
  "2638": "\u0120incred",
  "2639": "\u0120bathroom",
  "2640": "\u0120cop",
  "2641": "\u0120Like",
  "2642": "ats",
  "2643": "\u0120stressed",
  "2644": "\u0120yours",
  "2645": "ili",
  "2646": "\u0120starts",
  "2647": "\u0120large",
  "2648": "\u0120IT",
  "2649": "\u0120afterwards",
  "2650": "\u0120memory",
  "2651": "ified",
  "2652": "\u0120deli",
  "2653": "\u0120training",
  "2654": "\u0120computer",
  "2655": "\u0120ahead",
  "2656": "ines",
  "2657": "\u0120wre",
  "2658": "ication",
  "2659": "\u0120apolog",
  "2660": "\u0120ill",
  "2661": "\u0120mark",
  "2662": "\u0120adult",
  "2663": "ta",
  "2664": "\u0120wood",
  "2665": "\u0120ther",
  "2666": "\u0120ben",
  "2667": "\u0120physic",
  "2668": "\u0120decision",
  "2669": "\u0120attack",
  "2670": "\u0120stopped",
  "2671": "\u0120extrem",
  "2672": "\u0120pub",
  "2673": "\u0120brand",
  "2674": "\u0120ste",
  "2675": "\u0120appl",
  "2676": "\u0120death",
  "2677": "\u0120joy",
  "2678": "\u012030",
  "2679": "stem",
  "2680": "Where",
  "2681": "\u0120drunk",
  "2682": "\u0120delicious",
  "2683": "\u0120danger",
  "2684": "\u0120story",
  "2685": "resh",
  "2686": "\u0120expected",
  "2687": "\u0120profess",
  "2688": "colate",
  "2689": "iving",
  "2690": "\u0120beha",
  "2691": "\u0120lie",
  "2692": "\u0120stick",
  "2693": "\u0120hasn",
  "2694": "\u0120putting",
  "2695": "\u0120Very",
  "2696": "ks",
  "2697": "lol",
  "2698": "\u0120ya",
  "2699": "\u0120gh",
  "2700": "\u0120pool",
  "2701": "cking",
  "2702": "\u0120Your",
  "2703": "\u0120luckily",
  "2704": "\u0120traffic",
  "2705": "\u0120weren",
  "2706": "ove",
  "2707": "\u0120invest",
  "2708": "cif",
  "2709": "ze",
  "2710": "\u0120col",
  "2711": "\u0120meal",
  "2712": "cel",
  "2713": "\u0120rand",
  "2714": "\u0120Go",
  "2715": "\u0120relate",
  "2716": "\u0120mostly",
  "2717": "\u0120parking",
  "2718": "\u0120grocery",
  "2719": "gin",
  "2720": "ged",
  "2721": "Really",
  "2722": "ror",
  "2723": "\u0120stra",
  "2724": "\u0120surg",
  "2725": "\u0120cru",
  "2726": "\u0120system",
  "2727": "\u0120item",
  "2728": "\u0120sun",
  "2729": "\u0120After",
  "2730": "\u0120stayed",
  "2731": "\u0120specif",
  "2732": "\u0120avoid",
  "2733": "\u0120scratch",
  "2734": "\u0120random",
  "2735": "sy",
  "2736": "ered",
  "2737": "inting",
  "2738": "\u0120wanting",
  "2739": "\u0120blood",
  "2740": "\u0120body",
  "2741": "Hopefully",
  "2742": "\u0120etc",
  "2743": "ging",
  "2744": "arch",
  "2745": "\u0120process",
  "2746": "\u0120Luckily",
  "2747": "\u0120student",
  "2748": "\u0120strange",
  "2749": "\u0120broken",
  "2750": "\u0120devast",
  "2751": "\u0120buying",
  "2752": "\u0120prepare",
  "2753": "did",
  "2754": "\u0120det",
  "2755": "asty",
  "2756": "\u0120bag",
  "2757": "\u0120miles",
  "2758": "\u0120tal",
  "2759": "\u0120song",
  "2760": "\u0120allow",
  "2761": "\u0120whatever",
  "2762": "\u0120particular",
  "2763": "ape",
  "2764": "land",
  "2765": "arm",
  "2766": "\u0120art",
  "2767": "\u0120quest",
  "2768": "ured",
  "2769": "\u0120driver",
  "2770": "\u0120handle",
  "2771": "\u0120surgery",
  "2772": "\u0120staying",
  "2773": "\u0120cooking",
  "2774": "book",
  "2775": "den",
  "2776": "ien",
  "2777": "\u0120congrats",
  "2778": "rill",
  "2779": "\u0120adm",
  "2780": "ront",
  "2781": "\u0120fresh",
  "2782": "\u0120wont",
  "2783": "\u0120given",
  "2784": "\u0120motiv",
  "2785": "\u0120fing",
  "2786": "\u0120gas",
  "2787": "\u0120ev",
  "2788": "\u0120anywhere",
  "2789": "\u0120personal",
  "2790": "\u0120wallet",
  "2791": "\u0120dish",
  "2792": "itude",
  "2793": "oming",
  "2794": "oose",
  "2795": "\u0120creep",
  "2796": "\u0120borrow",
  "2797": "iss",
  "2798": "\u0120comfortable",
  "2799": "\u0120using",
  "2800": "\u0120camer",
  "2801": "\u0120doubt",
  "2802": "\u0120ach",
  "2803": "\u0120Even",
  "2804": "\u0120dollars",
  "2805": "ok",
  "2806": "ency",
  "2807": "astic",
  "2808": "\u0120hungry",
  "2809": "\u0120celebrate",
  "2810": "Some",
  "2811": "\u0120gar",
  "2812": "\u0120notice",
  "2813": "\u0120harder",
  "2814": "\u0120doesnt",
  "2815": "\u0120opport",
  "2816": "\u0120react",
  "2817": "\u0120betw",
  "2818": "\u0120leg",
  "2819": "ccer",
  "2820": "\u0120intern",
  "2821": "\u0120number",
  "2822": "\u0120lady",
  "2823": "\u0120pop",
  "2824": "\u0120Yesterday",
  "2825": "\u0120apply",
  "2826": "\u0120respect",
  "2827": "itchen",
  "2828": "\u0120grandma",
  "2829": "\u0120regret",
  "2830": "\u0120failed",
  "2831": "\u0120public",
  "2832": "\u0120fil",
  "2833": "\u0120deep",
  "2834": "\u0120cream",
  "2835": "\u0120reach",
  "2836": "\u0120knowing",
  "2837": "ield",
  "2838": "000",
  "2839": "\u0120coworkers",
  "2840": "do",
  "2841": "\u0120himself",
  "2842": "\u0120New",
  "2843": "istic",
  "2844": "\u0120cheating",
  "2845": "\u0120perform",
  "2846": "\u0120explain",
  "2847": "\u0120between",
  "2848": "\u0120travel",
  "2849": "\u0120tech",
  "2850": "\u0120soccer",
  "2851": "\u0120kitchen",
  "2852": "\u0120accidentally",
  "2853": "\u0120bon",
  "2854": "\u0120barely",
  "2855": "haps",
  "2856": "\u0120cheat",
  "2857": "\u0120teen",
  "2858": "ature",
  "2859": "\u0120Sh",
  "2860": "antly",
  "2861": "\u0120blast",
  "2862": "umped",
  "2863": "\u0120chocolate",
  "2864": "\u0120reading",
  "2865": "\u0120Florida",
  "2866": "\u0120ghost",
  "2867": "vid",
  "2868": "ye",
  "2869": "\u0120reward",
  "2870": "con",
  "2871": "\u0120woke",
  "2872": "\u0120fant",
  "2873": "\u0120Sp",
  "2874": "\u0120content",
  "2875": "\u0120says",
  "2876": "ndeed",
  "2877": "ustom",
  "2878": "\u0120jer",
  "2879": "\u0120Glad",
  "2880": "bsolutely",
  "2881": "\u0120dress",
  "2882": "\u0120nasty",
  "2883": "riage",
  "2884": "\u0120debt",
  "2885": "ucks",
  "2886": "\u0120Lol",
  "2887": "\u0120crash",
  "2888": "\u0120annoyed",
  "2889": "\u0120graduated",
  "2890": "\u0120disappointing",
  "2891": "\u0120Trump",
  "2892": "\u0120dangerous",
  "2893": "she",
  "2894": "\u0120ten",
  "2895": "ices",
  "2896": "ama",
  "2897": "\u0120alive",
  "2898": "\u0120adop",
  "2899": "\u0120confidence",
  "2900": "\u0120financial",
  "2901": "\u0120chicken",
  "2902": "pping",
  "2903": "\u0120Hello",
  "2904": "\u0120trans",
  "2905": "\u0120ground",
  "2906": "\u012018",
  "2907": "\u0120spending",
  "2908": "\u0120camping",
  "2909": "\u0120ways",
  "2910": "emon",
  "2911": "\u0120base",
  "2912": "\u0120Mon",
  "2913": "\u0120Dis",
  "2914": "\u0120keeping",
  "2915": "ube",
  "2916": "\u0120tend",
  "2917": "\u0120dating",
  "2918": "\u0120cri",
  "2919": "\u0120pays",
  "2920": "\u0120lied",
  "2921": "\u0120resc",
  "2922": "\u0120boring",
  "2923": "\u0120par",
  "2924": "\u0120speed",
  "2925": "\u0120helpful",
  "2926": "\u0120depress",
  "2927": "\u0120distance",
  "2928": "\u0120replace",
  "2929": "\u0120dropped",
  "2930": "ipped",
  "2931": "\u0120star",
  "2932": "urch",
  "2933": "\u0120appro",
  "2934": "When",
  "2935": "\u0120offered",
  "2936": "\u0120cousin",
  "2937": "key",
  "2938": "\u0120neg",
  "2939": "\u0120shock",
  "2940": "\u0120talent",
  "2941": "eese",
  "2942": "ets",
  "2943": "\u0120level",
  "2944": "fortunately",
  "2945": "\u0120sentim",
  "2946": "\u0120assum",
  "2947": "yle",
  "2948": "\u0120lay",
  "2949": "\u0120rese",
  "2950": "\u0120tor",
  "2951": "\u0120grew",
  "2952": "\u0120Hey",
  "2953": "\u0120moments",
  "2954": "\u0120attitude",
  "2955": "\u0120emp",
  "2956": "\u0120involved",
  "2957": "Cool",
  "2958": "\u0120tem",
  "2959": "\u0120low",
  "2960": "uts",
  "2961": "\u0120against",
  "2962": "\u0120picked",
  "2963": "ring",
  "2964": "\u0120scream",
  "2965": "\u0120grown",
  "2966": "ments",
  "2967": "\u0120clear",
  "2968": "ibly",
  "2969": "kward",
  "2970": "\u0120ball",
  "2971": "\u0120inj",
  "2972": "\u0120Most",
  "2973": "\u0120church",
  "2974": "Sometimes",
  "2975": "bies",
  "2976": "me",
  "2977": "\u0120custom",
  "2978": "\u0120fort",
  "2979": "roy",
  "2980": "Hey",
  "2981": "\u0120proper",
  "2982": "bby",
  "2983": "\u0120hi",
  "2984": "\u0120congratulations",
  "2985": "\u0120cup",
  "2986": "lease",
  "2987": "\u0120sudd",
  "2988": "\u0120Ha",
  "2989": "\u0120coaster",
  "2990": "intend",
  "2991": "\u0120switch",
  "2992": "\u0120winning",
  "2993": "\u0120thankfully",
  "2994": "bbed",
  "2995": "\u0120bonus",
  "2996": "\u0120sudden",
  "2997": "lies",
  "2998": "we",
  "2999": "\u0120dumb",
  "3000": "\u0120laz",
  "3001": "hel",
  "3002": "\u0120showed",
  "3003": "\u0120experien",
  "3004": "ology",
  "3005": "\u0120extremely",
  "3006": "\u0120applied",
  "3007": "\u0120research",
  "3008": "Were",
  "3009": "ote",
  "3010": "\u0120cried",
  "3011": "\u0120Never",
  "3012": "\u0120finding",
  "3013": "\u0120photos",
  "3014": "edule",
  "3015": "\u0120received",
  "3016": "gress",
  "3017": "omm",
  "3018": "\u0120begin",
  "3019": "olen",
  "3020": "\u0120recover",
  "3021": "\u0120career",
  "3022": "\u0120bill",
  "3023": "ides",
  "3024": "\u0120beer",
  "3025": "oof",
  "3026": "isf",
  "3027": "\u0120loan",
  "3028": "\u0120hopeful",
  "3029": "\u0120spot",
  "3030": "\u0120const",
  "3031": "\u0120post",
  "3032": "\u0120cruise",
  "3033": "intendo",
  "3034": "Lol",
  "3035": "oted",
  "3036": "\u0120arg",
  "3037": "\u0120Our",
  "3038": "nect",
  "3039": "\u0120confront",
  "3040": "ef",
  "3041": "ining",
  "3042": "\u0120four",
  "3043": "\u0120fishing",
  "3044": "\u0120alot",
  "3045": "\u0120awkward",
  "3046": "\u0120invited",
  "3047": "\u0120damage",
  "3048": "\u0120occas",
  "3049": "\u0120sand",
  "3050": "\u0120hell",
  "3051": "\u0120lead",
  "3052": "\u0120hands",
  "3053": "bit",
  "3054": "eat",
  "3055": "\u0120feet",
  "3056": "\u0120Yep",
  "3057": "\u0120noise",
  "3058": "though",
  "3059": "\u0120pulled",
  "3060": "\u0120satisf",
  "3061": "gest",
  "3062": "\u0120feed",
  "3063": "\u0120Ah",
  "3064": "\u0120bird",
  "3065": "\".",
  "3066": "eech",
  "3067": "\u0120furious",
  "3068": "ANGER",
  "3069": "\u0120emerg",
  "3070": "\u0120graduate",
  "3071": "\u0120normally",
  "3072": "\u0120therap",
  "3073": "\u0120aut",
  "3074": "\u0120cond",
  "3075": "\u0120emotional",
  "3076": "\u0120destroy",
  "3077": "\u0120Monday",
  "3078": "ald",
  "3079": "leep",
  "3080": "\u0120da",
  "3081": "\u0120exerc",
  "3082": "\u0120minute",
  "3083": "\u0120human",
  "3084": "ances",
  "3085": "aged",
  "3086": "\u0120blue",
  "3087": "\u0120lazy",
  "3088": "Dang",
  "3089": "\u0120aunt",
  "3090": "erally",
  "3091": "\u0120eye",
  "3092": "\u0120cheese",
  "3093": "\u0120prefer",
  "3094": "\u012012",
  "3095": "\u0120twice",
  "3096": "\u0120candy",
  "3097": "\u0120roommate",
  "3098": "\u0120tip",
  "3099": "\u0120tho",
  "3100": "\u0120towards",
  "3101": "\u0120coun",
  "3102": "\u0120Pl",
  "3103": "\u0120gives",
  "3104": "\u0120charac",
  "3105": "\u0120killed",
  "3106": "Nope",
  "3107": "cle",
  "3108": "\u0120bat",
  "3109": "\u0120Would",
  "3110": "\u0120lovely",
  "3111": "\u0120Which",
  "3112": "\u0120paper",
  "3113": "\u0120Ugh",
  "3114": "\u0120vet",
  "3115": "\u0120sports",
  "3116": "oint",
  "3117": "\u0120lesson",
  "3118": "\u0120mistakes",
  "3119": "\u0120pleas",
  "3120": "Be",
  "3121": "\u0120mill",
  "3122": "ening",
  "3123": "\u0120stom",
  "3124": "\u0120arri",
  "3125": "\u0120flying",
  "3126": "\u0120inform",
  "3127": "\u0120general",
  "3128": "\u0120piece",
  "3129": "\u0120several",
  "3130": "\u0120baseball",
  "3131": "sk",
  "3132": "\u0120likes",
  "3133": "itten",
  "3134": "\u0120easily",
  "3135": "\u0120key",
  "3136": "yal",
  "3137": "\u0120wake",
  "3138": "\u0120bright",
  "3139": "icip",
  "3140": "\u0120loyal",
  "3141": "\u0120badly",
  "3142": "\u0120convers",
  "3143": "\u012013",
  "3144": "\u0120crush",
  "3145": "ergy",
  "3146": "\u0120specific",
  "3147": "\u0120babies",
  "3148": "\u0120gifts",
  "3149": "oc",
  "3150": "\u0120..",
  "3151": "ories",
  "3152": "\u0120suck",
  "3153": "\u0120text",
  "3154": "\u0120marriage",
  "3155": "\u0120checked",
  "3156": "\u0120snake",
  "3157": "\u0120relief",
  "3158": "\u0120fortun",
  "3159": "\u0120returned",
  "3160": "Exactly",
  "3161": "iest",
  "3162": "\u0120fat",
  "3163": "\u0120gun",
  "3164": "allow",
  "3165": "\u0120speech",
  "3166": "\u0120grandp",
  "3167": "\u0120messed",
  "3168": "\u0120price",
  "3169": "\u0120taste",
  "3170": "\u0120pe",
  "3171": "ended",
  "3172": "\u0120ruined",
  "3173": "lo",
  "3174": "nam",
  "3175": "\u0120tour",
  "3176": "\u0120asleep",
  "3177": "\u0120winter",
  "3178": "\u0120regular",
  "3179": "\u0120opportunity",
  "3180": "\u0120techn",
  "3181": "\u0120Disney",
  "3182": "50",
  "3183": "In",
  "3184": "\u0120requ",
  "3185": "ising",
  "3186": "\u0120produ",
  "3187": "\u0120drug",
  "3188": "\u0120decent",
  "3189": "\u0120depend",
  "3190": "they",
  "3191": "\u0120profession",
  "3192": "For",
  "3193": "iny",
  "3194": "\u0120creat",
  "3195": "\u0120pan",
  "3196": "ster",
  "3197": "iev",
  "3198": "ager",
  "3199": "\u0120sleeping",
  "3200": "\u0120items",
  "3201": "\u00e2\u0122",
  "3202": "\u0120mood",
  "3203": "\u0120herself",
  "3204": "dddddddd",
  "3205": "ma",
  "3206": "\u0120ign",
  "3207": "omes",
  "3208": "\u0120rush",
  "3209": "\u0120Makes",
  "3210": "\u0120gotta",
  "3211": "\u0120Nope",
  "3212": "\u0120insp",
  "3213": "\u0120Keep",
  "3214": "\u0120Being",
  "3215": "\u0120fantastic",
  "3216": "\u00e2\u0122\u013b",
  "3217": "\u0120match",
  "3218": "\u0120cro",
  "3219": "\u0120organ",
  "3220": "why",
  "3221": "\u0120subject",
  "3222": "\u0120dude",
  "3223": "\u0120sugg",
  "3224": "urity",
  "3225": "\u0120smo",
  "3226": "\u0120brings",
  "3227": "airs",
  "3228": "\u0120faithful",
  "3229": "\u0120jumped",
  "3230": "\u0120swimming",
  "3231": "\u0120anticip",
  "3232": "\u0120empty",
  "3233": "\u0120suggest",
  "3234": "\u0120odd",
  "3235": "\u0120note",
  "3236": "\u0120affect",
  "3237": "\u0120biggest",
  "3238": "port",
  "3239": "\u0120taught",
  "3240": "\u0120squ",
  "3241": "\u0120mix",
  "3242": "\u0120toys",
  "3243": "ado",
  "3244": "\u0120shirt",
  "3245": "\u0120known",
  "3246": "\u0120manage",
  "3247": "\u0120laughing",
  "3248": "\u0120reminded",
  "3249": "gar",
  "3250": "employ",
  "3251": "\u0120field",
  "3252": "ises",
  "3253": "\u0120score",
  "3254": "\u0120pride",
  "3255": "\u0120heartb",
  "3256": "\u0120crying",
  "3257": "\u0120continue",
  "3258": "\u0120hide",
  "3259": "\u0120mouth",
  "3260": "\u0120bow",
  "3261": "ican",
  "3262": "ument",
  "3263": "\u0120books",
  "3264": "\u0120picture",
  "3265": "\u0120drag",
  "3266": "\u0120purch",
  "3267": "\u0120practice",
  "3268": "\u0120stomach",
  "3269": "wise",
  "3270": "ety",
  "3271": "\u0120wel",
  "3272": "ilities",
  "3273": "\u0120mort",
  "3274": "\u0120burn",
  "3275": "\u0120bey",
  "3276": "\u0120Has",
  "3277": "\u0120security",
  "3278": "\u0120accomplishment",
  "3279": "\u0120sentimental",
  "3280": "uss",
  "3281": "oooo",
  "3282": "\u0120def",
  "3283": "izing",
  "3284": "\u0120attend",
  "3285": "\u0120replac",
  "3286": "aly",
  "3287": "cent",
  "3288": "\u0120reci",
  "3289": "\u0120shot",
  "3290": "ilt",
  "3291": "\u0120Life",
  "3292": "\u0120Everything",
  "3293": "\u0120presentation",
  "3294": "\u0120correct",
  "3295": "\u0120building",
  "3296": "\u0120caused",
  "3297": "\u0120market",
  "3298": "\u0120occasion",
  "3299": "orth",
  "3300": "rage",
  "3301": "\u0120overw",
  "3302": "\u0120glass",
  "3303": "\u0120OK",
  "3304": "\u0120brothers",
  "3305": "Very",
  "3306": "ai",
  "3307": "che",
  "3308": "\u0120nur",
  "3309": "\u0120unf",
  "3310": "\u0120Great",
  "3311": "\u0120floor",
  "3312": "\u0120grades",
  "3313": "\u012050",
  "3314": "\u0120headed",
  "3315": "\u0120Awesome",
  "3316": "\u0120answer",
  "3317": "Every",
  "3318": "pet",
  "3319": "oun",
  "3320": "ages",
  "3321": "\u0120God",
  "3322": "\u0120couch",
  "3323": "\u0120common",
  "3324": "\u0120cards",
  "3325": "\u0120drinking",
  "3326": "\u0120basically",
  "3327": "\u0120Friday",
  "3328": "\u0120internet",
  "3329": "ese",
  "3330": "omed",
  "3331": "\u0120ugh",
  "3332": "irty",
  "3333": "ears",
  "3334": "racking",
  "3335": "ums",
  "3336": "\u0120track",
  "3337": "\u0120calm",
  "3338": "\u0120devastated",
  "3339": "\u0120breat",
  "3340": "earch",
  "3341": "Those",
  "3342": "\u0120media",
  "3343": "back",
  "3344": "like",
  "3345": "pes",
  "3346": "atic",
  "3347": "\u0120fired",
  "3348": "\u0120natur",
  "3349": "\u0120waste",
  "3350": "pper",
  "3351": "\u0120cancel",
  "3352": "\u0120rug",
  "3353": "herish",
  "3354": "\u0120homeless",
  "3355": "\u012019",
  "3356": "\u0120bigger",
  "3357": "\u0120flight",
  "3358": "\u0120painful",
  "3359": "\u0120literally",
  "3360": "mg",
  "3361": "ato",
  "3362": "\u0120review",
  "3363": "\u0120women",
  "3364": "\u0120wearing",
  "3365": "\u0120crossed",
  "3366": "At",
  "3367": "FE",
  "3368": "\u0120push",
  "3369": "allen",
  "3370": "\u0120immed",
  "3371": "\u0120energy",
  "3372": "\u0120thoughts",
  "3373": "\u0120nerves",
  "3374": "\u0120contest",
  "3375": "\u0120daughters",
  "3376": "\u0120package",
  "3377": "iversity",
  "3378": "\u0120immedi",
  "3379": "eas",
  "3380": "fl",
  "3381": "idays",
  "3382": "rib",
  "3383": "issed",
  "3384": "\u0120butt",
  "3385": "enty",
  "3386": "\u0120shel",
  "3387": "\u0120Ne",
  "3388": "ibling",
  "3389": "\u0120holding",
  "3390": "\u0120accepted",
  "3391": "bout",
  "3392": "go",
  "3393": "\u0120tire",
  "3394": "\u0120fright",
  "3395": "\u0120jud",
  "3396": "\u0120hadn",
  "3397": "\u0120space",
  "3398": "\u0120spray",
  "3399": "arents",
  "3400": "\u0120trusted",
  "3401": "\u0120situations",
  "3402": "\u0120depressed",
  "3403": "\u0120refund",
  "3404": "\u0120lawn",
  "3405": "\u0120poop",
  "3406": "\u0120stepped",
  "3407": "\u0120beyond",
  "3408": "uper",
  "3409": "\u0120er",
  "3410": "ator",
  "3411": "\u0120Try",
  "3412": "\u0120Amer",
  "3413": "\u0120sisters",
  "3414": "\u0120shoot",
  "3415": "\u0120Because",
  "3416": "Ugh",
  "3417": "ale",
  "3418": "ination",
  "3419": "\u0120bike",
  "3420": "ames",
  "3421": "iring",
  "3422": "\u0120School",
  "3423": "\u0120challen",
  "3424": "\u0120prov",
  "3425": "\u0120appoint",
  "3426": "\u0120surv",
  "3427": "\u0120drivers",
  "3428": "\u0120traum",
  "3429": "\u0120supplies",
  "3430": "\u0120stranger",
  "3431": "\u0120hurric",
  "3432": "\u0120interested",
  "3433": "\u0120Today",
  "3434": "de",
  "3435": "\u0120carry",
  "3436": "\u0120Got",
  "3437": "\u0120rock",
  "3438": "\u0120horror",
  "3439": "\u0120overwhel",
  "3440": "aper",
  "3441": "\u0120men",
  "3442": "\u0120crow",
  "3443": "ask",
  "3444": "hings",
  "3445": "cious",
  "3446": "\u0120smash",
  "3447": "\u0120trave",
  "3448": "\u0120appreciated",
  "3449": "\u0120photo",
  "3450": "\u0120spoil",
  "3451": "\u0120negative",
  "3452": "\u0120emergency",
  "3453": "just",
  "3454": "lish",
  "3455": "\u0120fish",
  "3456": "\u0120drove",
  "3457": "\u0120elect",
  "3458": "\u0120lif",
  "3459": "\u012014",
  "3460": "\u0120closer",
  "3461": "\u0120wreck",
  "3462": "\u0120behav",
  "3463": "let",
  "3464": "\u0120tax",
  "3465": "eez",
  "3466": "\u0120hy",
  "3467": "orld",
  "3468": "\u0120sold",
  "3469": "\u0120Mine",
  "3470": "anted",
  "3471": "ational",
  "3472": "\u012016",
  "3473": "\u0120recomm",
  "3474": "This",
  "3475": "\u0120promised",
  "3476": "\u0120skills",
  "3477": "worker",
  "3478": "\u0120struggling",
  "3479": "\u0120dentist",
  "3480": "\u0120competition",
  "3481": "\u0120straight",
  "3482": "\u0120question",
  "3483": "20",
  "3484": "ued",
  "3485": "\u0120wild",
  "3486": "\u0120mention",
  "3487": "\u0120bot",
  "3488": "\u0120stolen",
  "3489": "\u0120decide",
  "3490": "\u012040",
  "3491": "retty",
  "3492": "\u0120managed",
  "3493": "\u0120201",
  "3494": "gue",
  "3495": "\u0120pun",
  "3496": "\u0120heat",
  "3497": "\u0120rare",
  "3498": "\u0120Dang",
  "3499": "ulous",
  "3500": "\u0120Cool",
  "3501": "\u0120closed",
  "3502": "\u0120Ok",
  "3503": "\u0120Probably",
  "3504": "\u0120calling",
  "3505": "\u0120flood",
  "3506": "\u0120exams",
  "3507": "\u0120laughed",
  "3508": "\u0120roller",
  "3509": "\u0120torn",
  "3510": "\u0120gold",
  "3511": "\u0120wouldnt",
  "3512": "\u0120env",
  "3513": "\u0120progr",
  "3514": "\u0120understanding",
  "3515": "\u0120shower",
  "3516": "\u0120holiday",
  "3517": "\u0120Going",
  "3518": "\u0120program",
  "3519": "vis",
  "3520": "\u0120tiny",
  "3521": "\u0120mag",
  "3522": "adays",
  "3523": "\u0120Co",
  "3524": "\u0120plane",
  "3525": "arently",
  "3526": "\u0120court",
  "3527": "Does",
  "3528": "\u0120deliver",
  "3529": "\u0120million",
  "3530": "otect",
  "3531": "\u0120goal",
  "3532": "\u0120Sm",
  "3533": "\u0120unless",
  "3534": "\u0120enjoying",
  "3535": "\u0120turning",
  "3536": "\u0120jerk",
  "3537": "\u0120conversation",
  "3538": "\u0120welcome",
  "3539": "Ok",
  "3540": "cell",
  "3541": "father",
  "3542": "wich",
  "3543": "ened",
  "3544": "lew",
  "3545": "\u0120shut",
  "3546": "\u0120kinds",
  "3547": "\u0120relative",
  "3548": "velop",
  "3549": "\u0120opened",
  "3550": "\u0120Still",
  "3551": "\u0120please",
  "3552": "\u0120irritated",
  "3553": "\u0120incredible",
  "3554": "Ha",
  "3555": "\u0120NO",
  "3556": "\u0120alb",
  "3557": "arden",
  "3558": "\u0120product",
  "3559": "ler",
  "3560": "ther",
  "3561": "\u0120search",
  "3562": "ica",
  "3563": "amp",
  "3564": "\u0120neat",
  "3565": "\u0120Sund",
  "3566": "\u0120cleaned",
  "3567": "\u0120deserved",
  "3568": "\u0120bummed",
  "3569": "\u0120pleased",
  "3570": "\u0120pooped",
  "3571": "\u0120crowd",
  "3572": "\u0120nie",
  "3573": "\u0120SO",
  "3574": "\u0120See",
  "3575": "\u0120somewhat",
  "3576": "\u0120progress",
  "3577": "\u0120speaking",
  "3578": "And",
  "3579": "cation",
  "3580": "hic",
  "3581": "illy",
  "3582": "\u0120Must",
  "3583": "\u0120sometime",
  "3584": "\u0120vom",
  "3585": "\u0120friendship",
  "3586": "\u0120visiting",
  "3587": "\u0120doctors",
  "3588": "\u0120Unfortunately",
  "3589": "\u0120freaked",
  "3590": "\u0120information",
  "3591": "FEAR",
  "3592": "\u0120sibling",
  "3593": "\u0120Mar",
  "3594": "\u0120somehow",
  "3595": "\u0120except",
  "3596": "\u0120Get",
  "3597": "\u0120Of",
  "3598": "\u0120upsetting",
  "3599": "\u0120insane",
  "3600": "\u0120risk",
  "3601": "De",
  "3602": "\u0120hid",
  "3603": "\u0120dread",
  "3604": "\u0120cart",
  "3605": "\u0120nail",
  "3606": "uth",
  "3607": "\u0120style",
  "3608": "\u0120above",
  "3609": "\u0120hearing",
  "3610": "\u0120caring",
  "3611": "\u0120nights",
  "3612": "\u0120acting",
  "3613": "\u0120impro",
  "3614": "\u0120huh",
  "3615": "\u0120hobby",
  "3616": "\u0120charge",
  "3617": "\u0120simple",
  "3618": "\u0120disgusted",
  "3619": "\u0120benef",
  "3620": "\u0120creepy",
  "3621": "\u0120sandwich",
  "3622": "oul",
  "3623": "\u0120white",
  "3624": "\u0120somebody",
  "3625": "ights",
  "3626": "\u0120Eng",
  "3627": "\u0120seriously",
  "3628": "\u0120holidays",
  "3629": "Congrats",
  "3630": "oly",
  "3631": "\u0120...",
  "3632": "\u0120edu",
  "3633": "\u0120table",
  "3634": "\u0120five",
  "3635": "\u0120filled",
  "3636": "\u0120toil",
  "3637": "asing",
  "3638": "\u0120pissed",
  "3639": "\u0120An",
  "3640": "\u0120develop",
  "3641": "omething",
  "3642": "\u0120grandfather",
  "3643": "ountain",
  "3644": "\u0120figured",
  "3645": "sp",
  "3646": "erm",
  "3647": "\u0120cent",
  "3648": "\u0120cir",
  "3649": "ached",
  "3650": "\u0120understandable",
  "3651": "\u0120hanging",
  "3652": "\u0120listening",
  "3653": ".\"",
  "3654": "Uh",
  "3655": "mare",
  "3656": "\u0120thrill",
  "3657": "\u0120mach",
  "3658": "\u0120lic",
  "3659": "ites",
  "3660": "\u0120whenever",
  "3661": "arth",
  "3662": "\u0120clim",
  "3663": "\u0120intro",
  "3664": "\u0120activ",
  "3665": "\u0120Kind",
  "3666": "\u0120passion",
  "3667": "\u0120snack",
  "3668": "\u0120frustrated",
  "3669": "\u0120uncle",
  "3670": "\u0120successful",
  "3671": "\u0120color",
  "3672": "\u0120fingers",
  "3673": "\u0120camera",
  "3674": "\u0120christmas",
  "3675": "\u0120divor",
  "3676": "\u0120protect",
  "3677": "\u0120board",
  "3678": "\u0120hurts",
  "3679": "\u0120steps",
  "3680": "\u0120optim",
  "3681": "\u0120exercise",
  "3682": "Yup",
  "3683": "erhaps",
  "3684": "\u0120lim",
  "3685": "\u0120within",
  "3686": "\u0120rout",
  "3687": "\u0120nowadays",
  "3688": "\u0120nightmare",
  "3689": "\u012025",
  "3690": "ptop",
  "3691": "\u0120flow",
  "3692": "\u0120account",
  "3693": "\u0120hahaha",
  "3694": "\u0120pair",
  "3695": "\u0120basement",
  "3696": "\u0120laptop",
  "3697": "\u0120responsib",
  "3698": "icated",
  "3699": "\u0120stories",
  "3700": "\u0120goals",
  "3701": "\u0120likely",
  "3702": "\u0120became",
  "3703": "\u0120enc",
  "3704": "\u0120considered",
  "3705": "\u0120addict",
  "3706": "\u0120uncom",
  "3707": "\u0120therapy",
  "3708": "\u0120appointment",
  "3709": "iod",
  "3710": "pose",
  "3711": "\u0120hes",
  "3712": "\u0120cherish",
  "3713": "\u0120wash",
  "3714": "\u0120shi",
  "3715": "artment",
  "3716": "\u0120spilled",
  "3717": "\u0120parts",
  "3718": "\u0120period",
  "3719": "\u0120total",
  "3720": "\u0120forgive",
  "3721": "board",
  "3722": "\u0120medical",
  "3723": "\u0120Once",
  "3724": "\u0120immediately",
  "3725": "\u0120toilet",
  "3726": "care",
  "3727": "\u0120US",
  "3728": "\u0120sen",
  "3729": "\u0120sea",
  "3730": "\u0120fur",
  "3731": "ether",
  "3732": "lex",
  "3733": "\u0120currently",
  "3734": "\u0120customer",
  "3735": "Tr",
  "3736": "coh",
  "3737": "\u0120six",
  "3738": "\u0120ham",
  "3739": "icer",
  "3740": "\u0120Her",
  "3741": "\u0120Super",
  "3742": "\u0120tree",
  "3743": "itted",
  "3744": "\u0120record",
  "3745": "\u0120boat",
  "3746": "\u0120tripped",
  "3747": "\u0120owner",
  "3748": "\u0120repair",
  "3749": "\u0120supportive",
  "3750": "\u0120engine",
  "3751": "\u0120recommend",
  "3752": "cohol",
  "3753": "Absolutely",
  "3754": "now",
  "3755": "\u0120till",
  "3756": "\u0120loose",
  "3757": "\u0120path",
  "3758": "\u0120isnt",
  "3759": "\u0120sugar",
  "3760": "\u0120whats",
  "3761": "\u0120carpet",
  "3762": "DISGUST",
  "3763": "\u0120write",
  "3764": "\u0120wan",
  "3765": "emic",
  "3766": "\u0120bull",
  "3767": "\u0120fond",
  "3768": "\u0120havent",
  "3769": "\u0120breed",
  "3770": "\u0120Kids",
  "3771": "\u0120sky",
  "3772": "\u0120camp",
  "3773": "\u0120yelled",
  "3774": "\u0120obvious",
  "3775": "\u0120value",
  "3776": "\u0120rescue",
  "3777": "\u0120survive",
  "3778": "Can",
  "3779": "Great",
  "3780": "Man",
  "3781": "gers",
  "3782": "inter",
  "3783": "\u0120boo",
  "3784": "\u0120Gu",
  "3785": "appy",
  "3786": "\u0120email",
  "3787": "\u0120concerned",
  "3788": "\u0120apologize",
  "3789": "\u0120hey",
  "3790": "iculous",
  "3791": "\u0120World",
  "3792": "\u0120alcohol",
  "3793": "\u0120shape",
  "3794": "\u0120Nintendo",
  "3795": "\u0120schedule",
  "3796": "\u0120university",
  "3797": "\u0120trick",
  "3798": "\u0120crap",
  "3799": "\u0120annivers",
  "3800": "\u0120tests",
  "3801": "\u0120riding",
  "3802": "\u0120following",
  "3803": "\u0120patient",
  "3804": "\u0120satisfied",
  "3805": "\u0120destroyed",
  "3806": "Indeed",
  "3807": "\u0120breaking",
  "3808": "\u0120lying",
  "3809": "\u0120Tell",
  "3810": "icing",
  "3811": "\u0120lock",
  "3812": "\u0120comfort",
  "3813": "\u0120Thankfully",
  "3814": "\u0120commun",
  "3815": "\u0120draw",
  "3816": "\u0120adopt",
  "3817": "\u0120shelter",
  "3818": "\u0120uncomfortable",
  "3819": "co",
  "3820": "iqu",
  "3821": "oss",
  "3822": "orable",
  "3823": "\u0120lake",
  "3824": "\u0120pee",
  "3825": "\u0120pit",
  "3826": "\u0120meat",
  "3827": "\u0120loving",
  "3828": "\u0120join",
  "3829": "olars",
  "3830": "!!!!",
  "3831": "\u0120recog",
  "3832": "\u0120reasons",
  "3833": "\u0120promoted",
  "3834": "\u0120difference",
  "3835": "\u0120nearly",
  "3836": "\u0120respond",
  "3837": "\u0120dollar",
  "3838": "\u0120groceries",
  "3839": "\u0120anniversary",
  "3840": "olarship",
  "3841": "\u0120recogn",
  "3842": ").",
  "3843": "eg",
  "3844": "\u0120'",
  "3845": "\u0120ed",
  "3846": "\u0120vers",
  "3847": "\u0120Ive",
  "3848": "\u0120evening",
  "3849": "\u0120uns",
  "3850": "embers",
  "3851": "sych",
  "3852": "\u0120behavior",
  "3853": "Right",
  "3854": "Same",
  "3855": "Yikes",
  "3856": "ky",
  "3857": "\u0120mult",
  "3858": "\u0120cas",
  "3859": "\u0120pumped",
  "3860": "\u0120egg",
  "3861": "icy",
  "3862": "\u0120stri",
  "3863": "\u0120miser",
  "3864": "\u0120amazed",
  "3865": "\u0120supervis",
  "3866": "\u0120hitting",
  "3867": "onsider",
  "3868": "\u0120opin",
  "3869": "\u0120community",
  "3870": "conom",
  "3871": "\u0120license",
  "3872": "rop",
  "3873": "wo",
  "3874": "\u0120whether",
  "3875": "\u0120His",
  "3876": "\u0120plenty",
  "3877": "\u0120press",
  "3878": "\u0120LO",
  "3879": "apers",
  "3880": "\u0120trusting",
  "3881": "\u0120passing",
  "3882": "\u0120constantly",
  "3883": "\u0120optimistic",
  "3884": "St",
  "3885": "yard",
  "3886": "\u0120bucks",
  "3887": "\u0120dirty",
  "3888": "least",
  "3889": "ution",
  "3890": "\u0120With",
  "3891": "\u0120Make",
  "3892": "\u0120knock",
  "3893": "\u0120spider",
  "3894": "\u0120granted",
  "3895": "\u0120scholarship",
  "3896": "\u0120Uh",
  "3897": "\u0120covered",
  "3898": "\u0120responsible",
  "3899": "\u0120depression",
  "3900": "But",
  "3901": "\u0120gain",
  "3902": "\u0120garden",
  "3903": "\u0120Time",
  "3904": "\u0120Things",
  "3905": "\u0120suff",
  "3906": "\u0120roof",
  "3907": "\u0120dire",
  "3908": "\u0120improve",
  "3909": "\u0120warm",
  "3910": "On",
  "3911": "some",
  "3912": "under",
  "3913": "onest",
  "3914": "\u0120dang",
  "3915": "idge",
  "3916": "\u0120beard",
  "3917": "\u0120reun",
  "3918": "\u0120Too",
  "3919": "\u0120nose",
  "3920": "\u0120Ex",
  "3921": "\u0120flies",
  "3922": "ific",
  "3923": "\u0120cookies",
  "3924": "\u0120graduation",
  "3925": "\u0120vehic",
  "3926": "\u0120changes",
  "3927": "\u0120ruin",
  "3928": "\u0120purpose",
  "3929": "\u0120corner",
  "3930": "\u0120allowed",
  "3931": "\u0120professional",
  "3932": "aiting",
  "3933": "ob",
  "3934": "\u0120however",
  "3935": "epend",
  "3936": "\u0120complete",
  "3937": "iliar",
  "3938": "\u0120mall",
  "3939": "\u0120cross",
  "3940": "\u0120punch",
  "3941": "\u0120earth",
  "3942": "ison",
  "3943": "\u0120plus",
  "3944": "\u0120spl",
  "3945": "ushing",
  "3946": "\u0120oldest",
  "3947": "istory",
  "3948": "\u0120sweat",
  "3949": "\u0120meaning",
  "3950": "\u0120desk",
  "3951": "\u0120bringing",
  "3952": "\u0120lights",
  "3953": "\u0120stealing",
  "3954": "\u0120determ",
  "3955": "\u0120coasters",
  "3956": "\u0120natural",
  "3957": "\u0120Sunday",
  "3958": "Definitely",
  "3959": "\u0120senior",
  "3960": "inally",
  "3961": "\u0120somed",
  "3962": "\u0120non",
  "3963": "\u0120willing",
  "3964": "\u0120scen",
  "3965": "hahaha",
  "3966": "\u0120Definitely",
  "3967": "\u0120performance",
  "3968": "employed",
  "3969": "cul",
  "3970": "coming",
  "3971": "omb",
  "3972": "\u0120amus",
  "3973": "\u0120knocked",
  "3974": "\u0120nobody",
  "3975": "\u0120excuse",
  "3976": "\u0120Exactly",
  "3977": "\u0120swear",
  "3978": "\u0120200",
  "3979": "\u0120letter",
  "3980": "\u0120eaten",
  "3981": "\u0120higher",
  "3982": "gging",
  "3983": "\u0120packed",
  "3984": "\u012090",
  "3985": "\u0120sales",
  "3986": "\u0120blessed",
  "3987": "avy",
  "3988": "\u0120quality",
  "3989": "\u0120incredibly",
  "3990": "\u0120grandparents",
  "3991": "\u0120hurricane",
  "3992": "\u0120encou",
  "3993": "\u0120wanna",
  "3994": "\u0120supervisor",
  "3995": "\u0120hated",
  "3996": "\u0120nap",
  "3997": "\u0120overcome",
  "3998": "\u0120direct",
  "3999": "\u0120drinks",
  "4000": "\u0120dishes",
  "4001": "tain",
  "4002": "\u0120member",
  "4003": "\u0120mountain",
  "4004": "\u0120bes",
  "4005": "\u0120fully",
  "4006": "ooo",
  "4007": "\u0120Hallow",
  "4008": "\u0120shouldnt",
  "4009": "\u0120ends",
  "4010": "\u0120thoughtful",
  "4011": "\u0120blow",
  "4012": "\u0120ridiculous",
  "4013": "\u0120milk",
  "4014": "\u0120discover",
  "4015": "\u0120emotions",
  "4016": "\u0120screen",
  "4017": "\u0120punish",
  "4018": "\u0120miserable",
  "4019": "bling",
  "4020": "\u0120third",
  "4021": "\u0120members",
  "4022": "\u0120wasted",
  "4023": "\u0120stat",
  "4024": "\u0120station",
  "4025": "\u0120Look",
  "4026": "\u0120bugs",
  "4027": "\u0120advant",
  "4028": "\u0120assume",
  "4029": "ffect",
  "4030": "pons",
  "4031": "ury",
  "4032": "\u0120fart",
  "4033": "\u0120dem",
  "4034": "\u0120pig",
  "4035": "iders",
  "4036": "\u0120effect",
  "4037": "\u0120supri",
  "4038": "\u0120race",
  "4039": "\u0120Mc",
  "4040": "\u0120York",
  "4041": "roken",
  "4042": "\u012011",
  "4043": "\u0120payment",
  "4044": "\u0120Right",
  "4045": "\u0120attract",
  "4046": "\u0120falling",
  "4047": "\u0120throwing",
  "4048": "\u0120reminds",
  "4049": "\u0120financially",
  "4050": "\u0120injured",
  "4051": "\u0120tournam",
  "4052": "\u0120education",
  "4053": "bage",
  "4054": "inal",
  "4055": "eel",
  "4056": "\u0120dear",
  "4057": "\u0120lord",
  "4058": "\u0120soft",
  "4059": "\u0120form",
  "4060": "\u0120worker",
  "4061": "iew",
  "4062": "\u0120Could",
  "4063": "\u0120view",
  "4064": "\u0120ending",
  "4065": "\u0120rewarding",
  "4066": "\u0120drugs",
  "4067": "lord",
  "4068": "mart",
  "4069": "\u0120hous",
  "4070": "\u0120hire",
  "4071": "\u0120ded",
  "4072": "\u0120oil",
  "4073": "\u0120cancell",
  "4074": "\u0120Yikes",
  "4075": "\u0120spir",
  "4076": "\u0120Car",
  "4077": "\u0120vol",
  "4078": "agn",
  "4079": "agles",
  "4080": "\u0120:/",
  "4081": "Nothing",
  "4082": "\u0120bask",
  "4083": "\u0120videos",
  "4084": "\u0120avail",
  "4085": "\u0120someday",
  "4086": "\u0120Halloween",
  "4087": "As",
  "4088": "\u0120soul",
  "4089": "\u0120friendly",
  "4090": "\u0120orig",
  "4091": "iling",
  "4092": "\u0120drives",
  "4093": "\u0120raised",
  "4094": "ebr",
  "4095": "light",
  "4096": "\u0120tre",
  "4097": "\u0120sau",
  "4098": "\u0120mow",
  "4099": "\u0120bal",
  "4100": "\u0120yout",
  "4101": "\u0120kitten",
  "4102": "\u0120shes",
  "4103": "unted",
  "4104": "\u0120guessing",
  "4105": "\u0120students",
  "4106": "\u0120Re",
  "4107": "\u0120horrif",
  "4108": "\u0120skill",
  "4109": "\u0120teaching",
  "4110": "\u0120management",
  "4111": "\u0120fancy",
  "4112": "\u0120machine",
  "4113": "\u0120flowers",
  "4114": "\u0120opinion",
  "4115": "\u0120available",
  "4116": "ucky",
  "4117": "\u0120coll",
  "4118": "\u0120letting",
  "4119": "\u0120esc",
  "4120": "\u0120invite",
  "4121": "\u0120divorce",
  "4122": "LOL",
  "4123": "Your",
  "4124": "cake",
  "4125": "oot",
  "4126": "was",
  "4127": "\u0120tee",
  "4128": "\u0120bite",
  "4129": "\u0120bond",
  "4130": "\u0120bored",
  "4131": "\u0120furn",
  "4132": "\u0120gate",
  "4133": "\u0120rely",
  "4134": "\u0120neck",
  "4135": "\u0120alarm",
  "4136": "\u0120South",
  "4137": "\u0120About",
  "4138": "\u0120spiders",
  "4139": "\u0120Bet",
  "4140": "\u0120truth",
  "4141": "\u0120grass",
  "4142": "\u0120Pretty",
  "4143": "\u0120adorable",
  "4144": "\u0120skin",
  "4145": "\u0120cooked",
  "4146": "\u0120snow",
  "4147": "\u0120keys",
  "4148": "\u0120fighting",
  "4149": "\u0120smelled",
  "4150": "\u0120Also",
  "4151": "\u0120brave",
  "4152": "\u0120peaceful",
  "4153": "\u0120struggle",
  "4154": "\u0120irritating",
  "4155": "ribly",
  "4156": "\u0120provide",
  "4157": "\u0120Guess",
  "4158": "OH",
  "4159": "OO",
  "4160": "Probably",
  "4161": "ron",
  "4162": "ony",
  "4163": "\u0120boys",
  "4164": "\u0120distract",
  "4165": "\u0120Anything",
  "4166": "\u0120practicing",
  "4167": "\u0120daily",
  "4168": "fish",
  "4169": "\u0120til",
  "4170": "\u0120silly",
  "4171": "\u0120tooth",
  "4172": "\u0120double",
  "4173": "ences",
  "4174": "\u0120ep",
  "4175": "\u0120Take",
  "4176": "\u0120Had",
  "4177": "ung",
  "4178": "\u0120workers",
  "4179": "ulf",
  "4180": "\u0120backyard",
  "4181": "\u0120trad",
  "4182": "\u0120schools",
  "4183": "\u0120built",
  "4184": "\u0120trained",
  "4185": "\u0120teachers",
  "4186": "\u0120hotel",
  "4187": "\u0120priv",
  "4188": "\u0120rich",
  "4189": "\u0120changing",
  "4190": "\u0120landlord",
  "4191": "\u0120blessing",
  "4192": "\u0120talented",
  "4193": "\u0120heartbroken",
  "4194": "\u0120recipe",
  "4195": "don",
  "4196": "good",
  "4197": "\u0120Am",
  "4198": "\u0120familiar",
  "4199": "\u0120weekends",
  "4200": "\u0120relationships",
  "4201": "\u0120Only",
  "4202": "\u0120physical",
  "4203": "\u0120Plus",
  "4204": "\u0120character",
  "4205": "\u0120Next",
  "4206": "\u0120overwhelming",
  "4207": "ges",
  "4208": "giving",
  "4209": "onnect",
  "4210": "\u0120hilar",
  "4211": "\u0120lad",
  "4212": "\u0120itself",
  "4213": "\u0120econom",
  "4214": "\u0120Wish",
  "4215": "tern",
  "4216": "\u0120Yup",
  "4217": "\u0120happiness",
  "4218": "\u0120AC",
  "4219": "\u0120spouse",
  "4220": "\u0120hardly",
  "4221": "igned",
  "4222": "\u0120waited",
  "4223": "\u0120En",
  "4224": "\u012021",
  "4225": "\u0120cheer",
  "4226": "\u0120polit",
  "4227": "\u0120snakes",
  "4228": "\u0120prize",
  "4229": "\u0120Mex",
  "4230": "\u0120rides",
  "4231": "\u0120dreams",
  "4232": "cessary",
  "4233": "\u0120wooded",
  "4234": "\u0120admit",
  "4235": "\u0120speeding",
  "4236": "\u0120mortified",
  "4237": "\u0120amusement",
  "4238": "\u0120hilarious",
  "4239": "Of",
  "4240": "\u0120ive",
  "4241": "\u0120Happy",
  "4242": "\u0120YOU",
  "4243": "\u0120Same",
  "4244": "\u0120Bl",
  "4245": "\u0120conv",
  "4246": "\u0120belong",
  "4247": "\u0120drama",
  "4248": "MG",
  "4249": "Ouch",
  "4250": "boy",
  "4251": "ients",
  "4252": "ina",
  "4253": "\u0120bee",
  "4254": "\u0120habit",
  "4255": "\u0120heck",
  "4256": "\u0120stage",
  "4257": "\u0120jour",
  "4258": "\u0120fridge",
  "4259": "\u0120award",
  "4260": "\u0120Think",
  "4261": "\u0120excell",
  "4262": "\u0120afterno",
  "4263": "\u0120smile",
  "4264": "\u0120phones",
  "4265": "\u0120remembered",
  "4266": "\u0120youngest",
  "4267": "\u0120dealing",
  "4268": "\u0120series",
  "4269": "\u0120babysit",
  "4270": "\u0120instru",
  "4271": "\u0120income",
  "4272": "\u0120raining",
  "4273": "\u0120Always",
  "4274": "\u0120closet",
  "4275": "\u0120delivery",
  "4276": "\u0120dragon",
  "4277": "ique",
  "4278": "\u0120multip",
  "4279": "\u0120vehicle",
  "4280": "\u0120basket",
  "4281": "for",
  "4282": "zz",
  "4283": "\u0120homes",
  "4284": "\u0120repe",
  "4285": "lder",
  "4286": "\u0120Se",
  "4287": "\u0120guit",
  "4288": "\u0120becoming",
  "4289": "HAT",
  "4290": "ify",
  "4291": "\u0120respon",
  "4292": "\u0120matters",
  "4293": "\u0120considering",
  "4294": "rupt",
  "4295": "\u0120motivated",
  "4296": "\u0120beginning",
  "4297": "\u0120niece",
  "4298": "\u0120obviously",
  "4299": "\u0120youtube",
  "4300": "Now",
  "4301": "of",
  "4302": "sc",
  "4303": "\u0120tall",
  "4304": "\u0120history",
  "4305": "\u0120fre",
  "4306": "\u0120cell",
  "4307": "\u0120cab",
  "4308": "\u0120none",
  "4309": "\u0120haunted",
  "4310": "\u0120atleast",
  "4311": "\u0120rat",
  "4312": "\u0120ring",
  "4313": "\u0120Mom",
  "4314": "ctually",
  "4315": "\u0120overall",
  "4316": "ummer",
  "4317": "\u0120sadly",
  "4318": "\u0120personally",
  "4319": "Then",
  "4320": "\u0120craw",
  "4321": "\u0120tex",
  "4322": "\u0120incl",
  "4323": "\u0120inconsider",
  "4324": "\u0120warning",
  "4325": "\u0120brain",
  "4326": "\u0120oppos",
  "4327": "\u0120cameras",
  "4328": "\u0120garage",
  "4329": "\u0120Should",
  "4330": "\u0120hello",
  "4331": "\u0120smooth",
  "4332": "\u0120siblings",
  "4333": "True",
  "4334": "\u0120pressure",
  "4335": "onestly",
  "4336": "\u0120bearded",
  "4337": "\u0120multiple",
  "4338": "\u0120inconsiderate",
  "4339": "\u0120load",
  "4340": "\u0120exist",
  "4341": "\u0120role",
  "4342": "\u0120hurry",
  "4343": "\u0120marry",
  "4344": "workers",
  "4345": "\u0120advantage",
  "4346": "brat",
  "4347": "ckey",
  "4348": "\u0120size",
  "4349": "\u0120bark",
  "4350": "\u0120fi",
  "4351": "\u0120fed",
  "4352": "\u0120fries",
  "4353": "\u0120nature",
  "4354": "\u0120pounds",
  "4355": "itive",
  "4356": "\u0120onto",
  "4357": "\u0120row",
  "4358": "\u0120although",
  "4359": "\u0120shy",
  "4360": "\u0120happend",
  "4361": "\u0120allerg",
  "4362": "\u0120plant",
  "4363": "thank",
  "4364": "\u0120mod",
  "4365": "\u0120kidding",
  "4366": "\u0120club",
  "4367": "\u0120However",
  "4368": "\u0120brown",
  "4369": "enses",
  "4370": "\u0120rode",
  "4371": "\u0120Ph",
  "4372": "\u0120Perhaps",
  "4373": "\u0120advent",
  "4374": "\u0120Kore",
  "4375": "\u0120hockey",
  "4376": "\u0120picking",
  "4377": "exas",
  "4378": "\u0120burned",
  "4379": "check",
  "4380": "\u0120unfair",
  "4381": "\u0120teeth",
  "4382": "\u0120afternoon",
  "4383": "\u0120opposite",
  "4384": "sorry",
  "4385": "\u0120mater",
  "4386": "\u0120mental",
  "4387": "etfl",
  "4388": "\u0120Turn",
  "4389": "\u0120stre",
  "4390": "\u0120choose",
  "4391": "\u0120Please",
  "4392": "\u0120confused",
  "4393": "\u0120garbage",
  "4394": "\u0120condition",
  "4395": "\u0120direction",
  "4396": "\u0120guitar",
  "4397": "etflix",
  "4398": "fast",
  "4399": "liness",
  "4400": "\u0120sight",
  "4401": "\u0120Indeed",
  "4402": "\u0120tow",
  "4403": "\u0120curious",
  "4404": "iture",
  "4405": "etic",
  "4406": "\u0120ele",
  "4407": "\u0120held",
  "4408": "\u0120ket",
  "4409": "\u0120jack",
  "4410": "\u0120rot",
  "4411": "\u0120locked",
  "4412": "\u0120Sw",
  "4413": "roat",
  "4414": "\u0120green",
  "4415": "uel",
  "4416": "\u0120Face",
  "4417": "\u0120bug",
  "4418": "\u0120block",
  "4419": "acking",
  "4420": "\u0120favorites",
  "4421": "\u0120grossed",
  "4422": "\u0120bros",
  "4423": "\u0120checking",
  "4424": "\u0120department",
  "4425": "\u0120events",
  "4426": "\u0120deserves",
  "4427": "Awww",
  "4428": "Donald",
  "4429": "\u0120relieved",
  "4430": "\u0120spoken",
  "4431": "\u0120cops",
  "4432": "\u0120finger",
  "4433": "\u0120judge",
  "4434": "ns",
  "4435": "ino",
  "4436": "eels",
  "4437": "\u0120saf",
  "4438": "ension",
  "4439": "\u0120calls",
  "4440": "\u0120foods",
  "4441": "www",
  "4442": "gged",
  "4443": "\u0120humili",
  "4444": "\u0120property",
  "4445": "\u0120argument",
  "4446": "\u0120houses",
  "4447": "AT",
  "4448": "rom",
  "4449": "oups",
  "4450": "\u0120IS",
  "4451": "\u0120host",
  "4452": "icate",
  "4453": "\u0120abuse",
  "4454": "cean",
  "4455": "\u0120Something",
  "4456": "urope",
  "4457": "\u0120Br",
  "4458": "ieved",
  "4459": "\u0120sale",
  "4460": "\u0120Didn",
  "4461": "\u0120robbed",
  "4462": "\u0120ourselves",
  "4463": "ires",
  "4464": "\u0120flash",
  "4465": "\u0120league",
  "4466": "\u0120hurting",
  "4467": "\u0120preparing",
  "4468": "\u0120desp",
  "4469": "\u0120visited",
  "4470": "\u012080",
  "4471": "\u0120fairly",
  "4472": "\u0120budget",
  "4473": "\u0120illness",
  "4474": "\u0120crashed",
  "4475": "\u0120approved",
  "4476": "\u0120breath",
  "4477": "\u0120basketball",
  "4478": "\u0120response",
  "4479": "OW",
  "4480": "days",
  "4481": "rr",
  "4482": "sounds",
  "4483": "\u0120fill",
  "4484": "ancing",
  "4485": "ops",
  "4486": "\u0120Such",
  "4487": "une",
  "4488": "\u0120App",
  "4489": "\u0120plays",
  "4490": "ousand",
  "4491": "\u0120connect",
  "4492": "\u0120While",
  "4493": "\u0120Cal",
  "4494": "iforn",
  "4495": "\u0120interviews",
  "4496": "ifornia",
  "4497": "!?",
  "4498": "100",
  "4499": "\u0120dance",
  "4500": "orch",
  "4501": "\u0120lab",
  "4502": "\u0120ole",
  "4503": "stand",
  "4504": "\u0120isol",
  "4505": "\u0120heights",
  "4506": "heart",
  "4507": "\u0120Tom",
  "4508": "\u0120worries",
  "4509": "\u0120rac",
  "4510": "\u0120Sc",
  "4511": "\u0120Satur",
  "4512": "\u0120Absolutely",
  "4513": "\u0120vo",
  "4514": "\u0120diagn",
  "4515": "acy",
  "4516": "\u0120flat",
  "4517": "\u0120promise",
  "4518": "\u0120message",
  "4519": "\u0120independ",
  "4520": "\u0120woods",
  "4521": "\u0120properly",
  "4522": "\u0120pleasant",
  "4523": "\u0120climb",
  "4524": "\u0120furniture",
  "4525": "\u0120excellent",
  "4526": "All",
  "4527": "Un",
  "4528": "Will",
  "4529": "kn",
  "4530": "\u0120thousand",
  "4531": "\u0120bi",
  "4532": "\u0120cared",
  "4533": "\u0120player",
  "4534": "\u0120slowly",
  "4535": "\u0120option",
  "4536": "\u0120experienced",
  "4537": "\u0120ah",
  "4538": "\u0120fence",
  "4539": "\u0120dump",
  "4540": "\u0120names",
  "4541": "\u0120pen",
  "4542": "\u0120ocean",
  "4543": "ett",
  "4544": "\u0120steak",
  "4545": "\u0120arent",
  "4546": "\u0120chances",
  "4547": "venient",
  "4548": "\u0120pok",
  "4549": "\u0120poison",
  "4550": "\u0120seat",
  "4551": "\u0120Eagles",
  "4552": "\u0120moms",
  "4553": "\u0120attached",
  "4554": "\u0120expectations",
  "4555": "\u0120stores",
  "4556": "\u0120breakfast",
  "4557": "\u0120relaxed",
  "4558": "\u0120laid",
  "4559": "\u0120accomplished",
  "4560": "erco",
  "4561": "\u0120achiev",
  "4562": "\u0120fortunate",
  "4563": "\u0120Mario",
  "4564": "ians",
  "4565": "uary",
  "4566": "\u0120yo",
  "4567": "\u0120happier",
  "4568": "\u0120plate",
  "4569": "\u012017",
  "4570": "\u0120complex",
  "4571": "\u0120writing",
  "4572": "\u0120perhaps",
  "4573": "\u0120trips",
  "4574": "\u0120incre",
  "4575": "\u0120physically",
  "4576": "\u0120America",
  "4577": "10",
  "4578": "RE",
  "4579": "To",
  "4580": "worth",
  "4581": "\u0120mir",
  "4582": "\u0120dry",
  "4583": "\u0120gest",
  "4584": "\u0120cope",
  "4585": "orting",
  "4586": "\u0120psych",
  "4587": "arn",
  "4588": "\u0120Texas",
  "4589": "almart",
  "4590": "\u0120butter",
  "4591": "\u0120sucked",
  "4592": "inder",
  "4593": "\u0120workout",
  "4594": "\u0120precious",
  "4595": "\u0120ages",
  "4596": "\u0120guard",
  "4597": "\u0120groups",
  "4598": "\u0120bye",
  "4599": "\u0120usual",
  "4600": "\u0120actions",
  "4601": "\u0120Fall",
  "4602": "\u0120trail",
  "4603": "\u0120companies",
  "4604": "\u0120appreh",
  "4605": "\u0120nearby",
  "4606": "\u0120based",
  "4607": "\u0120medic",
  "4608": "\u0120Although",
  "4609": "\u0120rollerco",
  "4610": "\u0120celebrat",
  "4611": "\u0120burger",
  "4612": "\u0120questions",
  "4613": "\u0120screaming",
  "4614": "\u0120suddenly",
  "4615": "Because",
  "4616": "worthy",
  "4617": "\u0120den",
  "4618": "\u0120kit",
  "4619": "entally",
  "4620": "ules",
  "4621": "\u0120thinks",
  "4622": "esting",
  "4623": "\u0120intense",
  "4624": "ngth",
  "4625": "\u0120example",
  "4626": "\u0120facebook",
  "4627": "\u0120songs",
  "4628": "\u0120applying",
  "4629": "\u0120strength",
  "4630": "People",
  "4631": "cl",
  "4632": "here",
  "4633": "overs",
  "4634": "uing",
  "4635": "\u0120task",
  "4636": "erious",
  "4637": "\u0120thunder",
  "4638": "\u0120toy",
  "4639": "\u0120ca",
  "4640": "\u0120lane",
  "4641": "\u0120nuts",
  "4642": "oog",
  "4643": "\u0120jail",
  "4644": "\u0120ath",
  "4645": "\u0120upcoming",
  "4646": "ctions",
  "4647": "ilies",
  "4648": "\u0120hardest",
  "4649": "\u0120unl",
  "4650": "\u0120unp",
  "4651": "\u0120blind",
  "4652": "\u0120resch",
  "4653": "\u0120sooner",
  "4654": "\u0120surprising",
  "4655": "\u0120crit",
  "4656": "\u0120vacu",
  "4657": "\u0120worrying",
  "4658": "\u0120opening",
  "4659": "\u0120stoked",
  "4660": "\u0120damn",
  "4661": "\u0120followed",
  "4662": "\u0120nostalgia",
  "4663": "\u0120options",
  "4664": "\u0120selling",
  "4665": "\u0120film",
  "4666": "\u0120depressing",
  "4667": "\u0120characters",
  "4668": "\u0120traveling",
  "4669": "\u0120tornado",
  "4670": "\u0120version",
  "4671": "\u0120spirit",
  "4672": "\u0120rollercoaster",
  "4673": "ING",
  "4674": "gic",
  "4675": "sle",
  "4676": "\u0120bread",
  "4677": "\u0120fund",
  "4678": "\u0120gri",
  "4679": "anne",
  "4680": "alled",
  "4681": "cket",
  "4682": "\u0120defin",
  "4683": "andemic",
  "4684": "\u0120covid",
  "4685": "\u0120parties",
  "4686": "\u0120applic",
  "4687": "\u0120bedroom",
  "4688": "\u0120English",
  "4689": "\u0120center",
  "4690": "\u0120Turns",
  "4691": "min",
  "4692": "son",
  "4693": "onder",
  "4694": "\u0120wracking",
  "4695": "\u0120fulf",
  "4696": "\u0120todd",
  "4697": "\u0120ditch",
  "4698": "lling",
  "4699": "\u0120pump",
  "4700": "ades",
  "4701": "amily",
  "4702": "\u0120neither",
  "4703": "\u0120Hard",
  "4704": "ives",
  "4705": "\u0120Big",
  "4706": "\u0120otherwise",
  "4707": "\u0120coast",
  "4708": "\u0120related",
  "4709": "\u0120buff",
  "4710": "\u0120courage",
  "4711": "osing",
  "4712": "\u0120trustworthy",
  "4713": "\u0120hole",
  "4714": "\u0120paint",
  "4715": "\u0120types",
  "4716": "\u0120presents",
  "4717": "\u0120tasted",
  "4718": "\u0120potato",
  "4719": "\u0120snacks",
  "4720": "\u0120McDonald",
  "4721": "\u0120cancelled",
  "4722": "\u0120Saturday",
  "4723": "\u0120athlet",
  "4724": "TU",
  "4725": "cri",
  "4726": "por",
  "4727": "ply",
  "4728": "\u0120*",
  "4729": "\u0120bust",
  "4730": "\u0120ow",
  "4731": "\u0120previous",
  "4732": "ags",
  "4733": "\u0120simply",
  "4734": "\u0120employees",
  "4735": "\u0120bott",
  "4736": "Al",
  "4737": "iable",
  "4738": "kin",
  "4739": "ners",
  "4740": "ole",
  "4741": "\u0120dying",
  "4742": "\u0120geez",
  "4743": "\u0120pian",
  "4744": "\u0120pandemic",
  "4745": "\u0120rele",
  "4746": "\u0120reject",
  "4747": "uty",
  "4748": "\u0120und",
  "4749": "\u0120Went",
  "4750": "\u0120rad",
  "4751": "\u0120loans",
  "4752": "\u0120noises",
  "4753": "arten",
  "4754": "\u0120joke",
  "4755": "\u0120clue",
  "4756": "\u0120Europe",
  "4757": "azing",
  "4758": "\u0120vacations",
  "4759": "\u0120painting",
  "4760": "\u0120counting",
  "4761": "\u0120sneak",
  "4762": "ival",
  "4763": "\u0120ripped",
  "4764": "\u0120shoe",
  "4765": "ode",
  "4766": "\u0120singing",
  "4767": "\u0120damaged",
  "4768": "\u0120calcul",
  "4769": "\u0120cousins",
  "4770": "\u0120mainly",
  "4771": "\u0120adopted",
  "4772": "\u0120experiences",
  "4773": "\u0120arrived",
  "4774": "\u0120purchase",
  "4775": "\u0120thrilled",
  "4776": "\u0120balance",
  "4777": "\u0120achievement",
  "4778": "eriously",
  "4779": "ii",
  "4780": "night",
  "4781": "nment",
  "4782": "oved",
  "4783": "par",
  "4784": "\u0120soup",
  "4785": "real",
  "4786": "\u0120stock",
  "4787": "\u0120aband",
  "4788": "\u0120upon",
  "4789": "unny",
  "4790": "TION",
  "4791": "ume",
  "4792": "\u0120sex",
  "4793": "\u0120careless",
  "4794": "\u0120crappy",
  "4795": "\u0120classic",
  "4796": "ivid",
  "4797": "\u0120engaged",
  "4798": "\u0120ignore",
  "4799": "\u0120replaced",
  "4800": "known",
  "4801": "\u0120abandon",
  "4802": "Any",
  "4803": "gra",
  "4804": "lu",
  "4805": "uit",
  "4806": "\u0120tons",
  "4807": "\u0120wit",
  "4808": "\u0120sym",
  "4809": "\u0120south",
  "4810": "\u0120mal",
  "4811": "\u0120mile",
  "4812": "ooh",
  "4813": "ism",
  "4814": "amas",
  "4815": "\u0120abused",
  "4816": "irm",
  "4817": "\u0120Ar",
  "4818": "\u0120nowhere",
  "4819": "\u0120scar",
  "4820": "\u0120Col",
  "4821": "\u0120Other",
  "4822": "\u0120acted",
  "4823": "\u0120understood",
  "4824": "\u0120remain",
  "4825": "\u0120paycheck",
  "4826": "\u0120giant",
  "4827": "\u0120honor",
  "4828": "\u0120hopes",
  "4829": "\u0120president",
  "4830": "\u0120charged",
  "4831": "\u0120graduating",
  "4832": "\u0120perfectly",
  "4833": "phone",
  "4834": "Whoa",
  "4835": "\u0120employee",
  "4836": "\u0120roommates",
  "4837": "\u0120apologized",
  "4838": "\u0120randomly",
  "4839": "\u0120starved",
  "4840": "\u0120electric",
  "4841": "\u0120Enjoy",
  "4842": "att",
  "4843": "\u0120abilities",
  "4844": ".....",
  "4845": "\u0120Che",
  "4846": "ification",
  "4847": "\u0120crime",
  "4848": "\u0120economy",
  "4849": "Sure",
  "4850": "iff",
  "4851": "iol",
  "4852": "oon",
  "4853": "reed",
  "4854": "\u0120fol",
  "4855": "\u0120dig",
  "4856": "asure",
  "4857": "\u0120porch",
  "4858": "\u0120inch",
  "4859": "\u0120heavy",
  "4860": "\u0120sund",
  "4861": "\u0120areas",
  "4862": "irement",
  "4863": "\u0120exact",
  "4864": "\u0120spell",
  "4865": "\u0120aggra",
  "4866": "\u0120fav",
  "4867": "\u0120action",
  "4868": "aches",
  "4869": "\u0120swe",
  "4870": "\u0120sounded",
  "4871": "\u0120parked",
  "4872": "box",
  "4873": "\u0120loneliness",
  "4874": "\u0120Star",
  "4875": "\u0120veget",
  "4876": "\u0120sorts",
  "4877": "\u0120jumping",
  "4878": "\u0120chatting",
  "4879": "\u0120qualified",
  "4880": "\u0120battle",
  "4881": "aii",
  "4882": "\u0120envy",
  "4883": "Okay",
  "4884": "\u0120shift",
  "4885": "ossible",
  "4886": "\u0120eggs",
  "4887": "\u0120includ",
  "4888": "\u0120model",
  "4889": "\u0120aggrav",
  "4890": "\u0120tab",
  "4891": "\u0120wet",
  "4892": "inge",
  "4893": "order",
  "4894": "\u0120elder",
  "4895": "amn",
  "4896": "\u0120shake",
  "4897": "\u0120Best",
  "4898": "\u0120Let",
  "4899": "\u0120tricks",
  "4900": "\u0120embarassed",
  "4901": "\u0120accidents",
  "4902": "\u0120prior",
  "4903": "\u0120solution",
  "4904": "\u0120adults",
  "4905": "\u0120achieve",
  "4906": "\u0120activities",
  "4907": "\u0120journey",
  "4908": "TH",
  "4909": "off",
  "4910": "\u0120wise",
  "4911": "\u0120sink",
  "4912": "\u0120sil",
  "4913": "oting",
  "4914": "\u0120faster",
  "4915": "sters",
  "4916": "\u0120inno",
  "4917": "\u0120soci",
  "4918": "\u0120ram",
  "4919": "\u0120spare",
  "4920": "\u0120science",
  "4921": "ummy",
  "4922": "cipl",
  "4923": "bel",
  "4924": "\u0120unknown",
  "4925": "\u0120Grand",
  "4926": "\u0120cares",
  "4927": "\u0120compass",
  "4928": "\u0120bitter",
  "4929": "\u0120wrote",
  "4930": "\u0120collect",
  "4931": "respons",
  "4932": "\u0120treated",
  "4933": "\u0120standing",
  "4934": "\u0120generous",
  "4935": "\u0120succeed",
  "4936": "\u0120personality",
  "4937": "\u0120teenager",
  "4938": "\u0120shocking",
  "4939": "\u0120bowl",
  "4940": "\u0120purchased",
  "4941": "\u0120delivered",
  "4942": "\u0120albums",
  "4943": "\u0120sauce",
  "4944": "\u0120Better",
  "4945": "\u0120frequ",
  "4946": "\u0120gesture",
  "4947": "\u0120vacuum",
  "4948": "\u0120witness",
  "4949": "ease",
  "4950": "vernment",
  "4951": "chan",
  "4952": "\u0120susp",
  "4953": "\u0120spoke",
  "4954": "\u0120trou",
  "4955": "\u0120separ",
  "4956": "\u0120blank",
  "4957": "\u0120--",
  "4958": "\u0120complicated",
  "4959": "\u0120earn",
  "4960": "\u0120embarassing",
  "4961": "\u0120bothering",
  "4962": "\u0120laying",
  "4963": "load",
  "4964": "\u0120benefits",
  "4965": "\u0120boost",
  "4966": "\u0120volunt",
  "4967": "\u0120safety",
  "4968": "\u0120elderly",
  "4969": "can",
  "4970": "\u0120tight",
  "4971": "\u0120hired",
  "4972": "rest",
  "4973": "\u0120fra",
  "4974": "\u0120fried",
  "4975": "\u0120freaking",
  "4976": "\u0120lower",
  "4977": "\u0120hall",
  "4978": "anish",
  "4979": "\u0120bear",
  "4980": "\u0120ability",
  "4981": "\u0120daycare",
  "4982": "\u0120scam",
  "4983": "\u0120legs",
  "4984": "\u0120underw",
  "4985": "\u0120Ouch",
  "4986": "\u0120showing",
  "4987": "\u0120flu",
  "4988": "\u0120Red",
  "4989": "\u0120leaves",
  "4990": "\u0120handling",
  "4991": "\u0120expenses",
  "4992": "\u0120appreciative",
  "4993": "\u0120committed",
  "4994": "\u012060",
  "4995": "\u0120numbers",
  "4996": "\u0120airport",
  "4997": "\u0120cashier",
  "4998": "\u0120kicked",
  "4999": "\u0120approach",
  "5000": "\u0120screamed",
  "5001": "\u0120anticipating",
  "5002": "\u0120Smash",
  "5003": "\u0120reunion",
  "5004": "\u0120tournament",
  "5005": "\u0120apprehensive",
  "5006": "Most",
  "5007": "One",
  "5008": "ially",
  "5009": "\u0120fro",
  "5010": "\u0120lines",
  "5011": "\u0120Work",
  "5012": "\u0120round",
  "5013": "antic",
  "5014": "\u0120chip",
  "5015": "\u0120pretend",
  "5016": "\u0120Either",
  "5017": "born",
  "5018": "\u0120farm",
  "5019": "\u0120answers",
  "5020": "\u0120causing",
  "5021": "\u0120reaction",
  "5022": "\u0120reviews",
  "5023": "Hello",
  "5024": "bur",
  "5025": "cies",
  "5026": "gy",
  "5027": "spect",
  "5028": "ship",
  "5029": "\u0120tail",
  "5030": "\u0120hat",
  "5031": "\u0120blew",
  "5032": "\u0120flew",
  "5033": "\u0120named",
  "5034": "\u0120nintendo",
  "5035": "\u0120port",
  "5036": "\u0120Haw",
  "5037": "\u0120altern",
  "5038": "\u0120sharing",
  "5039": "\u0120exha",
  "5040": "urs",
  "5041": "\u0120friday",
  "5042": "\u0120Whats",
  "5043": "ession",
  "5044": "\u0120clown",
  "5045": "ltim",
  "5046": "aced",
  "5047": "ability",
  "5048": "\u0120Pok",
  "5049": "\u0120drank",
  "5050": "\u0120reality",
  "5051": "\u0120stray",
  "5052": "\u0120ideas",
  "5053": "\u0120remembering",
  "5054": "\u0120horse",
  "5055": "\u0120cruel",
  "5056": "ups",
  "5057": "ergarten",
  "5058": "\u0120killing",
  "5059": "\u0120irrespons",
  "5060": "\u0120salad",
  "5061": "\u0120advance",
  "5062": "hhh",
  "5063": "\u0120colors",
  "5064": "\u0120popular",
  "5065": "\u0120transfer",
  "5066": "\u0120birds",
  "5067": "\u0120technology",
  "5068": "\u0120frightening",
  "5069": "\u0120introdu",
  "5070": "egas",
  "5071": "\u0120Facebook",
  "5072": "\u0120reschedule",
  "5073": "\u0120exhaust",
  "5074": "down",
  "5075": "nis",
  "5076": "\u0120fem",
  "5077": "oms",
  "5078": "\u0120rules",
  "5079": "\u0120greatest",
  "5080": "\u0120channe",
  "5081": "\u0120imm",
  "5082": "\u0120unable",
  "5083": "\u0120choices",
  "5084": "bbies",
  "5085": "\u0120praying",
  "5086": "\u0120volunte",
  "5087": "Hmm",
  "5088": "mp",
  "5089": "school",
  "5090": "uh",
  "5091": "\u0120Q",
  "5092": "\u0120batter",
  "5093": "\u0120bomb",
  "5094": "\u0120toe",
  "5095": "\u0120gig",
  "5096": "ndred",
  "5097": "\u0120lend",
  "5098": "\u0120peed",
  "5099": "ana",
  "5100": "arter",
  "5101": "\u0120equ",
  "5102": "isions",
  "5103": "ico",
  "5104": "\u0120livid",
  "5105": "\u0120ju",
  "5106": "\u0120rab",
  "5107": "\u0120Since",
  "5108": "\u0120Dr",
  "5109": "\u0120freed",
  "5110": "\u0120anytime",
  "5111": "\u0120ord",
  "5112": "\u0120harm",
  "5113": "\u0120These",
  "5114": "\u0120officer",
  "5115": "\u0120unique",
  "5116": "\u0120apparently",
  "5117": "\u0120cheaper",
  "5118": "ption",
  "5119": "\u0120Poor",
  "5120": "\u0120decor",
  "5121": "\u0120decisions",
  "5122": "\u0120earned",
  "5123": "\u0120hundred",
  "5124": "\u0120retirement",
  "5125": "ertain",
  "5126": "\u0120typ",
  "5127": "\u0120charity",
  "5128": "\u0120Vegas",
  "5129": "Hahaha",
  "5130": "\u0120finances",
  "5131": "\u0120practiced",
  "5132": "sweet",
  "5133": "\u0120scares",
  "5134": "\u0120transport",
  "5135": "\u0120temper",
  "5136": "\u0120hiking",
  "5137": "\u0120cheesecake",
  "5138": "\u0120Getting",
  "5139": "\u0120pigs",
  "5140": "\u0120fiance",
  "5141": "oogle",
  "5142": "\u0120society",
  "5143": "\u0120compassion",
  "5144": "\u0120Pokemon",
  "5145": "\u0120freedom",
  "5146": "Tell",
  "5147": "hope",
  "5148": "maybe",
  "5149": "\u0120Two",
  "5150": "iron",
  "5151": "\u0120rom",
  "5152": "\u0120shark",
  "5153": "\u0120chem",
  "5154": "usive",
  "5155": "\u0120OH",
  "5156": "\u0120laund",
  "5157": "\u0120cutting",
  "5158": "\u0120Before",
  "5159": "???",
  "5160": "selor",
  "5161": "\u0120assuming",
  "5162": "\u0120limit",
  "5163": "\u0120routine",
  "5164": "\"!",
  "5165": "kids",
  "5166": "vy",
  "5167": "\u0120ing",
  "5168": "\u0120ace",
  "5169": "eral",
  "5170": "\u0120signed",
  "5171": "eeee",
  "5172": "\u0120file",
  "5173": "lla",
  "5174": "\u0120ease",
  "5175": "\u0120eager",
  "5176": "\u0120force",
  "5177": "ley",
  "5178": "\u0120junk",
  "5179": "uled",
  "5180": "\u0120chore",
  "5181": "\u0120everytime",
  "5182": "\u0120spring",
  "5183": "\u0120CO",
  "5184": "\u0120Cl",
  "5185": "\u0120client",
  "5186": "happy",
  "5187": "\u0120arm",
  "5188": "pler",
  "5189": "\u0120reliable",
  "5190": "\u0120talks",
  "5191": "\u012024",
  "5192": "\u0120slight",
  "5193": "bye",
  "5194": "\u0120access",
  "5195": "\u0120driveway",
  "5196": "\u0120tasty",
  "5197": "\u0120storms",
  "5198": "\u0120boxes",
  "5199": "\u0120continues",
  "5200": "\u0120grabbed",
  "5201": "\u01202018",
  "5202": "\u0120improv",
  "5203": "\u0120responsibility",
  "5204": "\u0120private",
  "5205": "\u0120allergic",
  "5206": "\u0120despite",
  "5207": "-)",
  "5208": "ATION",
  "5209": "Try",
  "5210": "\u0120mechan",
  "5211": "\u0120Sure",
  "5212": "have",
  "5213": "SITU",
  "5214": "\u0120pocket",
  "5215": "\u0120term",
  "5216": "\u0120resolved",
  "5217": "\u0120hobbies",
  "5218": "\u0120gambling",
  "5219": "\u0120savings",
  "5220": "\u0120counse",
  "5221": "\u0120environ",
  "5222": "\u0120LOVE",
  "5223": "\u0120original",
  "5224": "\u0120laundry",
  "5225": "SITUATION",
  "5226": "Am",
  "5227": "Luckily",
  "5228": "Make",
  "5229": "aven",
  "5230": "food",
  "5231": "sually",
  "5232": "\u0120tea",
  "5233": "\u0120tears",
  "5234": "inis",
  "5235": "\u0120wine",
  "5236": "\u0120thri",
  "5237": "\u0120mass",
  "5238": "\u0120bout",
  "5239": "ERY",
  "5240": "\u0120dirt",
  "5241": "\u0120youre",
  "5242": "\u0120pound",
  "5243": "ancy",
  "5244": "\u0120infect",
  "5245": "verage",
  "5246": "illing",
  "5247": "teresting",
  "5248": "irth",
  "5249": "\u0120shaking",
  "5250": "\u0120anybody",
  "5251": "\u0120chose",
  "5252": "\u0120comb",
  "5253": "\u0120spook",
  "5254": "ership",
  "5255": "\u0120hassle",
  "5256": "\u0120diapers",
  "5257": "\u0120homework",
  "5258": "\u0120families",
  "5259": "\u0120recent",
  "5260": "\u0120actual",
  "5261": "\u0120Finally",
  "5262": "\u0120discipl",
  "5263": "\u0120tells",
  "5264": "\u0120compared",
  "5265": "\u0120marath",
  "5266": "shirt",
  "5267": "\u0120delay",
  "5268": "\u0120setting",
  "5269": "ugust",
  "5270": "\u0120reflect",
  "5271": "\u0120Whoa",
  "5272": "\u0120discuss",
  "5273": "\u0120True",
  "5274": "\u0120motor",
  "5275": "\u0120rescued",
  "5276": "\u0120fortunately",
  "5277": "\u0120depends",
  "5278": "\u0120inspiring",
  "5279": "\u0120mixed",
  "5280": "\u0120American",
  "5281": "\u0120Okay",
  "5282": "\u0120attractive",
  "5283": "ebron",
  "5284": "\u0120ditched",
  "5285": "\u0120Color",
  "5286": "\u0120innocent",
  "5287": "Go",
  "5288": "ials",
  "5289": "ts",
  "5290": "orter",
  "5291": "\u0120government",
  "5292": "\u0120cla",
  "5293": "\u0120var",
  "5294": "\u0120active",
  "5295": "\u0120finals",
  "5296": "\u0120First",
  "5297": "\u0120payments",
  "5298": "\u0120refused",
  "5299": "\u0120secrets",
  "5300": "\u0120yelling",
  "5301": "\u0120maintain",
  "5302": "easy",
  "5303": "\u0120Seems",
  "5304": "\u0120humiliated",
  "5305": "\u0120environment",
  "5306": "--",
  "5307": "Holy",
  "5308": "Like",
  "5309": "dies",
  "5310": "dog",
  "5311": "ey",
  "5312": "\u0120waking",
  "5313": "\u0120hom",
  "5314": "\u0120grill",
  "5315": "\u0120cap",
  "5316": "lly",
  "5317": "\u0120ol",
  "5318": "\u0120lies",
  "5319": "\u0120stays",
  "5320": "\u0120staring",
  "5321": "\u0120cance",
  "5322": "\u0120High",
  "5323": "\u0120rage",
  "5324": "aked",
  "5325": "\u0120everybody",
  "5326": "\u0120agreed",
  "5327": "\u0120scra",
  "5328": "ffff",
  "5329": "uses",
  "5330": "\u0120Cle",
  "5331": "\u0120sched",
  "5332": "\u0120terribly",
  "5333": "ization",
  "5334": "\u0120impact",
  "5335": "\u0120impossible",
  "5336": "\u0120perspect",
  "5337": "pted",
  "5338": "\u0120disease",
  "5339": "apan",
  "5340": "onda",
  "5341": "\u0120handful",
  "5342": "\u0120retail",
  "5343": "\u0120breaks",
  "5344": "\u0120commit",
  "5345": "\u0120medication",
  "5346": "iana",
  "5347": "\u0120influ",
  "5348": "\u0120hung",
  "5349": "\u0120assist",
  "5350": "\u0120zoo",
  "5351": "inese",
  "5352": "\u0120physics",
  "5353": "\u0120attacked",
  "5354": "ission",
  "5355": "\u0120arrive",
  "5356": "\u0120crushed",
  "5357": "\u0120nurse",
  "5358": "\u0120nursing",
  "5359": "\u0120album",
  "5360": "\u0120productive",
  "5361": "\u0120circus",
  "5362": "\u0120split",
  "5363": "\u0120besides",
  "5364": "\u0120adventure",
  "5365": "\u0120Apparently",
  "5366": "\u0120Tomorrow",
  "5367": "\u0120voice",
  "5368": "Unfortunately",
  "5369": "believ",
  "5370": "\u0120underwear",
  "5371": "\u0120Colorado",
  "5372": "da",
  "5373": "ral",
  "5374": "sis",
  "5375": "\u0120tear",
  "5376": "\u0120mentally",
  "5377": "\u0120binge",
  "5378": "\u0120toward",
  "5379": "\u0120gut",
  "5380": "\u0120doc",
  "5381": "ada",
  "5382": "Ohh",
  "5383": "\u0120Bra",
  "5384": "\u0120screw",
  "5385": "angu",
  "5386": "when",
  "5387": "\u0120hunting",
  "5388": "\u0120addition",
  "5389": "ropri",
  "5390": "\u0120encourage",
  "5391": "\u0120application",
  "5392": "hy",
  "5393": "hold",
  "5394": "law",
  "5395": "round",
  "5396": "rate",
  "5397": "ration",
  "5398": "were",
  "5399": "wracking",
  "5400": "\u0120ver",
  "5401": "\u0120ess",
  "5402": "\u0120average",
  "5403": "\u0120mower",
  "5404": "\u0120fool",
  "5405": "\u0120yall",
  "5406": "ari",
  "5407": "\u0120belt",
  "5408": "\u0120heaven",
  "5409": "\u0120TH",
  "5410": "\u0120meals",
  "5411": "\u0120suit",
  "5412": "ppies",
  "5413": "\u0120Dont",
  "5414": "race",
  "5415": "\u0120chain",
  "5416": "\u0120Been",
  "5417": "\u0120prank",
  "5418": "\u0120Lebron",
  "5419": "\u0120Dogs",
  "5420": "\u0120glut",
  "5421": "\u0120appet",
  "5422": "\u0120reminis",
  "5423": "\u0120dislike",
  "5424": "\u0120slam",
  "5425": "\u0120tragic",
  "5426": "angers",
  "5427": "\u0120owned",
  "5428": "orms",
  "5429": "\u0120wondering",
  "5430": "ements",
  "5431": "oga",
  "5432": "\u0120ski",
  "5433": "\u0120express",
  "5434": "\u0120parks",
  "5435": "\u0120entertain",
  "5436": "\u0120lessons",
  "5437": "\u0120forgotten",
  "5438": "\u0120basic",
  "5439": "\u0120treats",
  "5440": "\u0120treatment",
  "5441": "\u0120fights",
  "5442": "?!?!",
  "5443": "\u0120purse",
  "5444": "\u0120shorts",
  "5445": "\u01201000",
  "5446": "\u0120signific",
  "5447": "\u0120Dec",
  "5448": "\u0120motivation",
  "5449": "\u0120recovered",
  "5450": "\u0120pepper",
  "5451": "\u0120panic",
  "5452": "\u0120taxes",
  "5453": "\u0120bottle",
  "5454": "\u0120engineering",
  "5455": "\u0120survived",
  "5456": "\u0120edge",
  "5457": "\u0120determined",
  "5458": "\u0120discovered",
  "5459": "\u0120dedication",
  "5460": "\u0120alternative",
  "5461": "\u0120irresponsible",
  "5462": "cused",
  "5463": "look",
  "5464": "\u0120;",
  "5465": "eeze",
  "5466": "\u0120cable",
  "5467": "orge",
  "5468": "alth",
  "5469": "\u0120Dad",
  "5470": "\u0120prevent",
  "5471": "quit",
  "5472": "ildren",
  "5473": "\u0120focused",
  "5474": "\u0120sons",
  "5475": "\u0120vacc",
  "5476": "icted",
  "5477": "\u0120reached",
  "5478": "\u0120tips",
  "5479": "Everything",
  "5480": "\u0120demand",
  "5481": "\u0120California",
  "5482": "iam",
  "5483": "\u0120x",
  "5484": "\u0120est",
  "5485": "ero",
  "5486": "\u0120wra",
  "5487": "\u0120seek",
  "5488": "\u0120sle",
  "5489": "\u0120soooo",
  "5490": "otally",
  "5491": "\u0120darn",
  "5492": "\u0120corn",
  "5493": "\u0120lack",
  "5494": "\u0120lbs",
  "5495": "anes",
  "5496": "stairs",
  "5497": "oop",
  "5498": "\u0120socks",
  "5499": "\u0120Tinder",
  "5500": "ustry",
  "5501": "\u0120Waiting",
  "5502": "\u0120rarely",
  "5503": "\u0120May",
  "5504": "\u0120shots",
  "5505": "unior",
  "5506": "akers",
  "5507": "\u0120chasing",
  "5508": "using",
  "5509": "\u0120tran",
  "5510": "\u0120vib",
  "5511": "\u0120viol",
  "5512": "\u0120unbeliev",
  "5513": "\u0120waitress",
  "5514": "acle",
  "5515": "\u0120adjust",
  "5516": "\u0120crack",
  "5517": "llege",
  "5518": "\u0120attic",
  "5519": "\u0120serve",
  "5520": "\u0120desper",
  "5521": "\u0120instr",
  "5522": "\u0120minor",
  "5523": "\u0120repay",
  "5524": "\u0120industry",
  "5525": "\u0120safely",
  "5526": "\u0120selfish",
  "5527": "\u0120simpler",
  "5528": "\u0120info",
  "5529": "\u0120windows",
  "5530": "\u0120landed",
  "5531": "\u0120potty",
  "5532": "\u0120litter",
  "5533": "\u0120devastating",
  "5534": "\u0120shooting",
  "5535": "\u0120suffering",
  "5536": "\u0120Korean",
  "5537": "\u0120material",
  "5538": "\u0120piano",
  "5539": "\u0120vibes",
  "5540": "bles",
  "5541": "tt",
  "5542": "\u0120sour",
  "5543": "\u0120mut",
  "5544": "\u0120fake",
  "5545": "ingers",
  "5546": "\u0120langu",
  "5547": "itary",
  "5548": "\u0120init",
  "5549": "aming",
  "5550": "\u0120shared",
  "5551": "estyle",
  "5552": "urb",
  "5553": "SHAME",
  "5554": "istry",
  "5555": "\u0120useful",
  "5556": "ivity",
  "5557": "\u0120\u0120\u0120",
  "5558": "\u0120lawy",
  "5559": "\u0120lifestyle",
  "5560": "\u0120abandoned",
  "5561": "500",
  "5562": "MA",
  "5563": "Omg",
  "5564": "cut",
  "5565": "hand",
  "5566": "ober",
  "5567": "\u0120Z",
  "5568": "\u0120sooo",
  "5569": "reate",
  "5570": "\u0120cage",
  "5571": "\u0120nicer",
  "5572": "arant",
  "5573": "\u0120inse",
  "5574": "\u0120release",
  "5575": "\u0120ultim",
  "5576": "\u0120stairs",
  "5577": "ential",
  "5578": "ctober",
  "5579": "\u0120donate",
  "5580": "\u0120pred",
  "5581": "\u0120mos",
  "5582": "\u0120aggress",
  "5583": "\u0120scold",
  "5584": "\u0120clu",
  "5585": "\u0120clot",
  "5586": "\u0120pretended",
  "5587": "ago",
  "5588": "\u0120Lots",
  "5589": "\u0120Family",
  "5590": "\u0120disney",
  "5591": "\u0120slipped",
  "5592": "\u0120deals",
  "5593": "\u0120restroom",
  "5594": "\u0120handy",
  "5595": "rench",
  "5596": "\u0120heading",
  "5597": "\u0120countries",
  "5598": "\u0120Thanksgiving",
  "5599": "\u0120repa",
  "5600": "\u0120prices",
  "5601": "\u0120certification",
  "5602": "\u0120vegan",
  "5603": "ledge",
  "5604": "\u0120humid",
  "5605": "\u0120guilt",
  "5606": "\u0120closing",
  "5607": "\u0120pregnancy",
  "5608": "\u0120complained",
  "5609": "\u0120solid",
  "5610": "\u0120patience",
  "5611": "\u0120Awww",
  "5612": "\u0120freshman",
  "5613": "\u0120rewarded",
  "5614": "\u0120posted",
  "5615": "Everyone",
  "5616": "\u0120spoiled",
  "5617": "\u0120Seeing",
  "5618": "\u0120casino",
  "5619": "\u0120epis",
  "5620": "\u0120tradition",
  "5621": "\u0120Mexican",
  "5622": "\u0120texting",
  "5623": "\u0120medicine",
  "5624": "\u0120folks",
  "5625": "\u0120sunday",
  "5626": "irthday",
  "5627": "\u0120canceled",
  "5628": "),",
  "5629": "Glad",
  "5630": "See",
  "5631": "\u0120tas",
  "5632": "otic",
  "5633": "\u0120gather",
  "5634": "\u0120hect",
  "5635": "tered",
  "5636": "ender",
  "5637": "\u0120Ad",
  "5638": "\u0120chill",
  "5639": "\u0120betray",
  "5640": "\u0120surely",
  "5641": "\u0120joining",
  "5642": "\u0120prove",
  "5643": "ples",
  "5644": "\u0120uneasy",
  "5645": "\u0120lets",
  "5646": "\u0120compare",
  "5647": "\u0120tomato",
  "5648": "\u0120Start",
  "5649": "\u0120regard",
  "5650": "\u0120standard",
  "5651": "\u0120generation",
  "5652": "\u0120sending",
  "5653": "\u0120causes",
  "5654": "\u0120therapist",
  "5655": "\u0120pleasure",
  "5656": "\u0120challenging",
  "5657": "\u0120isolated",
  "5658": "\u0120female",
  "5659": "\u0120hectic",
  "5660": "uition",
  "5661": "vill",
  "5662": "vision",
  "5663": "watch",
  "5664": "\u0120vent",
  "5665": "\u0120hint",
  "5666": "\u0120bound",
  "5667": "\u0120duty",
  "5668": "\u0120oven",
  "5669": "\u0120onions",
  "5670": "adow",
  "5671": "\u0120kiss",
  "5672": "\u0120stro",
  "5673": "\u0120necessary",
  "5674": "\u0120HA",
  "5675": "\u0120HR",
  "5676": "\u0120Holy",
  "5677": "\u0120rap",
  "5678": "\u0120August",
  "5679": "\u0120exch",
  "5680": "\u0120spit",
  "5681": "\u0120Bu",
  "5682": "\u0120By",
  "5683": "\u0120Birthday",
  "5684": "\u0120scored",
  "5685": "\u0120coach",
  "5686": "\u0120finds",
  "5687": "\u0120intim",
  "5688": "aco",
  "5689": "\u0120apple",
  "5690": "\u0120puts",
  "5691": "\u0120Jo",
  "5692": "\u0120Japan",
  "5693": "\u0120expired",
  "5694": "\u0120messy",
  "5695": "\u0120cookie",
  "5696": "\u0120incon",
  "5697": "bbing",
  "5698": "\u0120packing",
  "5699": "\u0120discount",
  "5700": "phones",
  "5701": "\u012070",
  "5702": "\u0120explore",
  "5703": "\u0120Many",
  "5704": "\u0120professor",
  "5705": "\u0120admire",
  "5706": "\u0120ghosts",
  "5707": "\u0120jerks",
  "5708": "\u0120customers",
  "5709": "\u0120heartbreaking",
  "5710": "\u0120marketing",
  "5711": "\u0120frightened",
  "5712": "\u0120traumatic",
  "5713": "\u0120vomit",
  "5714": "\u0120nightmares",
  "5715": "\u0120addiction",
  "5716": "\u0120hesit",
  "5717": "\u0120recognize",
  "5718": "\u0120barking",
  "5719": "\u0120pokemon",
  "5720": "\u0120pumpkin",
  "5721": "\u0120calculus",
  "5722": "\u0120ramen",
  "5723": "\u0120bittersweet",
  "5724": "\u0120frequently",
  "5725": "\u0120Hawaii",
  "5726": "\u0120marathon",
  "5727": "\u0120December",
  "5728": "AY",
  "5729": "Keep",
  "5730": "list",
  "5731": "eeling",
  "5732": "\u0120papers",
  "5733": "\u0120anger",
  "5734": "\u0120Netflix",
  "5735": "\u0120becomes",
  "5736": "hab",
  "5737": "\u0120lasts",
  "5738": "\u0120sadness",
  "5739": "\u0120contract",
  "5740": "\u0120refer",
  "5741": "\u0120possibly",
  "5742": "\u0120complaining",
  "5743": "\u0120contacted",
  "5744": "\u0120detail",
  "5745": "doors",
  "5746": "\u0120button",
  "5747": "\u0120NOT",
  "5748": "\u0120hiding",
  "5749": "\u0120passionate",
  "5750": "cons",
  "5751": "diving",
  "5752": "eans",
  "5753": "lace",
  "5754": "nies",
  "5755": "ton",
  "5756": "uable",
  "5757": "\u0120ER",
  "5758": "\u0120wea",
  "5759": "ata",
  "5760": "\u0120mic",
  "5761": "\u0120bump",
  "5762": "\u0120fest",
  "5763": "\u0120fans",
  "5764": "\u0120dess",
  "5765": "\u0120dumped",
  "5766": "\u0120cord",
  "5767": "\u0120lon",
  "5768": "\u0120las",
  "5769": "\u0120net",
  "5770": "\u0120nope",
  "5771": "\u0120patch",
  "5772": "itions",
  "5773": "omp",
  "5774": "\u0120lift",
  "5775": "chy",
  "5776": "\u0120jeans",
  "5777": "\u0120Har",
  "5778": "\u0120rate",
  "5779": "\u0120knee",
  "5780": "\u0120upgr",
  "5781": "ested",
  "5782": "urning",
  "5783": "\u0120baked",
  "5784": "\u0120chair",
  "5785": "\u0120chased",
  "5786": "\u0120champ",
  "5787": "ief",
  "5788": "\u0120trees",
  "5789": "uments",
  "5790": "\u0120thrown",
  "5791": "\u0120excitement",
  "5792": "\u0120Love",
  "5793": "\u0120terms",
  "5794": "\u0120Omg",
  "5795": "\u0120reconnect",
  "5796": "ptember",
  "5797": "\u0120blown",
  "5798": "new",
  "5799": "\u0120retire",
  "5800": "\u0120snugg",
  "5801": "\u0120stressing",
  "5802": "\u0120fixing",
  "5803": "\u0120entered",
  "5804": "\u0120Stay",
  "5805": "\u0120doors",
  "5806": "\u0120settle",
  "5807": "\u0120considerate",
  "5808": "\u0120satur",
  "5809": "\u0120occur",
  "5810": "\u0120severe",
  "5811": "\u0120France",
  "5812": "\u0120valuable",
  "5813": "arma",
  "5814": "\u0120evil",
  "5815": "\u0120borrowed",
  "5816": "\u0120auto",
  "5817": "\u0120trauma",
  "5818": "\u0120relatives",
  "5819": "\u0120vomited",
  "5820": "\u0120horrifying",
  "5821": "\u0120towel",
  "5822": "\u0120diagnosed",
  "5823": "\u0120independent",
  "5824": "\u0120potatoes",
  "5825": "\u0120perspective",
  "5826": "\u0120significant",
  "5827": "\u0120transit",
  "5828": "\u0120mosquit",
  "5829": "\u0120aggressive",
  "5830": "\u0120dessert",
  "5831": "ware",
  "5832": "outube",
  "5833": "\u0120Hmm",
  "5834": "irting",
  "5835": "\u0120More",
  "5836": "\u0120Youtube",
  "5837": "\u0120AL",
  "5838": "\u0120baking",
  "5839": "iled",
  "5840": "\u0120Both",
  "5841": "place",
  "5842": "\u0120thru",
  "5843": "\u0120Little",
  "5844": "\u0120Ge",
  "5845": "osis",
  "5846": "\u0120written",
  "5847": "\u0120straw",
  "5848": "\u0120counselor",
  "5849": "dddddddddddddddd",
  "5850": "\u0120activity",
  "5851": "\u0120romantic",
  "5852": "\u0120claim",
  "5853": "OMG",
  "5854": "PS",
  "5855": "ik",
  "5856": "nes",
  "5857": "oah",
  "5858": "yep",
  "5859": "\u0120/",
  "5860": "\u0120weak",
  "5861": "\u0120wishing",
  "5862": "\u0120homet",
  "5863": "\u0120mur",
  "5864": "\u0120bang",
  "5865": "\u0120firm",
  "5866": "\u0120cu",
  "5867": "\u0120cities",
  "5868": "\u0120create",
  "5869": "esl",
  "5870": "owl",
  "5871": "\u0120stain",
  "5872": "\u0120timing",
  "5873": "\u0120Summer",
  "5874": "\u0120web",
  "5875": "\u0120bags",
  "5876": "ils",
  "5877": "\u0120joined",
  "5878": "\u0120guest",
  "5879": "icked",
  "5880": "\u0120cock",
  "5881": "aging",
  "5882": "\u0120intention",
  "5883": "\u0120Losing",
  "5884": "\u0120Give",
  "5885": "ables",
  "5886": "\u0120Fe",
  "5887": "\u01202000",
  "5888": "\u0120fla",
  "5889": "\u0120flip",
  "5890": "\u0120surprises",
  "5891": "\u0120decl",
  "5892": "\u0120husky",
  "5893": "\u0120highway",
  "5894": "\u0120Usually",
  "5895": "apped",
  "5896": "\u0120puppies",
  "5897": "\u0120counts",
  "5898": "\u0120teams",
  "5899": "\u0120bosses",
  "5900": "Awe",
  "5901": "\u0120rice",
  "5902": "\u0120VERY",
  "5903": "\u0120regist",
  "5904": "\u0120catching",
  "5905": "\u0120humans",
  "5906": "\u0120burden",
  "5907": "\u0120airpl",
  "5908": "\u0120particip",
  "5909": "\u0120solve",
  "5910": "\u0120employer",
  "5911": "\u0120injury",
  "5912": "\u0120Having",
  "5913": "\u0120paperwork",
  "5914": "\u0120mentioned",
  "5915": "\u0120seafood",
  "5916": "\u0120communicate",
  "5917": "\u0120gained",
  "5918": "\u0120mountains",
  "5919": "\u0120Rec",
  "5920": "\u0120smoothly",
  "5921": "\u0120keto",
  "5922": "\u0120toddler",
  "5923": "\u0120sweating",
  "5924": "\u0120aggravating",
  "5925": "\u0120chores",
  "5926": "\u0120repaired",
  "5927": "\u0120hometown",
  "5928": "ih",
  "5929": "\u0120&",
  "5930": "\u0120bri",
  "5931": "\u0120cast",
  "5932": "\u0120rehab",
  "5933": "verse",
  "5934": "\u0120Talk",
  "5935": "\u0120Honestly",
  "5936": "unities",
  "5937": "\u0120Actually",
  "5938": "\u0120unhappy",
  "5939": "\u0120theirs",
  "5940": "\u0120tested",
  "5941": "\u0120classm",
  "5942": "\u012045",
  "5943": "\u0120incident",
  "5944": "\u0120opportunities",
  "5945": "\u0120encoura",
  "5946": "Ex",
  "5947": "Mine",
  "5948": "Never",
  "5949": "Or",
  "5950": "Sh",
  "5951": "door",
  "5952": "iot",
  "5953": "pting",
  "5954": "rd",
  "5955": "rad",
  "5956": "ern",
  "5957": "inct",
  "5958": "\u0120bun",
  "5959": "\u0120dancing",
  "5960": "\u0120cud",
  "5961": "\u0120pitch",
  "5962": "\u0120pics",
  "5963": "anch",
  "5964": "iment",
  "5965": "\u0120notes",
  "5966": "\u0120Might",
  "5967": "\u0120Made",
  "5968": "\u0120tools",
  "5969": "\u0120Sa",
  "5970": "\u0120bac",
  "5971": "\u0120mold",
  "5972": "\u0120Bell",
  "5973": "\u0120Croat",
  "5974": "\u0120proc",
  "5975": "\u0120printer",
  "5976": "\u0120arms",
  "5977": "\u0120arrest",
  "5978": "play",
  "5979": "\u0120rooting",
  "5980": "\u0120disag",
  "5981": "\u0120disaster",
  "5982": "ulture",
  "5983": "\u0120reser",
  "5984": "\u0120enjoyable",
  "5985": "\u0120tries",
  "5986": "\u0120florida",
  "5987": "\u0120messing",
  "5988": "ibility",
  "5989": "\u0120Chinese",
  "5990": "\u0120ticked",
  "5991": "\u0120individ",
  "5992": "\u0120listened",
  "5993": "\u0120generally",
  "5994": "\u0120tastes",
  "5995": "\u0120bothers",
  "5996": "\u0120grab",
  "5997": "\u0120specifically",
  "5998": "\u0120shirts",
  "5999": "\u0120bowling",
  "6000": "\u0120replacement",
  "6001": "\u0120occasionally",
  "6002": "\u0120pushed",
  "6003": "\u0120challenge",
  "6004": "\u0120travelling",
  "6005": "\u0120magic",
  "6006": "\u0120dreading",
  "6007": "\u0120responsibilities",
  "6008": "\u0120escape",
  "6009": "\u0120necklace",
  "6010": "\u0120instructions",
  "6011": "\u0120Qu",
  "6012": "\u0120lawyer",
  "6013": "\u0120Recently",
  "6014": "bu",
  "6015": "uff",
  "6016": "\u0120bully",
  "6017": "\u0120nor",
  "6018": "ara",
  "6019": "\u0120SU",
  "6020": "\u0120DO",
  "6021": "\u0120spread",
  "6022": "ELL",
  "6023": "about",
  "6024": "\u0120blamed",
  "6025": "\u012035",
  "6026": "\u0120descri",
  "6027": "\u0120gaming",
  "6028": "\u0120freez",
  "6029": "\u0120consist",
  "6030": "\u0120treating",
  "6031": "\u0120infuri",
  "6032": "\u0120zone",
  "6033": "\u0120organized",
  "6034": "\u0120Gotta",
  "6035": "\u0120searching",
  "6036": "\u0120further",
  "6037": "\u0120Otherwise",
  "6038": "\u0120tasks",
  "6039": "!\"",
  "6040": "200",
  "6041": "About",
  "6042": "EA",
  "6043": "ium",
  "6044": "mb",
  "6045": "pr",
  "6046": "vv",
  "6047": "vember",
  "6048": "walk",
  "6049": "oni",
  "6050": "inated",
  "6051": "\u0120Ind",
  "6052": "rep",
  "6053": "ashing",
  "6054": "\u0120pink",
  "6055": "\u0120pup",
  "6056": "\u0120owe",
  "6057": "itor",
  "6058": "\u0120Tra",
  "6059": "\u0120kitt",
  "6060": "icago",
  "6061": "eague",
  "6062": "irl",
  "6063": "\u0120Mac",
  "6064": "\u0120ship",
  "6065": "\u0120asap",
  "6066": "\u0120theme",
  "6067": "\u0120awe",
  "6068": "\u0120spa",
  "6069": "\u0120convenient",
  "6070": "igious",
  "6071": "cience",
  "6072": "because",
  "6073": "\u0120vase",
  "6074": "\u0120grind",
  "6075": "\u0120brut",
  "6076": "\u0120brush",
  "6077": "agers",
  "6078": "plant",
  "6079": "\u0120quarter",
  "6080": "\u0120unit",
  "6081": "\u0120Lou",
  "6082": "\u0120finishing",
  "6083": "\u0120throughout",
  "6084": "\u0120Part",
  "6085": "\u0120smoke",
  "6086": "aughter",
  "6087": "\u0120Isn",
  "6088": "\u0120twins",
  "6089": "\u0120stub",
  "6090": "\u0120craving",
  "6091": "ashed",
  "6092": "\u0120announ",
  "6093": "nah",
  "6094": "\u0120design",
  "6095": "\u0120500",
  "6096": "ionship",
  "6097": "\u0120pasta",
  "6098": "\u0120instantly",
  "6099": "\u0120eachother",
  "6100": "\u0120mothers",
  "6101": "uesday",
  "6102": "\u0120walls",
  "6103": "\u0120closest",
  "6104": "\u0120salary",
  "6105": "berry",
  "6106": "\u0120ITs",
  "6107": "\u0120theres",
  "6108": "\u0120sticky",
  "6109": "\u0120clearly",
  "6110": "\u0120required",
  "6111": "\u0120matches",
  "6112": "\u0120affected",
  "6113": "employment",
  "6114": "\u0120errand",
  "6115": "\u0120beside",
  "6116": "\u0120treasure",
  "6117": "\u0120Switch",
  "6118": "\u0120racing",
  "6119": "\u0120McDonalds",
  "6120": "\u0120released",
  "6121": "\u0120rejected",
  "6122": "\u0120discipline",
  "6123": "\u0120scheduled",
  "6124": "\u0120slept",
  "6125": "ville",
  "6126": "\u0120exchange",
  "6127": "\u0120intimid",
  "6128": "Ch",
  "6129": "VER",
  "6130": "val",
  "6131": "\u0120tit",
  "6132": "\u0120gal",
  "6133": "\u0120cy",
  "6134": "asy",
  "6135": "\u0120outdoors",
  "6136": "\u0120YES",
  "6137": "\u0120anyways",
  "6138": "\u0120aware",
  "6139": "\u0120Lucky",
  "6140": "\u0120rob",
  "6141": "\u0120Fingers",
  "6142": "\u0120resol",
  "6143": "\u0120flirting",
  "6144": "ohh",
  "6145": "wwww",
  "6146": "who",
  "6147": "\u0120male",
  "6148": "\u0120extreme",
  "6149": "\u0120counter",
  "6150": "\u0120circ",
  "6151": "\u0120counseling",
  "6152": "ropriate",
  "6153": "FC",
  "6154": "LY",
  "6155": "ME",
  "6156": "Must",
  "6157": "ND",
  "6158": "Nah",
  "6159": "eve",
  "6160": "hor",
  "6161": "mark",
  "6162": "pon",
  "6163": "scle",
  "6164": "\u0120tar",
  "6165": "err",
  "6166": "\u0120walmart",
  "6167": "\u0120hike",
  "6168": "emember",
  "6169": "emade",
  "6170": "\u0120mature",
  "6171": "\u0120ban",
  "6172": "\u0120dressed",
  "6173": "\u0120yoga",
  "6174": "\u0120cav",
  "6175": "\u0120youth",
  "6176": "\u0120nah",
  "6177": "\u0120pic",
  "6178": "encies",
  "6179": "itis",
  "6180": "arily",
  "6181": "etime",
  "6182": "\u0120soda",
  "6183": "unting",
  "6184": "\u0120hers",
  "6185": "riends",
  "6186": "\u0120donuts",
  "6187": "aker",
  "6188": "\u0120deb",
  "6189": "\u0120muscle",
  "6190": "\u0120Nah",
  "6191": "\u0120Bar",
  "6192": "\u0120leash",
  "6193": "\u0120Call",
  "6194": "\u0120City",
  "6195": "\u0120wave",
  "6196": "\u0120unne",
  "6197": "\u0120players",
  "6198": "acu",
  "6199": "\u0120OMG",
  "6200": "\u0120monday",
  "6201": "\u0120monsters",
  "6202": "\u0120swallow",
  "6203": "\u0120chew",
  "6204": "\u0120supporting",
  "6205": "\u0120strangers",
  "6206": "\u0120leftovers",
  "6207": "\u0120accused",
  "6208": "\u0120wins",
  "6209": "\u0120highschool",
  "6210": "\u0120attem",
  "6211": "\u0120sweetheart",
  "6212": "\u0120percent",
  "6213": "\u0120serv",
  "6214": "\u0120interests",
  "6215": "\u0120skating",
  "6216": "\u0120county",
  "6217": "\u0120polite",
  "6218": "\u0120hoped",
  "6219": "Thankfully",
  "6220": "\u0120failure",
  "6221": "\u0120pulling",
  "6222": "\u0120Almost",
  "6223": "greed",
  "6224": "\u0120corrupt",
  "6225": "\u0120haircut",
  "6226": "\u0120competitive",
  "6227": "\u0120turtle",
  "6228": "\u0120pieces",
  "6229": "\u0120zero",
  "6230": "\u0120evacu",
  "6231": "\u0120Spanish",
  "6232": "olences",
  "6233": "\u0120argue",
  "6234": "\u0120satisfying",
  "6235": "\u0120ignored",
  "6236": "\u0120organic",
  "6237": "\u0120recipes",
  "6238": "\u0120glasses",
  "6239": "\u0120tires",
  "6240": "\u0120overwhelmed",
  "6241": "\u0120College",
  "6242": "\u0120totaled",
  "6243": "\u0120skydiving",
  "6244": "\u0120political",
  "6245": "\u0120convin",
  "6246": "boys",
  "6247": "\u0120repeat",
  "6248": "\u0120increase",
  "6249": "\u0120trailer",
  "6250": "\u0120celebrating",
  "6251": "\u0120spelling",
  "6252": "\u0120including",
  "6253": "\u0120transportation",
  "6254": "\u0120ingred",
  "6255": "\u0120motorcy",
  "6256": "\u0120gluten",
  "6257": "\u0120appetite",
  "6258": "\u0120unbelievable",
  "6259": "\u0120saturday",
  "6260": "\u0120flavor",
  "6261": "\u0120disagree",
  "6262": "Actually",
  "6263": "ET",
  "6264": "Honestly",
  "6265": "Please",
  "6266": "ait",
  "6267": "\u0120nut",
  "6268": "\u0120abusive",
  "6269": "others",
  "6270": "\u0120Feeling",
  "6271": "\u0120eats",
  "6272": "\u0120hits",
  "6273": "\u0120courses",
  "6274": "\u0120Canada",
  "6275": "\u0120foreign",
  "6276": "\u0120tempor",
  "6277": "\u0120scene",
  "6278": "\u0120Looking",
  "6279": "\u0120software",
  "6280": "\u0120language",
  "6281": "An",
  "6282": "YY",
  "6283": "Yay",
  "6284": "cret",
  "6285": "ext",
  "6286": "free",
  "6287": "gu",
  "6288": "iant",
  "6289": "mel",
  "6290": "rant",
  "6291": "\u0120ut",
  "6292": "\u0120tatt",
  "6293": "erry",
  "6294": "\u0120wire",
  "6295": "\u0120wings",
  "6296": "\u0120threat",
  "6297": "\u0120sake",
  "6298": "\u0120Ill",
  "6299": "\u0120hood",
  "6300": "\u0120mouse",
  "6301": "\u0120bake",
  "6302": "\u0120fian",
  "6303": "\u0120yep",
  "6304": "\u0120google",
  "6305": "\u0120gorge",
  "6306": "\u0120cig",
  "6307": "\u0120theater",
  "6308": "\u0120national",
  "6309": "\u0120pin",
  "6310": "\u0120pant",
  "6311": "\u0120pushing",
  "6312": "\u0120omg",
  "6313": "aries",
  "6314": "\u0120beating",
  "6315": "\u0120ec",
  "6316": "\u0120Taking",
  "6317": "\u0120states",
  "6318": "\u0120War",
  "6319": "char",
  "6320": "\u0120wheel",
  "6321": "\u0120goodbye",
  "6322": "\u0120Honda",
  "6323": "\u0120outf",
  "6324": "\u0120lover",
  "6325": "\u0120shadow",
  "6326": "\u0120awake",
  "6327": "\u0120plants",
  "6328": "\u0120moon",
  "6329": "\u0120comed",
  "6330": "\u0120spin",
  "6331": "\u0120Bro",
  "6332": "\u0120funeral",
  "6333": "\u0120fac",
  "6334": "\u0120kindness",
  "6335": "\u0120unemployment",
  "6336": "\u0120household",
  "6337": "ache",
  "6338": "\u0120wished",
  "6339": "\u0120Fort",
  "6340": "\u012022",
  "6341": "\u0120drown",
  "6342": "\u0120teh",
  "6343": "\u0120Rock",
  "6344": "\u0120stuffed",
  "6345": "\u0120runs",
  "6346": "\u0120promising",
  "6347": "\u0120returning",
  "6348": "\u0120skip",
  "6349": "\u0120aced",
  "6350": "\u0120repres",
  "6351": "\u0120smaller",
  "6352": "\u0120vegg",
  "6353": "\u0120800",
  "6354": "\u0120concern",
  "6355": "\u0120concerns",
  "6356": "\u0120smells",
  "6357": "\u0120milest",
  "6358": "\u0120impression",
  "6359": "\u0120computers",
  "6360": "lected",
  "6361": "\u0120object",
  "6362": "\u0120unexpectedly",
  "6363": "\u0120joyful",
  "6364": "\u0120behave",
  "6365": "\u0120investment",
  "6366": "\u0120starving",
  "6367": "\u0120Haven",
  "6368": "\u0120regularly",
  "6369": "\u0120inspired",
  "6370": "\u0120mortg",
  "6371": "\u0120lifting",
  "6372": "\u0120England",
  "6373": "\u0120suffer",
  "6374": "Only",
  "6375": "\u0120distracted",
  "6376": "\u0120ladies",
  "6377": "\u0120cabin",
  "6378": "\u0120election",
  "6379": "\u0120rotten",
  "6380": "standing",
  "6381": "\u0120miracle",
  "6382": "\u0120kitty",
  "6383": "\u0120buffet",
  "6384": "\u0120improvement",
  "6385": "\u0120Croatia",
  "6386": "\u0120infuriating",
  "6387": "\u0120Louis",
  "6388": "\u0120tattoo",
  "6389": "?\"",
  "6390": "OR",
  "6391": "overy",
  "6392": "\u0120reass",
  "6393": "\u0120ur",
  "6394": "sey",
  "6395": "\u0120exh",
  "6396": "\u0120spr",
  "6397": "agging",
  "6398": "\u0120strate",
  "6399": "\u0120passes",
  "6400": "\u0120jealousy",
  "6401": "\u0120military",
  "6402": "\u0120investig",
  "6403": "\u0120respectful",
  "6404": "\u0120tennis",
  "6405": "\u0120suggestions",
  "6406": "\u0120benefit",
  "6407": "\u0120effects",
  "6408": "\u0120belongings",
  "6409": "\u0120homeschool",
  "6410": "\u0120chemistry",
  "6411": "\u0120document",
  "6412": "\u0120vaccine",
  "6413": "!.",
  "6414": ".,",
  "6415": "MY",
  "6416": "bour",
  "6417": "bull",
  "6418": "ds",
  "6419": "ipp",
  "6420": "ipping",
  "6421": "mo",
  "6422": "mission",
  "6423": "pack",
  "6424": "reen",
  "6425": "ser",
  "6426": "west",
  "6427": "yy",
  "6428": "\u0120ven",
  "6429": "\u0120tun",
  "6430": "\u0120tape",
  "6431": "\u0120wound",
  "6432": "\u0120thou",
  "6433": "\u0120iP",
  "6434": "\u0120buck",
  "6435": "\u0120boun",
  "6436": "\u0120yummy",
  "6437": "\u0120culture",
  "6438": "\u0120hallow",
  "6439": "\u0120pill",
  "6440": "\u0120pity",
  "6441": "\u0120obs",
  "6442": "\u0120island",
  "6443": "\u0120beans",
  "6444": "\u0120ego",
  "6445": "\u0120forth",
  "6446": "ribut",
  "6447": "vert",
  "6448": "seas",
  "6449": "cha",
  "6450": "ament",
  "6451": "eable",
  "6452": "\u0120outcome",
  "6453": "\u0120alert",
  "6454": "\u0120fees",
  "6455": "\u0120shady",
  "6456": "\u0120shining",
  "6457": "\u0120exotic",
  "6458": "\u0120chest",
  "6459": "\u0120deer",
  "6460": "aint",
  "6461": "\u0120backed",
  "6462": "\u0120shoulder",
  "6463": "\u0120carried",
  "6464": "venience",
  "6465": "\u0120overd",
  "6466": "\u0120overseas",
  "6467": "\u0120needing",
  "6468": "\u0120factor",
  "6469": "\u0120Cra",
  "6470": "\u0120madden",
  "6471": "\u0120offic",
  "6472": "\u0120click",
  "6473": "\u0120intell",
  "6474": "\u0120Game",
  "6475": "rats",
  "6476": "\u0120swer",
  "6477": "\u0120diss",
  "6478": "\u0120blo",
  "6479": "\u0120:-)",
  "6480": "acked",
  "6481": "\u0120owners",
  "6482": "\u0120neighbour",
  "6483": "\u0120Whenever",
  "6484": "\u0120moves",
  "6485": "\u0120hubby",
  "6486": "\u0120instinct",
  "6487": "\u0120sket",
  "6488": "\u0120skunk",
  "6489": "\u0120raising",
  "6490": "\u0120enter",
  "6491": "\u0120prison",
  "6492": "\u0120rip",
  "6493": "\u0120refuse",
  "6494": "hahah",
  "6495": "\u0120failing",
  "6496": "\u0120disturb",
  "6497": "\u0120holds",
  "6498": "\u0120lunches",
  "6499": "\u0120costs",
  "6500": "\u0120laws",
  "6501": "ground",
  "6502": "\u0120discou",
  "6503": "\u0120struggled",
  "6504": "\u0120reported",
  "6505": "\u0120bench",
  "6506": "\u0120artist",
  "6507": "\u0120teenagers",
  "6508": "\u0120feedback",
  "6509": "\u0120condolences",
  "6510": "Being",
  "6511": "\u0120grandpa",
  "6512": "\u0120creatures",
  "6513": "\u0120squir",
  "6514": "going",
  "6515": "\u0120hype",
  "6516": "\u0120nieces",
  "6517": "\u0120drawing",
  "6518": "\u0120peeved",
  "6519": "\u0120crossing",
  "6520": "\u0120Mexico",
  "6521": "\u0120Black",
  "6522": "\u0120September",
  "6523": "\u0120rabbit",
  "6524": "\u0120slightly",
  "6525": "\u0120homemade",
  "6526": "\u0120clothing",
  "6527": "\u0120stroke",
  "6528": "\u0120transition",
  "6529": "\u0120murder",
  "6530": "\u0120Felt",
  "6531": "\u0120airplane",
  "6532": "\u0120unnecessary",
  "6533": "\u0120services",
  "6534": "\u0120ingredients",
  "6535": "\u0120mortgage",
  "6536": "Hi",
  "6537": "\u0120site",
  "6538": "really",
  "6539": "\u0120lame",
  "6540": "roll",
  "6541": "usic",
  "6542": "\u0120removed",
  "6543": "\u0120disp",
  "6544": "\u0120tele",
  "6545": "\u0120element",
  "6546": "\u0120walks",
  "6547": "certain",
  "6548": "\u0120meds",
  "6549": "\u0120invested",
  "6550": "\u0120challenges",
  "6551": "\u0120route",
  "6552": "\u0120USA",
  "6553": ".\".",
  "6554": "MW",
  "6555": "Time",
  "6556": "cee",
  "6557": "cast",
  "6558": "crif",
  "6559": "iens",
  "6560": "nn",
  "6561": "tr",
  "6562": "ught",
  "6563": "zen",
  "6564": "\u0120ot",
  "6565": "\u0120ast",
  "6566": "inos",
  "6567": "\u0120shat",
  "6568": "\u0120sens",
  "6569": "\u0120hip",
  "6570": "\u0120hates",
  "6571": "\u0120hiring",
  "6572": "\u0120master",
  "6573": "\u0120ble",
  "6574": "\u0120bare",
  "6575": "\u0120duck",
  "6576": "\u0120gre",
  "6577": "orage",
  "6578": "\u0120lun",
  "6579": "\u0120nest",
  "6580": "\u0120pace",
  "6581": "\u0120oper",
  "6582": "itled",
  "6583": "aration",
  "6584": "ario",
  "6585": "aying",
  "6586": "oops",
  "6587": "\u0120east",
  "6588": "\u0120rear",
  "6589": "\u0120renew",
  "6590": "hell",
  "6591": "adly",
  "6592": "\u0120Took",
  "6593": "\u0120kay",
  "6594": "\u0120stable",
  "6595": "\u0120storage",
  "6596": "\u0120Wonder",
  "6597": "\u0120mex",
  "6598": "\u0120junior",
  "6599": "\u0120whil",
  "6600": "ppings",
  "6601": "\u0120necess",
  "6602": "\u0120knife",
  "6603": "\u0120upd",
  "6604": "\u0120Seriously",
  "6605": "\u0120shout",
  "6606": "\u0120shorter",
  "6607": "\u0120Aust",
  "6608": "\u0120aspect",
  "6609": "urric",
  "6610": "\u0120lotto",
  "6611": "\u0120harsh",
  "6612": "\u0120BMW",
  "6613": "ankees",
  "6614": "ffle",
  "6615": "\u0120sacrif",
  "6616": "\u0120lean",
  "6617": "igent",
  "6618": "\u0120faced",
  "6619": "\u0120Though",
  "6620": "\u0120kindergarten",
  "6621": "\u0120diving",
  "6622": "\u0120covers",
  "6623": "\u0120famous",
  "6624": "\u0120branch",
  "6625": "HAHA",
  "6626": "\u0120acts",
  "6627": "\u0120Febr",
  "6628": "\u0120Feels",
  "6629": "\u0120understands",
  "6630": "sole",
  "6631": "gets",
  "6632": "oster",
  "6633": "\u0120phase",
  "6634": "\u0120horribly",
  "6635": "\u0120insist",
  "6636": "\u0120testing",
  "6637": "\u0120preparation",
  "6638": "\u0120highly",
  "6639": "\u0120sweetest",
  "6640": "\u0120dealt",
  "6641": "\u0120dealership",
  "6642": "\u0120healing",
  "6643": "\u0120perman",
  "6644": "\u0120hahah",
  "6645": "\u0120grandch",
  "6646": "ventually",
  "6647": "\u0120opens",
  "6648": "\u0120messages",
  "6649": "\u0120interviewed",
  "6650": "\u0120pizzas",
  "6651": "shi",
  "6652": "\u0120veg",
  "6653": "\u0120lightning",
  "6654": "\u0120reminder",
  "6655": "\u0120assign",
  "6656": "\u0120thanksgiving",
  "6657": "\u0120braves",
  "6658": "\u0120stronger",
  "6659": "\u0120propose",
  "6660": "\u0120streets",
  "6661": "\u0120advise",
  "6662": "\u0120signs",
  "6663": "\u0120meantime",
  "6664": "\u0120copy",
  "6665": "\u0120wrecking",
  "6666": "Someone",
  "6667": "\u0120gunsh",
  "6668": "\u0120anticipation",
  "6669": "\u0120hyped",
  "6670": "\u0120flooded",
  "6671": "\u0120goldfish",
  "6672": "\u0120suprised",
  "6673": "\u0120beef",
  "6674": "\u0120instructor",
  "6675": "\u0120thunderst",
  "6676": "\u0120athletic",
  "6677": "\u0120radio",
  "6678": "\u0120vegetables",
  "6679": "ursday",
  "6680": "\u0120mechanic",
  "6681": "Going",
  "6682": "\u0120desperate",
  "6683": "\u0120insec",
  "6684": "\u0120lonesome",
  "6685": "\u0120brutal",
  "6686": "\u0120represent",
  "6687": "\u0120halloween",
  "6688": "\u0120February",
  "6689": "19",
  "6690": "Would",
  "6691": "car",
  "6692": "iry",
  "6693": "life",
  "6694": "rot",
  "6695": "your",
  "6696": "\u0120bars",
  "6697": "rel",
  "6698": "anced",
  "6699": "\u0120worri",
  "6700": "\u0120DM",
  "6701": "\u0120fruit",
  "6702": "there",
  "6703": "\u0120uncertain",
  "6704": "\u0120apps",
  "6705": "\u0120retake",
  "6706": "\u0120location",
  "6707": "\u0120address",
  "6708": "\u0120occup",
  "6709": "Interesting",
  "6710": "\u0120adoption",
  "6711": "\u0120unsure",
  "6712": "\u0120bottom",
  "6713": "\u0120troubles",
  "6714": "\u0120exhausted",
  "6715": "\u0120elementary",
  "6716": "%.",
  "6717": "11",
  "6718": "25",
  "6719": "300",
  "6720": "Has",
  "6721": "bul",
  "6722": "bucks",
  "6723": "house",
  "6724": "ift",
  "6725": "nic",
  "6726": "rud",
  "6727": "see",
  "6728": "zard",
  "6729": "\u0120tag",
  "6730": "eries",
  "6731": "\u0120wip",
  "6732": "\u0120thick",
  "6733": "\u0120mice",
  "6734": "\u0120toppings",
  "6735": "\u0120dates",
  "6736": "\u0120data",
  "6737": "org",
  "6738": "orse",
  "6739": "\u0120lent",
  "6740": "\u0120lined",
  "6741": "ownt",
  "6742": "step",
  "6743": "static",
  "6744": "ris",
  "6745": "riors",
  "6746": "adill",
  "6747": "\u0120Tesl",
  "6748": "\u0120golf",
  "6749": "\u0120sushi",
  "6750": "\u0120Italy",
  "6751": "\u0120Master",
  "6752": "\u0120aliens",
  "6753": "\u0120shri",
  "6754": "\u0120knowledge",
  "6755": "\u0120happiest",
  "6756": "\u0120alley",
  "6757": "raft",
  "6758": "raph",
  "6759": "\u0120noble",
  "6760": "\u0120webs",
  "6761": "\u0120awaiting",
  "6762": "then",
  "6763": "ilot",
  "6764": "\u0120moder",
  "6765": "\u0120comics",
  "6766": "\u0120Boy",
  "6767": "ources",
  "6768": "\u0120feat",
  "6769": "olves",
  "6770": "\u0120lease",
  "6771": "umes",
  "6772": "cist",
  "6773": "\u0120cloud",
  "6774": "\u0120diab",
  "6775": "\u0120diaper",
  "6776": "\u0120unb",
  "6777": "\u0120Out",
  "6778": "\u0120wishes",
  "6779": "\u0120Fin",
  "6780": "\u0120swell",
  "6781": "\u0120surround",
  "6782": "\u0120slide",
  "6783": "\u0120mission",
  "6784": "\u0120believed",
  "6785": "mercial",
  "6786": "\u0120memorable",
  "6787": "\u0120annual",
  "6788": "\u0120confess",
  "6789": "\u0120ohh",
  "6790": "\u0120dads",
  "6791": "\u0120healthier",
  "6792": "ograph",
  "6793": "\u0120minds",
  "6794": "\u0120headphones",
  "6795": "\u0120headache",
  "6796": "\u0120interviewing",
  "6797": "umber",
  "6798": "\u0120sett",
  "6799": "\u0120singer",
  "6800": "works",
  "6801": "\u0120rained",
  "6802": "\u0120booked",
  "6803": "\u0120bumper",
  "6804": "\u0120irked",
  "6805": "\u0120forgetting",
  "6806": "\u0120fellow",
  "6807": "\u0120warrant",
  "6808": "\u0120disconnect",
  "6809": "\u0120Hahaha",
  "6810": "\u0120fears",
  "6811": "\u0120secretly",
  "6812": "\u0120fitness",
  "6813": "\u0120graph",
  "6814": "\u0120coping",
  "6815": "\u0120wrecked",
  "6816": "\u0120sunny",
  "6817": "\u0120evicted",
  "6818": "\u0120internship",
  "6819": "\u0120regrets",
  "6820": "\u0120teenage",
  "6821": "\u0120parcel",
  "6822": "\u0120Mostly",
  "6823": "otein",
  "6824": "\u0120creative",
  "6825": "\u0120smoking",
  "6826": "\u0120naturally",
  "6827": "\u0120crowded",
  "6828": "\u0120climate",
  "6829": "\u0120Kinda",
  "6830": "\u0120communication",
  "6831": "\u0120directly",
  "6832": "donald",
  "6833": "\u0120crawling",
  "6834": "\u0120climbing",
  "6835": "etti",
  "6836": "\u0120celebrated",
  "6837": "\u0120fulfilling",
  "6838": "\u0120witnessed",
  "6839": "\u0120channel",
  "6840": "hopefully",
  "6841": "Amazing",
  "6842": "\u0120influence",
  "6843": "iami",
  "6844": "\u0120source",
  "6845": "\u0120inconvenient",
  "6846": "\u0120stubborn",
  "6847": "\u0120motorcycle",
  "6848": "\u0120gorgeous",
  "6849": "\u0120ecstatic",
  "6850": ",,",
  "6851": "Get",
  "6852": "Pretty",
  "6853": "ev",
  "6854": "\u0120X",
  "6855": "\u0120FI",
  "6856": "\u0120wo",
  "6857": "anuary",
  "6858": "\u0120WOW",
  "6859": "\u0120amer",
  "6860": "\u0120range",
  "6861": "\u0120workplace",
  "6862": "think",
  "6863": "\u0120NE",
  "6864": "\u0120uni",
  "6865": "\u0120recovery",
  "6866": "\u0120couples",
  "6867": "\u0120interact",
  "6868": "\u0120realizing",
  "6869": "\u0120heads",
  "6870": "\u0120Christ",
  "6871": "\u0120refuses",
  "6872": "\u0120returns",
  "6873": "\u0120complaint",
  "6874": "\u0120contacting",
  "6875": "\u0120crisis",
  "6876": "\u0120constru",
  "6877": "\u0120autom",
  "6878": "\u0120error",
  "6879": "\u0120status",
  "6880": "Perhaps",
  "6881": "af",
  "6882": "bowl",
  "6883": "ipe",
  "6884": "pot",
  "6885": "uct",
  "6886": "ura",
  "6887": "\u0120)",
  "6888": "\u0120tie",
  "6889": "\u0120ais",
  "6890": "inc",
  "6891": "\u0120wore",
  "6892": "\u0120wand",
  "6893": "\u0120thin",
  "6894": "\u0120sir",
  "6895": "\u0120sides",
  "6896": "\u0120ille",
  "6897": "\u0120bre",
  "6898": "\u0120toes",
  "6899": "\u0120dough",
  "6900": "\u0120ger",
  "6901": "\u0120nood",
  "6902": "\u0120netflix",
  "6903": "\u0120peop",
  "6904": "enced",
  "6905": "iter",
  "6906": "\u0120washing",
  "6907": "\u0120began",
  "6908": "\u0120sore",
  "6909": "\u0120Te",
  "6910": "usting",
  "6911": "\u0120stood",
  "6912": "\u0120Walmart",
  "6913": "ophy",
  "6914": "alian",
  "6915": "\u0120worn",
  "6916": "\u0120racking",
  "6917": "\u0120Six",
  "6918": "\u0120hero",
  "6919": "\u0120Day",
  "6920": "ural",
  "6921": "\u0120weigh",
  "6922": "\u0120plates",
  "6923": "\u0120chase",
  "6924": "\u0120debit",
  "6925": "thanks",
  "6926": "\u0120Back",
  "6927": "\u0120Ohh",
  "6928": "\u0120console",
  "6929": "cile",
  "6930": "\u0120faces",
  "6931": "bean",
  "6932": "\u0120clo",
  "6933": "\u0120protein",
  "6934": "\u0120whoever",
  "6935": "\u0120afterward",
  "6936": "\u0120Las",
  "6937": "istics",
  "6938": "\u0120beforehand",
  "6939": "\u0120Old",
  "6940": "\u0120carefree",
  "6941": "\u0120chef",
  "6942": "\u0120disres",
  "6943": "\u0120surve",
  "6944": "\u0120November",
  "6945": "\u0120slip",
  "6946": "osit",
  "6947": "Which",
  "6948": "\u0120trigg",
  "6949": "\u0120idiot",
  "6950": "\u0120flags",
  "6951": "\u0120december",
  "6952": "\u0120insan",
  "6953": "\u0120cleaner",
  "6954": "\u0120useless",
  "6955": "\u0120served",
  "6956": "\u0120stops",
  "6957": "\u0120daddy",
  "6958": "ementia",
  "6959": "\u0120visits",
  "6960": "\u0120skate",
  "6961": "\u0120picky",
  "6962": "\u0120policy",
  "6963": "\u0120grows",
  "6964": "\u0120points",
  "6965": "\u0120Chicago",
  "6966": "\u0120entitled",
  "6967": "\u0120watermel",
  "6968": "\u0120command",
  "6969": "\u0120completed",
  "6970": "\u0120Str",
  "6971": "\u0120Atl",
  "6972": "ception",
  "6973": "ahamas",
  "6974": "\u0120cutest",
  "6975": "\u0120restaurants",
  "6976": "\u0120hunt",
  "6977": "\u0120Awe",
  "6978": "\u0120coverage",
  "6979": "\u0120emotionally",
  "6980": "\u0120Doesn",
  "6981": "\u0120burrit",
  "6982": "\u0120burgers",
  "6983": "\u0120hospice",
  "6984": "\u0120bands",
  "6985": "\u0120candid",
  "6986": "\u0120nephews",
  "6987": "\u0120turkey",
  "6988": "\u0120english",
  "6989": "\u0120degrees",
  "6990": "\u0120fireworks",
  "6991": "\u0120scratched",
  "6992": "\u0120motivate",
  "6993": "\u0120evidence",
  "6994": "\u0120achieved",
  "6995": "\u0120fantasy",
  "6996": "\u0120emergencies",
  "6997": "\u0120exercising",
  "6998": "\u0120judg",
  "6999": "\u0120traumat",
  "7000": "\u0120golden",
  "7001": "\u0120protective",
  "7002": "emicals",
  "7003": "\u0120fondly",
  "7004": "\u0120pitbull",
  "7005": "\u0120LOT",
  "7006": "\u0120determination",
  "7007": "\u0120tournaments",
  "7008": "\u0120originally",
  "7009": "\u0120horrified",
  "7010": "ootball",
  "7011": "\u0120labor",
  "7012": "\u0120rollercoasters",
  "7013": "\u0120inches",
  "7014": "\u0120spooky",
  "7015": "\u0120pepperoni",
  "7016": "\u0120reserv",
  "7017": "errari",
  "7018": "\u0120fiancee",
  "7019": "\u0120veggies",
  "7020": "\u0120milestone",
  "7021": "\u0120shattered",
  "7022": "\u0120illeg",
  "7023": "IR",
  "7024": "lers",
  "7025": "\u0120....",
  "7026": "iner",
  "7027": "inate",
  "7028": "\u0120IN",
  "7029": "\u0120mate",
  "7030": "ases",
  "7031": "eter",
  "7032": "iding",
  "7033": "\u0120THE",
  "7034": "\u0120WH",
  "7035": "ending",
  "7036": "\u0120Need",
  "7037": "umst",
  "7038": "\u0120vir",
  "7039": "\u0120traged",
  "7040": "\u0120upside",
  "7041": "\u0120loudly",
  "7042": "\u0120levels",
  "7043": "\u0120leads",
  "7044": "\u0120conversations",
  "7045": "\u0120breathing",
  "7046": "\u0120typically",
  "7047": "\u0120DMV",
  "7048": "From",
  "7049": "HH",
  "7050": "His",
  "7051": "SS",
  "7052": "Yum",
  "7053": "aid",
  "7054": "corn",
  "7055": "every",
  "7056": "foot",
  "7057": "live",
  "7058": "nope",
  "7059": "oors",
  "7060": "vard",
  "7061": "zum",
  "7062": "\u0120!!",
  "7063": "\u0120tent",
  "7064": "\u0120tense",
  "7065": "erence",
  "7066": "inist",
  "7067": "\u0120wide",
  "7068": "eem",
  "7069": "\u0120hill",
  "7070": "\u0120downt",
  "7071": "\u0120dementia",
  "7072": "\u0120ge",
  "7073": "\u0120lat",
  "7074": "\u0120lemon",
  "7075": "\u0120nause",
  "7076": "\u0120north",
  "7077": "arp",
  "7078": "oosing",
  "7079": "ghetti",
  "7080": "verted",
  "7081": "\u0120dos",
  "7082": "iser",
  "7083": "aded",
  "7084": "\u0120THAT",
  "7085": "\u0120Totally",
  "7086": "\u0120Taco",
  "7087": "\u0120Tuesday",
  "7088": "sequ",
  "7089": "\u0120kis",
  "7090": "\u0120karma",
  "7091": "lying",
  "7092": "\u0120Wars",
  "7093": "\u0120Winter",
  "7094": "\u0120jugg",
  "7095": "alf",
  "7096": "\u0120ank",
  "7097": "\u0120among",
  "7098": "\u0120sue",
  "7099": "ams",
  "7100": "\u0120abro",
  "7101": "\u0120justice",
  "7102": "\u0120rates",
  "7103": "\u0120shed",
  "7104": "\u0120shaken",
  "7105": "anta",
  "7106": "\u0120Acc",
  "7107": "ula",
  "7108": "amel",
  "7109": "\u0120Their",
  "7110": "\u0120commercial",
  "7111": "\u0120Bab",
  "7112": "\u0120Bahamas",
  "7113": "ssss",
  "7114": "\u0120consequ",
  "7115": "olina",
  "7116": "umsy",
  "7117": "\u0120Cam",
  "7118": "\u0120enem",
  "7119": "\u0120clumsy",
  "7120": "\u0120vit",
  "7121": "\u0120vict",
  "7122": "\u0120provid",
  "7123": "\u0120unw",
  "7124": "\u0120Lab",
  "7125": "\u0120uses",
  "7126": "\u0120GPA",
  "7127": "\u0120Gonna",
  "7128": "\u0120robb",
  "7129": "\u0120October",
  "7130": "\u0120religious",
  "7131": "\u0120keeper",
  "7132": "\u0120recital",
  "7133": "\u0120Ever",
  "7134": "\u0120Ford",
  "7135": "\u0120blocked",
  "7136": "\u0120payed",
  "7137": "\u0120Pan",
  "7138": "\u0120Park",
  "7139": "\u0120slim",
  "7140": "\u0120boot",
  "7141": "\u0120enjoys",
  "7142": "\u0120realistic",
  "7143": "\u0120craft",
  "7144": "\u0120highest",
  "7145": "ongratulation",
  "7146": "\u0120companion",
  "7147": "\u0120UK",
  "7148": "\u0120handed",
  "7149": "\u0120King",
  "7150": "\u0120breakup",
  "7151": "\u0120mornings",
  "7152": "aware",
  "7153": "\u0120polic",
  "7154": "\u0120minim",
  "7155": "\u0120repairs",
  "7156": "\u0120deposit",
  "7157": "\u0120disappear",
  "7158": "\u0120sidewalk",
  "7159": "\u0120roads",
  "7160": "\u0120warriors",
  "7161": "\u0120absolute",
  "7162": "\u0120etern",
  "7163": "\u0120stepping",
  "7164": "armacy",
  "7165": "\u0120switching",
  "7166": "\u0120keyboard",
  "7167": "\u0120pricey",
  "7168": "\u0120technically",
  "7169": "\u0120request",
  "7170": "\u0120requires",
  "7171": "\u0120panc",
  "7172": "\u0120magical",
  "7173": "cellent",
  "7174": "\u0120improving",
  "7175": "\u0120developed",
  "7176": "\u0120shipping",
  "7177": "\u0120scenario",
  "7178": "\u0120farted",
  "7179": "\u0120suprising",
  "7180": "\u0120convince",
  "7181": "\u0120babysitter",
  "7182": "\u0120texas",
  "7183": "\u0120loads",
  "7184": "\u0120Korea",
  "7185": "\u0120jacket",
  "7186": "\u0120poisoning",
  "7187": "\u0120critters",
  "7188": "\u0120busted",
  "7189": "\u0120clubs",
  "7190": "\u0120hesitant",
  "7191": "\u0120festival",
  "7192": "\u0120guests",
  "7193": "\u0120cockro",
  "7194": "\u0120classmates",
  "7195": "\u0120bunnies",
  "7196": "\u0120kittens",
  "7197": "\u0120intimidating",
  "7198": "\u0120picnic",
  "7199": "\u0120Louisiana",
  "7200": "\u0120sketchy",
  "7201": "\u0120Tesla",
  "7202": "\u0120website",
  "7203": "\u0120peoples",
  "7204": "zumel",
  "7205": "\u0120abroad",
  "7206": "Got",
  "7207": "hus",
  "7208": "rs",
  "7209": "rast",
  "7210": "\u0120Id",
  "7211": "atory",
  "7212": "\u0120stare",
  "7213": "\u0120concent",
  "7214": "\u0120unlike",
  "7215": "azz",
  "7216": "ptoms",
  "7217": "\u0120Pe",
  "7218": "\u0120childish",
  "7219": "\u0120wondered",
  "7220": "pleas",
  "7221": "\u0120Uber",
  "7222": "\u0120relaxation",
  "7223": "\u0120Stud",
  "7224": "ugs",
  "7225": "\u0120Anyway",
  "7226": "Ahh",
  "7227": "\u0120bothered",
  "7228": "\u0120efforts",
  "7229": "\u0120allows",
  "7230": "ronic",
  "7231": "\u0120symptoms",
  "7232": "\u0120variety",
  "7233": "\u0120essent",
  "7234": "\u0120;)",
  "7235": "althy",
  "7236": "Seems",
  "7237": "\u0120referring",
  "7238": "\u0120tragedy",
  "7239": "FL",
  "7240": "OK",
  "7241": "Seriously",
  "7242": "WOW",
  "7243": "aff",
  "7244": "cement",
  "7245": "daughter",
  "7246": "even",
  "7247": "gly",
  "7248": "lif",
  "7249": "path",
  "7250": "prit",
  "7251": "sm",
  "7252": "tte",
  "7253": "ux",
  "7254": "uits",
  "7255": "\u0120aud",
  "7256": "inci",
  "7257": "\u0120throat",
  "7258": "\u0120sna",
  "7259": "oured",
  "7260": "\u0120ID",
  "7261": "\u0120mild",
  "7262": "\u0120brew",
  "7263": "\u0120foster",
  "7264": "\u0120toll",
  "7265": "\u0120dom",
  "7266": "\u0120cer",
  "7267": "\u0120cul",
  "7268": "\u0120cakes",
  "7269": "\u0120caut",
  "7270": "\u0120lap",
  "7271": "\u0120lakers",
  "7272": "asc",
  "7273": "\u0120pal",
  "7274": "\u0120pier",
  "7275": "ednes",
  "7276": "enn",
  "7277": "itly",
  "7278": "itation",
  "7279": "\u0120rev",
  "7280": "\u0120reven",
  "7281": "\u0120heav",
  "7282": "heat",
  "7283": "\u0120Ten",
  "7284": "\u0120uh",
  "7285": "\u0120sting",
  "7286": "\u0120WHAT",
  "7287": "\u0120jet",
  "7288": "\u0120ange",
  "7289": "ppers",
  "7290": "\u0120HO",
  "7291": "\u0120Hurric",
  "7292": "\u0120outdoor",
  "7293": "\u0120outstanding",
  "7294": "\u0120Miami",
  "7295": "\u0120Yay",
  "7296": "\u0120tool",
  "7297": "\u0120Dri",
  "7298": "\u0120asso",
  "7299": "\u0120exter",
  "7300": "ulting",
  "7301": "\u0120novel",
  "7302": "\u0120placed",
  "7303": "\u0120chemicals",
  "7304": "\u0120mum",
  "7305": "\u0120comment",
  "7306": "\u0120newer",
  "7307": "ously",
  "7308": "\u0120None",
  "7309": "\u0120NFL",
  "7310": "\u0120BB",
  "7311": "ieving",
  "7312": "\u0120concret",
  "7313": "\u0120manners",
  "7314": "\u0120makeup",
  "7315": "\u0120carbs",
  "7316": "\u0120caramel",
  "7317": "\u0120function",
  "7318": "\u0120YouT",
  "7319": "\u0120bru",
  "7320": "agine",
  "7321": "\u0120unhe",
  "7322": "\u0120unac",
  "7323": "\u0120glo",
  "7324": "acing",
  "7325": "\u0120Over",
  "7326": "\u0120download",
  "7327": "\u0120downstairs",
  "7328": "\u0120recall",
  "7329": "\u0120FL",
  "7330": "\u0120Fo",
  "7331": "\u0120disheart",
  "7332": "\u0120Per",
  "7333": "\u0120letters",
  "7334": "\u0120slice",
  "7335": "\u0120compens",
  "7336": "\u0120bodies",
  "7337": "osh",
  "7338": "\u0120July",
  "7339": "\u0120resources",
  "7340": "\u0120asks",
  "7341": "\u0120300",
  "7342": "\u0120decades",
  "7343": "\u0120contribut",
  "7344": "\u0120Ro",
  "7345": "\u0120Res",
  "7346": "\u0120Remember",
  "7347": "\u0120accord",
  "7348": "\u0120imagination",
  "7349": "\u0120reasonable",
  "7350": "ealing",
  "7351": "\u0120roomate",
  "7352": "\u0120hug",
  "7353": "\u0120Kid",
  "7354": "\u0120extension",
  "7355": "rency",
  "7356": "\u0120snap",
  "7357": "\u0120freel",
  "7358": "\u0120pointed",
  "7359": "\u0120raffle",
  "7360": "ibbean",
  "7361": "\u0120specialist",
  "7362": "\u0120gifted",
  "7363": "\u0120consol",
  "7364": "\u0120difficulties",
  "7365": "\u0120forest",
  "7366": "iances",
  "7367": "\u0120metal",
  "7368": "\u0120beaches",
  "7369": "\u0120rains",
  "7370": "\u0120killer",
  "7371": "\u0120possess",
  "7372": "\u0120humble",
  "7373": "\u0120seconds",
  "7374": "\u0120apartments",
  "7375": "\u0120purs",
  "7376": "\u0120ceiling",
  "7377": "\u0120added",
  "7378": "\u0120subst",
  "7379": "mmm",
  "7380": "\u0120devil",
  "7381": "\u0120competing",
  "7382": "ysics",
  "7383": "\u0120valid",
  "7384": "\u0120kicking",
  "7385": "\u0120appliances",
  "7386": "\u0120sticking",
  "7387": "rilliant",
  "7388": "\u0120approached",
  "7389": "\u0120confronted",
  "7390": "\u0120author",
  "7391": "\u0120inspir",
  "7392": "\u0120odds",
  "7393": "\u0120199",
  "7394": "\u0120smashed",
  "7395": "\u0120Another",
  "7396": "\u0120hamster",
  "7397": "\u0120meaningful",
  "7398": "\u0120Looks",
  "7399": "\u0120dedicated",
  "7400": "\u0120Caribbean",
  "7401": "\u0120thousands",
  "7402": "\u0120funds",
  "7403": "\u0120introduced",
  "7404": "\u0120battery",
  "7405": "\u0120thrift",
  "7406": "\u0120infection",
  "7407": "\u0120delayed",
  "7408": "\u0120commitment",
  "7409": "\u0120slammed",
  "7410": "\u0120declined",
  "7411": "\u0120arrested",
  "7412": "\u0120errands",
  "7413": "\u0120cavs",
  "7414": "\u0120kayaking",
  "7415": "\u0120vegas",
  "7416": "\u0120disrespect",
  "7417": "\u0120watermelon",
  "7418": "\u0120culprit",
  "7419": "Could",
  "7420": "NE",
  "7421": "With",
  "7422": "bal",
  "7423": "gi",
  "7424": "\u0120aid",
  "7425": "\u0120fal",
  "7426": "any",
  "7427": "omg",
  "7428": "\u0120analy",
  "7429": "rof",
  "7430": "\u0120mush",
  "7431": "\u0120newborn",
  "7432": "\u0120Cats",
  "7433": "ILL",
  "7434": "\u0120breeze",
  "7435": "\u0120downs",
  "7436": "\u0120Friends",
  "7437": "\u0120Nobody",
  "7438": "nection",
  "7439": "\u0120classroom",
  "7440": "\u0120affair",
  "7441": "\u0120meetings",
  "7442": "\u0120obl",
  "7443": "\u0120From",
  "7444": "\u0120tends",
  "7445": "OOD",
  "7446": "\u0120volunteer",
  "7447": "\u0120sharks",
  "7448": "\u0120ALL",
  "7449": "\u0120circumst",
  "7450": "\u0120worrisome",
  "7451": "\u0120circumstances",
  "7452": "**",
  "7453": "Kids",
  "7454": "UG",
  "7455": "afe",
  "7456": "aww",
  "7457": "bled",
  "7458": "dad",
  "7459": "fun",
  "7460": "face",
  "7461": "gl",
  "7462": "gile",
  "7463": "hone",
  "7464": "hole",
  "7465": "iors",
  "7466": "low",
  "7467": "mit",
  "7468": "met",
  "7469": "mers",
  "7470": "oons",
  "7471": "water",
  "7472": "year",
  "7473": "\u0120tshirt",
  "7474": "\u0120ack",
  "7475": "errible",
  "7476": "ouri",
  "7477": "\u0120Ir",
  "7478": "ators",
  "7479": "\u0120mer",
  "7480": "\u0120bikes",
  "7481": "\u0120fry",
  "7482": "\u0120fib",
  "7483": "\u0120dried",
  "7484": "\u0120yuck",
  "7485": "\u0120cere",
  "7486": "\u0120cass",
  "7487": "\u0120cure",
  "7488": "\u0120nic",
  "7489": "anny",
  "7490": "ancer",
  "7491": "anoid",
  "7492": "arian",
  "7493": "arming",
  "7494": "leans",
  "7495": "hey",
  "7496": "\u0120uber",
  "7497": "\u0120umb",
  "7498": "\u0120liking",
  "7499": "ales",
  "7500": "\u0120suspect",
  "7501": "cky",
  "7502": "\u0120outlook",
  "7503": "\u0120rum",
  "7504": "\u0120rash",
  "7505": "\u0120rural",
  "7506": "\u0120knees",
  "7507": "\u0120Yuck",
  "7508": "\u0120sharp",
  "7509": "\u0120happily",
  "7510": "\u0120Air",
  "7511": "raught",
  "7512": "\u0120wouldve",
  "7513": "\u0120mug",
  "7514": "\u0120newest",
  "7515": "\u0120NY",
  "7516": "\u0120jokes",
  "7517": "\u0120fever",
  "7518": "usion",
  "7519": "igan",
  "7520": "\u0120Cost",
  "7521": "\u0120grump",
  "7522": "\u0120thrones",
  "7523": "\u0120terri",
  "7524": "\u0120relieve",
  "7525": "Whats",
  "7526": "\u0120sadden",
  "7527": "\u0120actor",
  "7528": "\u0120finance",
  "7529": "\u0120ours",
  "7530": "\u0120Eventually",
  "7531": "\u0120Find",
  "7532": "\u0120appear",
  "7533": "\u0120appartment",
  "7534": "\u012023",
  "7535": "\u012026",
  "7536": "\u0120resist",
  "7537": "\u0120catfish",
  "7538": "rowing",
  "7539": "\u0120elses",
  "7540": "\u0120winner",
  "7541": "\u0120collection",
  "7542": "which",
  "7543": "\u0120supermark",
  "7544": "\u0120birthdays",
  "7545": "\u0120compliment",
  "7546": "\u0120annoys",
  "7547": "\u0120healed",
  "7548": "\u0120grandkids",
  "7549": "\u0120ears",
  "7550": "\u0120rooms",
  "7551": "\u0120petty",
  "7552": "\u0120puke",
  "7553": "\u0120appreciates",
  "7554": "izza",
  "7555": "ceptable",
  "7556": "\u0120Everybody",
  "7557": "\u0120disappoint",
  "7558": "\u0120musician",
  "7559": "\u0120musicians",
  "7560": "\u0120distraught",
  "7561": "\u0120rolls",
  "7562": "\u0120brakes",
  "7563": "\u0120Orleans",
  "7564": "\u0120receiving",
  "7565": "\u0120propos",
  "7566": "\u0120proposed",
  "7567": "\u0120projects",
  "7568": "\u0120potential",
  "7569": "\u0120blessings",
  "7570": "\u0120destination",
  "7571": "\u0120mainten",
  "7572": "lando",
  "7573": "\u0120legal",
  "7574": "\u0120popcorn",
  "7575": "\u0120deeply",
  "7576": "\u0120paranoid",
  "7577": "\u0120loaned",
  "7578": "\u0120constant",
  "7579": "\u0120arguing",
  "7580": "\u0120occasions",
  "7581": "ocate",
  "7582": "\u0120Disneyland",
  "7583": "\u0120depending",
  "7584": "\u0120creating",
  "7585": "\u0120carrying",
  "7586": "\u0120nailed",
  "7587": "\u0120hambur",
  "7588": "\u0120recognition",
  "7589": "sychology",
  "7590": "\u0120cases",
  "7591": "icycle",
  "7592": "\u0120punishment",
  "7593": "\u0120suprise",
  "7594": "\u0120Amazing",
  "7595": "\u0120ladder",
  "7596": "\u0120hostel",
  "7597": "\u0120Brothers",
  "7598": "\u0120racco",
  "7599": "\u0120butterf",
  "7600": "\u0120surprisingly",
  "7601": "minator",
  "7602": "\u0120sneaky",
  "7603": "\u0120favour",
  "7604": "\u0120fragile",
  "7605": "\u0120massive",
  "7606": "\u0120episode",
  "7607": "\u0120weapon",
  "7608": "\u0120Harvard",
  "7609": "\u0120bachel",
  "7610": "\u0120SUV",
  "7611": "\u0120spaghetti",
  "7612": "\u0120cigare",
  "7613": "\u0120discoura",
  "7614": "\u0120television",
  "7615": "\u0120gunshots",
  "7616": "\u0120aisle",
  "7617": "\u0120insanely",
  "7618": "\u0120Atlanta",
  "7619": "\u0120consequences",
  "7620": "\u0120revenge",
  "7621": "\u0120Hurricane",
  "7622": "\u0120associ",
  "7623": "\u0120concrete",
  "7624": "\u0120unacceptable",
  "7625": "\u0120cereal",
  "7626": "Best",
  "7627": "Especially",
  "7628": "YES",
  "7629": "dont",
  "7630": "gain",
  "7631": "hi",
  "7632": "nal",
  "7633": "\u0120civ",
  "7634": "omy",
  "7635": "\u0120ugly",
  "7636": "\u0120Home",
  "7637": "\u0120Damn",
  "7638": "\u0120ARE",
  "7639": "\u0120joking",
  "7640": "\u0120pod",
  "7641": "\u0120GOOD",
  "7642": "\u0120Pres",
  "7643": "\u0120Joh",
  "7644": "\u0120Russ",
  "7645": "\u0120secure",
  "7646": "\u0120distant",
  "7647": "\u0120smelly",
  "7648": "\u0120Unless",
  "7649": "\u0120attending",
  "7650": "\u0120friendships",
  "7651": "\u0120addicted",
  "7652": "\u0120screwed",
  "7653": "\u0120betrayed",
  "7654": "\u0120dispute",
  "7655": "\u0120false",
  "7656": "AS",
  "7657": "IG",
  "7658": "Let",
  "7659": "Look",
  "7660": "NER",
  "7661": "Take",
  "7662": "VOUS",
  "7663": "VID",
  "7664": "Woah",
  "7665": "bra",
  "7666": "hard",
  "7667": "kill",
  "7668": "mate",
  "7669": "nite",
  "7670": "ocolate",
  "7671": "pa",
  "7672": "probably",
  "7673": "ras",
  "7674": "too",
  "7675": "\u0120ON",
  "7676": "\u0120tuck",
  "7677": "\u0120tap",
  "7678": "\u0120tuition",
  "7679": "\u0120wif",
  "7680": "eesh",
  "7681": "\u0120honey",
  "7682": "atley",
  "7683": "\u0120bats",
  "7684": "\u0120bumped",
  "7685": "\u0120dies",
  "7686": "\u0120dorm",
  "7687": "\u0120dug",
  "7688": "\u0120gall",
  "7689": "\u0120gear",
  "7690": "\u0120guts",
  "7691": "\u0120cin",
  "7692": "\u0120cough",
  "7693": "\u0120led",
  "7694": "\u0120lick",
  "7695": "\u0120naked",
  "7696": "\u0120pad",
  "7697": "oma",
  "7698": "owboys",
  "7699": "\u0120wasp",
  "7700": "\u0120sober",
  "7701": "\u0120docile",
  "7702": "\u0120heir",
  "7703": "\u0120Ther",
  "7704": "icians",
  "7705": "\u0120stream",
  "7706": "chn",
  "7707": "\u0120melt",
  "7708": "pple",
  "7709": "\u0120cans",
  "7710": "eapple",
  "7711": "ends",
  "7712": "\u0120Hill",
  "7713": "\u0120Hear",
  "7714": "\u0120Miss",
  "7715": "\u0120locks",
  "7716": "Ohhh",
  "7717": "\u0120Yankees",
  "7718": "\u0120herbs",
  "7719": "urpri",
  "7720": "\u0120plain",
  "7721": "ainted",
  "7722": "\u0120Navy",
  "7723": "\u0120spots",
  "7724": "olar",
  "7725": "\u0120kidd",
  "7726": "\u0120overnight",
  "7727": "\u0120Cowboys",
  "7728": "\u0120van",
  "7729": "\u0120lasted",
  "7730": "agna",
  "7731": "\u0120unif",
  "7732": "\u0120Le",
  "7733": "\u0120Long",
  "7734": "\u0120Law",
  "7735": "\u0120underdog",
  "7736": "\u0120Doctor",
  "7737": "\u0120relive",
  "7738": "izes",
  "7739": "\u0120actors",
  "7740": "\u0120carefully",
  "7741": "\u0120Football",
  "7742": "\u0120cooler",
  "7743": "\u0120coolest",
  "7744": "\u0120payday",
  "7745": "\u0120PS",
  "7746": "aughty",
  "7747": "oston",
  "7748": "\u0120driven",
  "7749": "osen",
  "7750": "\u0120bites",
  "7751": "\u0120January",
  "7752": "\u0120stubbed",
  "7753": "\u0120pharmacy",
  "7754": "\u0120ident",
  "7755": "\u0120cleared",
  "7756": "\u0120flown",
  "7757": "\u0120flipped",
  "7758": "\u012034",
  "7759": "\u0120horn",
  "7760": "\u0120conference",
  "7761": "while",
  "7762": "\u0120girlfriends",
  "7763": "\u0120vision",
  "7764": "\u0120UFC",
  "7765": "\u0120differently",
  "7766": "\u0120retired",
  "7767": "\u0120puked",
  "7768": "\u0120managers",
  "7769": "\u0120commend",
  "7770": "\u0120Vir",
  "7771": "\u0120ridden",
  "7772": "\u0120boyfriends",
  "7773": "\u0120rainy",
  "7774": "\u0120possibility",
  "7775": "\u0120throws",
  "7776": "orsche",
  "7777": "bron",
  "7778": "\u0120buddies",
  "7779": "\u0120halfway",
  "7780": "\u0120drain",
  "7781": "\u0120midnight",
  "7782": "\u012095",
  "7783": "\u0120Asia",
  "7784": "\u0120dropping",
  "7785": "\u0120salt",
  "7786": "\u0120redo",
  "7787": "\u0120buildings",
  "7788": "iversal",
  "7789": "\u0120struggles",
  "7790": "\u0120burst",
  "7791": "\u0120candles",
  "7792": "\u0120answering",
  "7793": "\u0120answered",
  "7794": "\u0120concerts",
  "7795": "\u0120rented",
  "7796": "\u0120patients",
  "7797": "\u0120freakin",
  "7798": "\u0120behaved",
  "7799": "\u0120artic",
  "7800": "\u0120films",
  "7801": "\u0120explained",
  "7802": "\u0120Spain",
  "7803": "\u0120dressing",
  "7804": "\u0120debts",
  "7805": "\u0120ballet",
  "7806": "\u0120winnings",
  "7807": "\u0120Wouldn",
  "7808": "\u0120texted",
  "7809": "\u0120priceless",
  "7810": "\u0120anticipate",
  "7811": "\u0120sprayed",
  "7812": "\u0120hurricanes",
  "7813": "\u0120crowds",
  "7814": "\u0120introverted",
  "7815": "\u0120softball",
  "7816": "\u0120elev",
  "7817": "\u0120biology",
  "7818": "\u0120dumpster",
  "7819": "\u0120unlocked",
  "7820": "\u0120toddlers",
  "7821": "\u0120sympath",
  "7822": "\u0120electricity",
  "7823": "\u0120Starbucks",
  "7824": "\u0120silver",
  "7825": "\u0120separated",
  "7826": "\u0120batteries",
  "7827": "\u0120juice",
  "7828": "\u0120compassionate",
  "7829": "\u0120capable",
  "7830": "\u0120ultimately",
  "7831": "\u0120occurred",
  "7832": "\u0120intentional",
  "7833": "\u0120participate",
  "7834": "\u0120procrast",
  "7835": "\u0120resolve",
  "7836": "\u0120convinced",
  "7837": "\u0120temporary",
  "7838": "\u0120comedy",
  "7839": "\u0120whilst",
  "7840": "\u0120insecure",
  "7841": "orgia",
  "7842": "\u0120shrimp",
  "7843": "\u0120diabet",
  "7844": "donalds",
  "7845": "\u0120construction",
  "7846": "\u0120kissing",
  "7847": "\u0120vitam",
  "7848": "\u0120pancreat",
  "7849": "\u0120Pepper",
  "7850": "\u0120cautious",
  "7851": "\u0120heavily",
  "7852": "\u0120exterminator",
  "7853": "\u0120acknow",
  "7854": "\u0120umbre",
  "7855": "\u0120proposal",
  "7856": "NERVOUS",
  "7857": "\u0120heirlo",
  "7858": "NERVOUSNESS",
  "7859": "Damn",
  "7860": "Her",
  "7861": "Ive",
  "7862": "Things",
  "7863": "cil",
  "7864": "lights",
  "7865": "put",
  "7866": "ram",
  "7867": "sometimes",
  "7868": "zil",
  "7869": "\u0120tension",
  "7870": "\u0120iphone",
  "7871": "\u0120mask",
  "7872": "\u0120ddddddddddddddddd",
  "7873": "\u0120york",
  "7874": "\u0120pile",
  "7875": "\u0120wheels",
  "7876": "\u0120HELL",
  "7877": "\u0120ME",
  "7878": "\u0120Ahh",
  "7879": "\u0120North",
  "7880": "\u0120guide",
  "7881": "\u0120saves",
  "7882": "\u0120connection",
  "7883": "\u0120vul",
  "7884": "!!!!!",
  "7885": "rated",
  "7886": "\u0120studies",
  "7887": "\u0120Children",
  "7888": "\u0120charging",
  "7889": "\u0120basis",
  "7890": "\u0120meth",
  "7891": "working",
  "7892": "\u0120affordable",
  "7893": "\u0120hidden",
  "7894": "\u0120rejection",
  "7895": "\u0120channels",
  "7896": "\u0120typical",
  "7897": "\u0120title",
  "7898": "\u0120concentrate",
  "7899": "pleasant",
  "7900": "40",
  "7901": "Agreed",
  "7902": "Kind",
  "7903": "Something",
  "7904": "Two",
  "7905": "awww",
  "7906": "bed",
  "7907": "com",
  "7908": "dom",
  "7909": "field",
  "7910": "hes",
  "7911": "kind",
  "7912": "long",
  "7913": "paper",
  "7914": "rang",
  "7915": "tell",
  "7916": "vo",
  "7917": "onic",
  "7918": "inst",
  "7919": "inary",
  "7920": "\u0120san",
  "7921": "ota",
  "7922": "ott",
  "7923": "\u0120mand",
  "7924": "\u0120max",
  "7925": "\u0120bunny",
  "7926": "\u0120brilliant",
  "7927": "react",
  "7928": "\u0120fri",
  "7929": "\u0120fash",
  "7930": "\u0120fuss",
  "7931": "orian",
  "7932": "\u0120naughty",
  "7933": "\u0120hah",
  "7934": "ancial",
  "7935": "ows",
  "7936": "ette",
  "7937": "still",
  "7938": "\u0120beers",
  "7939": "\u0120reno",
  "7940": "\u0120dove",
  "7941": "imm",
  "7942": "section",
  "7943": "lymp",
  "7944": "\u0120Watch",
  "7945": "\u0120Wednes",
  "7946": "alu",
  "7947": "amond",
  "7948": "\u0120neice",
  "7949": "eared",
  "7950": "\u0120rats",
  "7951": "\u0120Met",
  "7952": "\u0120shr",
  "7953": "\u0120shit",
  "7954": "uns",
  "7955": "unately",
  "7956": "\u0120AN",
  "7957": "\u0120Af",
  "7958": "asting",
  "7959": "urger",
  "7960": "\u0120cha",
  "7961": "\u0120chess",
  "7962": "gebra",
  "7963": "\u0120muse",
  "7964": "\u0120Bus",
  "7965": "\u0120Break",
  "7966": "\u0120guarant",
  "7967": "\u0120convenience",
  "7968": "\u0120mans",
  "7969": "\u0120carp",
  "7970": "oyal",
  "7971": "\u0120overthink",
  "7972": "\u0120overreact",
  "7973": "\u0120lebron",
  "7974": "lps",
  "7975": "\u0120Comp",
  "7976": "\u0120Thr",
  "7977": "beat",
  "7978": "\u0120clin",
  "7979": "\u0120dip",
  "7980": "\u0120diamond",
  "7981": "udes",
  "7982": "ists",
  "7983": "\u0120roaches",
  "7984": "\u0120seats",
  "7985": "\u0120FB",
  "7986": "\u0120Funny",
  "7987": "\u0120monster",
  "7988": "\u0120appropriate",
  "7989": "\u0120buzz",
  "7990": "\u0120blink",
  "7991": "\u0120nerd",
  "7992": "\u0120surreal",
  "7993": "\u0120trap",
  "7994": "\u0120traps",
  "7995": "\u0120belief",
  "7996": "\u0120Jack",
  "7997": "\u0120parenting",
  "7998": "\u0120cracked",
  "7999": "lley",
  "8000": "\u0120decade",
  "8001": "ichigan",
  "8002": "sites",
  "8003": "reshing",
  "8004": "\u0120elsewhere",
  "8005": "\u0120cram",
  "8006": "\u0120husbands",
  "8007": "\u0120heals",
  "8008": "ongratulate",
  "8009": "\u0120paj",
  "8010": "\u0120checkout",
  "8011": "\u0120installed",
  "8012": "\u0120cooks",
  "8013": "\u0120fasting",
  "8014": "\u0120delight",
  "8015": "itches",
  "8016": "\u0120sets",
  "8017": "\u0120rig",
  "8018": "\u0120ris",
  "8019": "nox",
  "8020": "\u0120refreshing",
  "8021": "\u0120Donald",
  "8022": "\u0120Inst",
  "8023": "\u0120locally",
  "8024": "?!?",
  "8025": "\u0120presenting",
  "8026": "\u0120entirely",
  "8027": "\u0120calories",
  "8028": "\u0120deadline",
  "8029": "\u012075",
  "8030": "rica",
  "8031": "\u0120touching",
  "8032": "\u0120compete",
  "8033": "\u0120candies",
  "8034": "fficient",
  "8035": "\u0120quitting",
  "8036": "\u0120celebration",
  "8037": "\u0120mailbox",
  "8038": "\u0120Death",
  "8039": "ginia",
  "8040": "\u0120particularly",
  "8041": "\u0120evalu",
  "8042": "\u0120filed",
  "8043": "\u0120grounded",
  "8044": "emony",
  "8045": "\u0120tort",
  "8046": "\u0120tempt",
  "8047": "\u0120experiencing",
  "8048": "\u0120informed",
  "8049": "\u0120texts",
  "8050": "\u0120require",
  "8051": "\u0120rushed",
  "8052": "\u0120organization",
  "8053": "\u0120anticipated",
  "8054": "\u0120defense",
  "8055": "\u0120provider",
  "8056": "\u0120lifetime",
  "8057": "\u0120nails",
  "8058": "\u0120grandfathers",
  "8059": "\u0120machines",
  "8060": "\u0120washed",
  "8061": "\u0120recommendations",
  "8062": "\u0120booze",
  "8063": "\u0120Except",
  "8064": "\u0120sweaty",
  "8065": "ombie",
  "8066": "\u0120punished",
  "8067": "\u0120Carolina",
  "8068": "\u0120mowing",
  "8069": "\u0120colleague",
  "8070": "\u0120repeated",
  "8071": "\u0120allergies",
  "8072": "\u0120jackpot",
  "8073": "\u0120flashlight",
  "8074": "\u0120unlock",
  "8075": "\u0120shifts",
  "8076": "offs",
  "8077": "\u0120juicy",
  "8078": "\u0120temperature",
  "8079": "\u0120COVID",
  "8080": "\u0120various",
  "8081": "ffffffff",
  "8082": "\u0120reminiscing",
  "8083": "\u0120skiing",
  "8084": "\u0120instrument",
  "8085": "\u0120instruments",
  "8086": "conscious",
  "8087": "\u0120championship",
  "8088": "\u0120snuggle",
  "8089": "\u0120mosquito",
  "8090": "\u0120Georgia",
  "8091": "\u0120register",
  "8092": "\u0120cuddle",
  "8093": "\u0120pineapple",
  "8094": "\u0120investigate",
  "8095": "\u0120intelligent",
  "8096": "\u0120dissap",
  "8097": "\u0120disturbing",
  "8098": "\u0120operation",
  "8099": "\u0120Austral",
  "8100": "\u0120permanent",
  "8101": "ruder",
  "8102": "\u0120settled",
  "8103": "\u0120breast",
  "8104": "\u0120illegal",
  "8105": "\u0120ankle",
  "8106": "\u0120enemy",
  "8107": "\u0120Panama",
  "8108": "\u0120disrespectful",
  "8109": "\u0120grumpy",
  "8110": "\u0120supermarket",
  "8111": "\u0120umbrella",
  "8112": "\u0120fashion",
  "8113": "EP",
  "8114": "New",
  "8115": "crib",
  "8116": "from",
  "8117": "ona",
  "8118": "\u0120hook",
  "8119": "\u0120mates",
  "8120": "\u0120dated",
  "8121": "\u0120nagging",
  "8122": "\u0120pills",
  "8123": "etter",
  "8124": "\u0120atm",
  "8125": "\u0120Med",
  "8126": "\u0120Music",
  "8127": "\u0120sheet",
  "8128": "ctive",
  "8129": "\u0120Bad",
  "8130": "\u0120Civ",
  "8131": "\u0120Three",
  "8132": "\u0120coat",
  "8133": "\u0120ideal",
  "8134": "apping",
  "8135": "awesome",
  "8136": "\u0120puzz",
  "8137": "\u0120grace",
  "8138": "\u0120parrot",
  "8139": "\u0120empath",
  "8140": "\u0120Without",
  "8141": "\u0120YOUR",
  "8142": "\u0120Thinking",
  "8143": "\u0120chips",
  "8144": "\u0120exhausting",
  "8145": "\u0120occupied",
  "8146": "\u0120YouTube",
  "8147": "\u0120vulner",
  "8148": "\u0120method",
  "8149": "\",",
  "8150": "\"?",
  "8151": ",.",
  "8152": "30",
  "8153": "60",
  "8154": "80",
  "8155": "AC",
  "8156": "En",
  "8157": "Ew",
  "8158": "Give",
  "8159": "Happy",
  "8160": "Our",
  "8161": "Ooh",
  "8162": "Sc",
  "8163": "Sw",
  "8164": "Too",
  "8165": "Yuck",
  "8166": "aith",
  "8167": "bits",
  "8168": "ek",
  "8169": "gent",
  "8170": "gues",
  "8171": "gusting",
  "8172": "iu",
  "8173": "ios",
  "8174": "ker",
  "8175": "lbs",
  "8176": "mind",
  "8177": "uc",
  "8178": "vant",
  "8179": "zzy",
  "8180": "\u0120#",
  "8181": "\u0120!!!",
  "8182": "\u0120tan",
  "8183": "\u0120ain",
  "8184": "erent",
  "8185": "inating",
  "8186": "\u0120wrist",
  "8187": "\u0120wheat",
  "8188": "\u0120thirty",
  "8189": "\u0120si",
  "8190": "\u0120sane",
  "8191": "\u0120IR",
  "8192": "\u0120hust",
  "8193": "atly",
  "8194": "\u0120igu",
  "8195": "ERE",
  "8196": "\u0120doo",
  "8197": "\u0120dust",
  "8198": "\u0120dwell",
  "8199": "\u0120yikes",
  "8200": "\u0120lung",
  "8201": "asp",
  "8202": "\u0120nach",
  "8203": "esus",
  "8204": "\u0120py",
  "8205": "\u0120pra",
  "8206": "itting",
  "8207": "owed",
  "8208": "\u0120begging",
  "8209": "ooper",
  "8210": "adden",
  "8211": "\u0120Tw",
  "8212": "\u0120Times",
  "8213": "\u0120stocked",
  "8214": "\u0120stars",
  "8215": "\u0120staff",
  "8216": "\u0120WOR",
  "8217": "ches",
  "8218": "\u0120jew",
  "8219": "\u0120goin",
  "8220": "\u0120suic",
  "8221": "\u0120Here",
  "8222": "irable",
  "8223": "\u0120raw",
  "8224": "\u0120Mid",
  "8225": "\u0120Main",
  "8226": "\u0120Mont",
  "8227": "\u0120MMA",
  "8228": "\u0120loser",
  "8229": "\u0120upstairs",
  "8230": "\u0120Somet",
  "8231": "\u0120shave",
  "8232": "\u0120Apri",
  "8233": "\u0120Aunt",
  "8234": "urk",
  "8235": "\u0120anyhow",
  "8236": "\u0120bail",
  "8237": "\u0120aww",
  "8238": "\u0120org",
  "8239": "\u0120chunk",
  "8240": "\u0120chees",
  "8241": "\u0120prec",
  "8242": "this",
  "8243": "iles",
  "8244": "\u0120mud",
  "8245": "\u0120mob",
  "8246": "\u0120spill",
  "8247": "\u0120spaces",
  "8248": "\u0120Ben",
  "8249": "\u0120Brit",
  "8250": "\u0120nicely",
  "8251": "\u0120gum",
  "8252": "\u0120concept",
  "8253": "\u0120shoulders",
  "8254": "\u0120trade",
  "8255": "\u0120funn",
  "8256": "igning",
  "8257": "\u0120fab",
  "8258": "\u0120Cong",
  "8259": "\u0120Cause",
  "8260": "\u0120Cup",
  "8261": "\u0120clock",
  "8262": "\u0120clients",
  "8263": "\u0120voted",
  "8264": "\u0120prett",
  "8265": "\u0120dogg",
  "8266": "\u0120doggy",
  "8267": "\u0120startled",
  "8268": "\u0120quilt",
  "8269": "nderstand",
  "8270": "\u0120Lakers",
  "8271": "\u0120rod",
  "8272": "\u0120Ooh",
  "8273": "\u0120French",
  "8274": "ipolar",
  "8275": "\u0120apples",
  "8276": "\u0120remorse",
  "8277": "\u0120checks",
  "8278": "\u0120Put",
  "8279": "\u0120Parents",
  "8280": "\u0120Psychology",
  "8281": "\u0120slack",
  "8282": "\u0120slapped",
  "8283": "\u0120interst",
  "8284": "\u0120interrupt",
  "8285": "\u0120trapped",
  "8286": "\u0120Jeep",
  "8287": "\u0120James",
  "8288": "\u0120resort",
  "8289": "\u0120twin",
  "8290": "Heck",
  "8291": "ormally",
  "8292": "emories",
  "8293": "\u0120Rain",
  "8294": "\u0120Rel",
  "8295": "\u0120horr",
  "8296": "\u0120horses",
  "8297": "\u0120confide",
  "8298": "aped",
  "8299": "\u0120superbowl",
  "8300": "\u0120crank",
  "8301": "\u0120Imagine",
  "8302": "\u0120mario",
  "8303": "\u0120sickness",
  "8304": "\u0120pastor",
  "8305": "\u0120extended",
  "8306": "\u0120honk",
  "8307": "renal",
  "8308": "\u0120ache",
  "8309": "ansas",
  "8310": "\u0120mini",
  "8311": "\u0120racist",
  "8312": "\u0120reply",
  "8313": "\u0120honesty",
  "8314": "\u0120fruster",
  "8315": "veland",
  "8316": "\u0120certified",
  "8317": "uggets",
  "8318": "\u0120shops",
  "8319": "odes",
  "8320": "\u0120genetic",
  "8321": "\u0120humor",
  "8322": "\u0120beauty",
  "8323": "\u0120infront",
  "8324": "\u0120sorta",
  "8325": "\u0120ruins",
  "8326": "\u0120rubbing",
  "8327": "\u0120practically",
  "8328": "\u0120fathers",
  "8329": "\u0120salv",
  "8330": "\u0120tourist",
  "8331": "\u0120explode",
  "8332": "\u0120acceptance",
  "8333": "\u0120semi",
  "8334": "\u0120touched",
  "8335": "\u0120poorly",
  "8336": "\u0120yellow",
  "8337": "\u0120University",
  "8338": "\u0120chickens",
  "8339": "ublic",
  "8340": "\u0120marks",
  "8341": "\u0120sticks",
  "8342": "\u0120legit",
  "8343": "\u0120crim",
  "8344": "\u0120tempted",
  "8345": "\u0120researching",
  "8346": "\u0120recovering",
  "8347": "\u0120leading",
  "8348": "\u0120daunting",
  "8349": "\u0120loyalty",
  "8350": "\u0120fortune",
  "8351": "\u0120created",
  "8352": "\u0120correctly",
  "8353": "\u0120immediate",
  "8354": "aska",
  "8355": "\u0120flooding",
  "8356": "\u0120Sundays",
  "8357": "\u0120Kindergarten",
  "8358": "\u0120hammer",
  "8359": "\u0120campus",
  "8360": "\u0120emails",
  "8361": "\u0120tricky",
  "8362": "\u0120unsafe",
  "8363": "someone",
  "8364": "\u0120reunited",
  "8365": "\u0120blowing",
  "8366": "\u0120treas",
  "8367": "\u0120skinny",
  "8368": "\u0120brownies",
  "8369": "\u0120Sweet",
  "8370": "\u0120humiliating",
  "8371": "rrrr",
  "8372": "\u0120poisonous",
  "8373": "\u0120mirror",
  "8374": "\u0120Army",
  "8375": "\u0120vegetarian",
  "8376": "\u0120included",
  "8377": "\u0120Grandma",
  "8378": "\u0120fraud",
  "8379": "\u0120transferred",
  "8380": "\u0120introduce",
  "8381": "\u0120ordeal",
  "8382": "\u0120grilled",
  "8383": "\u0120Cleveland",
  "8384": "\u0120initial",
  "8385": "\u0120Ze",
  "8386": "\u0120ultimate",
  "8387": "\u0120episodes",
  "8388": "\u0120hints",
  "8389": "\u0120lasagna",
  "8390": "\u0120mosquitos",
  "8391": "\u0120websites",
  "8392": "\u0120individual",
  "8393": "\u0120describe",
  "8394": "repared",
  "8395": "\u0120attempt",
  "8396": "\u0120evacuate",
  "8397": "\u0120Bros",
  "8398": "\u0120bucket",
  "8399": "hello",
  "8400": "\u0120thunderstorms",
  "8401": "\u0120warranty",
  "8402": "\u0120reservations",
  "8403": "\u0120downtown",
  "8404": "\u0120commercials",
  "8405": "\u0120policies",
  "8406": "lifting",
  "8407": "\u0120ceremony",
  "8408": "\u0120Driving",
  "8409": "\u0120bachelor",
  "8410": "\u0120kiddos",
  "8411": "\u0120Virginia",
  "8412": "\u0120heirloom",
  "8413": "\u0120ANY",
  "8414": "\u0120clinic",
  "8415": "\u0120vulnerable",
  "8416": "800",
  "8417": ":)",
  "8418": "keep",
  "8419": "sure",
  "8420": "\u01200",
  "8421": "\u0120dim",
  "8422": "\u0120gent",
  "8423": "\u0120oops",
  "8424": "eng",
  "8425": "oooh",
  "8426": "\u0120former",
  "8427": "\u0120HI",
  "8428": "\u0120Money",
  "8429": "\u0120March",
  "8430": "ulty",
  "8431": "udos",
  "8432": "\u0120unpleasant",
  "8433": "\u0120Food",
  "8434": "\u0120Found",
  "8435": "\u0120resume",
  "8436": "gggg",
  "8437": "\u0120describ",
  "8438": "\u0120Know",
  "8439": "\u0120difficulty",
  "8440": "\u0120Stress",
  "8441": "\u0120Interesting",
  "8442": "\u0120draft",
  "8443": "estern",
  "8444": "\u0120Trust",
  "8445": "\u0120advanced",
  "8446": "\u0120focusing",
  "8447": "\u0120investing",
  "8448": "\u0120owes",
  "8449": "eeeeeeee",
  "8450": "\u0120Brazil",
  "8451": "\u0120mutual",
  "8452": "Excellent",
  "8453": "\u0120freezing",
  "8454": "\u0120Christian",
  "8455": "\u0120Needless",
  "8456": "\u0120John",
  "8457": "15",
  "8458": "1000",
  "8459": "400",
  "8460": "64",
  "8461": "AM",
  "8462": "After",
  "8463": "EO",
  "8464": "Even",
  "8465": "Life",
  "8466": "School",
  "8467": "aire",
  "8468": "bble",
  "8469": "craft",
  "8470": "fo",
  "8471": "ht",
  "8472": "ius",
  "8473": "iac",
  "8474": "jack",
  "8475": "mower",
  "8476": "ointed",
  "8477": "saw",
  "8478": "tles",
  "8479": "uce",
  "8480": "\u0120tad",
  "8481": "\u0120ties",
  "8482": "\u0120tack",
  "8483": "\u0120tied",
  "8484": "ini",
  "8485": "\u0120wat",
  "8486": "\u0120wing",
  "8487": "\u0120thursday",
  "8488": "\u0120soo",
  "8489": "ouch",
  "8490": "\u0120II",
  "8491": "\u0120mat",
  "8492": "\u0120bicycle",
  "8493": "reg",
  "8494": "\u0120tore",
  "8495": "\u0120toast",
  "8496": "\u0120dil",
  "8497": "\u0120gag",
  "8498": "nding",
  "8499": "\u0120cave",
  "8500": "orant",
  "8501": "especially",
  "8502": "edict",
  "8503": "\u0120oy",
  "8504": "etto",
  "8505": "stop",
  "8506": "\u0120inher",
  "8507": "\u0120bell",
  "8508": "\u0120rewards",
  "8509": "\u0120reception",
  "8510": "\u0120sof",
  "8511": "\u0120soph",
  "8512": "utter",
  "8513": "allas",
  "8514": "imp",
  "8515": "\u0120heated",
  "8516": "\u0120TO",
  "8517": "\u0120Ty",
  "8518": "icament",
  "8519": "\u0120liber",
  "8520": "\u0120lizard",
  "8521": "\u0120stalk",
  "8522": "\u0120jeez",
  "8523": "\u0120goss",
  "8524": "ented",
  "8525": "\u0120Italian",
  "8526": "elled",
  "8527": "cepting",
  "8528": "\u0120outs",
  "8529": "\u0120Mo",
  "8530": "\u0120Mother",
  "8531": "\u0120Mountain",
  "8532": "\u0120Sy",
  "8533": "\u0120Show",
  "8534": "\u0120Sub",
  "8535": "\u0120SAT",
  "8536": "\u0120Science",
  "8537": "\u0120shakes",
  "8538": "\u0120allergy",
  "8539": "\u0120During",
  "8540": "\u0120Ac",
  "8541": "\u0120Av",
  "8542": "\u0120ASA",
  "8543": "ulk",
  "8544": "urrency",
  "8545": "\u0120fruits",
  "8546": "\u0120gotcha",
  "8547": "\u0120plastic",
  "8548": "\u0120ornam",
  "8549": "\u0120chir",
  "8550": "\u0120chosen",
  "8551": "\u0120deck",
  "8552": "\u0120dece",
  "8553": "\u0120devest",
  "8554": "\u0120backup",
  "8555": "\u0120Normally",
  "8556": "\u0120Beach",
  "8557": "\u0120scan",
  "8558": "\u0120feature",
  "8559": "\u0120safer",
  "8560": "\u0120trunk",
  "8561": "\u0120trophy",
  "8562": "ished",
  "8563": "\u0120overtime",
  "8564": "\u0120overfl",
  "8565": "igs",
  "8566": "\u0120Heck",
  "8567": "\u0120Con",
  "8568": "\u0120vote",
  "8569": "\u0120coord",
  "8570": "\u0120greet",
  "8571": "\u0120wage",
  "8572": "\u0120intruder",
  "8573": "\u0120Leg",
  "8574": "\u0120GRE",
  "8575": "\u0120nightlight",
  "8576": "acles",
  "8577": "\u0120section",
  "8578": "\u0120selected",
  "8579": "\u0120Ob",
  "8580": "\u0120Oft",
  "8581": "\u0120misunder",
  "8582": "\u0120Each",
  "8583": "\u0120swam",
  "8584": "\u0120momma",
  "8585": "\u0120impat",
  "8586": "\u012028",
  "8587": "\u0120Par",
  "8588": "\u0120Pizza",
  "8589": "\u0120Porsche",
  "8590": "\u0120adrenal",
  "8591": "These",
  "8592": "\u0120surp",
  "8593": "\u0120boom",
  "8594": "\u0120bold",
  "8595": "\u0120tracking",
  "8596": "\u0120Job",
  "8597": "\u0120supper",
  "8598": "\u0120drums",
  "8599": "\u0120decline",
  "8600": "\u0120decides",
  "8601": "\u0120Rome",
  "8602": "\u0120Ram",
  "8603": "\u0120dealer",
  "8604": "\u0120promises",
  "8605": "redo",
  "8606": "\u0120Somehow",
  "8607": "\u0120summers",
  "8608": "ifying",
  "8609": "appens",
  "8610": "\u0120painted",
  "8611": "\u0120expense",
[...]
