{
  "0": "[PAD]",
  "1": "[BOS]",
  "2": "[EOS]",
  "3": "[UNK]",
  "4": "[CLS]",
  "5": "[SEP]",
  "6": "[SEEKER]:",
  "7": "[SUPPORTER]:",
  "8": "[seeker_emotion_anxiety]",
  "9": "[seeker_emotion_sadness]",
  "10": "[seeker_emotion_anger]",
  "11": "[seeker_emotion_fear]",
  "12": "[seeker_emotion_disgust]",
  "13": "[seeker_emotion_joy]",
  "14": "[seeker_emotion_surprise]",
  "15": "[seeker_emotion_neutral]",
  "16": "[emotion_afraid]",
  "17": "[emotion_angry]",
  "18": "[emotion_annoyed]",
  "19": "[emotion_anticipating]",
  "20": "[emotion_anxious]",
  "21": "[emotion_apprehensive]",
  "22": "[emotion_ashamed]",
  "23": "[emotion_caring]",
  "24": "[emotion_confident]",
  "25": "[emotion_content]",
  "26": "[emotion_devastated]",
  "27": "[emotion_disappointed]",
  "28": "[emotion_disgusted]",
  "29": "[emotion_embarrassed]",
  "30": "[emotion_excited]",
  "31": "[emotion_faithful]",
  "32": "[emotion_furious]",
  "33": "[emotion_grateful]",
  "34": "[emotion_guilty]",
  "35": "[emotion_hopeful]",
  "36": "[emotion_impressed]",
  "37": "[emotion_jealous]",
  "38": "[emotion_joyful]",
  "39": "[emotion_lonely]",
  "40": "[emotion_nostalgic]",
  "41": "[emotion_prepared]",
  "42": "[emotion_proud]",
  "43": "[emotion_sad]",
  "44": "[emotion_sentimental]",
  "45": "[emotion_surprised]",
  "46": "[emotion_terrified]",
  "47": "[emotion_trusting]",
  "48": "[strategy_question]",
  "49": "[strategy_restatement]",
  "50": "[strategy_reflection]",
  "51": "[strategy_affirmation]",
  "52": "[strategy_suggestion]",
  "53": "[strategy_information]",
  "54": "[strategy_selfdisclosure]",
  "55": "[strategy_other]",
  "56": "[intensity_1]",
  "57": "[intensity_2]",
  "58": "[intensity_3]",
  "59": "[intensity_4]",
  "60": "[intensity_5]",
  "61": "!",
  "62": "\"",
  "63": "#",
  "64": "$",
  "65": "%",
  "66": "&",
  "67": "'",
  "68": "(",
  "69": ")",
  "70": "*",
  "71": "+",
  "72": ",",
  "73": "-",
  "74": ".",
  "75": "/",
  "76": "0",
  "77": "1",
  "78": "2",
  "79": "3",
  "80": "4",
  "81": "5",
  "82": "6",
  "83": "7",
  "84": "8",
  "85": "9",
  "86": ":",
  "87": ";",
  "88": "<",
  "89": "=",
  "90": ">",
  "91": "?",
  "92": "@",
  "93": "A",
  "94": "B",
  "95": "C",
  "96": "D",
  "97": "E",
  "98": "F",
  "99": "G",
  "100": "H",
  "101": "I",
  "102": "J",
  "103": "K",
  "104": "L",
  "105": "M",
  "106": "N",
  "107": "O",
  "108": "P",
  "109": "Q",
  "110": "R",
  "111": "S",
  "112": "T",
  "113": "U",
  "114": "V",
  "115": "W",
  "116": "X",
  "117": "Y",
  "118": "Z",
  "119": "[",
  "120": "\\",
  "121": "]",
  "122": "^",
  "123": "_",
  "124": "a",
  "125": "b",
  "126": "c",
  "127": "d",
  "128": "e",
  "129": "f",
  "130": "g",
  "131": "h",
  "132": "i",
  "133": "j",
  "134": "k",
  "135": "l",
  "136": "m",
  "137": "n",
  "138": "o",
  "139": "p",
  "140": "q",
  "141": "r",
  "142": "s",
  "143": "t",
  "144": "u",
  "145": "v",
  "146": "w",
  "147": "x",
  "148": "y",
  "149": "z",
  "150": "{",
  "151": "|",
  "152": "}",
  "153": "~",
  "154": "\u00a3",
  "155": "\u00c2",
  "156": "\u00e2",
  "157": "\u010a",
  "158": "\u0120",
  "159": "\u0122",
  "160": "\u013b",
  "161": "\u0142",
  "162": "\u0120t",
  "163": "\u0120a",
  "164": "er",
  "165": "en",
  "166": "\u0120w",
  "167": "in",
  "168": "on",
  "169": "st",
  "170": "\u0120I",
  "171": "\u0120:",
  "172": "\u0120m",
  "173": "\u0120th",
  "174": "\u0120s",
  "175": "ot",
  "176": "\u0120h",
  "177": "om",
  "178": "ou",
  "179": "ed",
  "180": "ent",
  "181": "\u0120f",
  "182": "\u0120b",
  "183": "ust",
  "184": "em",
  "185": "ing",
  "186": "\u0120to",
  "187": "it",
  "188": "ion",
  "189": "at",
  "190": "re",
  "191": "otion",
  "192": "emotion",
  "193": "\u0120d",
  "194": "omer",
  "195": "ustomer",
  "196": "gent",
  "197": "Customer",
  "198": "Agent",
  "199": "\u0120c",
  "200": "\u0120g",
  "201": "or",
  "202": "as",
  "203": "\u0120the",
  "204": "nd",
  "205": "\u0120my",
  "206": "ar",
  "207": "\u0120l",
  "208": "ll",
  "209": "is",
  "210": "\u0120p",
  "211": "an",
  "212": "\u0120n",
  "213": "\u0120was",
  "214": "\u0120and",
  "215": "\u0120o",
  "216": "\u0120ha",
  "217": "ve",
  "218": "ay",
  "219": "\u0120it",
  "220": "\u0120be",
  "221": "id",
  "222": "\u0120in",
  "223": "\u0120y",
  "224": "ri",
  "225": "et",
  "226": "\u0120of",
  "227": "ow",
  "228": "es",
  "229": "\u0120for",
  "230": "el",
  "231": "gh",
  "232": "\u0120re",
  "233": "im",
  "234": "ad",
  "235": "\u0120wh",
  "236": "\u0120on",
  "237": "\u0120so",
  "238": "\u0120me",
  "239": "oo",
  "240": "le",
  "241": "ver",
  "242": "out",
  "243": "\u0120that",
  "244": "al",
  "245": "ic",
  "246": "\u0120you",
  "247": "\u0120e",
  "248": "ld",
  "249": "all",
  "250": "ch",
  "251": "\u0120st",
  "252": "end",
  "253": "he",
  "254": "\u0120u",
  "255": "pp",
  "256": "\u0120is",
  "257": "ke",
  "258": "ut",
  "259": "'t",
  "260": "\u0120ne",
  "261": "\u0120we",
  "262": "\u0120am",
  "263": "ght",
  "264": "\u0120have",
  "265": "\u0120do",
  "266": "ith",
  "267": "\u0120j",
  "268": "ome",
  "269": "am",
  "270": "ir",
  "271": "ally",
  "272": "My",
  "273": "\u0120at",
  "274": "ous",
  "275": "\u0120i",
  "276": "her",
  "277": "fu",
  "278": "\u0120with",
  "279": "\u0120go",
  "280": "\u0120k",
  "281": "ly",
  "282": "'s",
  "283": "\u0120an",
  "284": "\u0120li",
  "285": "ur",
  "286": "ac",
  "287": "\u0120he",
  "288": "\u0120r",
  "289": "\u0120wor",
  "290": "riend",
  "291": "\u0120when",
  "292": "\u0120had",
  "293": "one",
  "294": "\u0120get",
  "295": "ast",
  "296": "op",
  "297": "\u0120My",
  "298": "\u0120out",
  "299": "ter",
  "300": "\u0120ab",
  "301": "ant",
  "302": "ful",
  "303": "\u0120fe",
  "304": "\u0120T",
  "305": "very",
  "306": "ere",
  "307": "sed",
  "308": "ould",
  "309": "hat",
  "310": "\u0120but",
  "311": "'m",
  "312": "\u0120did",
  "313": "ood",
  "314": "day",
  "315": "se",
  "316": "other",
  "317": "\u0120really",
  "318": "\u0120not",
  "319": "\u0120up",
  "320": "\u0120got",
  "321": "king",
  "322": "ill",
  "323": "\u0120just",
  "324": "\u0120It",
  "325": "\u0120W",
  "326": "\u0120ye",
  "327": "\u0120su",
  "328": "\u0120friend",
  "329": "ra",
  "330": "th",
  "331": "\u0120tim",
  "332": "\u0120about",
  "333": "rou",
  "334": "ry",
  "335": "\u0120al",
  "336": "\u0120can",
  "337": "\u0120day",
  "338": "ek",
  "339": "\u0120week",
  "340": "art",
  "341": "oy",
  "342": "ate",
  "343": "\u0120this",
  "344": "\u0120her",
  "345": "ard",
  "346": "\u0120work",
  "347": "\u0120all",
  "348": "ro",
  "349": "\u0120time",
  "350": "ce",
  "351": "\u0120se",
  "352": "\u0120some",
  "353": "\u0120feel",
  "354": "\u0120sh",
  "355": "\u0120S",
  "356": "\u0120going",
  "357": "au",
  "358": "\u0120fr",
  "359": "\u0120ex",
  "360": "il",
  "361": "\u0120lo",
  "362": "\u0120been",
  "363": "\u0120mo",
  "364": "\u0120they",
  "365": "\u0120kn",
  "366": "\u0120happ",
  "367": "\u0120year",
  "368": "\u0120are",
  "369": "\u0120like",
  "370": "ight",
  "371": "\u0120new",
  "372": "way",
  "373": "ack",
  "374": "un",
  "375": "\u0120she",
  "376": "\u0120good",
  "377": "ec",
  "378": "..",
  "379": "ake",
  "380": "\u0120as",
  "381": "res",
  "382": "\u0120H",
  "383": "ty",
  "384": "ge",
  "385": "\u0120very",
  "386": "\u0120too",
  "387": "\u0120from",
  "388": "ck",
  "389": "ea",
  "390": "ind",
  "391": "ie",
  "392": "\u0120pl",
  "393": "ool",
  "394": "\u0120him",
  "395": "\u0120ch",
  "396": "fe",
  "397": "\u0120last",
  "398": "ope",
  "399": "\u0120\u010a",
  "400": "\u0120know",
  "401": "\u0120A",
  "402": "pr",
  "403": "ting",
  "404": "\u0120sa",
  "405": "\u0120one",
  "406": "hen",
  "407": "us",
  "408": "ied",
  "409": "ited",
  "410": "\u0120car",
  "411": "ive",
  "412": "ob",
  "413": "ont",
  "414": "\u0120thin",
  "415": "ving",
  "416": "car",
  "417": "ely",
  "418": "pris",
  "419": "\u0120com",
  "420": "\u0120will",
  "421": "ame",
  "422": "ster",
  "423": "\u0120back",
  "424": "\u0120them",
  "425": "That",
  "426": "\u0120other",
  "427": "urpris",
  "428": "and",
  "429": "\u0120want",
  "430": "\u0120went",
  "431": "ice",
  "432": "ound",
  "433": "ore",
  "434": "\u0120The",
  "435": "ation",
  "436": "\u0120no",
  "437": "\u0120didn",
  "438": "\u0120would",
  "439": "ted",
  "440": "\u0120mad",
  "441": "\u0120te",
  "442": "app",
  "443": "our",
  "444": "ong",
  "445": "\u0120job",
  "446": "\u0120happy",
  "447": "\u0120pre",
  "448": "\u0120now",
  "449": "\u0120any",
  "450": "\u0120today",
  "451": "dis",
  "452": "\u0120sp",
  "453": "chool",
  "454": "\u0120dog",
  "455": "emb",
  "456": "ated",
  "457": "ost",
  "458": "cited",
  "459": "\u0120af",
  "460": "\u0120think",
  "461": "urprised",
  "462": "\u0120old",
  "463": "\u0120were",
  "464": "\u0120home",
  "465": "\u0120bad",
  "466": "\u0120off",
  "467": "elt",
  "468": "\u0120wa",
  "469": "\u0120what",
  "470": "ep",
  "471": "ating",
  "472": "ven",
  "473": "ip",
  "474": "\u0120every",
  "475": "\u0120felt",
  "476": "\u0120over",
  "477": "\u0120school",
  "478": "\u0120kid",
  "479": "ers",
  "480": "\u0120fir",
  "481": "\u0120his",
  "482": "\u0120pe",
  "483": "reat",
  "484": "\u0120v",
  "485": "\u0120could",
  "486": "\u0120see",
  "487": "ang",
  "488": "\u0120wait",
  "489": "\u0120there",
  "490": "\u0120don",
  "491": "ess",
  "492": "\u0120lot",
  "493": "ked",
  "494": "\u0120thou",
  "495": "\u0120ag",
  "496": "\u0120loo",
  "497": "\u0120or",
  "498": "ious",
  "499": "assed",
  "500": "\u0120bec",
  "501": "\u0120first",
  "502": "imp",
  "503": "\u0120le",
  "504": "ab",
  "505": "\u0120night",
  "506": "ident",
  "507": "irl",
  "508": "ain",
  "509": "ause",
  "510": "\u0120mu",
  "511": "\u0120co",
  "512": "ouse",
  "513": "'ve",
  "514": "surprised",
  "515": "ily",
  "516": "\u0120cl",
  "517": "\u0120girl",
  "518": "ways",
  "519": "ved",
  "520": "\u0120ac",
  "521": "omet",
  "522": "eal",
  "523": "igh",
  "524": "\u0120great",
  "525": "\u0120how",
  "526": "hing",
  "527": "ig",
  "528": "um",
  "529": "\u0120always",
  "530": "ople",
  "531": "\u0120much",
  "532": "roud",
  "533": "\u0120start",
  "534": "\u0120friends",
  "535": "Oh",
  "536": "os",
  "537": "\u0120years",
  "538": "row",
  "539": "\u0120thing",
  "540": "\u0120house",
  "541": "ash",
  "542": "ann",
  "543": "oin",
  "544": "\u0120because",
  "545": "\u0120by",
  "546": "\u0120fin",
  "547": "\u0120has",
  "548": "\u0120hard",
  "549": "ick",
  "550": "\u0120people",
  "551": "\u0120un",
  "552": "ex",
  "553": "ady",
  "554": "elf",
  "555": "to",
  "556": "\u0120B",
  "557": "ak",
  "558": "atch",
  "559": "\u0120fam",
  "560": "\u0120He",
  "561": "ies",
  "562": "oyed",
  "563": "\u0120your",
  "564": "raid",
  "565": "par",
  "566": "ide",
  "567": "\u0120man",
  "568": "\u0120sure",
  "569": "\u0120scar",
  "570": "ish",
  "571": "\u0120D",
  "572": "onf",
  "573": "thing",
  "574": "\u0120family",
  "575": "aught",
  "576": "qu",
  "577": "\u0120rec",
  "578": "\u0120made",
  "579": "rust",
  "580": "\u0120after",
  "581": "itt",
  "582": "fied",
  "583": "friend",
  "584": "\u0120br",
  "585": "\u0120never",
  "586": "ressed",
  "587": "ile",
  "588": "\u0120tri",
  "589": "\u0120somet",
  "590": "ort",
  "591": "\u0120stu",
  "592": "self",
  "593": "It",
  "594": "ite",
  "595": "\u0120into",
  "596": "own",
  "597": "\u0120gu",
  "598": "\u0120par",
  "599": "joy",
  "600": "\u0120M",
  "601": "\u0120who",
  "602": "ass",
  "603": "\u0120part",
  "604": "pared",
  "605": "ft",
  "606": "\u0120saw",
  "607": "\u0120fa",
  "608": "\u0120bet",
  "609": "\u0120en",
  "610": "\u0120found",
  "611": "\u0120well",
  "612": "\u0120weekend",
  "613": "ently",
  "614": "\u0120away",
  "615": "onfident",
  "616": "\u0120ri",
  "617": "\u0120mon",
  "618": "onely",
  "619": "\u0120When",
  "620": "\u0120love",
  "621": "\u0120hope",
  "622": "\u0120pr",
  "623": "are",
  "624": "\u0120make",
  "625": "rate",
  "626": "excited",
  "627": "ittle",
  "628": "ol",
  "629": "\u0120someone",
  "630": "gu",
  "631": "ff",
  "632": "de",
  "633": "\u0120pret",
  "634": "arr",
  "635": "\u0120little",
  "636": "gust",
  "637": "\u0120ro",
  "638": "xious",
  "639": "\u0120hel",
  "640": "sterday",
  "641": "gic",
  "642": "impressed",
  "643": "\u0120pretty",
  "644": "\u0120than",
  "645": "appoin",
  "646": "xt",
  "647": "embarr",
  "648": "ealous",
  "649": "\u0120kids",
  "650": "\u0120life",
  "651": "rateful",
  "652": "\u0120long",
  "653": "ilty",
  "654": "\u0120nice",
  "655": "\u0120She",
  "656": "rified",
  "657": "ace",
  "658": "\u0120We",
  "659": "per",
  "660": "\u0120if",
  "661": "angry",
  "662": "ning",
  "663": "\u0120month",
  "664": "appointed",
  "665": "rious",
  "666": "\u0120help",
  "667": "proud",
  "668": "amed",
  "669": "\u0120need",
  "670": "\u0120getting",
  "671": "annoyed",
  "672": "\u0120won",
  "673": "\u0120even",
  "674": "\u0120down",
  "675": "ag",
  "676": "\u0120still",
  "677": "\u0120our",
  "678": "\u0120next",
  "679": "algic",
  "680": "gusted",
  "681": "\u0120de",
  "682": "\u0120bu",
  "683": "\u0120daught",
  "684": "\u0120more",
  "685": "af",
  "686": "\u0120mis",
  "687": "\u0120way",
  "688": "ents",
  "689": "icip",
  "690": "\u0120N",
  "691": "\u0120son",
  "692": "oney",
  "693": "\u0120happen",
  "694": "sad",
  "695": "\u0120best",
  "696": "ine",
  "697": "\u0120comp",
  "698": "embarrassed",
  "699": "ife",
  "700": "\u0120right",
  "701": "ild",
  "702": "\u0120money",
  "703": "\u01201",
  "704": "\u0120try",
  "705": "ble",
  "706": "sive",
  "707": "vie",
  "708": "\u0120watch",
  "709": "\u0120ke",
  "710": "grateful",
  "711": "lonely",
  "712": "\u0120play",
  "713": "\u0120mom",
  "714": "afraid",
  "715": "\u0120qu",
  "716": "\u0120di",
  "717": "ontent",
  "718": "\u0120C",
  "719": "disgusted",
  "720": "\u0120aw",
  "721": "\u0120take",
  "722": "\u0120recently",
  "723": "terrified",
  "724": "anxious",
  "725": "guilty",
  "726": "furious",
  "727": "icipating",
  "728": "ental",
  "729": "confident",
  "730": "hope",
  "731": "\u0120pro",
  "732": "pec",
  "733": "ostalgic",
  "734": "nostalgic",
  "735": "hopeful",
  "736": "round",
  "737": "\u0120rem",
  "738": "\u0120myself",
  "739": "\u0120took",
  "740": "\u0120brother",
  "741": "jealous",
  "742": "\u0120daughter",
  "743": "nt",
  "744": "\u0120ready",
  "745": "disappointed",
  "746": "anticipating",
  "747": "here",
  "748": "joyful",
  "749": "\u0120bel",
  "750": "vast",
  "751": "\u0120days",
  "752": "\u0120che",
  "753": "\u0120yesterday",
  "754": "\u0120feeling",
  "755": "\u0120wife",
  "756": "entim",
  "757": "aking",
  "758": "\u0120while",
  "759": "\u0120scared",
  "760": "ru",
  "761": "wn",
  "762": "\u0120L",
  "763": "pre",
  "764": "vastated",
  "765": "entimental",
  "766": "prepared",
  "767": "rusting",
  "768": "iz",
  "769": "\u01202",
  "770": "content",
  "771": "ul",
  "772": "...",
  "773": "\u0120things",
  "774": "\u0120bir",
  "775": "fore",
  "776": "\u0120wal",
  "777": "ach",
  "778": "\u0120ner",
  "779": "\u0120inter",
  "780": "\u0120O",
  "781": "orrow",
  "782": "\u0120app",
  "783": "urn",
  "784": "\u0120They",
  "785": "ose",
  "786": "trusting",
  "787": "\u0120us",
  "788": "\u0120wanted",
  "789": "Yea",
  "790": "\u0120What",
  "791": "der",
  "792": "\u0120should",
  "793": "\u0120came",
  "794": "\u0120belie",
  "795": "devastated",
  "796": "\u0120sho",
  "797": "\u0120dri",
  "798": "\u0120looking",
  "799": "\u0120girlfriend",
  "800": "rough",
  "801": "sentimental",
  "802": "caring",
  "803": "\u0120through",
  "804": "\u0120something",
  "805": "\u0120though",
  "806": "\u0120thought",
  "807": "\u0120fun",
  "808": "\u0120F",
  "809": "\u0120before",
  "810": "\u0120ago",
  "811": "\u0120being",
  "812": "\u0120miss",
  "813": "bor",
  "814": "\u0120child",
  "815": "\u0120big",
  "816": "\u0120cou",
  "817": "rand",
  "818": "\u0120few",
  "819": "\u0120gr",
  "820": "Yes",
  "821": "ashamed",
  "822": "\u0120end",
  "823": "\u0120birth",
  "824": "\u0120sad",
  "825": "ried",
  "826": "\u0120around",
  "827": "\u0120neigh",
  "828": "\u0120hear",
  "829": "\u0120believe",
  "830": "ree",
  "831": "\u0120pay",
  "832": "ave",
  "833": "\u0120put",
  "834": "\u0120kind",
  "835": "ell",
  "836": "ward",
  "837": "akes",
  "838": "\u0120coll",
  "839": "\u0120hus",
  "840": "rehen",
  "841": "\u0120test",
  "842": "rehensive",
  "843": "ough",
  "844": "\u0120better",
  "845": "\u0120able",
  "846": "band",
  "847": "cer",
  "848": "\u0120neighbor",
  "849": "\u0120left",
  "850": "\u0120birthday",
  "851": "\u0120husband",
  "852": "\u0120si",
  "853": "\u0120find",
  "854": "\u0120lost",
  "855": "\u0120their",
  "856": "apprehensive",
  "857": "Yeah",
  "858": "\u0120tal",
  "859": "ks",
  "860": "\u0120let",
  "861": "ought",
  "862": "\u0120E",
  "863": "omorrow",
  "864": "\u0120having",
  "865": "ct",
  "866": "ew",
  "867": "\u0120used",
  "868": "pt",
  "869": "pped",
  "870": "\u0120nerv",
  "871": "\u0120sc",
  "872": "\u0120excited",
  "873": "ity",
  "874": "\u0120care",
  "875": "\u0120nervous",
  "876": "\u0120cat",
  "877": "\u0120ph",
  "878": "\u0120sm",
  "879": "ork",
  "880": "ember",
  "881": "\u0120sin",
  "882": "\u0120con",
  "883": "\u0120told",
  "884": "\u0120then",
  "885": "est",
  "886": "\u0120bought",
  "887": "\u0120does",
  "888": "\u0120fl",
  "889": "ithful",
  "890": "\u0120food",
  "891": "ege",
  "892": "vor",
  "893": "\u0120grad",
  "894": "You",
  "895": "\u0120bro",
  "896": "\u0120alone",
  "897": "\u0120sister",
  "898": "\u0120sw",
  "899": "\u0120show",
  "900": "\u0120bl",
  "901": "\u0120high",
  "902": "\u0120college",
  "903": "\u0120tomorrow",
  "904": "ure",
  "905": "\u0120only",
  "906": "age",
  "907": "\u0120keep",
  "908": "\u0120dis",
  "909": "\u0120rel",
  "910": "fa",
  "911": "\u0120since",
  "912": "orry",
  "913": "\u01203",
  "914": "\u0120ups",
  "915": "cked",
  "916": "\u0120trip",
  "917": "\u0120doing",
  "918": "\u0120party",
  "919": "ance",
  "920": "\u0120coming",
  "921": "ner",
  "922": "\u0120tra",
  "923": "ually",
  "924": "\u0120call",
  "925": "\u0120stud",
  "926": "\u0120guy",
  "927": "\u0120G",
  "928": "\u0120But",
  "929": "\u0120upset",
  "930": "\u0120pu",
  "931": "ect",
  "932": "\u0120Th",
  "933": "\u0120parents",
  "934": "\u0120ter",
  "935": "rible",
  "936": "\u0120everything",
  "937": "faithful",
  "938": "\u0120sound",
  "939": "\u0120dec",
  "940": "\u0120come",
  "941": "\u0120passed",
  "942": "\u0120grand",
  "943": "az",
  "944": "ist",
  "945": "\u0120again",
  "946": "\u0120anything",
  "947": "get",
  "948": "What",
  "949": "\u0120bab",
  "950": "\u0120favor",
  "951": "\u0120tw",
  "952": "\u0120lea",
  "953": "\u0120live",
  "954": "ne",
  "955": "\u0120boy",
  "956": "\u0120acc",
  "957": "view",
  "958": "ment",
  "959": "\u0120cle",
  "960": "\u0120vac",
  "961": "\u0120remember",
  "962": "\u0120finally",
  "963": "\u0120That",
  "964": "\u0120wish",
  "965": "\u0120res",
  "966": "\u0120knew",
  "967": "imes",
  "968": "\u0120class",
  "969": "'ll",
  "970": "nder",
  "971": "\u0120trying",
  "972": "orm",
  "973": "uck",
  "974": "\u0120prom",
  "975": "00",
  "976": "\u0120many",
  "977": "\u0120done",
  "978": "\u0120game",
  "979": "\u0120started",
  "980": "\u0120favorite",
  "981": "ather",
  "982": "\u0120ad",
  "983": "\u0120hate",
  "984": "most",
  "985": "ater",
  "986": "\u0120supp",
  "987": "\u0120store",
  "988": "\u0120sorry",
  "989": "\u0120expec",
  "990": "\u0120wasn",
  "991": "pl",
  "992": "\u0120say",
  "993": "\u0120dad",
  "994": "\u0120pers",
  "995": "\u0120gi",
  "996": "\u0120must",
  "997": "\u0120mor",
  "998": "\u0120almost",
  "999": "\u0120ever",
  "1000": "\u0120working",
  "1001": "\u0120such",
  "1002": "esome",
  "1003": "act",
  "1004": "\u0120interview",
  "1005": "mer",
  "1006": "\u0120fo",
  "1007": "ger",
  "1008": "\u0120said",
  "1009": "'re",
  "1010": "\u0120bit",
  "1011": "\u0120vacation",
  "1012": "ros",
  "1013": "\u0120tell",
  "1014": "\u0120baby",
  "1015": "\u0120dr",
  "1016": "ise",
  "1017": "able",
  "1018": "\u0120person",
  "1019": "\u0120sto",
  "1020": "\u0120under",
  "1021": "\u0120morning",
  "1022": "\u0120win",
  "1023": "\u0120months",
  "1024": "\u0120makes",
  "1025": "ath",
  "1026": "\u0120once",
  "1027": "\u0120place",
  "1028": "\u0120real",
  "1029": "\u0120cr",
  "1030": "\u0120Did",
  "1031": "side",
  "1032": "The",
  "1033": "ap",
  "1034": "ump",
  "1035": "\u0120here",
  "1036": "ook",
  "1037": "\u0120clean",
  "1038": "\u0120mar",
  "1039": "\u0120amaz",
  "1040": "\u0120super",
  "1041": "\u0120hit",
  "1042": "\u0120where",
  "1043": "\u0120rest",
  "1044": "\u0120weeks",
  "1045": "\u0120turn",
  "1046": "\u0120gl",
  "1047": "\u0120forward",
  "1048": "ress",
  "1049": "\u0120happened",
  "1050": "\u0120P",
  "1051": "\u0120\u0120",
  "1052": "be",
  "1053": "\u0120another",
  "1054": "\u0120buy",
  "1055": "\u0120soon",
  "1056": "\u0120act",
  "1057": "\u0120stay",
  "1058": "pen",
  "1059": "\u0120fi",
  "1060": "\u0120seem",
  "1061": "\u0120sit",
  "1062": "\u0120room",
  "1063": "\u0120el",
  "1064": "\u0120bus",
  "1065": "\u0120gave",
  "1066": "\u0120ear",
  "1067": "ial",
  "1068": "ans",
  "1069": "\u0120youn",
  "1070": "\u0120awesome",
  "1071": "ations",
  "1072": "\u0120two",
  "1073": "\u0120ar",
  "1074": "ank",
  "1075": "\u0120meet",
  "1076": "ason",
  "1077": "\u0120ate",
  "1078": "ence",
  "1079": "\u0120sick",
  "1080": "hy",
  "1081": "oth",
  "1082": "\u0120im",
  "1083": "\u0120wr",
  "1084": "ball",
  "1085": "\u0120eat",
  "1086": "\u0120waiting",
  "1087": "\u0120own",
  "1088": "ue",
  "1089": "\u0120died",
  "1090": "\u0120times",
  "1091": "\u0120order",
  "1092": "leep",
  "1093": "!!",
  "1094": "\u0120There",
  "1095": "ult",
  "1096": "\u0120taking",
  "1097": "\u0120its",
  "1098": "\u0120hur",
  "1099": "ately",
  "1100": "\u0120vis",
  "1101": "\u0120cow",
  "1102": "\u0120att",
  "1103": "oss",
  "1104": "ha",
  "1105": "\u0120How",
  "1106": "\u0120sounds",
  "1107": "\u0120pa",
  "1108": "\u0120broke",
  "1109": "\u0120imp",
  "1110": "\u0120without",
  "1111": "\u0120same",
  "1112": "\u0120couldn",
  "1113": "ail",
  "1114": "\u0120exam",
  "1115": "bl",
  "1116": "unch",
  "1117": "\u0120ok",
  "1118": "\u0120bre",
  "1119": "\u0120front",
  "1120": "ten",
  "1121": "\u0120moved",
  "1122": "\u0120proud",
  "1123": "\u0120cowork",
  "1124": "\u0120tr",
  "1125": "\u0120tru",
  "1126": "\u0120give",
  "1127": "\u0120movie",
  "1128": "ross",
  "1129": "\u0120ann",
  "1130": "\u0120run",
  "1131": "\u0120grandm",
  "1132": "got",
  "1133": "\u0120cont",
  "1134": "\u0120la",
  "1135": "hood",
  "1136": "hip",
  "1137": "\u0120R",
  "1138": "\u0120amazing",
  "1139": "\u0120tried",
  "1140": "\u0120bo",
  "1141": "\u0120So",
  "1142": "\u0120most",
  "1143": "\u0120thank",
  "1144": "\u0120gradu",
  "1145": "No",
  "1146": "osed",
  "1147": "\u0120walking",
  "1148": "\u0120boyfriend",
  "1149": "ich",
  "1150": "\u0120everyone",
  "1151": "ase",
  "1152": "\u0120past",
  "1153": "\u0120sum",
  "1154": "gether",
  "1155": "\u0120din",
  "1156": "\u0120door",
  "1157": "til",
  "1158": "\u0120together",
  "1159": "\u0120worried",
  "1160": "\u0120Some",
  "1161": "\u01205",
  "1162": "\u0120sometimes",
  "1163": "\u0120hour",
  "1164": "\u0120haven",
  "1165": "so",
  "1166": "\u0120leave",
  "1167": "\u01204",
  "1168": "\u0120cra",
  "1169": "\u0120summer",
  "1170": "Th",
  "1171": "ition",
  "1172": "\u0120pic",
  "1173": "\u0120until",
  "1174": "\u0120scary",
  "1175": "\u0120hor",
  "1176": "\u0120luck",
  "1177": "\u0120fu",
  "1178": "vers",
  "1179": "\u0120cut",
  "1180": "\u0120look",
  "1181": "\u0120enough",
  "1182": "\u0120terrible",
  "1183": "\u0120J",
  "1184": "\u0120per",
  "1185": "\u0120date",
  "1186": "\u0120visit",
  "1187": "\u0120shocked",
  "1188": "ple",
  "1189": "\u0120quite",
  "1190": "\u0120trust",
  "1191": "\u0120late",
  "1192": "\u0120forgot",
  "1193": "\u0120sleep",
  "1194": "lly",
  "1195": "\u0120glad",
  "1196": "\u0120You",
  "1197": "aybe",
  "1198": "\u0120heard",
  "1199": "anc",
  "1200": "\u0120sl",
  "1201": "gry",
  "1202": "He",
  "1203": "\u0120id",
  "1204": "\u0120ton",
  "1205": "\u0120dinner",
  "1206": "\u0120whole",
  "1207": "\u0120accident",
  "1208": "ided",
  "1209": "\u0120mother",
  "1210": "\u0120watching",
  "1211": "ord",
  "1212": "ream",
  "1213": "\u0120tick",
  "1214": "rew",
  "1215": "\u0120sk",
  "1216": "\u0120stuff",
  "1217": "\u0120swe",
  "1218": "Wow",
  "1219": "Well",
  "1220": "\u0120ended",
  "1221": "any",
  "1222": "\u0120afraid",
  "1223": "\u0120ticket",
  "1224": "ier",
  "1225": "\u0120town",
  "1226": "\u0120diff",
  "1227": "\u0120hu",
  "1228": "\u0120needed",
  "1229": "\u0120ran",
  "1230": "ire",
  "1231": "\u0120cant",
  "1232": "\u0120move",
  "1233": "gg",
  "1234": "\u0120$",
  "1235": "\u0120asked",
  "1236": "\u0120ru",
  "1237": "\u0120couple",
  "1238": "\u0120outside",
  "1239": "\u0120worked",
  "1240": "\u0120driving",
  "1241": "ond",
  "1242": "\u0120foot",
  "1243": "ctor",
  "1244": "\u0120mem",
  "1245": "\u0120sec",
  "1246": "\u0120cool",
  "1247": "\u0120decided",
  "1248": "\u0120thinking",
  "1249": "\u0120One",
  "1250": "izz",
  "1251": "\u0120ret",
  "1252": "ax",
  "1253": "\u0120phone",
  "1254": "\u0120memor",
  "1255": "\u0120drive",
  "1256": "\u0120open",
  "1257": "\u0120promotion",
  "1258": "\u0120actually",
  "1259": "\u0120idea",
  "1260": "\u0120those",
  "1261": "\u0120hop",
  "1262": "gn",
  "1263": "aur",
  "1264": "\u0120pizz",
  "1265": "\u0120ent",
  "1266": "\u0120why",
  "1267": "\u0120company",
  "1268": "'d",
  "1269": "lled",
  "1270": "\u0120ap",
  "1271": "ange",
  "1272": "pping",
  "1273": "\u0120compl",
  "1274": "ying",
  "1275": "\u0120playing",
  "1276": "\u0120guess",
  "1277": "ement",
  "1278": "\u0120seen",
  "1279": "\u0120yet",
  "1280": "\u0120team",
  "1281": "aurant",
  "1282": "\u0120restaurant",
  "1283": "\u0120em",
  "1284": "uring",
  "1285": "\u0120,",
  "1286": "\u0120making",
  "1287": "\u0120pass",
  "1288": "\u0120pizza",
  "1289": "\u0120close",
  "1290": "\u0120Y",
  "1291": "\u0120sn",
  "1292": "rought",
  "1293": "\u0120didnt",
  "1294": "dd",
  "1295": "\u0120might",
  "1296": "\u0120bed",
  "1297": "\u0120also",
  "1298": "ever",
  "1299": "\u0120mine",
  "1300": "\u0120realiz",
  "1301": "\u0120pres",
  "1302": "ered",
  "1303": "\u0120nothing",
  "1304": "\u0120This",
  "1305": "iting",
  "1306": "ars",
  "1307": "\u0120pet",
  "1308": "\u0120plann",
  "1309": "\u0120wrong",
  "1310": "\u0120fell",
  "1311": "\u0120ser",
  "1312": "\u0120boss",
  "1313": "\u0120brought",
  "1314": "\u0120break",
  "1315": "itch",
  "1316": "\u0120angry",
  "1317": "\u0120Do",
  "1318": "oop",
  "1319": "\u0120doctor",
  "1320": "\u0120surprised",
  "1321": "\u0120alre",
  "1322": "fully",
  "1323": "\u0120head",
  "1324": "\u0120already",
  "1325": "\u0120tonight",
  "1326": "od",
  "1327": "stand",
  "1328": "ary",
  "1329": "\u0120these",
  "1330": "\u0120str",
  "1331": "\u0120anyone",
  "1332": "\u0120hurt",
  "1333": "\u0120ra",
  "1334": "\u0120met",
  "1335": "\u0120thankful",
  "1336": "Did",
  "1337": "\u0120final",
  "1338": "\u0120talk",
  "1339": "\u0120which",
  "1340": "\u0120road",
  "1341": "\u0120wonder",
  "1342": "ions",
  "1343": "illed",
  "1344": "\u0120doesn",
  "1345": "\u0120gone",
  "1346": "\u0120enjoy",
  "1347": "\u0120min",
  "1348": "oh",
  "1349": "\u0120prepared",
  "1350": "ned",
  "1351": "\u0120far",
  "1352": "\u0120lear",
  "1353": "oke",
  "1354": "\u0120spend",
  "1355": "ane",
  "1356": "\u0120mean",
  "1357": "\u0120coworker",
  "1358": "\u0120des",
  "1359": "\u0120understand",
  "1360": "\u0120else",
  "1361": "ject",
  "1362": "\u0120world",
  "1363": "ee",
  "1364": "\u0120heal",
  "1365": "\u0120lol",
  "1366": "ush",
  "1367": "\u0120talking",
  "1368": "cks",
  "1369": "\u0120called",
  "1370": "\u0120apart",
  "1371": "fort",
  "1372": "ience",
  "1373": "\u012010",
  "1374": "\u0120sweet",
  "1375": "up",
  "1376": "zy",
  "1377": "\u0120Last",
  "1378": "\u0120married",
  "1379": "\u0120memories",
  "1380": "\u0120hand",
  "1381": "\u0120stole",
  "1382": "\u0120pos",
  "1383": "\u0120Its",
  "1384": "\u0120card",
  "1385": "\u0120ext",
  "1386": "\u0120dont",
  "1387": "\u0120surpris",
  "1388": "\u0120loved",
  "1389": "\u0120expecting",
  "1390": "\u0120grandmother",
  "1391": "ren",
  "1392": "\u0120during",
  "1393": "\u0120stop",
  "1394": "\u0120bor",
  "1395": "\u0120gift",
  "1396": "\u0120meeting",
  "1397": "\u0120poop",
  "1398": "\u0120football",
  "1399": "ired",
  "1400": "old",
  "1401": "\u0120hours",
  "1402": "\u0120hoping",
  "1403": "\u0120heart",
  "1404": "room",
  "1405": "\u0120ordered",
  "1406": "oor",
  "1407": "\u0120use",
  "1408": "\u0120least",
  "1409": "\u0120grow",
  "1410": "\u0120concer",
  "1411": "\u0120deal",
  "1412": "\u0120inst",
  "1413": "\u0120season",
  "1414": "\u0120appl",
  "1415": "\u0120gro",
  "1416": "\u0120seeing",
  "1417": "\u0120paid",
  "1418": "\u0120looked",
  "1419": "\u0120supposed",
  "1420": "\u0120okay",
  "1421": "iet",
  "1422": "\u0120starting",
  "1423": "\u0120tea",
  "1424": "\u0120eating",
  "1425": "\u0120inv",
  "1426": "\u0120watched",
  "1427": "\u0120grocer",
  "1428": "\u0120rep",
  "1429": "\u0120Every",
  "1430": "They",
  "1431": "\u0120fix",
  "1432": "ah",
  "1433": "\u0120free",
  "1434": "\u0120import",
  "1435": "\u0120huge",
  "1436": "\u0120lately",
  "1437": "\u0120rece",
  "1438": "amp",
  "1439": "We",
  "1440": "ially",
  "1441": "ased",
  "1442": "oint",
  "1443": "\u0120important",
  "1444": "onn",
  "1445": "\u0120manag",
  "1446": "ys",
  "1447": "ird",
  "1448": "ished",
  "1449": "\u0120Someone",
  "1450": "\u0120U",
  "1451": "\u0120water",
  "1452": "ves",
  "1453": "\u0120exper",
  "1454": "\u0120pregn",
  "1455": "\u0120childhood",
  "1456": "\u0120count",
  "1457": "\u0120turned",
  "1458": "\u0120minut",
  "1459": "\u0120father",
  "1460": "that",
  "1461": "\u0120fast",
  "1462": "\u0120each",
  "1463": "\u0120train",
  "1464": "iness",
  "1465": "\u0120tot",
  "1466": "\u0120gam",
  "1467": "\u0120pack",
  "1468": "\u0120exc",
  "1469": "\u0120crazy",
  "1470": "\u0120surprise",
  "1471": "\u0120neighbors",
  "1472": "She",
  "1473": "fin",
  "1474": "\u0120bring",
  "1475": "\u0120perf",
  "1476": "vious",
  "1477": "\u0120bar",
  "1478": "\u0120ins",
  "1479": "\u0120studied",
  "1480": "\u0120dogs",
  "1481": "iday",
  "1482": "\u0120walked",
  "1483": "oc",
  "1484": "\u0120park",
  "1485": "\u0120fail",
  "1486": "\u0120pupp",
  "1487": "ken",
  "1488": "tery",
  "1489": "How",
  "1490": "\u0120relax",
  "1491": "\u0120And",
  "1492": "if",
  "1493": "\u0120horrible",
  "1494": "\u0120health",
  "1495": "ling",
  "1496": "more",
  "1497": "\u0120\"",
  "1498": "\u0120kept",
  "1499": "\u0120K",
  "1500": "\u0120gets",
  "1501": "reet",
  "1502": "\u0120young",
  "1503": "\u0120del",
  "1504": "\u0120dro",
  "1505": "\u0120storm",
  "1506": "\u0120Ch",
  "1507": "\u0120bill",
  "1508": "Why",
  "1509": "ark",
  "1510": "\u0120anymore",
  "1511": "\u0120walk",
  "1512": "ia",
  "1513": "\u0120result",
  "1514": "\u0120teach",
  "1515": "\u0120later",
  "1516": "\u0120seems",
  "1517": "\u0120living",
  "1518": "rat",
  "1519": "ount",
  "1520": "ret",
  "1521": "\u0120pict",
  "1522": "work",
  "1523": "\u0120eas",
  "1524": "\u0120near",
  "1525": "\u0120threw",
  "1526": "\u0120sem",
  "1527": "\u0120sing",
  "1528": "\u0120spent",
  "1529": "\u0120change",
  "1530": "\u0120Now",
  "1531": "\u012020",
  "1532": "\u0120dep",
  "1533": "\u0120beach",
  "1534": "\u0120inc",
  "1535": "\u0120confident",
  "1536": "als",
  "1537": "blem",
  "1538": "So",
  "1539": "\u0120cur",
  "1540": "\u0120children",
  "1541": "\u01206",
  "1542": "\u0120present",
  "1543": "\u0120beh",
  "1544": "\u0120ev",
  "1545": "\u0120Are",
  "1546": "les",
  "1547": "\u0120mov",
  "1548": "\u0120drin",
  "1549": "ny",
  "1550": "ime",
  "1551": "\u0120shopping",
  "1552": "\u0120side",
  "1553": "\u0120lunch",
  "1554": "\u0120lottery",
  "1555": "\u0120phot",
  "1556": "onna",
  "1557": "\u0120sur",
  "1558": "\u0120wouldn",
  "1559": "\u0120problem",
  "1560": "\u0120early",
  "1561": "\u0120full",
  "1562": "\u0120fall",
  "1563": "\u0120city",
  "1564": "\u0120moving",
  "1565": "\u0120younger",
  "1566": "where",
  "1567": "\u0120bas",
  "1568": "\u0120cake",
  "1569": "\u0120\u0120\u0120\u0120",
  "1570": "\u0120apartment",
  "1571": "unk",
  "1572": "ably",
  "1573": "\u0120situ",
  "1574": "ationship",
  "1575": "eb",
  "1576": "not",
  "1577": "\u0120pain",
  "1578": "ons",
  "1579": "rist",
  "1580": "\u0120aff",
  "1581": "\u0120differ",
  "1582": "\u0120puppy",
  "1583": "\u0120movies",
  "1584": "\u0120pick",
  "1585": "\u0120yard",
  "1586": "ants",
  "1587": "\u0120remind",
  "1588": "\u0120both",
  "1589": "\u0120rain",
  "1590": "\u0120relationship",
  "1591": "\u0120sat",
  "1592": "\u0120spec",
  "1593": "ding",
  "1594": "\u0120street",
  "1595": "\u0120On",
  "1596": "esterday",
  "1597": "ert",
  "1598": "\u0120complet",
  "1599": "hew",
  "1600": "\u0120usually",
  "1601": "\u0120Just",
  "1602": "\u0120mid",
  "1603": "\u0120return",
  "1604": "\u0120reason",
  "1605": "\u0120entire",
  "1606": "ester",
  "1607": "sing",
  "1608": "\u0120mus",
  "1609": "\u0120pol",
  "1610": "ower",
  "1611": "\u0120project",
  "1612": "\u0120soc",
  "1613": "finit",
  "1614": "\u0120Su",
  "1615": "\u0120truck",
  "1616": "\u0120cook",
  "1617": "\u0120lucky",
  "1618": "\u0120char",
  "1619": "ongrat",
  "1620": "\u0120pregnant",
  "1621": "med",
  "1622": "og",
  "1623": "\u0120wall",
  "1624": "ead",
  "1625": "\u0120vide",
  "1626": "\u0120hot",
  "1627": "\u0120concert",
  "1628": "\u0120semester",
  "1629": "\u0120ir",
  "1630": "\u0120cour",
  "1631": "\u0120gross",
  "1632": "umb",
  "1633": "\u0120fight",
  "1634": "\u0120worst",
  "1635": "\u0120Im",
  "1636": "\u0120news",
  "1637": "\u0120partner",
  "1638": "\u0120gonna",
  "1639": "ric",
  "1640": "urch",
  "1641": "\u0120law",
  "1642": "\u0120caught",
  "1643": "\u0120weight",
  "1644": "\u0120list",
  "1645": "unt",
  "1646": "finitely",
  "1647": "een",
  "1648": "\u0120ask",
  "1649": "umped",
  "1650": "bably",
  "1651": "\u0120behind",
  "1652": "lf",
  "1653": "ures",
  "1654": "\u0120wind",
  "1655": "\u0120med",
  "1656": "\u0120cous",
  "1657": "\u0120rid",
  "1658": "\u0120face",
  "1659": "\u0120cousin",
  "1660": "ital",
  "1661": "\u0120read",
  "1662": "ffic",
  "1663": "\u0120applied",
  "1664": "ike",
  "1665": "\u0120business",
  "1666": "\u0120tough",
  "1667": "aw",
  "1668": "\u0120raise",
  "1669": "\u0120totally",
  "1670": "\u0120games",
  "1671": "\u0120mail",
  "1672": "\u0120throw",
  "1673": "hile",
  "1674": "anks",
  "1675": "\u0120accidentally",
  "1676": "air",
  "1677": "fter",
  "1678": "\u0120anim",
  "1679": "line",
  "1680": "\u0120mess",
  "1681": "\u0120fore",
  "1682": "\u0120experience",
  "1683": "\u0120results",
  "1684": "\u0120situation",
  "1685": "my",
  "1686": "\u0120coo",
  "1687": "\u0120ash",
  "1688": "\u0120couldnt",
  "1689": "ivers",
  "1690": "\u0120check",
  "1691": "mas",
  "1692": "\u0120doll",
  "1693": "\u0120light",
  "1694": "\u0120Is",
  "1695": "\u0120bunch",
  "1696": "\u0120running",
  "1697": "ym",
  "1698": "yea",
  "1699": "\u0120hang",
  "1700": "\u0120weird",
  "1701": "\u0120roll",
  "1702": "\u0120different",
  "1703": "\u0120ve",
  "1704": "\u0120set",
  "1705": "\u0120wonderful",
  "1706": "oud",
  "1707": "Aw",
  "1708": "When",
  "1709": "\u0120-",
  "1710": "\u01208",
  "1711": "\u0120wed",
  "1712": "\u0120lonely",
  "1713": "osp",
  "1714": "\u0120wow",
  "1715": "\u0120math",
  "1716": "\u0120graduated",
  "1717": "ristmas",
  "1718": "\u0120three",
  "1719": "uture",
  "1720": "ometimes",
  "1721": "\u0120awful",
  "1722": "ible",
  "1723": "\u0120dream",
  "1724": "\u0120music",
  "1725": "\u0120ashamed",
  "1726": "\u0120pants",
  "1727": "\u0120helped",
  "1728": "yp",
  "1729": "\u0120mind",
  "1730": "\u0120future",
  "1731": "\u0120plans",
  "1732": "\u0120grocery",
  "1733": "\u0120camp",
  "1734": "\u0120annoy",
  "1735": "\u0120realized",
  "1736": "vel",
  "1737": "\u0120jealous",
  "1738": "\u0120St",
  "1739": "\u0120loc",
  "1740": "\u0120interest",
  "1741": "\u0120expect",
  "1742": "ci",
  "1743": "\u0120Was",
  "1744": "\u0120cheated",
  "1745": "\u0120box",
  "1746": "enc",
  "1747": "\u0120hosp",
  "1748": "yes",
  "1749": "ived",
  "1750": "\u0120woke",
  "1751": "\u0120fly",
  "1752": "\u0120stand",
  "1753": "\u0120happens",
  "1754": "\u0120grade",
  "1755": "\u0120wear",
  "1756": "\u0120cannot",
  "1757": "\u0120afford",
  "1758": "erg",
  "1759": "\u0120trou",
  "1760": "\u0120isn",
  "1761": "\u0120envious",
  "1762": "pecially",
  "1763": "\u0120born",
  "1764": "\u0120second",
  "1765": "cess",
  "1766": "ffe",
  "1767": "\u0120dent",
  "1768": "llow",
  "1769": "\u0120word",
  "1770": "bs",
  "1771": "iece",
  "1772": "\u0120country",
  "1773": "\u0120window",
  "1774": "\u0120nep",
  "1775": "\u0120gotten",
  "1776": "\u0120coffe",
  "1777": "\u0120keeps",
  "1778": "\u0120traffic",
  "1779": "\u0120bath",
  "1780": "\u0120wedding",
  "1781": "\u0120nephew",
  "1782": "\u0120exciting",
  "1783": "ised",
  "1784": "ider",
  "1785": "\u0120lied",
  "1786": "\u0120definitely",
  "1787": "\u0120coffee",
  "1788": "\u0120mat",
  "1789": "\u0120hair",
  "1790": "\u0120minutes",
  "1791": "iv",
  "1792": "\u0120wom",
  "1793": "\u0120ste",
  "1794": "ounds",
  "1795": "\u0120fine",
  "1796": "\u0120small",
  "1797": "\u0120In",
  "1798": "irt",
  "1799": "\u0120Why",
  "1800": "\u0120All",
  "1801": "\u0120paying",
  "1802": "\u0120pooped",
  "1803": "lier",
  "1804": "ative",
  "1805": "\u0120iss",
  "1806": "\u0120anxious",
  "1807": "rit",
  "1808": "\u0120acce",
  "1809": "\u0120sitting",
  "1810": "\u0120planned",
  "1811": "\u0120girls",
  "1812": "ign",
  "1813": "red",
  "1814": "\u0120cloth",
  "1815": "\u0120smell",
  "1816": "\u0120busy",
  "1817": "\u0120ride",
  "1818": "\u0120dropped",
  "1819": "\u0120single",
  "1820": "\u0120comes",
  "1821": "dle",
  "1822": "\u0120lau",
  "1823": "\u0120Maybe",
  "1824": "\u0120state",
  "1825": "\u0120moment",
  "1826": "\u0120special",
  "1827": "\u0120loud",
  "1828": "\u0120neighborhood",
  "1829": "\u0120half",
  "1830": "iced",
  "1831": "\u0120sucks",
  "1832": "\u0120comm",
  "1833": "\u0120dist",
  "1834": "cel",
  "1835": "ness",
  "1836": "\u0120annoying",
  "1837": "Do",
  "1838": "\u0120less",
  "1839": "ined",
  "1840": "\u0120often",
  "1841": "ical",
  "1842": "\u0120probably",
  "1843": "\u0120tickets",
  "1844": "\u0120hospital",
  "1845": "\u0120cert",
  "1846": "\u0120land",
  "1847": "cle",
  "1848": "\u0120Yesterday",
  "1849": "\u0120wallet",
  "1850": "\u0120video",
  "1851": "ian",
  "1852": "\u0120inside",
  "1853": "Not",
  "1854": "itive",
  "1855": "ates",
  "1856": "\u0120earlier",
  "1857": "\u0120middle",
  "1858": "\u0120sent",
  "1859": "\u0120Have",
  "1860": "\u0120dead",
  "1861": "ming",
  "1862": "\u0120goes",
  "1863": "\u0120lose",
  "1864": "\u0120prop",
  "1865": "\u0120studying",
  "1866": "\u0120clothes",
  "1867": "bed",
  "1868": "reci",
  "1869": "\u0120inf",
  "1870": "\u0120After",
  "1871": "\u0120instead",
  "1872": "ior",
  "1873": "\u0120mil",
  "1874": "\u0120fre",
  "1875": "\u0120online",
  "1876": "ney",
  "1877": "\u0120trash",
  "1878": "\u0120es",
  "1879": "lling",
  "1880": "\u0120expen",
  "1881": "\u0120across",
  "1882": "\u0120impressed",
  "1883": "\u0120thats",
  "1884": "gs",
  "1885": "led",
  "1886": "\u0120gym",
  "1887": "\u0120financ",
  "1888": "\u0120received",
  "1889": "ustr",
  "1890": "\u0120trouble",
  "1891": "\u0120appreci",
  "1892": "wards",
  "1893": "ention",
  "1894": "ither",
  "1895": "eak",
  "1896": "\u0120clos",
  "1897": "\u0120starts",
  "1898": "ud",
  "1899": "what",
  "1900": "edit",
  "1901": "fortun",
  "1902": "ues",
  "1903": "onest",
  "1904": "\u0120cancer",
  "1905": "\u0120office",
  "1906": "\u0120leaving",
  "1907": "\u0120diffic",
  "1908": "\u0120bathroom",
  "1909": "\u0120bag",
  "1910": "\u0120ple",
  "1911": "\u0120No",
  "1912": "\u0120played",
  "1913": "\u0120swim",
  "1914": "\u0120extra",
  "1915": "ib",
  "1916": "int",
  "1917": "\u0120finished",
  "1918": "\u0120true",
  "1919": "\u0120pictures",
  "1920": "\u0120air",
  "1921": "\u0120cand",
  "1922": "\u0120offered",
  "1923": "\u0120missed",
  "1924": "eed",
  "1925": "\u0120sch",
  "1926": "\u0120hom",
  "1927": "\u0120lady",
  "1928": "\u0120local",
  "1929": "\u0120dark",
  "1930": "\u0120credit",
  "1931": "\u0120difficult",
  "1932": "\u0120manager",
  "1933": "\u0120curr",
  "1934": "\u0120forever",
  "1935": "\u0120V",
  "1936": "right",
  "1937": "\u0120coworkers",
  "1938": "\u0120chang",
  "1939": "\u0120disappointed",
  "1940": "\u01209",
  "1941": "\u0120quick",
  "1942": "Thank",
  "1943": "\u0120ice",
  "1944": "\u0120tur",
  "1945": "\u0120book",
  "1946": "\u0120comput",
  "1947": "\u0120imag",
  "1948": "\u0120bur",
  "1949": "\u0120cor",
  "1950": "aken",
  "1951": "\u0120pract",
  "1952": "\u0120parking",
  "1953": "\u0120compet",
  "1954": "\u0120guys",
  "1955": "\u0120grandma",
  "1956": "\u0120Once",
  "1957": "ual",
  "1958": "\u0120maybe",
  "1959": "\u0120self",
  "1960": "\u0120borrow",
  "1961": "\u0120brand",
  "1962": "aster",
  "1963": "\u0120Not",
  "1964": "\u0120point",
  "1965": "\u0120ass",
  "1966": "\u0120planning",
  "1967": "oday",
  "1968": "\u0120band",
  "1969": "\u0120conf",
  "1970": "\u0120pri",
  "1971": "\u0120guilty",
  "1972": "\u0120fair",
  "1973": "aut",
  "1974": "\u0120ma",
  "1975": "ings",
  "1976": "\u0120po",
  "1977": "\u0120stress",
  "1978": "\u0120line",
  "1979": "pected",
  "1980": "\u0120appro",
  "1981": "\u0120adv",
  "1982": "\u0120weather",
  "1983": "\u0120computer",
  "1984": "ho",
  "1985": "\u0120(",
  "1986": "ens",
  "1987": "\u0120dra",
  "1988": "\u0120yeah",
  "1989": "\u0120frustr",
  "1990": "gest",
  "1991": "\u0120cry",
  "1992": "ics",
  "1993": "\u0120looks",
  "1994": "\u0120MY",
  "1995": "\u0120Fr",
  "1996": "\u0120position",
  "1997": "\u0120due",
  "1998": "\u0120feels",
  "1999": "Thats",
  "2000": "\u012015",
  "2001": "\u0120failed",
  "2002": "\u0120completely",
  "2003": "\u0120laugh",
  "2004": "but",
  "2005": "\u0120war",
  "2006": "\u0120gas",
  "2007": "\u0120pulled",
  "2008": "ron",
  "2009": "\u0120embarrassed",
  "2010": "ense",
  "2011": "\u0120At",
  "2012": "\u0120quiet",
  "2013": "kes",
  "2014": "\u0120hold",
  "2015": "\u0120honest",
  "2016": "\u0120step",
  "2017": "\u0120area",
  "2018": "\u0120yourself",
  "2019": "\u0120Can",
  "2020": "\u0120broken",
  "2021": "\u0120rug",
  "2022": "\u0120matter",
  "2023": "\u0120woman",
  "2024": "mate",
  "2025": "\u0120fig",
  "2026": "\u0120bum",
  "2027": "\u0120arri",
  "2028": "\u0120learned",
  "2029": "lor",
  "2030": "outh",
  "2031": "\u0120older",
  "2032": "\u0120build",
  "2033": "\u0120follow",
  "2034": "acking",
  "2035": "\u0120worth",
  "2036": "\u0120positive",
  "2037": "\u0120irrit",
  "2038": "Are",
  "2039": "\u0120may",
  "2040": "rect",
  "2041": "\u0120liked",
  "2042": "\u0120faith",
  "2043": "\u0120cute",
  "2044": "\u0120invited",
  "2045": "co",
  "2046": "ipped",
  "2047": "\u0120cash",
  "2048": "\u0120cho",
  "2049": "\u012030",
  "2050": "\u0120crash",
  "2051": "aked",
  "2052": "iving",
  "2053": "essed",
  "2054": "\u0120red",
  "2055": "\u0120worry",
  "2056": "\u0120short",
  "2057": "\u0120unex",
  "2058": "Thanks",
  "2059": "itchen",
  "2060": "com",
  "2061": "\u0120mist",
  "2062": "\u0120hum",
  "2063": "nday",
  "2064": "\u0120beaut",
  "2065": "\u0120kitchen",
  "2066": "\u0120others",
  "2067": "\u0120agree",
  "2068": "\u0120diet",
  "2069": "\u0120seemed",
  "2070": "\u0120Christmas",
  "2071": "\u0120police",
  "2072": "sh",
  "2073": "\u0120top",
  "2074": "\u0120lived",
  "2075": "\u0120Sometimes",
  "2076": "\u0120cover",
  "2077": "\u0120expected",
  "2078": "\u0120telling",
  "2079": "\u0120secret",
  "2080": "\u0120unexpected",
  "2081": "\u0120cru",
  "2082": "arch",
  "2083": "\u0120meal",
  "2084": "\u0120Hope",
  "2085": "\u0120wants",
  "2086": "\u0120deser",
  "2087": "\u0120surger",
  "2088": "\u0120pool",
  "2089": "\u0120crush",
  "2090": "\u0120expensive",
  "2091": "\u0120given",
  "2092": "\u0120easy",
  "2093": "\u0120listen",
  "2094": "ratch",
  "2095": "000",
  "2096": "\u0120cleaning",
  "2097": "ient",
  "2098": "iful",
  "2099": "\u0120everyday",
  "2100": "\u0120certain",
  "2101": "\u0120pot",
  "2102": "\u0120plan",
  "2103": "\u0120missing",
  "2104": "\u0120resp",
  "2105": "\u0120support",
  "2106": "\u0120bills",
  "2107": "ically",
  "2108": "\u0120either",
  "2109": "\u0120stopped",
  "2110": "ody",
  "2111": "pid",
  "2112": "sw",
  "2113": "time",
  "2114": "anger",
  "2115": "\u0120floor",
  "2116": "\u0120perform",
  "2117": "\u0120course",
  "2118": "ear",
  "2119": "\u0120ant",
  "2120": "\u0120Then",
  "2121": "\u0120Mon",
  "2122": "\u0120showed",
  "2123": "\u0120trusted",
  "2124": "\u0120training",
  "2125": "ongratul",
  "2126": "\u0120imagine",
  "2127": "av",
  "2128": "\u0120boo",
  "2129": "its",
  "2130": "\u0120poss",
  "2131": "\u0120chance",
  "2132": "\u0120smash",
  "2133": "\u0120deli",
  "2134": "lies",
  "2135": "\u0120catch",
  "2136": "\u0120surgery",
  "2137": "\u0120takes",
  "2138": "\u0120grateful",
  "2139": "eless",
  "2140": "\u0120stuck",
  "2141": "actly",
  "2142": "\u0120serious",
  "2143": "\u0120typ",
  "2144": "andom",
  "2145": "\u0120perfect",
  "2146": "\u0120especially",
  "2147": "less",
  "2148": "\u0120random",
  "2149": "\u0120sub",
  "2150": "\u0120works",
  "2151": "\u0120sever",
  "2152": "\u0120dest",
  "2153": "\u0120realize",
  "2154": "ced",
  "2155": "pted",
  "2156": "ory",
  "2157": "\u0120worse",
  "2158": "\u0120sun",
  "2159": "\u0120scratch",
  "2160": "eech",
  "2161": "lt",
  "2162": "no",
  "2163": "\u0120hun",
  "2164": "\u0120gen",
  "2165": "\u0120name",
  "2166": "\u0120suc",
  "2167": "\u0120helping",
  "2168": "ploy",
  "2169": "\u0120drink",
  "2170": "\u0120beautiful",
  "2171": "\u0120\u0120\u010a",
  "2172": "\u0120taken",
  "2173": "\u0120ground",
  "2174": "\u0120asking",
  "2175": "\u0120photos",
  "2176": "Some",
  "2177": "\u0120beat",
  "2178": "\u0120int",
  "2179": "\u0120yes",
  "2180": "\u0120cancel",
  "2181": "....",
  "2182": "\u0120smart",
  "2183": "\u0120sisters",
  "2184": "\u0120event",
  "2185": "\u0120stepped",
  "2186": "by",
  "2187": "\u0120cal",
  "2188": "ured",
  "2189": "\u0120As",
  "2190": "\u0120spilled",
  "2191": "\u0120speech",
  "2192": "\u0120offer",
  "2193": "\u0120study",
  "2194": "\u0120camping",
  "2195": "\u0120Monday",
  "2196": "oing",
  "2197": "\u01207",
  "2198": "\u0120age",
  "2199": "\u0120grou",
  "2200": "\u0120haha",
  "2201": "\u0120loan",
  "2202": "Its",
  "2203": "\u0120eng",
  "2204": "\u0120group",
  "2205": "\u0120sal",
  "2206": "\u0120cream",
  "2207": "tle",
  "2208": "\u0120dress",
  "2209": "\u0120noticed",
  "2210": "\u0120church",
  "2211": "ongratulations",
  "2212": "\u0120:)",
  "2213": "\u0120hol",
  "2214": "\u0120item",
  "2215": "\u0120forget",
  "2216": "\u0120stru",
  "2217": "\u0120TV",
  "2218": "\u0120stupid",
  "2219": "\u0120deg",
  "2220": "\u0120cons",
  "2221": "\u0120classes",
  "2222": "\u0120teacher",
  "2223": "ph",
  "2224": "\u0120?",
  "2225": "ishing",
  "2226": "\u0120steal",
  "2227": "urance",
  "2228": "\u0120rent",
  "2229": "eally",
  "2230": "\u0120tired",
  "2231": "ompl",
  "2232": "\u0120terrified",
  "2233": "\u0120add",
  "2234": "\u0120contest",
  "2235": "\u0120reminded",
  "2236": "\u0120cruise",
  "2237": "gan",
  "2238": "\u0120tv",
  "2239": "\u0120aunt",
  "2240": "\u0120case",
  "2241": "\u0120cheating",
  "2242": "\u0120relaxing",
  "2243": "ified",
  "2244": "ery",
  "2245": "\u0120wre",
  "2246": "\u0120bank",
  "2247": "iss",
  "2248": "\u0120peace",
  "2249": "\u0120.",
  "2250": "\u0120song",
  "2251": "\u0120cup",
  "2252": "\u0120gar",
  "2253": "ors",
  "2254": "olut",
  "2255": "\u0120prog",
  "2256": "worker",
  "2257": "how",
  "2258": "\u0120tour",
  "2259": "\u0120bother",
  "2260": "\u0120Tr",
  "2261": "\u0120deb",
  "2262": "\u0120dollars",
  "2263": "\u0120wanting",
  "2264": "\u0120nost",
  "2265": "\u0120daughters",
  "2266": "\u0120slow",
  "2267": "\u0120growing",
  "2268": "\u0120roommate",
  "2269": "\u0120roller",
  "2270": "\u0120emotion",
  "2271": "\u0120lar",
  "2272": "issed",
  "2273": "\u0120piece",
  "2274": "\u0120reg",
  "2275": "\u0120ones",
  "2276": "\u0120saving",
  "2277": "\u0120vom",
  "2278": "\u0120lots",
  "2279": "Nice",
  "2280": "oted",
  "2281": "\u0120power",
  "2282": "ade",
  "2283": "\u0120rob",
  "2284": "\u0120shoes",
  "2285": "\u0120promised",
  "2286": "!!!",
  "2287": "iety",
  "2288": "\u0120returned",
  "2289": "ged",
  "2290": "\u0120numb",
  "2291": "ald",
  "2292": "\u0120cats",
  "2293": "\u0120lives",
  "2294": "\u0120drunk",
  "2295": "\u0120stayed",
  "2296": "ket",
  "2297": "\u0120pat",
  "2298": "\u0120awhile",
  "2299": "\u0120accompl",
  "2300": "dden",
  "2301": "\u0120presentation",
  "2302": "\u0120quickly",
  "2303": "\u0120degree",
  "2304": "There",
  "2305": "\u0120z",
  "2306": "\u0120rough",
  "2307": "\u0120along",
  "2308": "\u0120annoyed",
  "2309": "\u0120\u0120\u0120\u0120\u0120\u0120\u0120\u0120",
  "2310": "\u0120changed",
  "2311": "Me",
  "2312": "\u0120If",
  "2313": "\u0120tor",
  "2314": "\u0120jump",
  "2315": "\u0120employ",
  "2316": "\u0120bon",
  "2317": "\u0120star",
  "2318": "\u0120Today",
  "2319": "\u0120supplies",
  "2320": "\u0120graduate",
  "2321": "\u0120holiday",
  "2322": "\u0120ball",
  "2323": "ities",
  "2324": "\u0120attention",
  "2325": "\u0120snake",
  "2326": "\u0120insurance",
  "2327": "man",
  "2328": "ese",
  "2329": "\u0120chick",
  "2330": "\u0120lawn",
  "2331": "\u0120cooking",
  "2332": "\u0120spr",
  "2333": "\u0120cost",
  "2334": "\u0120answ",
  "2335": "\u0120intern",
  "2336": "\u0120For",
  "2337": "\u0120serv",
  "2338": "fortunately",
  "2339": "book",
  "2340": "\u0120embarr",
  "2341": "\u0120pissed",
  "2342": "\u0120hopeful",
  "2343": "\u0120terri",
  "2344": "dy",
  "2345": "ma",
  "2346": "\u0120opt",
  "2347": "\u0120saved",
  "2348": "istic",
  "2349": "\u0120giving",
  "2350": "\u0120exams",
  "2351": "\u0120problems",
  "2352": "\u0120accepted",
  "2353": "\u0120current",
  "2354": "father",
  "2355": "\u0120cel",
  "2356": "\u0120treat",
  "2357": "\u0120dish",
  "2358": "\u0120gh",
  "2359": "\u0120noise",
  "2360": "pect",
  "2361": "io",
  "2362": "\u0120mot",
  "2363": "\u0120bat",
  "2364": "\u0120ill",
  "2365": "rol",
  "2366": "ressive",
  "2367": "\u0120knows",
  "2368": "\u0120Be",
  "2369": "\u0120quit",
  "2370": "ized",
  "2371": "\u0120phys",
  "2372": "fortable",
  "2373": "\u0120candy",
  "2374": "\u0120Trump",
  "2375": "\u0120large",
  "2376": "Have",
  "2377": "\u0120Al",
  "2378": "\u0120speed",
  "2379": "\u0120needs",
  "2380": "\u0120Never",
  "2381": "\u0120talked",
  "2382": "ific",
  "2383": "\u0120celeb",
  "2384": "\u0120cre",
  "2385": "\u0120norm",
  "2386": "key",
  "2387": "\u0120become",
  "2388": "\u0120tripped",
  "2389": "olog",
  "2390": "\u0120satis",
  "2391": "airs",
  "2392": "\u0120competition",
  "2393": "olutely",
  "2394": "Don",
  "2395": "bo",
  "2396": "ink",
  "2397": "\u0120refu",
  "2398": "\u0120pray",
  "2399": "\u0120Well",
  "2400": "\u0120coun",
  "2401": "\u0120bonus",
  "2402": "ored",
  "2403": "vest",
  "2404": "\u0120sudden",
  "2405": "ili",
  "2406": "\u0120cars",
  "2407": "\u0120grandfather",
  "2408": "\u0120emp",
  "2409": "\u0120animals",
  "2410": "\u0120nostalgic",
  "2411": "\u0120poor",
  "2412": "ado",
  "2413": "\u0120issues",
  "2414": "Last",
  "2415": "\u0120bra",
  "2416": "\u0120shop",
  "2417": "\u0120kinda",
  "2418": "\u0120Even",
  "2419": "\u0120extr",
  "2420": "ude",
  "2421": "owl",
  "2422": "\u0120god",
  "2423": "\u0120knowing",
  "2424": "\u0120everywhere",
  "2425": "\u0120quest",
  "2426": "\u0120saying",
  "2427": "\u0120package",
  "2428": "\u0120cried",
  "2429": "\u0120hadn",
  "2430": "\u0120safe",
  "2431": "\u0120appoint",
  "2432": "\u0120funny",
  "2433": "rossed",
  "2434": "\u0120opened",
  "2435": "\u0120strugg",
  "2436": "Good",
  "2437": "Just",
  "2438": "\u0120amount",
  "2439": "\u0120cheat",
  "2440": "\u0120blood",
  "2441": "\u0120resc",
  "2442": "\u0120furious",
  "2443": "\u0120soccer",
  "2444": "intend",
  "2445": "\u0120wast",
  "2446": "\u0120save",
  "2447": "\u0120adop",
  "2448": "\u0120paper",
  "2449": "thats",
  "2450": "ricane",
  "2451": "\u0120animal",
  "2452": "\u0120destr",
  "2453": "intendo",
  "2454": "ots",
  "2455": "\u0120healthy",
  "2456": "\u0120Friday",
  "2457": "ub",
  "2458": "\u0120:(",
  "2459": "\u0120base",
  "2460": "\u0120finish",
  "2461": "\u0120New",
  "2462": "\u0120bird",
  "2463": "\u0120score",
  "2464": "\u0120cleaned",
  "2465": "haha",
  "2466": "\u0120control",
  "2467": "\u0120ghost",
  "2468": "eel",
  "2469": "\u0120tast",
  "2470": "\u012018",
  "2471": "\u0120type",
  "2472": "\u0120lit",
  "2473": "\u0120nur",
  "2474": "ility",
  "2475": "ected",
  "2476": "\u0120bros",
  "2477": "uckily",
  "2478": "\u0120winning",
  "2479": "\u0120amazed",
  "2480": "\u0120spending",
  "2481": "\u0120pleased",
  "2482": "\u0120torn",
  "2483": "\u0120service",
  "2484": "\u0120appointment",
  "2485": "Is",
  "2486": "du",
  "2487": "\u0120hon",
  "2488": "\u0120sand",
  "2489": "itten",
  "2490": "\u0120black",
  "2491": "ocol",
  "2492": "\u0120Super",
  "2493": "\u0120interesting",
  "2494": "\u0120empty",
  "2495": "\u0120extrem",
  "2496": "\u0120speak",
  "2497": "assing",
  "2498": "\u0120publ",
  "2499": "\u0120frustrating",
  "2500": "Ha",
  "2501": "ix",
  "2502": "ng",
  "2503": "\u0120sy",
  "2504": "edu",
  "2505": "agn",
  "2506": "\u0120budd",
  "2507": "\u0120fire",
  "2508": "pet",
  "2509": "ision",
  "2510": "\u0120killed",
  "2511": "\u0120himself",
  "2512": "\u0120Dis",
  "2513": "\u0120driver",
  "2514": "\u0120attend",
  "2515": "\u0120homeless",
  "2516": "ote",
  "2517": "\u0120abs",
  "2518": "eck",
  "2519": "\u0120teen",
  "2520": "\u0120skill",
  "2521": "\u0120learn",
  "2522": "\u0120success",
  "2523": "\u0120fit",
  "2524": "\u0120fart",
  "2525": "\u0120repl",
  "2526": "arden",
  "2527": "arely",
  "2528": "\u0120trans",
  "2529": "\u0120graduation",
  "2530": "\u0120photo",
  "2531": "land",
  "2532": "nam",
  "2533": "ror",
  "2534": "ses",
  "2535": "the",
  "2536": "\u0120die",
  "2537": "\u0120purch",
  "2538": "\u0120exactly",
  "2539": "\u0120jobs",
  "2540": "\u0120anyway",
  "2541": "\u0120nerves",
  "2542": "\u0120rude",
  "2543": "\u0120miles",
  "2544": "\u0120financial",
  "2545": "\u0120satisfied",
  "2546": "body",
  "2547": "sel",
  "2548": "used",
  "2549": "\u0120sort",
  "2550": "\u0120fil",
  "2551": "emon",
  "2552": "antly",
  "2553": "\u0120chocol",
  "2554": "\u0120ruined",
  "2555": "\u0120items",
  "2556": "\u0120baseball",
  "2557": "\u0120simp",
  "2558": "\u0120eff",
  "2559": "head",
  "2560": "\u0120fear",
  "2561": "\u0120pee",
  "2562": "\u0120flight",
  "2563": "\u0120promoted",
  "2564": "\u0120complain",
  "2565": "\u0120basement",
  "2566": "\u0120social",
  "2567": "\u0120cookies",
  "2568": "over",
  "2569": "\u0120tree",
  "2570": "atur",
  "2571": "\u0120lay",
  "2572": "ida",
  "2573": "ict",
  "2574": "icul",
  "2575": "ters",
  "2576": "\u0120Were",
  "2577": "\u0120shouldn",
  "2578": "iversity",
  "2579": "ock",
  "2580": "\u0120cau",
  "2581": "orld",
  "2582": "\u0120kill",
  "2583": "\u0120plac",
  "2584": "\u0120badly",
  "2585": "\u0120brothers",
  "2586": "\u0120buying",
  "2587": "\u0120strange",
  "2588": "\u0120Everyone",
  "2589": "\u0120gener",
  "2590": "\u0120av",
  "2591": "\u0120fan",
  "2592": "\u0120Where",
  "2593": "\u0120asleep",
  "2594": "\u0120putting",
  "2595": "ction",
  "2596": "\u0120annivers",
  "2597": "\u0120maj",
  "2598": "\u0120crashed",
  "2599": "bum",
  "2600": "cking",
  "2601": "eople",
  "2602": "\u0120content",
  "2603": "ises",
  "2604": "\u0120post",
  "2605": "\u0120opp",
  "2606": "ries",
  "2607": "lew",
  "2608": "icked",
  "2609": "uts",
  "2610": "\u0120album",
  "2611": "\u0120Our",
  "2612": "\u0120Going",
  "2613": "ongrats",
  "2614": "\u0120dating",
  "2615": "\u0120rese",
  "2616": "\u0120using",
  "2617": "\u0120packed",
  "2618": "\u0120Hopefully",
  "2619": "\u0120number",
  "2620": "\u0120lic",
  "2621": "unity",
  "2622": "\u0120leg",
  "2623": "\u0120faithful",
  "2624": "\u0120qual",
  "2625": "\u0120several",
  "2626": "\u0120Disney",
  "2627": "\u0120anniversary",
  "2628": "joyed",
  "2629": "ss",
  "2630": "\u0120wood",
  "2631": "\u0120bike",
  "2632": "\u0120sold",
  "2633": "aged",
  "2634": "\u0120award",
  "2635": "\u0120clear",
  "2636": "This",
  "2637": "\u0120swimming",
  "2638": "\u0120irritated",
  "2639": "\u0120research",
  "2640": "??",
  "2641": "fying",
  "2642": "ocked",
  "2643": "\u0120ten",
  "2644": "\u0120mort",
  "2645": "\u0120grew",
  "2646": "\u0120notice",
  "2647": "\u0120death",
  "2648": "\u0120attack",
  "2649": "\u0120impressive",
  "2650": "\u0120sleeping",
  "2651": "\u0120stra",
  "2652": "resh",
  "2653": "\u0120longer",
  "2654": "\u0120blue",
  "2655": "\u0120picked",
  "2656": "\u0120minute",
  "2657": "\u0120picture",
  "2658": "coming",
  "2659": "Im",
  "2660": "\u0120cart",
  "2661": "\u0120joy",
  "2662": "oyal",
  "2663": "\u0120switch",
  "2664": "\u0120turns",
  "2665": "\u0120fixed",
  "2666": "\u0120proper",
  "2667": "\u0120chocolate",
  "2668": "ram",
  "2669": "asing",
  "2670": "ets",
  "2671": "\u0120parent",
  "2672": "\u0120Me",
  "2673": "\u0120riding",
  "2674": "\u0120flying",
  "2675": "ler",
  "2676": "\u0120sign",
  "2677": "\u0120pur",
  "2678": "\u0120shirt",
  "2679": "\u0120exp",
  "2680": "\u0120losing",
  "2681": "\u0120enjoyed",
  "2682": "\u0120Luckily",
  "2683": "ptop",
  "2684": "\u0120laptop",
  "2685": "\u0120internet",
  "2686": "\u0120extremely",
  "2687": "Was",
  "2688": "ber",
  "2689": "ouch",
  "2690": "\u0120beha",
  "2691": "\u0120Went",
  "2692": "\u0120prof",
  "2693": "\u0120checked",
  "2694": "\u0120pull",
  "2695": "\u0120Those",
  "2696": "ancy",
  "2697": "\u0120chicken",
  "2698": "\u0120public",
  "2699": "\u0120major",
  "2700": "\u0120aut",
  "2701": "oun",
  "2702": "\u0120jumped",
  "2703": "\u0120apply",
  "2704": "gged",
  "2705": "xiety",
  "2706": "\u0120mall",
  "2707": "\u0120wasnt",
  "2708": "\u0120beg",
  "2709": "imistic",
  "2710": "\u0120anxiety",
  "2711": "\u0120carpet",
  "2712": "\u012012",
  "2713": "ize",
  "2714": "\u0120contin",
  "2715": "ze",
  "2716": "ened",
  "2717": "\u0120gra",
  "2718": "arm",
  "2719": "asty",
  "2720": "\u0120lead",
  "2721": "\u0120university",
  "2722": "\u0120helps",
  "2723": "ager",
  "2724": "\u012050",
  "2725": "\u0120heartb",
  "2726": "\u0120groceries",
  "2727": "\u0120wearing",
  "2728": "\u0120schol",
  "2729": "\u0120mistake",
  "2730": "\u0120embarrassing",
  "2731": "\u0120sandw",
  "2732": "\u0120tax",
  "2733": "ering",
  "2734": "\u0120filled",
  "2735": "\u0120toil",
  "2736": "\u0120garden",
  "2737": "\u0120haun",
  "2738": "icious",
  "2739": "irty",
  "2740": "gue",
  "2741": "\u0120disgust",
  "2742": "\u0120trave",
  "2743": "ency",
  "2744": "\u0120figure",
  "2745": "\u0120buddy",
  "2746": "\u0120haunted",
  "2747": "50",
  "2748": "ract",
  "2749": "ones",
  "2750": "\u0120sentimental",
  "2751": "\u0120dou",
  "2752": "\u0120dru",
  "2753": "\u0120ind",
  "2754": "ecently",
  "2755": "\u0120spot",
  "2756": "\u0120glass",
  "2757": "\u0120pair",
  "2758": "\u0120Sunday",
  "2759": "\u0120toilet",
  "2760": "\u0120ahead",
  "2761": "\u0120fresh",
  "2762": "\u0120cheap",
  "2763": "\u0120couch",
  "2764": "\u0120scre",
  "2765": "\u0120cond",
  "2766": "\u0120shows",
  "2767": "Aww",
  "2768": "\u0120respons",
  "2769": "cc",
  "2770": "sit",
  "2771": "\u0120wer",
  "2772": "\u0120send",
  "2773": "\u0120yelled",
  "2774": "\u0120School",
  "2775": "\u0120plane",
  "2776": "\u0120against",
  "2777": "\u0120visiting",
  "2778": "\u0120bummed",
  "2779": "\u0120optimistic",
  "2780": "aiting",
  "2781": "fer",
  "2782": "wow",
  "2783": "\u0120touch",
  "2784": "\u0120ach",
  "2785": "\u0120nasty",
  "2786": "\u0120beer",
  "2787": "\u0120staying",
  "2788": "\u0120aren",
  "2789": "\u0120hurricane",
  "2790": "\u0120managed",
  "2791": "\u0120Un",
  "2792": "\u0120distance",
  "2793": "\u0120building",
  "2794": "\u0120absolutely",
  "2795": "ai",
  "2796": "sy",
  "2797": "\u0120thri",
  "2798": "\u0120squ",
  "2799": "\u0120four",
  "2800": "\u0120cam",
  "2801": "\u0120race",
  "2802": "\u0120alive",
  "2803": "ilt",
  "2804": "\u0120spider",
  "2805": "\u0120val",
  "2806": "ached",
  "2807": "arship",
  "2808": "\u0120dollar",
  "2809": "Maybe",
  "2810": "\u0120barely",
  "2811": "\u0120ob",
  "2812": "\u0120feed",
  "2813": "ession",
  "2814": "\u0120Don",
  "2815": "\u0120nerve",
  "2816": "\u0120drivers",
  "2817": "\u0120disgusted",
  "2818": "\u0120babies",
  "2819": "\u0120court",
  "2820": "\u0120appreciate",
  "2821": "\u0120scholarship",
  "2822": "\u0120IT",
  "2823": "\u0120fing",
  "2824": "\u0120toys",
  "2825": "\u0120station",
  "2826": "pper",
  "2827": "\u0120herself",
  "2828": "iest",
  "2829": "\u0120comfortable",
  "2830": "agles",
  "2831": "\u0120adult",
  "2832": "\u0120tournam",
  "2833": "\u0120robbed",
  "2834": "mit",
  "2835": "\u0120tre",
  "2836": "ins",
  "2837": "\u0120sou",
  "2838": "\u0120towards",
  "2839": "\u0120loyal",
  "2840": "idge",
  "2841": "\u0120invest",
  "2842": "\u0120World",
  "2843": "\u0120100",
  "2844": "\u0120diagn",
  "2845": "\u0120finding",
  "2846": "\u0120disc",
  "2847": "\u0120elect",
  "2848": "\u0120turning",
  "2849": "\u0120syst",
  "2850": "let",
  "2851": "ments",
  "2852": "\u0120table",
  "2853": "\u0120dam",
  "2854": "\u0120customer",
  "2855": "\u0120cop",
  "2856": "riage",
  "2857": "ication",
  "2858": "\u0120afterwards",
  "2859": "\u0120deep",
  "2860": "\u0120key",
  "2861": "\u0120flood",
  "2862": "\u0120stranger",
  "2863": "\u0120choice",
  "2864": "\u0120hungry",
  "2865": "selves",
  "2866": "Really",
  "2867": "ycle",
  "2868": "ining",
  "2869": "\u0120fact",
  "2870": "allow",
  "2871": "ama",
  "2872": "\u0120feet",
  "2873": "\u0120Sp",
  "2874": "\u0120devastated",
  "2875": "\u0120happening",
  "2876": "\u0120const",
  "2877": "\u0120issue",
  "2878": "\u0120approved",
  "2879": "\u0120deserve",
  "2880": "One",
  "2881": "ye",
  "2882": "\u0120burn",
  "2883": "\u0120low",
  "2884": "rim",
  "2885": "eth",
  "2886": "\u0120meant",
  "2887": "\u0120means",
  "2888": "check",
  "2889": "\u0120gold",
  "2890": "\u0120kitten",
  "2891": "ault",
  "2892": "\u0120tex",
  "2893": "\u0120fired",
  "2894": "\u0120hasn",
  "2895": "\u0120truly",
  "2896": "\u0120destroyed",
  "2897": "\u0120license",
  "2898": "ok",
  "2899": "yard",
  "2900": "\u0120niece",
  "2901": "vered",
  "2902": "\u0120ec",
  "2903": "\u0120upcoming",
  "2904": "\u0120exce",
  "2905": "\u0120became",
  "2906": "ument",
  "2907": "\u0120Mc",
  "2908": "\u0120direct",
  "2909": "\u0120shouldnt",
  "2910": "\u0120scare",
  "2911": "\u0120students",
  "2912": "\u0120Thank",
  "2913": "\u0120drop",
  "2914": "\u0120fiance",
  "2915": "\u0120body",
  "2916": "\u0120vet",
  "2917": "\u0120debt",
  "2918": "\u0120sandwich",
  "2919": "eg",
  "2920": "port",
  "2921": "we",
  "2922": "\u0120fault",
  "2923": "eld",
  "2924": "\u0120eyes",
  "2925": "\u0120stom",
  "2926": "\u0120rather",
  "2927": "acks",
  "2928": "\u0120spouse",
  "2929": "\u0120closed",
  "2930": "\u0120hopefully",
  "2931": "\u012013",
  "2932": "\u0120shower",
  "2933": "\u0120depressed",
  "2934": "\u0120medical",
  "2935": "\u0120hanging",
  "2936": "\u0120vomited",
  "2937": "\u0120tornado",
  "2938": "\u0120system",
  "2939": "oid",
  "2940": "\u0120join",
  "2941": "\u0120student",
  "2942": "\u012040",
  "2943": "\u0120books",
  "2944": "\u0120wreck",
  "2945": "fast",
  "2946": "ove",
  "2947": "vent",
  "2948": "\u0120mill",
  "2949": "\u0120sol",
  "2950": "\u0120stressed",
  "2951": "ecause",
  "2952": "\u0120vol",
  "2953": "\u0120decent",
  "2954": "\u0120handle",
  "2955": "\u0120emotional",
  "2956": "ares",
  "2957": "\u0120stol",
  "2958": "\u0120expl",
  "2959": "\u0120travel",
  "2960": "\u0120art",
  "2961": "\u0120Recently",
  "2962": "\u0120drinking",
  "2963": "\u0120dentist",
  "2964": "\u0120inform",
  "2965": "lorida",
  "2966": "\u0120possible",
  "2967": "\u0120effort",
  "2968": "\u0120stolen",
  "2969": "?!",
  "2970": "ift",
  "2971": "\u0120pig",
  "2972": "\u0120whenever",
  "2973": "\u0120fridge",
  "2974": "\u0120organ",
  "2975": "igned",
  "2976": "\u0120Loo",
  "2977": "\u0120learning",
  "2978": "\u0120delicious",
  "2979": "\u0120disgusting",
  "2980": "\u0120stomach",
  "2981": "ween",
  "2982": "erc",
  "2983": "\u0120wont",
  "2984": "\u0120ther",
  "2985": "\u0120ben",
  "2986": "\u0120det",
  "2987": "\u0120gre",
  "2988": "\u0120push",
  "2989": "\u0120cance",
  "2990": "roken",
  "2991": "\u0120sell",
  "2992": "\u0120divor",
  "2993": "\u0120feelings",
  "2994": "\u0120Florida",
  "2995": "\u0120hearing",
  "2996": "\u0120account",
  "2997": "\u0120babysit",
  "2998": "\u0120winter",
  "2999": "\u0120following",
  "3000": "\u0120tournament",
  "3001": "\u0120gun",
  "3002": "\u0120pop",
  "3003": "\u0120While",
  "3004": "\u0120Any",
  "3005": "ains",
  "3006": "\u0120coaster",
  "3007": "\u0120uns",
  "3008": "\u0120between",
  "3009": "\u0120Eagles",
  "3010": "\u0120sky",
  "3011": "\u0120performance",
  "3012": "\u0120skills",
  "3013": "\u0120match",
  "3014": "\u0120cross",
  "3015": "\u0120ham",
  "3016": "\u0120Had",
  "3017": "\u0120York",
  "3018": "\u0120breakfast",
  "3019": "\u0120Kind",
  "3020": "\u0120accept",
  "3021": "\u0120stressful",
  "3022": "\u0120heartbroken",
  "3023": "Sorry",
  "3024": "come",
  "3025": "\u0120fat",
  "3026": "\u0120reun",
  "3027": "\u0120note",
  "3028": "\u0120share",
  "3029": "\u0120exerc",
  "3030": "\u0120uncle",
  "3031": "\u0120smo",
  "3032": "\u0120arm",
  "3033": "\u0120pets",
  "3034": "\u0120burger",
  "3035": "\u0120wake",
  "3036": "\u0120dumb",
  "3037": "oof",
  "3038": "\u0120egg",
  "3039": "\u0120sport",
  "3040": "\u0120paycheck",
  "3041": "\u0120talent",
  "3042": "\u0120Good",
  "3043": "Sounds",
  "3044": "den",
  "3045": "inter",
  "3046": "\u0120men",
  "3047": "iders",
  "3048": "\u0120rat",
  "3049": "though",
  "3050": "\u0120backyard",
  "3051": "\u0120nose",
  "3052": "\u0120text",
  "3053": "\u0120loves",
  "3054": "\u0120scream",
  "3055": "\u0120grades",
  "3056": "\u0120People",
  "3057": "\u0120grown",
  "3058": "\u0120drove",
  "3059": "\u0120basket",
  "3060": "\u0120reading",
  "3061": "\u0120arrived",
  "3062": "\u0120randomly",
  "3063": "Someone",
  "3064": "\u0120program",
  "3065": "\u0120suddenly",
  "3066": "20",
  "3067": "Ah",
  "3068": "Who",
  "3069": "ef",
  "3070": "ront",
  "3071": "ube",
  "3072": "\u0120bot",
  "3073": "\u0120cause",
  "3074": "\u0120shel",
  "3075": "\u0120waited",
  "3076": "\u0120flow",
  "3077": "\u0120says",
  "3078": "\u0120stoked",
  "3079": "\u0120emerg",
  "3080": "\u0120reminds",
  "3081": "\u0120eventually",
  "3082": "\u0120garage",
  "3083": "\u0120begin",
  "3084": "Hi",
  "3085": "\u0120!",
  "3086": "\u0120mouth",
  "3087": "ices",
  "3088": "icle",
  "3089": "\u0120ign",
  "3090": "\u0120Turn",
  "3091": "\u0120anywhere",
  "3092": "\u0120unfortunately",
  "3093": "\u0120Nintendo",
  "3094": "\u0120Got",
  "3095": "\u0120God",
  "3096": "\u0120visited",
  "3097": "\u0120boat",
  "3098": "\u0120Everything",
  "3099": "ockey",
  "3100": "yeah",
  "3101": "\u0120words",
  "3102": "\u0120creep",
  "3103": "\u0120achie",
  "3104": "MY",
  "3105": "\u0120grossed",
  "3106": "ids",
  "3107": "ended",
  "3108": "\u0120rac",
  "3109": "asters",
  "3110": "\u0120prep",
  "3111": "\u0120cold",
  "3112": "\u0120evening",
  "3113": "\u0120process",
  "3114": "\u0120relie",
  "3115": "\u0120calling",
  "3116": "\u0120decision",
  "3117": "\u0120report",
  "3118": "\u0120terrifying",
  "3119": "\u0120speeding",
  "3120": "\u0120celebr",
  "3121": "Congratulations",
  "3122": "Every",
  "3123": "\u0120tas",
  "3124": "\u0120fish",
  "3125": "ator",
  "3126": "\u0120lon",
  "3127": "\u0120pounds",
  "3128": "\u0120whate",
  "3129": "\u0120stick",
  "3130": "appy",
  "3131": "\u0120color",
  "3132": "ape",
  "3133": "\u0120easier",
  "3134": "\u0120closet",
  "3135": "\u0120crying",
  "3136": "\u0120honestly",
  "3137": "\u0120consider",
  "3138": "\u0120honor",
  "3139": "Haha",
  "3140": "\u0120weren",
  "3141": "\u0120whatever",
  "3142": "AT",
  "3143": "fl",
  "3144": "\u0120tire",
  "3145": "enior",
  "3146": "inally",
  "3147": "\u0120occ",
  "3148": "\u0120requ",
  "3149": "alk",
  "3150": "\u0120lie",
  "3151": "\u0120shame",
  "3152": "ational",
  "3153": "\u0120oldest",
  "3154": "\u0120letter",
  "3155": "ption",
  "3156": "\u0120gives",
  "3157": "ances",
  "3158": "Hey",
  "3159": "gging",
  "3160": "\u0120receive",
  "3161": "\u0120cooked",
  "3162": "\u0120opport",
  "3163": "\u0120cancelled",
  "3164": "use",
  "3165": "\u0120hockey",
  "3166": "\u0120flew",
  "3167": "asy",
  "3168": "ising",
  "3169": "artment",
  "3170": "\u0120allow",
  "3171": "\u0120prepar",
  "3172": "\u0120peed",
  "3173": "\u0120clim",
  "3174": "olved",
  "3175": "\u0120thanks",
  "3176": "\u0120twice",
  "3177": "\u0120US",
  "3178": "\u0120cashier",
  "3179": "\u0120delivery",
  "3180": "\u0120motor",
  "3181": "Donald",
  "3182": "\u0120shelter",
  "3183": "did",
  "3184": "lish",
  "3185": "\u0120taught",
  "3186": "erally",
  "3187": "\u0120third",
  "3188": "\u0120fed",
  "3189": "\u0120crow",
  "3190": "\u0120lane",
  "3191": "\u0120nail",
  "3192": "icer",
  "3193": "\u0120story",
  "3194": "\u0120caring",
  "3195": "\u0120acting",
  "3196": "ext",
  "3197": "\u0120attic",
  "3198": "\u0120entered",
  "3199": "\u0120headed",
  "3200": "\u0120201",
  "3201": "avy",
  "3202": "\u0120accomplish",
  "3203": "\u0120volunt",
  "3204": "lord",
  "3205": "mart",
  "3206": "\u0120five",
  "3207": "\u0120jer",
  "3208": "urs",
  "3209": "\u0120rush",
  "3210": "\u0120Satur",
  "3211": "\u0120loss",
  "3212": "\u0120Ha",
  "3213": "rown",
  "3214": "\u0120career",
  "3215": "\u0120craw",
  "3216": "\u0120horror",
  "3217": "\u0120slipped",
  "3218": "\u0120passing",
  "3219": "\u0120strong",
  "3220": "\u0120farted",
  "3221": "\u0120purchased",
  "3222": "\u0120places",
  "3223": "\u0120mortified",
  "3224": "\u0120volunte",
  "3225": "\u0120Saturday",
  "3226": "On",
  "3227": "cus",
  "3228": "iod",
  "3229": "ued",
  "3230": "\u0120messed",
  "3231": "\u0120signed",
  "3232": "\u0120pan",
  "3233": "\u0120bey",
  "3234": "\u0120stor",
  "3235": "\u0120goal",
  "3236": "\u0120supris",
  "3237": "\u0120sunday",
  "3238": "\u0120recip",
  "3239": "\u0120keys",
  "3240": "\u0120biggest",
  "3241": "apers",
  "3242": "\u0120period",
  "3243": "\u0120rescue",
  "3244": "\u0120behav",
  "3245": "\u0120diagnosed",
  "3246": "aper",
  "3247": "bbed",
  "3248": "under",
  "3249": "\u0120senior",
  "3250": "\u0120lake",
  "3251": "\u0120fort",
  "3252": "\u0120christmas",
  "3253": "\u0120carry",
  "3254": "\u0120noises",
  "3255": "\u0120pride",
  "3256": "\u0120convers",
  "3257": "\u0120relative",
  "3258": "\u0120marriage",
  "3259": "\u0120crushed",
  "3260": "\u0120million",
  "3261": "\u0120crowd",
  "3262": "gar",
  "3263": "kward",
  "3264": "well",
  "3265": "\u0120trusting",
  "3266": "\u0120main",
  "3267": "\u0120sense",
  "3268": "\u0120dirty",
  "3269": "\u0120chat",
  "3270": "ison",
  "3271": "ayed",
  "3272": "idence",
  "3273": "\u0120inj",
  "3274": "icing",
  "3275": "\u0120stin",
  "3276": "\u0120kick",
  "3277": "ights",
  "3278": "\u0120bugs",
  "3279": "\u012014",
  "3280": "\u0120Or",
  "3281": "\u0120Feel",
  "3282": "\u0120letting",
  "3283": "\u0120drank",
  "3284": "\u0120lights",
  "3285": "\u0120freaked",
  "3286": "\u0120dishes",
  "3287": "\u0120Turns",
  "3288": "Sometimes",
  "3289": "bit",
  "3290": "bly",
  "3291": "cul",
  "3292": "ging",
  "3293": "giving",
  "3294": "lar",
  "3295": "wh",
  "3296": "\u0120tem",
  "3297": "eral",
  "3298": "\u0120neck",
  "3299": "\u0120abused",
  "3300": "\u0120spo",
  "3301": "\u0120spiders",
  "3302": "\u0120parked",
  "3303": "\u0120moms",
  "3304": "\u0120flat",
  "3305": "\u0120contact",
  "3306": "\u0120hands",
  "3307": "\u0120incred",
  "3308": "\u0120landlord",
  "3309": "\u0120draw",
  "3310": "\u0120canceled",
  "3311": "\u0120\u0120\u0120\u0120\u0120\u0120\u0120\u0120\u0120\u0120\u0120\u0120\u0120\u0120\u0120\u0120",
  "3312": "\u0120normal",
  "3313": "\u0120flowers",
  "3314": "\u0120emergency",
  "3315": "\u0120beyond",
  "3316": "ale",
  "3317": "back",
  "3318": "vis",
  "3319": "\u0120tip",
  "3320": "ony",
  "3321": "\u0120bowl",
  "3322": "\u0120lif",
  "3323": "ilar",
  "3324": "\u0120knocked",
  "3325": "\u0120An",
  "3326": "ained",
  "3327": "\u0120Makes",
  "3328": "\u0120ripped",
  "3329": "\u0120awkward",
  "3330": "\u0120Eng",
  "3331": "\u0120board",
  "3332": "\u0120desk",
  "3333": "\u0120insp",
  "3334": "ergy",
  "3335": "\u0120smelled",
  "3336": "\u0120closer",
  "3337": "\u0120applying",
  "3338": "Yep",
  "3339": "bout",
  "3340": "oll",
  "3341": "ug",
  "3342": "ines",
  "3343": "orn",
  "3344": "\u0120laz",
  "3345": "\u0120oh",
  "3346": "\u0120review",
  "3347": "\u0120Tomorrow",
  "3348": "\u0120shot",
  "3349": "\u0120themselves",
  "3350": "\u012016",
  "3351": "\u0120pays",
  "3352": "\u0120remembered",
  "3353": "\u0120suppose",
  "3354": "\u0120hitting",
  "3355": "\u0120luckily",
  "3356": "\u0120charge",
  "3357": "\u0120correct",
  "3358": "\u0120laughing",
  "3359": "\u0120calm",
  "3360": "\u0120stealing",
  "3361": "\u0120regret",
  "3362": "\u0120answer",
  "3363": "\u0120reunion",
  "3364": "\u0120behavior",
  "3365": "\u0120fortun",
  "3366": "OL",
  "3367": "uum",
  "3368": "vy",
  "3369": "\u0120tin",
  "3370": "\u0120dem",
  "3371": "\u0120dump",
  "3372": "\u0120cell",
  "3373": "\u0120pumped",
  "3374": "\u0120likes",
  "3375": "acked",
  "3376": "\u0120plant",
  "3377": "\u0120teeth",
  "3378": "\u0120agg",
  "3379": "akers",
  "3380": "\u0120bull",
  "3381": "\u0120skin",
  "3382": "ibly",
  "3383": "board",
  "3384": "\u0120burned",
  "3385": "\u0120McDonald",
  "3386": "\u0120therap",
  "3387": "\u0120basketball",
  "3388": "onom",
  "3389": "\u0120mower",
  "3390": "\u0120hide",
  "3391": "\u0120tooth",
  "3392": "\u0120todd",
  "3393": "\u0120wash",
  "3394": "\u0120eye",
  "3395": "\u0120ath",
  "3396": "\u0120within",
  "3397": "\u0120moments",
  "3398": "\u0120arg",
  "3399": "\u0120immed",
  "3400": "\u0120impro",
  "3401": "\u0120breaking",
  "3402": "\u0120gifts",
  "3403": "\u0120depress",
  "3404": "ival",
  "3405": "\u0120milk",
  "3406": "\u0120progress",
  "3407": "\u0120questions",
  "3408": "\u0120albums",
  "3409": "\u0120fingers",
  "3410": "\u0120lazy",
  "3411": "\u0120immedi",
  "3412": "\".",
  "3413": "bage",
  "3414": "ey",
  "3415": "ikes",
  "3416": "\u0120mow",
  "3417": "ides",
  "3418": "\u0120reward",
  "3419": "\u0120rot",
  "3420": "\u0120hardly",
  "3421": "\u0120grandpar",
  "3422": "\u0120giant",
  "3423": "\u0120doctors",
  "3424": "\u0120throwing",
  "3425": "\u0120warm",
  "3426": "\u0120certainly",
  "3427": "\u0120adopted",
  "3428": "alloween",
  "3429": "Yesterday",
  "3430": "\u0120toe",
  "3431": "\u0120ref",
  "3432": "\u0120stage",
  "3433": "\u0120ju",
  "3434": "\u0120roof",
  "3435": "\u0120alright",
  "3436": "roat",
  "3437": "\u0120Sm",
  "3438": "iling",
  "3439": "\u0120nowhere",
  "3440": "\u0120vacuum",
  "3441": "\u0120fully",
  "3442": "\u0120memory",
  "3443": "\u0120commit",
  "3444": "\u0120physics",
  "3445": "\u0120struggling",
  "3446": "In",
  "3447": "Where",
  "3448": "ps",
  "3449": "\u0120mood",
  "3450": "\u0120fright",
  "3451": "\u0120fishing",
  "3452": "\u0120ditch",
  "3453": "\u0120dumped",
  "3454": "orch",
  "3455": "orth",
  "3456": "\u0120neg",
  "3457": "aced",
  "3458": "ushing",
  "3459": "\u0120shock",
  "3460": "\u0120steps",
  "3461": "\u0120arrive",
  "3462": "\u0120patient",
  "3463": "\u0120accomplished",
  "3464": "\u0120prepare",
  "3465": "pite",
  "3466": "\u0120wet",
  "3467": "ino",
  "3468": "\u0120hi",
  "3469": "read",
  "3470": "\u0120shift",
  "3471": "\u0120goodness",
  "3472": "\u0120spell",
  "3473": "\u0120loose",
  "3474": "\u0120level",
  "3475": "\u0120rock",
  "3476": "\u012019",
  "3477": "\u0120produ",
  "3478": "\u0120Life",
  "3479": "\u0120shoot",
  "3480": "\u0120scored",
  "3481": "\u0120conv",
  "3482": "ection",
  "3483": "\u0120wrote",
  "3484": "\u0120owner",
  "3485": "\u0120graduating",
  "3486": "\u0120nearly",
  "3487": "ebron",
  "3488": "\u0120complete",
  "3489": "\u0120veh",
  "3490": "\u0120engaged",
  "3491": "\u0120garbage",
  "3492": "\u0120Before",
  "3493": "\u0120literally",
  "3494": "\u0120film",
  "3495": "\u0120condition",
  "3496": "ienc",
  "3497": "\u0120er",
  "3498": "\u0120et",
  "3499": "\u0120till",
  "3500": "\u0120mile",
  "3501": "\u0120ho",
  "3502": "\u0120cas",
  "3503": "ays",
  "3504": "\u0120regu",
  "3505": "\u0120ring",
  "3506": "illy",
  "3507": "\u0120somewhere",
  "3508": "\u0120shar",
  "3509": "\u0120Sh",
  "3510": "\u0120Lebron",
  "3511": "\u0120careful",
  "3512": "\u0120doesnt",
  "3513": "\u0120enjoying",
  "3514": "\u0120concerned",
  "3515": "\u0120charac",
  "3516": "\u0120currently",
  "3517": "rones",
  "3518": "\u0120spring",
  "3519": "ology",
  "3520": "\u0120wasted",
  "3521": "\u0120stinks",
  "3522": "\u0120tiny",
  "3523": "\u0120athlet",
  "3524": "\u0120immediately",
  "3525": "\u0120regular",
  "3526": "For",
  "3527": "Man",
  "3528": "ister",
  "3529": "specially",
  "3530": "\u0120ed",
  "3531": "ening",
  "3532": "ince",
  "3533": "\u0120furn",
  "3534": "\u0120toy",
  "3535": "atic",
  "3536": "\u0120danger",
  "3537": "\u0120cu",
  "3538": "\u0120oil",
  "3539": "\u0120amus",
  "3540": "\u0120friday",
  "3541": "\u0120Halloween",
  "3542": "eaking",
  "3543": "\u0120backed",
  "3544": "\u0120recover",
  "3545": "\u0120held",
  "3546": "\u0120prov",
  "3547": "\u0120flies",
  "3548": "\u0120youngest",
  "3549": "\u0120Really",
  "3550": "\u0120driveway",
  "3551": "\u0120boring",
  "3552": "\u0120involved",
  "3553": "\u0120repe",
  "3554": "\u0120experienc",
  "3555": "\u0120surv",
  "3556": "\u0120raining",
  "3557": "\u0120dreams",
  "3558": "\u0120interested",
  "3559": "\u0120practicing",
  "3560": "\u0120question",
  "3561": "\u0120straight",
  "3562": "\u0120constantly",
  "3563": "\u0120argument",
  "3564": "Were",
  "3565": "ev",
  "3566": "\u0120hyp",
  "3567": "\u0120butt",
  "3568": "\u0120shut",
  "3569": "ilities",
  "3570": "\u0120sale",
  "3571": "\u0120tech",
  "3572": "\u0120afterno",
  "3573": "\u0120blow",
  "3574": "\u0120Thanks",
  "3575": "\u0120picking",
  "3576": "\u0120apolog",
  "3577": "\u0120bedroom",
  "3578": "eeing",
  "3579": "\u0120invite",
  "3580": "\u0120hotel",
  "3581": "awai",
  "3582": "\u0120holidays",
  "3583": "\u0120successful",
  "3584": "icular",
  "3585": "\u0120woods",
  "3586": "\u0120profession",
  "3587": "100",
  "3588": "ER",
  "3589": "fto",
  "3590": "inis",
  "3591": "\u0120hated",
  "3592": "\u0120fence",
  "3593": "iture",
  "3594": "ato",
  "3595": "ames",
  "3596": "\u0120alot",
  "3597": "\u0120lefto",
  "3598": "\u0120particular",
  "3599": "\u0120chees",
  "3600": "\u0120tests",
  "3601": "\u0120mostly",
  "3602": "\u012090",
  "3603": "\u0120borrowed",
  "3604": "\u0120frustrated",
  "3605": "\u0120laughed",
  "3606": "\u0120subject",
  "3607": "\u0120peaceful",
  "3608": "\u0120normally",
  "3609": "\u0120peeved",
  "3610": "\u0120avoid",
  "3611": "\u0120purse",
  "3612": "\u0120Looking",
  "3613": "\u0120vehicle",
  "3614": "\u0120furniture",
  "3615": "\u0120afternoon",
  "3616": "Cool",
  "3617": "you",
  "3618": "\u0120emb",
  "3619": "\u0120mass",
  "3620": "\u0120bright",
  "3621": "\u0120porch",
  "3622": "\u0120rele",
  "3623": "\u0120shining",
  "3624": "eces",
  "3625": "\u0120Ar",
  "3626": "\u0120nights",
  "3627": "\u0120unable",
  "3628": "\u0120reminis",
  "3629": "\u0120eaten",
  "3630": "\u0120hurting",
  "3631": "\u0120swear",
  "3632": "\u0120drives",
  "3633": "\u0120airport",
  "3634": "\u0120anticip",
  "3635": "\u0120caused",
  "3636": "\u0120jerk",
  "3637": "\u0120conversation",
  "3638": "culus",
  "3639": "\u0120grandparents",
  "3640": "\u0120amusement",
  "3641": "At",
  "3642": "bing",
  "3643": "gers",
  "3644": "ients",
  "3645": "lu",
  "3646": "mates",
  "3647": "sion",
  "3648": "\u0120mount",
  "3649": "\u0120dance",
  "3650": "\u0120cable",
  "3651": "\u0120gri",
  "3652": "\u0120onto",
  "3653": "\u0120somehow",
  "3654": "\u0120Hawai",
  "3655": "\u0120tool",
  "3656": "\u0120spl",
  "3657": "\u0120belong",
  "3658": "\u0120grass",
  "3659": "\u0120six",
  "3660": "\u0120keeping",
  "3661": "\u0120disco",
  "3662": "\u0120remembering",
  "3663": "\u0120market",
  "3664": "\u0120email",
  "3665": "\u0120easily",
  "3666": "\u0120appreciative",
  "3667": "\u0120followed",
  "3668": "\u0120perfectly",
  "3669": "\u0120loaned",
  "3670": "\u0120recipe",
  "3671": "light",
  "3672": "stairs",
  "3673": "\u0120:\"",
  "3674": "\u0120hid",
  "3675": "ature",
  "3676": "arently",
  "3677": "\u0120stairs",
  "3678": "\u0120rad",
  "3679": "astic",
  "3680": "\u0120His",
  "3681": "\u0120unfortun",
  "3682": "\u012025",
  "3683": "achel",
  "3684": "meric",
  "3685": "\u0120thankfully",
  "3686": "ancing",
  "3687": "\u0120pregnancy",
  "3688": "\u0120bummer",
  "3689": "\u0120divorce",
  "3690": "\u0120motorc",
  "3691": "If",
  "3692": "hich",
  "3693": "\u0120mach",
  "3694": "\u0120fant",
  "3695": "\u0120crim",
  "3696": "els",
  "3697": "\u0120jo",
  "3698": "\u0120kiss",
  "3699": "\u0120yelling",
  "3700": "\u0120alarm",
  "3701": "inder",
  "3702": "\u0120prot",
  "3703": "\u0120ending",
  "3704": "\u0120repair",
  "3705": "Awesome",
  "3706": "\u0120Star",
  "3707": "\u0120covered",
  "3708": "\u0120motorcycle",
  "3709": "Ex",
  "3710": "cing",
  "3711": "ieces",
  "3712": "night",
  "3713": "she",
  "3714": "ww",
  "3715": "why",
  "3716": "\u0120mater",
  "3717": "orting",
  "3718": "ether",
  "3719": "icated",
  "3720": "alled",
  "3721": "arten",
  "3722": "\u0120selling",
  "3723": "cket",
  "3724": "\u0120guard",
  "3725": "\u0120apprehensive",
  "3726": "\u0120Face",
  "3727": "\u0120laid",
  "3728": "\u0120total",
  "3729": "\u0120humili",
  "3730": "\u0120sales",
  "3731": "\u0120employee",
  "3732": "\u0120nursing",
  "3733": "\u0120simple",
  "3734": "\u0120soup",
  "3735": "\u0120pigs",
  "3736": "\u0120preparing",
  "3737": "ursday",
  "3738": "Dang",
  "3739": "Ugh",
  "3740": "diving",
  "3741": "ky",
  "3742": "lace",
  "3743": "oot",
  "3744": "\u0120hous",
  "3745": "ites",
  "3746": "\u0120dude",
  "3747": "ndred",
  "3748": "\u0120inde",
  "3749": "etting",
  "3750": "\u0120white",
  "3751": "\u0120With",
  "3752": "\u0120Who",
  "3753": "\u0120happier",
  "3754": "\u0120Americ",
  "3755": "ept",
  "3756": "\u0120Man",
  "3757": "\u0120200",
  "3758": "\u0120believed",
  "3759": "\u0120funeral",
  "3760": "\u0120science",
  "3761": "\u0120blamed",
  "3762": "\u0120disappoin",
  "3763": "\u0120sounded",
  "3764": "ployed",
  "3765": "\u0120supervis",
  "3766": "\u0120field",
  "3767": "\u0120hundred",
  "3768": "\u0120storms",
  "3769": "\u0120community",
  "3770": "\u0120listening",
  "3771": "\u0120staring",
  "3772": "\u0120celebrate",
  "3773": "\u0120property",
  "3774": "\u0120traveling",
  "3775": "\u0120responsib",
  "3776": "\u0120information",
  "3777": "\u0120sports",
  "3778": "\u0120opportunity",
  "3779": "\u0120therapy",
  "3780": "Nope",
  "3781": "lo",
  "3782": "ta",
  "3783": "\u0120hired",
  "3784": "\u0120brown",
  "3785": "\u0120cab",
  "3786": "\u0120gate",
  "3787": "\u0120odd",
  "3788": "\u0120react",
  "3789": "\u0120meat",
  "3790": "\u0120SO",
  "3791": "\u0120locked",
  "3792": "sters",
  "3793": "embers",
  "3794": "\u0120becom",
  "3795": "\u0120Br",
  "3796": "\u0120energy",
  "3797": "\u0120Whenever",
  "3798": "\u0120helpful",
  "3799": "\u0120Especially",
  "3800": "\u0120blind",
  "3801": "\u0120slam",
  "3802": "\u0120drinks",
  "3803": "\u0120falling",
  "3804": "\u0120polit",
  "3805": "ergarten",
  "3806": "\u0120confidence",
  "3807": "\u0120irritating",
  "3808": "\u0120human",
  "3809": "\u0120engine",
  "3810": "\u0120adopt",
  "3811": "whel",
  "3812": "wo",
  "3813": "\u0120edu",
  "3814": "\u0120thunder",
  "3815": "itar",
  "3816": "\u0120lbs",
  "3817": "\u0120whether",
  "3818": "lept",
  "3819": "\u0120goals",
  "3820": "\u0120heights",
  "3821": "\u0120Tinder",
  "3822": "\u0120Waiting",
  "3823": "ecake",
  "3824": "\u0120Am",
  "3825": "\u0120wouldnt",
  "3826": "\u0120speaking",
  "3827": "\u0120guitar",
  "3828": "\u0120rode",
  "3829": "\u012011",
  "3830": "\u0120Grand",
  "3831": "\u0120personal",
  "3832": "\u0120opening",
  "3833": "\u0120snow",
  "3834": "\u0120bored",
  "3835": "\u0120brings",
  "3836": "\u0120charged",
  "3837": "\u0120financially",
  "3838": "\u0120corner",
  "3839": "\u0120practice",
  "3840": "\u0120assum",
  "3841": "\u0120confront",
  "3842": "\u0120rollerco",
  "3843": "\u0120dangerous",
  "3844": "\u0120Hawaii",
  "3845": "\u0120supervisor",
  "3846": "coh",
  "3847": "hh",
  "3848": "mm",
  "3849": "school",
  "3850": "uch",
  "3851": "yle",
  "3852": "\u0120tom",
  "3853": "\u0120tend",
  "3854": "erm",
  "3855": "ential",
  "3856": "itude",
  "3857": "\u0120lab",
  "3858": "\u0120nob",
  "3859": "\u0120soft",
  "3860": "\u0120ugh",
  "3861": "\u0120jud",
  "3862": "amas",
  "3863": "irst",
  "3864": "urity",
  "3865": "\u0120row",
  "3866": "\u0120yea",
  "3867": "\u0120alcoh",
  "3868": "\u0120space",
  "3869": "\u0120buff",
  "3870": "\u0120sons",
  "3871": "\u0120Finally",
  "3872": "\u0120blessed",
  "3873": "\u0120respect",
  "3874": "\u0120interviews",
  "3875": "\u0120track",
  "3876": "\u0120pleas",
  "3877": "\u0120practiced",
  "3878": "\u0120price",
  "3879": "box",
  "3880": "\u0120replace",
  "3881": "iculous",
  "3882": "\u0120occas",
  "3883": "\u0120indeed",
  "3884": "\u0120educ",
  "3885": "\u0120alcohol",
  "3886": "\u0120til",
  "3887": "sted",
  "3888": "\u0120hes",
  "3889": "enty",
  "3890": "ats",
  "3891": "\u0120jack",
  "3892": "robably",
  "3893": "que",
  "3894": "\u0120parcel",
  "3895": "\u0120checking",
  "3896": "\u0120Like",
  "3897": "aches",
  "3898": "\u0120highway",
  "3899": "\u0120relaxed",
  "3900": "\u0120basically",
  "3901": "\u0120potty",
  "3902": "\u0120spray",
  "3903": "\u0120motiv",
  "3904": "\u0120continue",
  "3905": "\u0120texting",
  "3906": "\u0120Thankfully",
  "3907": "\u0120skydiving",
  "3908": "bt",
  "3909": "boy",
  "3910": "ires",
  "3911": "now",
  "3912": "\u0120tu",
  "3913": "omb",
  "3914": "\u0120bal",
  "3915": "\u0120bachel",
  "3916": "ett",
  "3917": "\u0120gosh",
  "3918": "acted",
  "3919": "\u0120heavy",
  "3920": "\u0120sugar",
  "3921": "\u0120harder",
  "3922": "\u0120reco",
  "3923": "\u0120Next",
  "3924": "born",
  "3925": "\u0120higher",
  "3926": "ementary",
  "3927": "\u0120cards",
  "3928": "arket",
  "3929": "\u0120homes",
  "3930": "\u0120waste",
  "3931": "\u0120drugs",
  "3932": "\u0120except",
  "3933": "\u0120unsure",
  "3934": "\u0120necklace",
  "3935": "\u0120unfortunate",
  "3936": "Can",
  "3937": "Today",
  "3938": "lol",
  "3939": "walk",
  "3940": "zz",
  "3941": "\u0120ace",
  "3942": "ination",
  "3943": "\u0120mix",
  "3944": "\u0120members",
  "3945": "\u0120bow",
  "3946": "\u0120baked",
  "3947": "\u0120da",
  "3948": "\u0120cir",
  "3949": "\u0120ow",
  "3950": "\u0120rely",
  "3951": "outube",
  "3952": "\u0120est",
  "3953": "ute",
  "3954": "\u0120rab",
  "3955": "\u0120aband",
  "3956": "\u0120worker",
  "3957": "road",
  "3958": "\u0120Seeing",
  "3959": "\u0120Mom",
  "3960": "\u0120parts",
  "3961": "\u0120bigger",
  "3962": "\u0120blast",
  "3963": "\u0120decide",
  "3964": "\u0120admit",
  "3965": "\u0120attract",
  "3966": "\u0120However",
  "3967": "\u0120presents",
  "3968": "\u0120Does",
  "3969": "\u0120teaching",
  "3970": "workers",
  "3971": "\u0120medic",
  "3972": "\u0120cousins",
  "3973": "\u0120pok",
  "3974": "\u0120drag",
  "3975": "\u0120warning",
  "3976": "\u0120deserved",
  "3977": "\u0120addict",
  "3978": "\u0120praying",
  "3979": "edule",
  "3980": "\u0120thrilled",
  "3981": "\u0120abandon",
  "3982": "LL",
  "3983": "bu",
  "3984": "for",
  "3985": "la",
  "3986": "tt",
  "3987": "\u0120crossed",
  "3988": "\u0120lying",
  "3989": "\u0120pit",
  "3990": "tered",
  "3991": "\u0120lock",
  "3992": "\u0120chasing",
  "3993": "\u0120cared",
  "3994": "\u0120une",
  "3995": "\u0120printer",
  "3996": "\u0120bud",
  "3997": "\u0120diapers",
  "3998": "\u0120Fall",
  "3999": "\u0120Felt",
  "4000": "\u0120disney",
  "4001": "\u0120focus",
  "4002": "aps",
  "4003": "\u0120marry",
  "4004": "\u0120Pok",
  "4005": "bling",
  "4006": "\u0120horri",
  "4007": "\u0120landed",
  "4008": "\u0120closing",
  "4009": "\u0120fairly",
  "4010": "\u0120holding",
  "4011": "\u0120delivered",
  "4012": "\u0120refund",
  "4013": "\u0120McDonalds",
  "4014": "\u0120spelling",
  "4015": "\u0120product",
  "4016": "\u0120etc",
  "4017": "\u0120machine",
  "4018": "\u0120Facebook",
  "4019": "\u0120Pokemon",
  "4020": "Lol",
  "4021": "PA",
  "4022": "care",
  "4023": "\u0120Oh",
  "4024": "erable",
  "4025": "ina",
  "4026": "\u0120breat",
  "4027": "ari",
  "4028": "\u0120havent",
  "4029": "\u0120jun",
  "4030": "\u0120liv",
  "4031": "tern",
  "4032": "\u0120above",
  "4033": "ceed",
  "4034": "\u0120shape",
  "4035": "\u0120saf",
  "4036": "\u0120overwhel",
  "4037": "exic",
  "4038": "\u0120recent",
  "4039": "\u0120Mar",
  "4040": "\u0120Mexic",
  "4041": "ages",
  "4042": "\u0120cheer",
  "4043": "\u0120flu",
  "4044": "\u0120boys",
  "4045": "\u0120interviewed",
  "4046": "\u0120drama",
  "4047": "\u0120annual",
  "4048": "\u0120application",
  "4049": "\u0120figured",
  "4050": "\u0120seriously",
  "4051": "iliar",
  "4052": "they",
  "4053": "\u0120econom",
  "4054": "\u0120beginning",
  "4055": "\u0120toddler",
  "4056": "\u0120hiking",
  "4057": "\u0120casino",
  "4058": "\u0120techn",
  "4059": "gr",
  "4060": "just",
  "4061": "law",
  "4062": "\u0120tall",
  "4063": "att",
  "4064": "\u0120gest",
  "4065": "\u0120nintendo",
  "4066": "\u0120hall",
  "4067": "\u0120form",
  "4068": "\u0120Wal",
  "4069": "\u0120search",
  "4070": "\u0120shots",
  "4071": "\u0120chem",
  "4072": "\u0120spoke",
  "4073": "\u0120uncom",
  "4074": "\u0120record",
  "4075": "\u0120monday",
  "4076": "\u0120collea",
  "4077": "\u0120elementary",
  "4078": "\u0120depend",
  "4079": "\u0120department",
  "4080": "lloween",
  "4081": "\u0120turtle",
  "4082": "\u0120mistakes",
  "4083": "\u0120register",
  "4084": "\u0120pushed",
  "4085": "\u0120embar",
  "4086": "\u0120disappointing",
  "4087": "bowl",
  "4088": "happy",
  "4089": "oon",
  "4090": "uit",
  "4091": "\u0120sim",
  "4092": "\u0120size",
  "4093": "omed",
  "4094": "\u0120fem",
  "4095": "\u0120fancy",
  "4096": "employed",
  "4097": "\u0120press",
  "4098": "icking",
  "4099": "\u0120heat",
  "4100": "\u0120ris",
  "4101": "\u0120suit",
  "4102": "\u0120known",
  "4103": "\u0120prefer",
  "4104": "ership",
  "4105": "\u0120Big",
  "4106": "quit",
  "4107": "ffle",
  "4108": "\u0120miserable",
  "4109": "\u012022",
  "4110": "\u0120bless",
  "4111": "\u0120blank",
  "4112": "\u0120underw",
  "4113": "\u0120stray",
  "4114": "\u0120videos",
  "4115": "\u0120boxes",
  "4116": "ission",
  "4117": "\u0120Being",
  "4118": "\u0120negative",
  "4119": "\u0120athletic",
  "4120": "\u0120protect",
  "4121": "After",
  "4122": "IN",
  "4123": "fish",
  "4124": "nown",
  "4125": "\u0120thrones",
  "4126": "\u0120bi",
  "4127": "\u0120bun",
  "4128": "ana",
  "4129": "\u0120bee",
  "4130": "\u0120ep",
  "4131": "\u0120stri",
  "4132": "\u0120jail",
  "4133": "iring",
  "4134": "\u0120kit",
  "4135": "illing",
  "4136": "\u0120mos",
  "4137": "une",
  "4138": "ung",
  "4139": "\u0120unk",
  "4140": "\u0120plays",
  "4141": "\u0120Congratulations",
  "4142": "izing",
  "4143": "\u0120sink",
  "4144": "\u0120trail",
  "4145": "\u0120Thats",
  "4146": "\u0120superm",
  "4147": "\u0120security",
  "4148": "\u0120hurts",
  "4149": "\u0120raised",
  "4150": "\u0120airpl",
  "4151": "\u0120advant",
  "4152": "\u0120braves",
  "4153": "\u0120teenager",
  "4154": "\u0120doubt",
  "4155": "\u0120camer",
  "4156": "\u0120creepy",
  "4157": "\u0120professional",
  "4158": "\u0120occasion",
  "4159": "\u0120similar",
  "4160": "EA",
  "4161": "cri",
  "4162": "tain",
  "4163": "was",
  "4164": "eng",
  "4165": "storm",
  "4166": "\u0120Ive",
  "4167": "\u0120bang",
  "4168": "reed",
  "4169": "\u0120dry",
  "4170": "\u0120dancing",
  "4171": "\u0120lim",
  "4172": "chan",
  "4173": "\u0120steak",
  "4174": "irement",
  "4175": "\u0120golf",
  "4176": "seas",
  "4177": "rage",
  "4178": "\u0120daycare",
  "4179": "\u0120Sounds",
  "4180": "\u0120Her",
  "4181": "\u0120chased",
  "4182": "ives",
  "4183": "\u0120homework",
  "4184": "\u0120overseas",
  "4185": "\u0120Because",
  "4186": "\u0120built",
  "4187": "\u0120Cal",
  "4188": "\u0120hurry",
  "4189": "\u0120hopes",
  "4190": "\u0120paint",
  "4191": "\u0120appreciated",
  "4192": "\u0120priv",
  "4193": "\u0120prize",
  "4194": "\u0120advice",
  "4195": "\u0120taxes",
  "4196": "\u0120screen",
  "4197": "\u0120Smash",
  "4198": "\u0120leftovers",
  "4199": "\u0120cheesecake",
  "4200": "\u0120gesture",
  "4201": ").",
  "4202": "Uh",
  "4203": "ees",
  "4204": "iot",
  "4205": "\u0120tel",
  "4206": "\u0120sel",
  "4207": "\u0120homet",
  "4208": "\u0120fro",
  "4209": "\u0120cent",
  "4210": "\u0120nuts",
  "4211": "\u0120halloween",
  "4212": "\u0120doc",
  "4213": "\u0120je",
  "4214": "\u0120kicked",
  "4215": "\u0120sus",
  "4216": "\u0120AC",
  "4217": "\u0120client",
  "4218": "\u0120awe",
  "4219": "\u0120cheese",
  "4220": "fair",
  "4221": "ucks",
  "4222": "\u0120adm",
  "4223": "\u0120earn",
  "4224": "\u0120horse",
  "4225": "\u0120snacks",
  "4226": "\u0120series",
  "4227": "\u0120France",
  "4228": "\u0120secrets",
  "4229": "\u0120respond",
  "4230": "\u0120intro",
  "4231": "\u0120employer",
  "4232": "\u0120answers",
  "4233": "\u0120counting",
  "4234": "\u0120double",
  "4235": "\u0120drug",
  "4236": "\u0120eggs",
  "4237": "\u0120injured",
  "4238": "\u0120houses",
  "4239": "\u0120nobody",
  "4240": "\u0120mosquit",
  "4241": "\u0120hometown",
  "4242": "eem",
  "4243": "\u0120tail",
  "4244": "\u0120wel",
  "4245": "\u0120gather",
  "4246": "\u0120lakers",
  "4247": "\u0120beard",
  "4248": "\u0120mechan",
  "4249": "\u0120Will",
  "4250": "rap",
  "4251": "rav",
  "4252": "\u0120loving",
  "4253": "ecting",
  "4254": "\u0120champ",
  "4255": "\u0120vase",
  "4256": "hings",
  "4257": "\u0120Bl",
  "4258": "\u0120weekends",
  "4259": "\u0120def",
  "4260": "\u0120dev",
  "4261": "aching",
  "4262": "\u0120calls",
  "4263": "\u0120mark",
  "4264": "\u0120restroom",
  "4265": "\u0120elder",
  "4266": "\u0120earth",
  "4267": "\u0120writing",
  "4268": "bled",
  "4269": "\u0120retirement",
  "4270": "\u0120facebook",
  "4271": "\u0120message",
  "4272": "velop",
  "4273": "\u0120women",
  "4274": "\u0120Inst",
  "4275": "\u0120frequ",
  "4276": "\u0120supportive",
  "4277": "sych",
  "4278": "\u0120electric",
  "4279": "\u0120exercise",
  "4280": "\u0120task",
  "4281": "\u0120aggrav",
  "4282": "\u0120humiliated",
  "4283": "\u0120junior",
  "4284": "\u0120advantage",
  "4285": "ES",
  "4286": "Our",
  "4287": "ians",
  "4288": "me",
  "4289": "\u0120wit",
  "4290": "\u0120member",
  "4291": "\u0120thous",
  "4292": "\u0120fool",
  "4293": "\u0120gig",
  "4294": "\u0120non",
  "4295": "\u0120nap",
  "4296": "etfl",
  "4297": "icted",
  "4298": "\u0120eager",
  "4299": "ury",
  "4300": "\u0120ram",
  "4301": "\u0120abroad",
  "4302": "\u0120seat",
  "4303": "\u0120South",
  "4304": "iled",
  "4305": "\u0120load",
  "4306": "\u0120knock",
  "4307": "\u0120waitress",
  "4308": "\u0120acted",
  "4309": "exas",
  "4310": "\u0120Been",
  "4311": "\u0120trick",
  "4312": "\u0120enc",
  "4313": "\u0120develop",
  "4314": "\u0120Feb",
  "4315": "\u0120payment",
  "4316": "\u0120blame",
  "4317": "istory",
  "4318": "\u0120league",
  "4319": "\u0120promise",
  "4320": "ples",
  "4321": "\u0120stock",
  "4322": "\u0120Pl",
  "4323": "\u0120bread",
  "4324": "\u0120despite",
  "4325": "\u0120instru",
  "4326": "\u0120bringing",
  "4327": "\u0120expectations",
  "4328": "\u0120posted",
  "4329": "\u0120travelling",
  "4330": "\u0120screamed",
  "4331": "egas",
  "4332": "\u0120bottle",
  "4333": "\u0120volunteered",
  "4334": "\u0120relatives",
  "4335": "\u0120uneasy",
  "4336": "\u0120female",
  "4337": "\u0120unknown",
  "4338": "\u0120supermarket",
  "4339": "\u0120thousand",
  "4340": "etflix",
  "4341": ".\"",
  "4342": "Very",
  "4343": "Yup",
  "4344": "cious",
  "4345": "lad",
  "4346": "list",
  "4347": "nis",
  "4348": "ode",
  "4349": "rop",
  "4350": "some",
  "4351": "\u0120wine",
  "4352": "\u0120wild",
  "4353": "omm",
  "4354": "\u0120bust",
  "4355": "arter",
  "4356": "\u0120rear",
  "4357": "lex",
  "4358": "\u0120isol",
  "4359": "\u0120upon",
  "4360": "\u0120chall",
  "4361": "\u0120tear",
  "4362": "\u0120previous",
  "4363": "\u0120spit",
  "4364": "\u0120By",
  "4365": "\u0120stubbed",
  "4366": "\u0120bug",
  "4367": "\u0120LOL",
  "4368": "\u0120shoe",
  "4369": "\u0120ER",
  "4370": "\u0120Didn",
  "4371": "bles",
  "4372": "\u0120ski",
  "4373": "\u0120trained",
  "4374": "\u0120specific",
  "4375": "\u012080",
  "4376": "\u0120Very",
  "4377": "\u0120Vegas",
  "4378": "\u0120laying",
  "4379": "\u0120qualified",
  "4380": "\u0120joyful",
  "4381": "\u0120damage",
  "4382": "\u0120screaming",
  "4383": "\u0120stories",
  "4384": "\u0120English",
  "4385": "\u0120committed",
  "4386": "eptember",
  "4387": "\u0120buffet",
  "4388": "\u0120education",
  "4389": "\u0120livid",
  "4390": "\u0120airplane",
  "4391": "10",
  "4392": "Congrats",
  "4393": "St",
  "4394": "do",
  "4395": "val",
  "4396": "ero",
  "4397": "\u0120thursday",
  "4398": "\u0120bite",
  "4399": "ements",
  "4400": "\u0120ded",
  "4401": "oring",
  "4402": "\u0120pile",
  "4403": "ley",
  "4404": "\u0120stro",
  "4405": "\u0120ket",
  "4406": "aco",
  "4407": "\u0120ren",
  "4408": "\u0120sex",
  "4409": "\u0120About",
  "4410": "\u0120envy",
  "4411": "\u0120chef",
  "4412": "rupt",
  "4413": "\u0120relate",
  "4414": "\u0120upsetting",
  "4415": "\u0120meaning",
  "4416": "\u0120irked",
  "4417": "\u0120ridiculous",
  "4418": "ences",
  "4419": "\u0120assign",
  "4420": "\u0120advance",
  "4421": "\u0120calculus",
  "4422": "\u0120salad",
  "4423": "\u0120emotions",
  "4424": "\u0120zoo",
  "4425": "\u0120birds",
  "4426": "\u0120taste",
  "4427": "\u0120explain",
  "4428": "\u0120crossing",
  "4429": "Exactly",
  "4430": "\u0120medicine",
  "4431": "\u0120uncomfortable",
  "4432": "\u0120underwear",
  "4433": "\u0120elderly",
  "4434": "ces",
  "4435": "cial",
  "4436": "don",
  "4437": "door",
  "4438": "pa",
  "4439": "worth",
  "4440": "\u0120tight",
  "4441": "ergic",
  "4442": "\u0120mal",
  "4443": "\u0120fond",
  "4444": "\u0120den",
  "4445": "\u0120dread",
  "4446": "\u0120pound",
  "4447": "\u0120punch",
  "4448": "\u0120wasp",
  "4449": "\u0120oce",
  "4450": "\u0120reach",
  "4451": "\u0120wheel",
  "4452": "\u0120equ",
  "4453": "ending",
  "4454": "uty",
  "4455": "\u0120Texas",
  "4456": "\u0120suff",
  "4457": "\u0120workout",
  "4458": "\u0120plate",
  "4459": "\u0120cock",
  "4460": "\u0120unit",
  "4461": "\u0120Made",
  "4462": "\u0120traum",
  "4463": "\u0120Getting",
  "4464": "\u0120write",
  "4465": "\u0120attitude",
  "4466": "\u0120trad",
  "4467": "\u0120sweat",
  "4468": "\u0120president",
  "4469": "\u0120failing",
  "4470": "retty",
  "4471": "\u0120freak",
  "4472": "\u0120Nothing",
  "4473": "\u0120anticipating",
  "4474": "avs",
  "4475": "\u0120terribly",
  "4476": "\u0120illness",
  "4477": "\u0120county",
  "4478": "\u0120rescued",
  "4479": "\u0120attacked",
  "4480": "\u0120organized",
  "4481": "\u0120suprising",
  "4482": "\u0120lifting",
  "4483": "\u0120frightened",
  "4484": "\u0120ditched",
  "4485": "\u0120experienced",
  "4486": "\u0120recogn",
  "4487": "\u0120bowling",
  "4488": "\u0120abandoned",
  "4489": "ON",
  "4490": "OU",
  "4491": "cut",
  "4492": "ton",
  "4493": "\u0120mouse",
  "4494": "\u0120pen",
  "4495": "\u0120pun",
  "4496": "\u0120nicer",
  "4497": "\u0120oven",
  "4498": "\u0120rout",
  "4499": "\u0120Time",
  "4500": "\u0120Two",
  "4501": "others",
  "4502": "\u0120sucked",
  "4503": "\u0120allergic",
  "4504": "\u0120somebody",
  "4505": "\u0120mold",
  "4506": "\u0120chose",
  "4507": "omething",
  "4508": "ags",
  "4509": "\u0120ends",
  "4510": "athon",
  "4511": "\u0120marathon",
  "4512": "\u0120impress",
  "4513": "\u0120Red",
  "4514": "\u0120raffle",
  "4515": "\u0120Kore",
  "4516": "\u0120income",
  "4517": "\u0120sidewalk",
  "4518": "\u0120painting",
  "4519": "\u0120rides",
  "4520": "\u0120certific",
  "4521": "Nothing",
  "4522": "\u0120schedule",
  "4523": "\u0120severe",
  "4524": "\u0120scratched",
  "4525": "\u0120songs",
  "4526": "\u0120vomit",
  "4527": "\u0120physical",
  "4528": "\u0120quality",
  "4529": "\u0120Unfortunately",
  "4530": "\u0120bench",
  "4531": "\u0120smooth",
  "4532": "\u0120incredible",
  "4533": "\u0120radio",
  "4534": "\u0120fantastic",
  "4535": "\u0120crime",
  "4536": "\u0120budget",
  "4537": "500",
  "4538": "FC",
  "4539": "da",
  "4540": "efinitely",
  "4541": "ih",
  "4542": "nes",
  "4543": "ship",
  "4544": "\u0120ing",
  "4545": "\u0120ticked",
  "4546": "\u0120mental",
  "4547": "\u0120host",
  "4548": "oms",
  "4549": "edul",
  "4550": "inge",
  "4551": "\u0120cord",
  "4552": "\u0120pric",
  "4553": "\u0120pian",
  "4554": "\u0120none",
  "4555": "\u0120natur",
  "4556": "esla",
  "4557": "\u0120stat",
  "4558": "uth",
  "4559": "urope",
  "4560": "urger",
  "4561": "\u0120although",
  "4562": "\u0120shake",
  "4563": "\u0120September",
  "4564": "\u0120chann",
  "4565": "\u0120comfort",
  "4566": "\u0120donuts",
  "4567": "\u0120mult",
  "4568": "\u0120club",
  "4569": "\u0120however",
  "4570": "\u0120unhappy",
  "4571": "\u0120Back",
  "4572": "atching",
  "4573": "\u0120bucks",
  "4574": "\u0120diving",
  "4575": "\u0120apparently",
  "4576": "\u0120foods",
  "4577": "\u0120puked",
  "4578": "plant",
  "4579": "apan",
  "4580": "\u0120skating",
  "4581": "\u0120barking",
  "4582": "ocking",
  "4583": "\u0120nearby",
  "4584": "\u0120media",
  "4585": "uesday",
  "4586": "\u0120booked",
  "4587": "\u0120hung",
  "4588": "\u0120debit",
  "4589": "\u0120auto",
  "4590": "\u0120bott",
  "4591": "\u0120shooting",
  "4592": "\u0120becoming",
  "4593": "\u0120Instead",
  "4594": "worthy",
  "4595": "Ind",
  "4596": "aff",
  "4597": "ught",
  "4598": "when",
  "4599": "\u0120silly",
  "4600": "\u0120fries",
  "4601": "ingly",
  "4602": "real",
  "4603": "\u0120congrats",
  "4604": "\u0120panc",
  "4605": "iding",
  "4606": "\u0120onions",
  "4607": "\u0120sooo",
  "4608": "aly",
  "4609": "\u0120jour",
  "4610": "urning",
  "4611": "\u0120Tesla",
  "4612": "\u0120Sw",
  "4613": "\u0120High",
  "4614": "\u0120chair",
  "4615": "apped",
  "4616": "\u0120officer",
  "4617": "\u0120vo",
  "4618": "\u0120unl",
  "4619": "\u0120yours",
  "4620": "\u0120sometime",
  "4621": "\u0120lovely",
  "4622": "\u0120ways",
  "4623": "\u012021",
  "4624": "\u012024",
  "4625": "\u0120usual",
  "4626": "\u0120kinds",
  "4627": "\u0120trips",
  "4628": "\u0120pulling",
  "4629": "\u0120contract",
  "4630": "\u0120crap",
  "4631": "\u0120heading",
  "4632": "\u0120teachers",
  "4633": "\u0120satur",
  "4634": "bsolutely",
  "4635": "ivid",
  "4636": "\u0120changing",
  "4637": "\u0120magic",
  "4638": "\u0120savings",
  "4639": "\u0120jumping",
  "4640": "\u0120refused",
  "4641": "\u0120obvious",
  "4642": "\u0120soul",
  "4643": "\u0120determ",
  "4644": "\u0120ignored",
  "4645": "\u0120Feels",
  "4646": "\u0120characters",
  "4647": "\u0120anticipation",
  "4648": "\u0120discovered",
  "4649": "\u0120rabbit",
  "4650": "\u0120attractive",
  "4651": "\u0120ocean",
  "4652": "All",
  "4653": "Absolutely",
  "4654": "MW",
  "4655": "OT",
  "4656": "bre",
  "4657": "bron",
  "4658": "wise",
  "4659": "\u0120wore",
  "4660": "\u0120mention",
  "4661": "\u0120blew",
  "4662": "\u0120cig",
  "4663": "\u0120cavs",
  "4664": "\u0120lad",
  "4665": "\u0120pump",
  "4666": "\u0120ya",
  "4667": "\u0120nest",
  "4668": "\u0120hell",
  "4669": "\u0120loans",
  "4670": "\u0120knee",
  "4671": "ober",
  "4672": "\u0120offic",
  "4673": "ephew",
  "4674": "\u0120agreed",
  "4675": "\u0120leash",
  "4676": "\u0120BMW",
  "4677": "\u0120betr",
  "4678": "\u0120Nephew",
  "4679": "\u0120awaiting",
  "4680": "\u01202000",
  "4681": "\u0120shocking",
  "4682": "\u0120couples",
  "4683": "ctober",
  "4684": "\u0120screw",
  "4685": "\u0120scares",
  "4686": "\u0120highschool",
  "4687": "\u0120dise",
  "4688": "\u0120These",
  "4689": "\u0120arre",
  "4690": "\u0120500",
  "4691": "\u0120fighting",
  "4692": "\u0120lesson",
  "4693": "\u0120bags",
  "4694": "\u0120schedul",
  "4695": "\u0120corn",
  "4696": "\u0120pocket",
  "4697": "\u0120addition",
  "4698": "\u0120treatment",
  "4699": "\u0120destroy",
  "4700": "\u0120tasted",
  "4701": "\u0120general",
  "4702": "\u0120properly",
  "4703": "\u0120exercising",
  "4704": "\u0120allowed",
  "4705": "\u0120accomplishment",
  "4706": "\u0120fortunate",
  "4707": "\u0120demand",
  "4708": "\u0120hole",
  "4709": "\u0120bachelor",
  "4710": "\u0120champions",
  "4711": "\u0120isolated",
  "4712": "As",
  "4713": "IT",
  "4714": "iam",
  "4715": "mune",
  "4716": "sc",
  "4717": "year",
  "4718": "erv",
  "4719": "\u0120wishing",
  "4720": "inated",
  "4721": "\u0120hire",
  "4722": "\u0120fac",
  "4723": "aters",
  "4724": "\u0120dying",
  "4725": "\u0120lent",
  "4726": "ades",
  "4727": "\u0120socks",
  "4728": "ooked",
  "4729": "alu",
  "4730": "ender",
  "4731": "\u0120junk",
  "4732": "\u0120rap",
  "4733": "\u0120abuse",
  "4734": "\u0120Things",
  "4735": "\u0120Which",
  "4736": "raught",
  "4737": "\u0120knife",
  "4738": "\u0120backp",
  "4739": "\u0120lebron",
  "4740": "\u0120manage",
  "4741": "\u0120complex",
  "4742": "\u0120diaper",
  "4743": "\u0120Cup",
  "4744": "\u0120throughout",
  "4745": "\u0120Europe",
  "4746": "\u0120phones",
  "4747": "\u0120flash",
  "4748": "\u0120blown",
  "4749": "\u0120related",
  "4750": "istry",
  "4751": "\u0120wondering",
  "4752": "iforn",
  "4753": "\u0120incre",
  "4754": "\u012060",
  "4755": "\u0120evalu",
  "4756": "\u0120Such",
  "4757": "\u0120propos",
  "4758": "\u0120proposed",
  "4759": "\u0120finances",
  "4760": "\u0120candid",
  "4761": "\u0120starved",
  "4762": "\u0120Although",
  "4763": "\u0120simply",
  "4764": "\u0120value",
  "4765": "\u0120cops",
  "4766": "\u0120achieve",
  "4767": "\u0120relief",
  "4768": "\u0120chatting",
  "4769": "roatia",
  "4770": "\u0120provide",
  "4771": "\u0120material",
  "4772": "\u0120America",
  "4773": "\u0120pokemon",
  "4774": "\u0120Walmart",
  "4775": "\u0120piano",
  "4776": "Indeed",
  "4777": "ifornia",
  "4778": "bul",
  "4779": "ears",
  "4780": "nment",
  "4781": "\u00e2\u0122",
  "4782": "\u0120Yes",
  "4783": "\u0120slept",
  "4784": "\u0120history",
  "4785": "\u0120bak",
  "4786": "\u0120dirt",
  "4787": "isions",
  "4788": "\u0120packing",
  "4789": "\u0120psych",
  "4790": "\u0120washing",
  "4791": "\u0120began",
  "4792": "\u0120inse",
  "4793": "\u0120und",
  "4794": "\u0120necess",
  "4795": "acy",
  "4796": "\u0120fest",
  "4797": "\u0120TH",
  "4798": "\u0120coasters",
  "4799": "\u0120friendship",
  "4800": "\u0120monsters",
  "4801": "\u0120downstairs",
  "4802": "\u0120player",
  "4803": "\u0120smile",
  "4804": "\u0120decisions",
  "4805": "\u0120trustworthy",
  "4806": "ementia",
  "4807": "\u0120rained",
  "4808": "\u0120distraught",
  "4809": "\u0120unexpectedly",
  "4810": "\u0120deliver",
  "4811": "\u0120transfer",
  "4812": "\u0120purchase",
  "4813": "\u0120thanksgiving",
  "4814": "\u0120\u0120\u0120\u0120\u0120\u0120\u0120\u0120\u0120\u0120\u0120\u0120\u0120\u0120\u0120\u0120\u0120\u0120\u0120\u0120\u0120\u0120\u0120\u0120\u0120\u0120\u0120\u0120\u0120\u0120\u0120\u0120",
  "4815": "\u0120rollercoaster",
  "4816": "\u0120economy",
  "4817": "\u0120epis",
  "4818": "\u0120introdu",
  "4819": "\u00e2\u0122\u013b",
  "4820": "\u0120bakery",
  "4821": "Hope",
  "4822": "Right",
  "4823": "go",
  "4824": "ique",
  "4825": "rom",
  "4826": "static",
  "4827": "\u0120tho",
  "4828": "\u0120shat",
  "4829": "\u0120tow",
  "4830": "\u0120toward",
  "4831": "itis",
  "4832": "\u0120cap",
  "4833": "orge",
  "4834": "\u0120inch",
  "4835": "\u0120rej",
  "4836": "vernment",
  "4837": "heart",
  "4838": "\u0120outf",
  "4839": "\u0120Wish",
  "4840": "\u0120plenty",
  "4841": "\u0120overcome",
  "4842": "\u0120clown",
  "4843": "\u0120aced",
  "4844": "osis",
  "4845": "\u0120Bell",
  "4846": "\u0120During",
  "4847": "\u0120players",
  "4848": "\u0120belt",
  "4849": "\u0120kindergarten",
  "4850": "\u0120highest",
  "4851": "\u0120dads",
  "4852": "\u0120owned",
  "4853": "\u0120stuffed",
  "4854": "\u0120retired",
  "4855": "\u0120farm",
  "4856": "\u0120situations",
  "4857": "\u0120fights",
  "4858": "\u0120laund",
  "4859": "Does",
  "4860": "\u0120esc",
  "4861": "\u0120poison",
  "4862": "\u0120approached",
  "4863": "shirt",
  "4864": "\u0120submit",
  "4865": "\u0120succeed",
  "4866": "\u0120causing",
  "4867": "\u0120purp",
  "4868": "\u0120expired",
  "4869": "\u0120freshman",
  "4870": "\u0120Span",
  "4871": "\u0120ecstatic",
  "4872": "\u0120nailed",
  "4873": "\u0120Having",
  "4874": "\u0120crawling",
  "4875": "\u0120depressing",
  "4876": "\u0120depression",
  "4877": "\u0120reminisce",
  "4878": "\u0120split",
  "4879": "\u0120slammed",
  "4880": "\u0120thunderstorm",
  "4881": "boys",
  "4882": "\u0120arrested",
  "4883": "Yikes",
  "4884": "gage",
  "4885": "ther",
  "4886": "vement",
  "4887": "zed",
  "4888": "inal",
  "4889": "\u0120mut",
  "4890": "\u0120sau",
  "4891": "\u0120ban",
  "4892": "\u0120bri",
  "4893": "emade",
  "4894": "rel",
  "4895": "\u0120path",
  "4896": "adays",
  "4897": "\u0120soda",
  "4898": "verage",
  "4899": "\u0120suck",
  "4900": "uss",
  "4901": "\u0120everytime",
  "4902": "\u0120ord",
  "4903": "\u0120orig",
  "4904": "\u0120cla",
  "4905": "\u0120recomm",
  "4906": "\u0120tries",
  "4907": "\u0120tricks",
  "4908": "\u0120particip",
  "4909": "\u0120rip",
  "4910": "\u0120bully",
  "4911": "\u0120compan",
  "4912": "\u0120Col",
  "4913": "ulf",
  "4914": "\u0120First",
  "4915": "\u0120scold",
  "4916": "\u0120smoke",
  "4917": "\u0120superbowl",
  "4918": "\u0120activ",
  "4919": "\u0120ordering",
  "4920": "\u0120announ",
  "4921": "\u0120leaves",
  "4922": "\u0120pics",
  "4923": "\u0120Japan",
  "4924": "\u0120idiot",
  "4925": "\u0120puppies",
  "4926": "onsider",
  "4927": "\u0120lessons",
  "4928": "\u0120shorts",
  "4929": "\u0120potato",
  "4930": "phones",
  "4931": "\u0120wrecked",
  "4932": "\u0120bothers",
  "4933": "\u0120slowly",
  "4934": "\u0120squid",
  "4935": "\u0120flooded",
  "4936": "\u0120joined",
  "4937": "\u0120temper",
  "4938": "\u0120convin",
  "4939": "\u0120edge",
  "4940": "\u0120hyped",
  "4941": "\u0120Thanksgiving",
  "4942": "\u0120pressure",
  "4943": "\u0120jeans",
  "4944": "\u0120certification",
  "4945": "\u0120prices",
  "4946": "%.",
  "4947": "afe",
  "4948": "eep",
  "4949": "lbs",
  "4950": "mission",
  "4951": "ugust",
  "4952": "\u0120Q",
  "4953": "\u0120aid",
  "4954": "\u0120average",
  "4955": "step",
  "4956": "\u0120mir",
  "4957": "\u0120ble",
  "4958": "\u0120bomb",
  "4959": "\u0120dar",
  "4960": "\u0120gained",
  "4961": "\u0120lu",
  "4962": "\u0120lang",
  "4963": "\u0120port",
  "4964": "\u0120naked",
  "4965": "etic",
  "4966": "iment",
  "4967": "chy",
  "4968": "\u0120style",
  "4969": "aming",
  "4970": "\u0120rare",
  "4971": "\u0120abilities",
  "4972": "\u0120To",
  "4973": "\u0120Would",
  "4974": "\u0120Wars",
  "4975": "\u0120somewhat",
  "4976": "\u0120shy",
  "4977": "\u0120ship",
  "4978": "\u0120shady",
  "4979": "\u0120mod",
  "4980": "\u0120precious",
  "4981": "\u0120spare",
  "4982": "iple",
  "4983": "ums",
  "4984": "\u0120finishing",
  "4985": "\u0120unless",
  "4986": "\u0120Dec",
  "4987": "\u0120recital",
  "4988": "\u0120Most",
  "4989": "\u0120dear",
  "4990": "\u0120Car",
  "4991": "\u0120Found",
  "4992": "\u0120courage",
  "4993": "\u0120neighb",
  "4994": "\u0120payday",
  "4995": "ello",
  "4996": "\u0120lets",
  "4997": "\u0120scrap",
  "4998": "\u0120swer",
  "4999": "\u0120craving",
  "5000": "Those",
  "5001": "\u0120dealing",
  "5002": "ify",
  "5003": "\u0120singing",
  "5004": "\u0120reasons",
  "5005": "\u0120Still",
  "5006": "\u0120nephews",
  "5007": "\u0120catching",
  "5008": "\u0120bothering",
  "5009": "\u0120litter",
  "5010": "\u0120storage",
  "5011": "\u0120incredibly",
  "5012": "\u0120inspired",
  "5013": "\u0120cabin",
  "5014": "\u0120judge",
  "5015": "\u0120selected",
  "5016": "\u0120renew",
  "5017": "\u0120saturday",
  "5018": "\u0120scheduled",
  "5019": "\u0120langu",
  "5020": "Ok",
  "5021": "cl",
  "5022": "fted",
  "5023": "gy",
  "5024": "hand",
  "5025": "ik",
  "5026": "iol",
  "5027": "lined",
  "5028": "oved",
  "5029": "ris",
  "5030": "\u0120Yeah",
  "5031": "\u0120tent",
  "5032": "\u0120ment",
  "5033": "\u0120hob",
  "5034": "\u0120fried",
  "5035": "reak",
  "5036": "\u0120dressed",
  "5037": "\u0120duty",
  "5038": "\u0120dementia",
  "5039": "\u0120poin",
  "5040": "\u0120nature",
  "5041": "\u0120nieces",
  "5042": "idered",
  "5043": "\u0120youth",
  "5044": "icy",
  "5045": "\u0120um",
  "5046": "ppy",
  "5047": "\u0120ank",
  "5048": "\u0120ability",
  "5049": "\u0120Sorry",
  "5050": "\u0120plus",
  "5051": "\u0120madden",
  "5052": "\u0120everybody",
  "5053": "\u0120clot",
  "5054": "\u0120familiar",
  "5055": "\u0120role",
  "5056": "dered",
  "5057": "\u0120scen",
  "5058": "\u0120decor",
  "5059": "\u0120bitter",
  "5060": "\u0120insane",
  "5061": "\u0120inconsider",
  "5062": "\u0120painful",
  "5063": "\u0120employees",
  "5064": "\u0120benef",
  "5065": "\u0120green",
  "5066": "\u0120talented",
  "5067": "\u0120considering",
  "5068": "\u0120hesit",
  "5069": "\u0120dragon",
  "5070": "\u0120overwhelming",
  "5071": "\u0120Black",
  "5072": "\u0120frequently",
  "5073": "\u0120ramen",
  "5074": "\u0120natural",
  "5075": "\u0120voice",
  "5076": "\u0120disease",
  "5077": "\u0120laundry",
  "5078": "\u0120inconsiderate",
  "5079": "--",
  "5080": "Of",
  "5081": "Un",
  "5082": "bby",
  "5083": "cted",
  "5084": "like",
  "5085": "nessed",
  "5086": "pons",
  "5087": "\u0120:/",
  "5088": "\u0120mag",
  "5089": "\u0120har",
  "5090": "\u0120hike",
  "5091": "\u0120fur",
  "5092": "\u0120bumped",
  "5093": "orado",
  "5094": "\u0120lap",
  "5095": "\u0120pant",
  "5096": "\u0120op",
  "5097": "\u0120habit",
  "5098": "\u0120itself",
  "5099": "\u0120inten",
  "5100": "\u0120workers",
  "5101": "\u0120Saw",
  "5102": "\u0120nowadays",
  "5103": "\u0120schools",
  "5104": "osit",
  "5105": "\u0120Mac",
  "5106": "agers",
  "5107": "\u012017",
  "5108": "\u0120Congrats",
  "5109": "\u0120Croatia",
  "5110": "ctic",
  "5111": "\u0120stores",
  "5112": "\u0120roommates",
  "5113": "\u0120fund",
  "5114": "\u0120finals",
  "5115": "\u0120understanding",
  "5116": "\u0120dealership",
  "5117": "\u0120deposit",
  "5118": "\u0120rolls",
  "5119": "\u0120haircut",
  "5120": "\u0120prior",
  "5121": "\u0120approaching",
  "5122": "\u0120smashed",
  "5123": "\u0120considered",
  "5124": "phone",
  "5125": "\u0120battle",
  "5126": "\u0120counter",
  "5127": "\u0120replaced",
  "5128": "\u0120killing",
  "5129": "\u0120mortgage",
  "5130": "\u0120responsible",
  "5131": "\u0120sending",
  "5132": "\u0120treated",
  "5133": "\u0120invested",
  "5134": "\u0120election",
  "5135": "\u0120direction",
  "5136": "\u0120relieved",
  "5137": "\u0120celebrated",
  "5138": "\u0120climbing",
  "5139": "\u0120volunteer",
  "5140": "\u0120Another",
  "5141": "\u0120dumpster",
  "5142": "\u0120improve",
  "5143": "\u0120rewarding",
  "5144": "\u0120rotten",
  "5145": "\u0120tools",
  "5146": "\u0120responsibility",
  "5147": "\u0120tuition",
  "5148": "\u0120breath",
  "5149": "\u0120risk",
  "5150": "ength",
  "5151": "\u0120mechanic",
  "5152": "\u0120witnessed",
  "5153": "\u0120cockro",
  "5154": "\u0120multiple",
  "5155": "\u0120championship",
  "5156": "\u0120festival",
  "5157": "\u0120Colorado",
  "5158": "\u0120neighbour",
  "5159": "200",
  "5160": "Definitely",
  "5161": "cy",
  "5162": "dog",
  "5163": "hold",
  "5164": "iff",
  "5165": "\u0120aud",
  "5166": "err",
  "5167": "\u0120ce",
  "5168": "\u0120lend",
  "5169": "lla",
  "5170": "\u0120poo",
  "5171": "\u0120bear",
  "5172": "\u0120youtube",
  "5173": "adill",
  "5174": "\u0120webs",
  "5175": "amily",
  "5176": "\u0120rum",
  "5177": "anted",
  "5178": "\u0120friendly",
  "5179": "\u0120alley",
  "5180": "\u0120SAT",
  "5181": "ilies",
  "5182": "\u0120happiness",
  "5183": ".....",
  "5184": "\u0120plants",
  "5185": "\u0120choo",
  "5186": "\u0120chip",
  "5187": "\u0120August",
  "5188": "usive",
  "5189": "epend",
  "5190": "\u0120donate",
  "5191": "essor",
  "5192": "\u0120legs",
  "5193": "\u0120unf",
  "5194": "\u0120rich",
  "5195": "\u01201000",
  "5196": "\u0120Cl",
  "5197": "\u0120chew",
  "5198": "\u0120grind",
  "5199": "\u0120Ex",
  "5200": "\u0120showing",
  "5201": "\u0120Gu",
  "5202": "\u0120Think",
  "5203": "\u0120term",
  "5204": "\u0120written",
  "5205": "\u0120headphones",
  "5206": "\u0120handed",
  "5207": "\u0120fixing",
  "5208": "\u0120management",
  "5209": "\u0120gaming",
  "5210": "\u0120events",
  "5211": "\u0120veget",
  "5212": "\u0120common",
  "5213": "\u0120homemade",
  "5214": "\u0120Canad",
  "5215": "shi",
  "5216": "\u0120physically",
  "5217": "\u0120grandfathers",
  "5218": "\u0120grabbed",
  "5219": "\u0120smoking",
  "5220": "\u0120tasks",
  "5221": "\u0120colors",
  "5222": "\u0120jugg",
  "5223": "\u0120regularly",
  "5224": "evision",
  "5225": "\u0120apologized",
  "5226": "\u0120brownies",
  "5227": "\u0120daily",
  "5228": "\u0120colleague",
  "5229": "\u0120embarassed",
  "5230": "\u0120television",
  "5231": "\u0120stroke",
  "5232": "\u0120rejected",
  "5233": "\u0120claim",
  "5234": "eat",
  "5235": "ground",
  "5236": "gia",
  "5237": "nity",
  "5238": "pting",
  "5239": "vember",
  "5240": "\u0120..",
  "5241": "\u0120throat",
  "5242": "\u0120fulf",
  "5243": "\u0120creat",
  "5244": "\u0120congratulations",
  "5245": "orable",
  "5246": "\u0120las",
  "5247": "\u0120pitch",
  "5248": "\u0120ol",
  "5249": "\u0120whil",
  "5250": "\u0120isnt",
  "5251": "\u0120ang",
  "5252": "urricane",
  "5253": "ops",
  "5254": "antic",
  "5255": "\u0120gotta",
  "5256": "\u0120Sc",
  "5257": "\u0120Since",
  "5258": "\u0120exh",
  "5259": "\u0120newborn",
  "5260": "iew",
  "5261": "\u0120view",
  "5262": "ummer",
  "5263": "ago",
  "5264": "\u0120deer",
  "5265": "\u0120quiz",
  "5266": "\u0120quarter",
  "5267": "\u0120conn",
  "5268": "\u0120disaster",
  "5269": "\u012035",
  "5270": "\u0120adorable",
  "5271": "\u0120crack",
  "5272": "\u0120actual",
  "5273": "\u0120trop",
  "5274": "\u0120passion",
  "5275": "\u0120UFC",
  "5276": "\u0120semi",
  "5277": "\u0120incl",
  "5278": "\u0120society",
  "5279": "\u0120veg",
  "5280": "\u0120stepping",
  "5281": "\u0120expenses",
  "5282": "\u0120bands",
  "5283": "\u0120respon",
  "5284": "\u0120english",
  "5285": "\u0120struggled",
  "5286": "\u0120nurse",
  "5287": "\u0120placed",
  "5288": "\u0120Disneyland",
  "5289": "\u0120clearly",
  "5290": "\u0120finger",
  "5291": "\u0120damaged",
  "5292": "\u0120USA",
  "5293": "\u0120survive",
  "5294": "\u0120mountains",
  "5295": "\u0120Brothers",
  "5296": "\u0120engineering",
  "5297": "\u0120limit",
  "5298": "\u0120California",
  "5299": "\u0120challen",
  "5300": "nesday",
  "5301": "\u0120pancreat",
  "5302": "\u0120Spanish",
  "5303": "About",
  "5304": "Be",
  "5305": "Great",
  "5306": "Probably",
  "5307": "RE",
  "5308": "mother",
  "5309": "oom",
  "5310": "off",
  "5311": "watch",
  "5312": "\u0120'",
  "5313": "\u0120ess",
  "5314": "\u0120tatt",
  "5315": "onder",
  "5316": "\u0120mer",
  "5317": "edict",
  "5318": "\u0120bout",
  "5319": "\u0120baking",
  "5320": "\u0120cin",
  "5321": "ashing",
  "5322": "\u0120theater",
  "5323": "\u0120lan",
  "5324": "\u0120lines",
  "5325": "\u0120pink",
  "5326": "\u0120heck",
  "5327": "\u0120round",
  "5328": "term",
  "5329": "\u0120Taco",
  "5330": "\u0120Hurricane",
  "5331": "apping",
  "5332": "\u0120thinks",
  "5333": "\u0120October",
  "5334": "\u0120letters",
  "5335": "\u0120Glad",
  "5336": "isted",
  "5337": "\u0120supporting",
  "5338": "\u0120gifted",
  "5339": "\u0120marks",
  "5340": "!!!!",
  "5341": "\u0120breed",
  "5342": "\u0120forgotten",
  "5343": "\u0120slight",
  "5344": "\u0120mothers",
  "5345": "\u0120returning",
  "5346": "\u0120enter",
  "5347": "ahamas",
  "5348": "\u0120delayed",
  "5349": "\u0120basic",
  "5350": "\u0120thrown",
  "5351": "\u0120location",
  "5352": "\u0120standing",
  "5353": "\u0120windows",
  "5354": "\u0120chores",
  "5355": "\u0120numbers",
  "5356": "\u0120straw",
  "5357": "\u0120independ",
  "5358": "\u0120object",
  "5359": "\u0120goldfish",
  "5360": "\u0120directions",
  "5361": "\u0120request",
  "5362": "\u0120panic",
  "5363": "\u0120England",
  "5364": "\u0120errand",
  "5365": "ERY",
  "5366": "\u0120released",
  "5367": "ootball",
  "5368": "\u0120horribly",
  "5369": "\u0120protective",
  "5370": "\u0120convinced",
  "5371": "\u0120clothing",
  "5372": "\u0120tattoo",
  "5373": "An",
  "5374": "OM",
  "5375": "OW",
  "5376": "Ouch",
  "5377": "People",
  "5378": "cur",
  "5379": "cony",
  "5380": "eet",
  "5381": "kin",
  "5382": "mg",
  "5383": "mp",
  "5384": "mare",
  "5385": "son",
  "5386": "vir",
  "5387": "\u0120ver",
  "5388": "\u0120vers",
  "5389": "\u0120tit",
  "5390": "inking",
  "5391": "\u0120Ir",
  "5392": "\u0120hill",
  "5393": "\u0120binge",
  "5394": "\u0120drow",
  "5395": "\u0120cope",
  "5396": "llent",
  "5397": "\u0120pie",
  "5398": "elie",
  "5399": "eliness",
  "5400": "icycle",
  "5401": "\u0120ive",
  "5402": "\u0120lik",
  "5403": "\u0120lies",
  "5404": "\u0120rage",
  "5405": "\u0120outdoor",
  "5406": "\u0120Watching",
  "5407": "raph",
  "5408": "\u0120altern",
  "5409": "\u0120sea",
  "5410": "\u0120SU",
  "5411": "\u0120compared",
  "5412": "\u0120willing",
  "5413": "\u0120theme",
  "5414": "\u0120overall",
  "5415": "ables",
  "5416": "ume",
  "5417": "\u0120devest",
  "5418": "\u0120remain",
  "5419": "ruary",
  "5420": "\u0120walmart",
  "5421": "ache",
  "5422": "\u0120thoughts",
  "5423": "ctions",
  "5424": "\u0120twins",
  "5425": "\u0120reserv",
  "5426": "\u0120crit",
  "5427": "\u0120Ph",
  "5428": "\u0120Pretty",
  "5429": "\u0120acts",
  "5430": "\u0120wracking",
  "5431": "\u0120boyfriends",
  "5432": "\u0120sket",
  "5433": "\u0120ruin",
  "5434": "\u0120hoped",
  "5435": "\u0120snuck",
  "5436": "\u0120Ugh",
  "5437": "\u0120lunches",
  "5438": "\u0120difference",
  "5439": "ograph",
  "5440": "umber",
  "5441": "\u0120800",
  "5442": "\u0120burst",
  "5443": "\u0120struggle",
  "5444": "\u0120paperwork",
  "5445": "hahaha",
  "5446": "\u0120ghosted",
  "5447": "\u0120oppos",
  "5448": "\u0120texted",
  "5449": "Whoa",
  "5450": "\u01202018",
  "5451": "\u0120carrying",
  "5452": "\u0120character",
  "5453": "luding",
  "5454": "\u0120belongings",
  "5455": "\u0120balcony",
  "5456": "\u0120chemistry",
  "5457": "\u0120private",
  "5458": "\u0120ingred",
  "5459": "\u0120ladies",
  "5460": "\u0120evaluation",
  "5461": "Hopefully",
  "5462": "\u0120purpose",
  "5463": "\u0120language",
  "5464": "\u0120intense",
  "5465": "\u0120response",
  "5466": "\u0120devestated",
  "5467": "Because",
  "5468": "ED",
  "5469": "FL",
  "5470": "Same",
  "5471": "fi",
  "5472": "haps",
  "5473": "lif",
  "5474": "rd",
  "5475": "\u0120...",
  "5476": "\u0120ast",
  "5477": "\u0120ais",
  "5478": "\u0120wound",
  "5479": "\u0120mur",
  "5480": "itting",
  "5481": "itary",
  "5482": "\u0120pieces",
  "5483": "\u0120nor",
  "5484": "\u0120national",
  "5485": "\u0120netflix",
  "5486": "\u0120init",
  "5487": "riger",
  "5488": "\u0120force",
  "5489": "aded",
  "5490": "adow",
  "5491": "\u0120whom",
  "5492": "uten",
  "5493": "acing",
  "5494": "\u0120rul",
  "5495": "\u0120Took",
  "5496": "\u0120Tuesday",
  "5497": "rag",
  "5498": "raged",
  "5499": "thank",
  "5500": "atest",
  "5501": "roll",
  "5502": "\u0120San",
  "5503": "\u0120exten",
  "5504": "ilot",
  "5505": "\u0120yearbook",
  "5506": "\u0120Has",
  "5507": "\u0120AN",
  "5508": "\u0120overnight",
  "5509": "\u0120ages",
  "5510": "\u0120startled",
  "5511": "ashed",
  "5512": "anna",
  "5513": "\u0120hardest",
  "5514": "\u0120unp",
  "5515": "\u0120Bu",
  "5516": "\u0120families",
  "5517": "\u0120afterward",
  "5518": "olf",
  "5519": "aging",
  "5520": "\u0120NFL",
  "5521": "\u0120Cost",
  "5522": "\u0120chest",
  "5523": "\u0120apple",
  "5524": "\u0120uses",
  "5525": "\u0120mission",
  "5526": "\u0120husky",
  "5527": "\u0120talks",
  "5528": "\u0120adjust",
  "5529": "\u0120hits",
  "5530": "\u0120doors",
  "5531": "\u0120slide",
  "5532": "\u0120breaks",
  "5533": "\u0120strang",
  "5534": "\u0120Kids",
  "5535": "\u0120evicted",
  "5536": "\u0120fallen",
  "5537": "\u0120messy",
  "5538": "iversal",
  "5539": "\u0120assured",
  "5540": "\u0120Always",
  "5541": "\u0120brakes",
  "5542": "\u0120tastes",
  "5543": "\u0120teenagers",
  "5544": "lando",
  "5545": "\u0120clearance",
  "5546": "\u0120signific",
  "5547": "\u0120grab",
  "5548": "\u0120hamb",
  "5549": "\u0120required",
  "5550": "Once",
  "5551": "\u0120spoken",
  "5552": "\u0120refriger",
  "5553": "\u0120Should",
  "5554": "\u0120repeat",
  "5555": "\u0120totaled",
  "5556": "\u0120assume",
  "5557": "\u0120labor",
  "5558": "\u0120softball",
  "5559": "tte",
  "5560": "\u0120Mexico",
  "5561": "\u0120blessing",
  "5562": "\u0120blanket",
  "5563": "\u0120trailer",
  "5564": "\u0120center",
  "5565": "\u0120bearded",
  "5566": "\u0120encou",
  "5567": "\u0120February",
  "5568": "\u0120instructor",
  "5569": "ropri",
  "5570": "\u0120dedicated",
  "5571": "\u0120assignment",
  "5572": "donald",
  "5573": "\u0120journey",
  "5574": "\u0120Switch",
  "5575": "\u0120obviously",
  "5576": "\u0120whilst",
  "5577": "\u0120likely",
  "5578": "\u0120ingredients",
  "5579": "\u0120refrigerator",
  "5580": "40",
  "5581": "RI",
  "5582": "To",
  "5583": "hab",
  "5584": "nic",
  "5585": "zer",
  "5586": "\u0120wra",
  "5587": "inese",
  "5588": "\u0120thick",
  "5589": "\u0120somed",
  "5590": "\u0120dated",
  "5591": "\u0120gorge",
  "5592": "orida",
  "5593": "\u0120lung",
  "5594": "\u0120pin",
  "5595": "\u0120pal",
  "5596": "\u0120papers",
  "5597": "anke",
  "5598": "aying",
  "5599": "\u0120kay",
  "5600": "\u0120kitt",
  "5601": "acle",
  "5602": "\u0120butter",
  "5603": "thy",
  "5604": "respect",
  "5605": "\u0120Har",
  "5606": "\u0120Ap",
  "5607": "\u0120App",
  "5608": "\u0120pepper",
  "5609": "\u0120lotto",
  "5610": "ability",
  "5611": "\u0120col",
  "5612": "\u0120unus",
  "5613": "\u0120fav",
  "5614": "\u0120Che",
  "5615": "\u0120Lakers",
  "5616": "ization",
  "5617": "\u0120Of",
  "5618": "\u0120appartment",
  "5619": "\u0120Football",
  "5620": "\u0120confu",
  "5621": "\u0120florida",
  "5622": "\u0120300",
  "5623": "\u0120favorites",
  "5624": "\u0120classmates",
  "5625": "\u0120drun",
  "5626": "\u0120cracked",
  "5627": "\u0120attached",
  "5628": "\u0120runs",
  "5629": "\u0120tons",
  "5630": "\u0120snakes",
  "5631": "\u0120strength",
  "5632": "\u0120Everytime",
  "5633": "\u0120cookie",
  "5634": "\u0120hospice",
  "5635": "\u0120loudly",
  "5636": "\u0120distr",
  "5637": "sweet",
  "5638": "\u0120beaten",
  "5639": "\u0120internship",
  "5640": "\u0120attending",
  "5641": "\u0120teenage",
  "5642": "\u0120effect",
  "5643": "\u0120tennis",
  "5644": "\u0120express",
  "5645": "\u0120professor",
  "5646": "\u0120touched",
  "5647": "\u0120customers",
  "5648": "\u0120babysitter",
  "5649": "\u0120aggressive",
  "5650": "\u0120shifts",
  "5651": "\u0120Army",
  "5652": "\u0120reminiscing",
  "5653": "\u0120political",
  "5654": "\u0120Grandma",
  "5655": "\u0120jacket",
  "5656": "\u0120safely",
  "5657": "\u0120Mario",
  "5658": "ING",
  "5659": "\u0120cameras",
  "5660": "\u0120mosquito",
  "5661": "\u0120determined",
  "5662": "\u0120cigare",
  "5663": "\u0120shattered",
  "5664": "\u0120model",
  "5665": "\u0120December",
  "5666": "\u0120mentally",
  "5667": "\u0120hesitant",
  "5668": "\u0120opin",
  "5669": "\u0120ceiling",
  "5670": "\u0120rules",
  "5671": "ropriate",
  "5672": "400",
  "5673": "And",
  "5674": "apt",
  "5675": "dge",
  "5676": "down",
  "5677": "house",
  "5678": "ium",
  "5679": "ipper",
  "5680": "mower",
  "5681": "ores",
  "5682": "pon",
  "5683": "uly",
  "5684": "\u0120tar",
  "5685": "inc",
  "5686": "otally",
  "5687": "\u0120file",
  "5688": "\u0120bree",
  "5689": "\u0120dip",
  "5690": "\u0120dig",
  "5691": "\u0120gain",
  "5692": "orking",
  "5693": "orted",
  "5694": "\u0120lord",
  "5695": "\u0120beating",
  "5696": "riving",
  "5697": "immune",
  "5698": "ading",
  "5699": "\u0120meals",
  "5700": "icago",
  "5701": "\u0120iP",
  "5702": "\u0120igu",
  "5703": "\u0120government",
  "5704": "acting",
  "5705": "\u0120hey",
  "5706": "\u0120hectic",
  "5707": "\u0120notes",
  "5708": "\u0120upstairs",
  "5709": "ille",
  "5710": "\u0120WH",
  "5711": "\u0120shes",
  "5712": "\u0120Something",
  "5713": "unities",
  "5714": "eaks",
  "5715": "\u0120anybody",
  "5716": "\u0120overd",
  "5717": "\u0120overs",
  "5718": "abor",
  "5719": "\u0120nightlight",
  "5720": "\u0120nightmare",
  "5721": "\u0120unb",
  "5722": "\u0120Bar",
  "5723": "\u0120Best",
  "5724": "\u0120stub",
  "5725": "\u0120Mine",
  "5726": "assion",
  "5727": "\u0120ourselves",
  "5728": "\u0120Could",
  "5729": "\u0120proc",
  "5730": "\u0120Los",
  "5731": "\u0120interst",
  "5732": "\u0120Over",
  "5733": "\u0120belief",
  "5734": "\u0120girlfriends",
  "5735": "\u0120collect",
  "5736": "\u0120highly",
  "5737": "\u0120pup",
  "5738": "\u0120grandpa",
  "5739": "\u0120access",
  "5740": "\u0120classic",
  "5741": "\u0120Par",
  "5742": "\u0120arent",
  "5743": "\u0120attem",
  "5744": "\u012045",
  "5745": "\u0120headache",
  "5746": "eez",
  "5747": "\u0120repa",
  "5748": "\u0120Only",
  "5749": "\u0120charity",
  "5750": "oga",
  "5751": "\u0120weights",
  "5752": "\u0120meds",
  "5753": "\u0120mailbox",
  "5754": "\u0120vegan",
  "5755": "\u0120troubles",
  "5756": "\u0120influ",
  "5757": "ibility",
  "5758": "\u0120male",
  "5759": "\u0120worrying",
  "5760": "\u0120subway",
  "5761": "\u0120bothered",
  "5762": "\u0120patients",
  "5763": "\u0120zero",
  "5764": "\u0120ballet",
  "5765": "\u0120lawnmower",
  "5766": "\u0120avail",
  "5767": "\u0120leading",
  "5768": "\u0120glasses",
  "5769": "\u0120Donald",
  "5770": "\u0120excellent",
  "5771": "\u0120greatest",
  "5772": "\u0120arms",
  "5773": "\u0120loneliness",
  "5774": "\u0120climate",
  "5775": "ollege",
  "5776": "\u0120curious",
  "5777": "\u0120blowing",
  "5778": "\u0120hundreds",
  "5779": "\u0120homeschool",
  "5780": "cription",
  "5781": "\u0120tradition",
  "5782": "\u0120Korean",
  "5783": "ihu",
  "5784": "\u0120ankle",
  "5785": "errari",
  "5786": "\u0120gorgeous",
  "5787": ",,",
  "5788": "avor",
  "5789": "bucks",
  "5790": "cent",
  "5791": "cting",
  "5792": "ios",
  "5793": "noc",
  "5794": "pot",
  "5795": "racking",
  "5796": "sorry",
  "5797": "ware",
  "5798": "\u0120tun",
  "5799": "\u0120wanna",
  "5800": "stood",
  "5801": "\u0120thru",
  "5802": "ott",
  "5803": "\u0120based",
  "5804": "\u0120boun",
  "5805": "\u0120dess",
  "5806": "\u0120duck",
  "5807": "\u0120gal",
  "5808": "\u0120gear",
  "5809": "\u0120lack",
  "5810": "ism",
  "5811": "\u0120names",
  "5812": "\u0120owe",
  "5813": "\u0120begging",
  "5814": "\u0120innoc",
  "5815": "\u0120reached",
  "5816": "che",
  "5817": "\u0120joke",
  "5818": "lymp",
  "5819": "\u0120upgr",
  "5820": "\u0120War",
  "5821": "\u0120yell",
  "5822": "\u0120sushi",
  "5823": "then",
  "5824": "rying",
  "5825": "\u0120ali",
  "5826": "cept",
  "5827": "\u0120areas",
  "5828": "resent",
  "5829": "\u0120Happy",
  "5830": "\u0120chill",
  "5831": "\u0120otherwise",
  "5832": "\u0120anytime",
  "5833": "irlfriend",
  "5834": "\u0120cos",
  "5835": "\u0120cloud",
  "5836": "igs",
  "5837": "\u0120uncer",
  "5838": "\u0120Bahamas",
  "5839": "\u0120Dad",
  "5840": "\u0120brac",
  "5841": "\u0120guest",
  "5842": "\u0120roach",
  "5843": "rue",
  "5844": "ular",
  "5845": "\u0120Ob",
  "5846": "\u0120appet",
  "5847": "\u0120shoulder",
  "5848": "\u0120granted",
  "5849": "\u0120testing",
  "5850": "\u0120flipped",
  "5851": "\u0120flavor",
  "5852": "\u0120Though",
  "5853": "\u0120deck",
  "5854": "\u0120adn",
  "5855": "play",
  "5856": "place",
  "5857": "ossible",
  "5858": "\u0120breast",
  "5859": "gots",
  "5860": "\u0120contacted",
  "5861": "\u0120July",
  "5862": "anced",
  "5863": "\u0120skunk",
  "5864": "\u0120hubby",
  "5865": "\u0120range",
  "5866": "\u0120complicated",
  "5867": "\u0120restaurants",
  "5868": "\u0120Yanke",
  "5869": "\u0120serving",
  "5870": "\u0120desper",
  "5871": "\u0120design",
  "5872": "\u0120sweetest",
  "5873": "rency",
  "5874": "\u0120installed",
  "5875": "ahu",
  "5876": "\u0120reception",
  "5877": "\u0120excit",
  "5878": "\u0120excuse",
  "5879": "\u0120relationships",
  "5880": "\u0120sett",
  "5881": "enced",
  "5882": "\u0120deadline",
  "5883": "\u0120infront",
  "5884": "\u0120freaking",
  "5885": "\u0120please",
  "5886": "\u0120deserves",
  "5887": "\u0120listened",
  "5888": "\u0120possibly",
  "5889": "cedes",
  "5890": "\u0120hunting",
  "5891": "\u0120embarrased",
  "5892": "\u0120transport",
  "5893": "\u0120sorts",
  "5894": "\u0120individ",
  "5895": "Awww",
  "5896": "\u0120informed",
  "5897": "\u0120gunsh",
  "5898": "\u0120hamster",
  "5899": "\u0120celebration",
  "5900": "\u0120Feeling",
  "5901": "\u0120drawing",
  "5902": "\u0120repeated",
  "5903": "\u0120hype",
  "5904": "\u0120mountain",
  "5905": "\u0120responsibilities",
  "5906": "\u0120mixed",
  "5907": "\u0120addiction",
  "5908": "\u0120Mexican",
  "5909": "\u0120busted",
  "5910": "\u0120increasing",
  "5911": "\u0120episode",
  "5912": "\u0120hobby",
  "5913": "\u0120benefits",
  "5914": "\u0120website",
  "5915": "\u0120Canada",
  "5916": "\u0120essential",
  "5917": "\u0120kayaking",
  "5918": "\u0120opinion",
  "5919": "ihuahu",
  "5920": "\u0120dessert",
  "5921": "\u0120uncertain",
  "5922": "AM",
  "5923": "But",
  "5924": "Ch",
  "5925": "Going",
  "5926": "Most",
  "5927": "Now",
  "5928": "have",
  "5929": "oly",
  "5930": "rary",
  "5931": "sides",
  "5932": "suit",
  "5933": "were",
  "5934": "\u0120x",
  "5935": "\u0120ide",
  "5936": "erence",
  "5937": "\u0120sil",
  "5938": "\u0120sight",
  "5939": "\u0120sym",
  "5940": "\u0120fill",
  "5941": "\u0120fake",
  "5942": "\u0120cher",
  "5943": "orse",
  "5944": "\u0120pill",
  "5945": "\u0120pushing",
  "5946": "\u0120ole",
  "5947": "\u0120beside",
  "5948": "\u0120besides",
  "5949": "owboys",
  "5950": "espite",
  "5951": "\u0120ease",
  "5952": "\u0120staff",
  "5953": "\u0120ur",
  "5954": "irting",
  "5955": "fun",
  "5956": "\u0120goss",
  "5957": "\u0120rushing",
  "5958": "\u0120shred",
  "5959": "\u0120Af",
  "5960": "\u0120waking",
  "5961": "\u0120whats",
  "5962": "\u0120kidd",
  "5963": "\u0120firm",
  "5964": "\u0120coast",
  "5965": "uments",
  "5966": "\u0120Boy",
  "5967": "\u0120reconn",
  "5968": "olks",
  "5969": "\u0120devast",
  "5970": "\u0120Ne",
  "5971": "\u0120compassion",
  "5972": "\u0120Cowboys",
  "5973": "ruction",
  "5974": "\u0120Lately",
  "5975": "\u0120careless",
  "5976": "\u0120flip",
  "5977": "\u0120GPA",
  "5978": "\u0120declined",
  "5979": "\u0120accused",
  "5980": "\u0120classroom",
  "5981": "\u0120tells",
  "5982": "\u0120stocked",
  "5983": "\u0120Park",
  "5984": "\u0120argu",
  "5985": "\u0120paj",
  "5986": "\u0120truth",
  "5987": "\u0120skip",
  "5988": "\u0120huh",
  "5989": "onda",
  "5990": "\u0120snu",
  "5991": "\u0120represent",
  "5992": "\u0120eachother",
  "5993": "\u0120presented",
  "5994": "\u0120behold",
  "5995": "\u0120photograph",
  "5996": "\u0120completed",
  "5997": "\u0120midnight",
  "5998": "\u0120boxing",
  "5999": "\u0120seconds",
  "6000": "ledge",
  "6001": "\u0120zipper",
  "6002": "\u0120Also",
  "6003": "\u0120ghosts",
  "6004": "\u0120tasty",
  "6005": "\u0120fiancee",
  "6006": "\u0120acceptance",
  "6007": "\u0120achievement",
  "6008": "Everyone",
  "6009": "Everything",
  "6010": "\u0120opportunities",
  "6011": "\u0120crowded",
  "6012": "\u0120spoiled",
  "6013": "\u0120Starbucks",
  "6014": "\u0120adoption",
  "6015": "\u0120biology",
  "6016": "\u0120kitty",
  "6017": "eems",
  "6018": "someone",
  "6019": "\u0120keto",
  "6020": "\u0120screwed",
  "6021": "\u0120proposal",
  "6022": "\u0120necessary",
  "6023": "\u0120capable",
  "6024": "\u0120outfit",
  "6025": "\u0120mutual",
  "6026": "\u0120participate",
  "6027": "\u0120activities",
  "6028": "\u0120umbre",
  "6029": "Unfortunately",
  "6030": "\u0120maggots",
  "6031": "\u0120independent",
  "6032": "\u0120Irma",
  "6033": "\u0120sketchy",
  "6034": "\u0120drunken",
  "6035": "\u0120stubborn",
  "6036": "\u0120interstate",
  "6037": "\u0120innocent",
  "6038": "igslist",
  "6039": "60",
  "6040": "Got",
  "6041": "HH",
  "6042": "LOL",
  "6043": "Omg",
  "6044": "Went",
  "6045": "aved",
  "6046": "can",
  "6047": "cure",
  "6048": "cons",
  "6049": "cused",
  "6050": "dad",
  "6051": "iable",
  "6052": "ipping",
  "6053": "of",
  "6054": "oons",
  "6055": "rot",
  "6056": "sounds",
  "6057": "ts",
  "6058": "ville",
  "6059": "\u0120wip",
  "6060": "style",
  "6061": "\u0120mic",
  "6062": "\u0120hy",
  "6063": "\u0120hood",
  "6064": "\u0120dang",
  "6065": "\u0120cage",
  "6066": "\u0120greet",
  "6067": "orian",
  "6068": "\u0120pour",
  "6069": "\u0120forg",
  "6070": "\u0120forth",
  "6071": "ooh",
  "6072": "char",
  "6073": "\u0120stood",
  "6074": "hey",
  "6075": "\u0120neat",
  "6076": "\u0120neither",
  "6077": "\u0120rarely",
  "6078": "\u0120abusive",
  "6079": "\u0120workplace",
  "6080": "\u0120shed",
  "6081": "\u0120shaking",
  "6082": "\u0120Spr",
  "6083": "\u0120moon",
  "6084": "\u0120happiest",
  "6085": "respons",
  "6086": "\u0120plates",
  "6087": "\u0120chain",
  "6088": "\u0120Aunt",
  "6089": "\u0120teh",
  "6090": "\u0120tears",
  "6091": "\u0120spa",
  "6092": "\u0120waiter",
  "6093": "\u0120unfair",
  "6094": "\u0120Dr",
  "6095": "\u0120brush",
  "6096": "\u0120rice",
  "6097": "\u0120prison",
  "6098": "\u0120CPA",
  "6099": "\u0120remained",
  "6100": "\u0120dried",
  "6101": "\u0120thoughtful",
  "6102": "\u0120beforehand",
  "6103": "elled",
  "6104": "\u0120Ear",
  "6105": "\u0120disrespect",
  "6106": "\u0120Ge",
  "6107": "\u0120Go",
  "6108": "\u0120puzz",
  "6109": "azing",
  "6110": "\u0120wished",
  "6111": "ucky",
  "6112": "\u0120focused",
  "6113": "\u0120vacations",
  "6114": "\u0120reality",
  "6115": "\u0120gluten",
  "6116": "\u0120Pe",
  "6117": "\u0120action",
  "6118": "\u0120picnic",
  "6119": "\u0120skipped",
  "6120": "\u0120Youtube",
  "6121": "\u0120snack",
  "6122": "\u0120serve",
  "6123": "\u0120Doctor",
  "6124": "\u0120apartments",
  "6125": "\u0120faster",
  "6126": "\u0120storming",
  "6127": "\u0120Chinese",
  "6128": "\u0120muscle",
  "6129": "\u0120medication",
  "6130": "\u0120mailman",
  "6131": "\u0120musical",
  "6132": "\u0120propose",
  "6133": "\u0120info",
  "6134": "\u0120conference",
  "6135": "\u0120choices",
  "6136": "\u0120patio",
  "6137": "\u0120battery",
  "6138": "\u0120switching",
  "6139": "\u0120squir",
  "6140": "\u0120directly",
  "6141": "\u0120detail",
  "6142": "\u0120divorced",
  "6143": "\u0120reviews",
  "6144": "\u0120washed",
  "6145": "\u0120apologize",
  "6146": "\u0120reaction",
  "6147": "\u0120tomato",
  "6148": "\u0120pleasant",
  "6149": "\u0120camera",
  "6150": "\u0120welcome",
  "6151": "\u0120eagerly",
  "6152": "\u0120wheels",
  "6153": "\u0120impression",
  "6154": "\u0120bottom",
  "6155": "\u0120recommend",
  "6156": "\u0120potatoes",
  "6157": "\u0120bittersweet",
  "6158": "\u0120alternative",
  "6159": "\u0120opposite",
  "6160": "\u0120Costco",
  "6161": "\u0120distracted",
  "6162": "\u0120ideas",
  "6163": "Al",
  "6164": "Am",
  "6165": "Holy",
  "6166": "PS",
  "6167": "cast",
  "6168": "every",
  "6169": "foot",
  "6170": "hes",
  "6171": "iver",
  "6172": "lers",
  "6173": "pto",
  "6174": "ring",
  "6175": "uable",
  "6176": "onment",
  "6177": "\u0120ID",
  "6178": "\u0120sens",
  "6179": "edy",
  "6180": "ented",
  "6181": "\u0120folks",
  "6182": "\u0120bake",
  "6183": "ustry",
  "6184": "\u0120cer",
  "6185": "\u0120cere",
  "6186": "\u0120goo",
  "6187": "\u0120gut",
  "6188": "orks",
  "6189": "\u0120yoga",
  "6190": "ribut",
  "6191": "ety",
  "6192": "ooks",
  "6193": "algia",
  "6194": "allas",
  "6195": "\u0120states",
  "6196": "\u0120kar",
  "6197": "\u0120anger",
  "6198": "aces",
  "6199": "\u0120hero",
  "6200": "\u0120shadow",
  "6201": "\u0120chase",
  "6202": "\u0120chihuahu",
  "6203": "\u0120comics",
  "6204": "\u0120spir",
  "6205": "\u0120affair",
  "6206": "abet",
  "6207": "\u0120mug",
  "6208": "\u0120coach",
  "6209": "\u0120Bros",
  "6210": "\u0120DI",
  "6211": "\u0120Despite",
  "6212": "\u0120parks",
  "6213": "\u0120parrot",
  "6214": "\u0120Master",
  "6215": "\u0120envir",
  "6216": "\u0120prank",
  "6217": "arring",
  "6218": "\u0120root",
  "6219": "\u0120Navy",
  "6220": "\u0120awoke",
  "6221": "\u0120remorse",
  "6222": "\u0120Love",
  "6223": "\u0120sadd",
  "6224": "\u0120sadly",
  "6225": "\u0120collection",
  "6226": "\u0120scam",
  "6227": "\u0120flirt",
  "6228": "\u0120swallow",
  "6229": "\u0120partying",
  "6230": "neath",
  "6231": "\u0120underneath",
  "6232": "aped",
  "6233": "\u0120stays",
  "6234": "\u0120firew",
  "6235": "\u0120roomate",
  "6236": "\u0120elated",
  "6237": "\u0120elses",
  "6238": "\u0120Rock",
  "6239": "\u0120James",
  "6240": "\u0120skate",
  "6241": "\u0120retail",
  "6242": "\u0120served",
  "6243": "ups",
  "6244": "\u0120gambling",
  "6245": "\u0120King",
  "6246": "\u0120Chicago",
  "6247": "rats",
  "6248": "\u0120incor",
  "6249": "\u0120evil",
  "6250": "\u0120affect",
  "6251": "\u0120irrespons",
  "6252": "\u0120Str",
  "6253": "\u0120Stud",
  "6254": "\u0120distant",
  "6255": "\u0120swimsuit",
  "6256": "ints",
  "6257": "\u0120VERY",
  "6258": "\u0120draft",
  "6259": "\u0120crypto",
  "6260": "\u0120secretly",
  "6261": "\u0120possibility",
  "6262": "\u0120types",
  "6263": "\u0120refuse",
  "6264": "\u0120speaker",
  "6265": "\u0120behaved",
  "6266": "\u0120industry",
  "6267": "\u0120thrift",
  "6268": "\u0120camper",
  "6269": "\u0120valedict",
  "6270": "\u0120valuable",
  "6271": "\u0120treas",
  "6272": "\u0120trees",
  "6273": "\u0120discount",
  "6274": "\u0120Kinda",
  "6275": "\u0120Kindergarten",
  "6276": "\u0120lonesome",
  "6277": "\u0120preparation",
  "6278": "\u0120suprised",
  "6279": "\u0120Orlando",
  "6280": "\u0120recovered",
  "6281": "\u0120release",
  "6282": "\u0120grill",
  "6283": "\u0120jogging",
  "6284": "\u0120American",
  "6285": "\u0120motivated",
  "6286": "\u0120balance",
  "6287": "\u0120aggravated",
  "6288": "\u0120dreading",
  "6289": "\u0120channels",
  "6290": "\u0120mentioned",
  "6291": "\u0120backpack",
  "6292": "\u0120candidate",
  "6293": "\u0120insecure",
  "6294": "\u0120someday",
  "6295": "\u0120iguana",
  "6296": "\u0120appetite",
  "6297": "\u0120Yankees",
  "6298": "\u0120essentials",
  "6299": "function",
  "6300": "\u0120cereal",
  "6301": "\u0120chihuahua",
  "6302": "\u0120environment",
  "6303": "\u0120valedictorian",
  "6304": "AN",
  "6305": "Any",
  "6306": "School",
  "6307": "While",
  "6308": "Your",
  "6309": "good",
  "6310": "hor",
  "6311": "ii",
  "6312": "lin",
  "6313": "mo",
  "6314": "ners",
  "6315": "rast",
  "6316": "sually",
  "6317": "uper",
  "6318": "\u0120tires",
  "6319": "\u0120wolf",
  "6320": "\u0120hat",
  "6321": "\u0120bom",
  "6322": "\u0120bid",
  "6323": "\u0120backing",
  "6324": "\u0120tore",
  "6325": "iter",
  "6326": "itor",
  "6327": "reaking",
  "6328": "\u0120drew",
  "6329": "\u0120coy",
  "6330": "\u0120cakes",
  "6331": "\u0120gum",
  "6332": "aring",
  "6333": "arant",
  "6334": "anes",
  "6335": "anoid",
  "6336": "\u0120yum",
  "6337": "\u0120rehab",
  "6338": "\u0120sore",
  "6339": "\u0120ey",
  "6340": "\u0120stain",
  "6341": "\u0120jury",
  "6342": "irth",
  "6343": "\u0120heav",
  "6344": "\u0120rom",
  "6345": "\u0120Too",
  "6346": "\u0120shaken",
  "6347": "\u0120comfor",
  "6348": "\u0120nightma",
  "6349": "\u0120clo",
  "6350": "iger",
  "6351": "umes",
  "6352": "\u0120unw",
  "6353": "\u0120paranoid",
  "6354": "\u0120Must",
  "6355": "\u0120parties",
  "6356": "gues",
  "6357": "\u0120rolled",
  "6358": "\u0120NOT",
  "6359": "\u0120City",
  "6360": "\u0120College",
  "6361": "\u0120awake",
  "6362": "\u012023",
  "6363": "\u0120Fl",
  "6364": "\u0120disapp",
  "6365": "\u012034",
  "6366": "\u0120trapped",
  "6367": "ista",
  "6368": "\u0120interviewing",
  "6369": "\u0120cris",
  "6370": "\u0120Pres",
  "6371": "\u0120active",
  "6372": "\u0120horrified",
  "6373": "\u0120pizzas",
  "6374": "\u0120guessing",
  "6375": "\u0120teams",
  "6376": "\u0120sneak",
  "6377": "\u0120surprising",
  "6378": "\u0120instantly",
  "6379": "\u0120receiving",
  "6380": "\u0120barista",
  "6381": "ifying",
  "6382": "\u012064",
  "6383": "\u0120presenting",
  "6384": "\u0120messing",
  "6385": "\u0120checkout",
  "6386": "\u0120commun",
  "6387": "onestly",
  "6388": "\u0120November",
  "6389": "\u0120burrit",
  "6390": "\u0120confir",
  "6391": "\u0120matters",
  "6392": "\u0120potential",
  "6393": "\u0120performed",
  "6394": "\u0120forgetting",
  "6395": "\u0120struck",
  "6396": "\u0120consist",
  "6397": "\u0120rented",
  "6398": "orsche",
  "6399": "\u0120vomiting",
  "6400": "\u0120patience",
  "6401": "\u0120terrif",
  "6402": "\u0120buddies",
  "6403": "\u0120wooded",
  "6404": "\u0120continues",
  "6405": "\u0120Universal",
  "6406": "\u0120construction",
  "6407": "\u0120artist",
  "6408": "\u0120popular",
  "6409": "\u0120racist",
  "6410": "\u0120racco",
  "6411": "ugget",
  "6412": "\u0120fortune",
  "6413": "\u0120planted",
  "6414": "\u0120skinny",
  "6415": "\u0120toddlers",
  "6416": "\u0120frightening",
  "6417": "etti",
  "6418": "\u0120circ",
  "6419": "\u0120estate",
  "6420": "\u0120document",
  "6421": "\u0120susp",
  "6422": "\u0120mosquitos",
  "6423": "\u0120aggravating",
  "6424": "\u0120loads",
  "6425": "\u0120Plus",
  "6426": "cials",
  "6427": "\u0120malfunction",
  "6428": "\u0120routine",
  "6429": "\u0120transferred",
  "6430": "\u0120cockroach",
  "6431": "\u0120trophy",
  "6432": "\u0120vegas",
  "6433": "\u0120strawber",
  "6434": "OMG",
  "6435": "\u0120SUV",
  "6436": "\u0120aston",
  "6437": "\u0120aisle",
  "6438": "\u0120strangers",
  "6439": "\u0120significant",
  "6440": "\u0120available",
  "6441": "\u0120gossip",
  "6442": "\u0120umbrella",
  "6443": "\u0120Spring",
  "6444": "\u0120squirrel",
  "6445": "\u0120saddened",
  "6446": "\u0120fireworks",
  "6447": "\u0120nightmares",
  "6448": "EE",
  "6449": "IC",
  "6450": "KEA",
  "6451": "OH",
  "6452": "OP",
  "6453": "Tomorrow",
  "6454": "True",
  "6455": "VE",
  "6456": "because",
  "6457": "kids",
  "6458": "nival",
  "6459": "por",
  "6460": "vard",
  "6461": "who",
  "6462": "zard",
  "6463": "\u0120&",
  "6464": "\u0120X",
  "6465": "\u0120ot",
  "6466": "\u0120tab",
  "6467": "ona",
  "6468": "\u0120Ind",
  "6469": "\u0120IKEA",
  "6470": "\u0120mel",
  "6471": "\u0120thor",
  "6472": "\u0120site",
  "6473": "\u0120harm",
  "6474": "\u0120hilar",
  "6475": "\u0120fb",
  "6476": "\u0120bond",
  "6477": "\u0120bicycle",
  "6478": "\u0120topping",
  "6479": "\u0120dough",
  "6480": "\u0120dorm",
  "6481": "\u0120py",
  "6482": "anch",
  "6483": "\u0120nood",
  "6484": "\u0120nach",
  "6485": "\u0120nugget",
  "6486": "\u0120inapp",
  "6487": "ril",
  "6488": "ghetti",
  "6489": "imch",
  "6490": "adem",
  "6491": "lest",
  "6492": "\u0120ult",
  "6493": "\u0120kimch",
  "6494": "\u0120lift",
  "6495": "section",
  "6496": "\u0120Wonder",
  "6497": "\u0120hers",
  "6498": "\u0120Sitting",
  "6499": "aun",
  "6500": "\u0120fruit",
  "6501": "\u0120exact",
  "6502": "ils",
  "6503": "\u0120HA",
  "6504": "\u0120chunk",
  "6505": "\u0120carnival",
  "6506": "\u0120spooked",
  "6507": "\u0120spaces",
  "6508": "\u0120var",
  "6509": "\u0120lean",
  "6510": "\u0120lease",
  "6511": "\u0120academ",
  "6512": "\u0120unc",
  "6513": "\u0120uni",
  "6514": "\u0120unif",
  "6515": "\u0120scariest",
  "6516": "\u0120buzz",
  "6517": "\u0120momma",
  "6518": "\u0120quilt",
  "6519": "\u0120Las",
  "6520": "\u0120Lol",
  "6521": "\u0120OK",
  "6522": "\u0120payed",
  "6523": "\u0120block",
  "6524": "\u0120dislike",
  "6525": "\u0120Thinking",
  "6526": "nee",
  "6527": "\u0120classmate",
  "6528": "\u0120cleaner",
  "6529": "\u0120attacking",
  "6530": "\u0120paw",
  "6531": "\u0120Re",
  "6532": "\u0120Ro",
  "6533": "\u0120Right",
  "6534": "\u0120Russ",
  "6535": "\u0120cutting",
  "6536": "\u0120cutest",
  "6537": "\u0120hugged",
  "6538": "\u0120compliment",
  "6539": "ddle",
  "6540": "\u0120realizing",
  "6541": "\u0120healing",
  "6542": "\u0120handling",
  "6543": "\u0120freeway",
  "6544": "\u0120freezer",
  "6545": "\u0120inspect",
  "6546": "\u0120failure",
  "6547": "ifically",
  "6548": "\u0120Keep",
  "6549": "\u0120incom",
  "6550": "\u0120reminder",
  "6551": "\u0120polic",
  "6552": "\u0120charging",
  "6553": "\u0120lightning",
  "6554": "\u0120standard",
  "6555": "\u0120steam",
  "6556": "\u0120smelly",
  "6557": "uded",
  "6558": "\u012095",
  "6559": "\u0120competitive",
  "6560": "\u0120stressing",
  "6561": "\u0120advent",
  "6562": "hole",
  "6563": "\u012070",
  "6564": "\u0120address",
  "6565": "\u0120regard",
  "6566": "\u0120starving",
  "6567": "\u0120treats",
  "6568": "\u0120attended",
  "6569": "\u0120transplant",
  "6570": "\u0120complained",
  "6571": "\u0120taxi",
  "6572": "\u0120deeply",
  "6573": "\u0120keyboard",
  "6574": "\u0120solo",
  "6575": "\u0120babysitting",
  "6576": "\u0120racing",
  "6577": "\u0120considerate",
  "6578": "\u0120Haha",
  "6579": "\u0120periods",
  "6580": "\u0120mainly",
  "6581": "\u0120maintain",
  "6582": "\u0120inspiring",
  "6583": "\u0120mowing",
  "6584": "\u0120experiences",
  "6585": "\u0120survived",
  "6586": "\u0120maternity",
  "6587": "\u0120rollercoasters",
  "6588": "\u0120software",
  "6589": "\u0120owl",
  "6590": "\u0120horrifying",
  "6591": "laws",
  "6592": "\u0120colleagues",
  "6593": "\u0120punched",
  "6594": "\u0120hostel",
  "6595": "\u0120officially",
  "6596": "\u0120betrayed",
  "6597": "iams",
  "6598": "\u0120pointed",
  "6599": "\u0120Guess",
  "6600": "\u0120challenge",
  "6601": "\u0120hamburger",
  "6602": "\u0120kittens",
  "6603": "\u0120overslept",
  "6604": "\u0120procrast",
  "6605": "\u0120gunshots",
  "6606": "\u0120kiddos",
  "6607": "\u0120photographs",
  "6608": "\u0120incorrect",
  "6609": "\u0120cryptocur",
  "6610": "\u0120thorough",
  "6611": "\u0120hilarious",
  "6612": "\u0120inappropriate",
  "6613": "\u0120kimchi",
  "6614": "\u0120uniform",
  "6615": "),",
  "6616": "300",
  "6617": "AA",
  "6618": "Hmm",
  "6619": "Like",
  "6620": "Sure",
  "6621": "Super",
  "6622": "TH",
  "6623": "corn",
  "6624": "iant",
  "6625": "nel",
  "6626": "oided",
  "6627": "town",
  "6628": "vable",
  "6629": "word",
  "6630": "wracking",
  "6631": "yy",
  "6632": "zzy",
  "6633": "\u0120;",
  "6634": "ene",
  "6635": "ench",
  "6636": "\u0120IN",
  "6637": "\u0120IS",
  "6638": "\u0120mac",
  "6639": "\u0120threat",
  "6640": "\u0120session",
  "6641": "otle",
  "6642": "\u0120hiring",
  "6643": "\u0120bare",
  "6644": "\u0120cass",
  "6645": "ask",
  "6646": "\u0120lower",
  "6647": "issing",
  "6648": "\u0120page",
  "6649": "\u0120obs",
  "6650": "\u0120whis",
  "6651": "alian",
  "6652": "icles",
  "6653": "icians",
  "6654": "\u0120ego",
  "6655": "amond",
  "6656": "\u0120rate",
  "6657": "\u0120worries",
  "6658": "\u0120fee",
  "6659": "\u0120Totally",
  "6660": "raft",
  "6661": "\u0120alter",
  "6662": "\u0120Sad",
  "6663": "\u0120Six",
  "6664": "\u0120lover",
  "6665": "\u0120knocking",
  "6666": "\u0120Hard",
  "6667": "inds",
  "6668": "\u0120plumber",
  "6669": "\u0120chains",
  "6670": "\u0120Austr",
  "6671": "carriage",
  "6672": "\u0120wave",
  "6673": "ephen",
  "6674": "\u0120overchar",
  "6675": "\u0120van",
  "6676": "\u0120viol",
  "6677": "\u0120mum",
  "6678": "\u0120muse",
  "6679": "umbled",
  "6680": "\u0120mansion",
  "6681": "\u0120Day",
  "6682": "\u0120MRI",
  "6683": "\u0120ripping",
  "6684": "\u0120pretend",
  "6685": "\u0120miscarriage",
  "6686": "\u0120diabet",
  "6687": "\u0120diamond",
  "6688": "\u0120interrupt",
  "6689": "\u0120payments",
  "6690": "esting",
  "6691": "\u0120flown",
  "6692": "\u0120flirting",
  "6693": "\u0120blocking",
  "6694": "\u0120tragic",
  "6695": "\u0120Thrones",
  "6696": "\u0120decades",
  "6697": "\u0120biting",
  "6698": "\u0120Per",
  "6699": "\u0120Part",
  "6700": "\u0120Probably",
  "6701": "\u0120sooner",
  "6702": "\u0120argue",
  "6703": "\u0120hurric",
  "6704": "\u0120impact",
  "6705": "blings",
  "6706": "\u0120Rem",
  "6707": "\u0120pasta",
  "6708": "\u0120doorstep",
  "6709": "\u0120slapped",
  "6710": "\u0120skirt",
  "6711": "\u0120Your",
  "6712": "\u0120understands",
  "6713": "\u0120grandmothers",
  "6714": "\u0120Uber",
  "6715": "\u0120countries",
  "6716": "\u0120healthier",
  "6717": "\u0120Christ",
  "6718": "\u0120including",
  "6719": "\u0120surround",
  "6720": "\u0120projects",
  "6721": "\u0120walls",
  "6722": "airy",
  "6723": "\u0120cooks",
  "6724": "\u0120setting",
  "6725": "\u0120musician",
  "6726": "\u0120smaller",
  "6727": "\u0120halfway",
  "6728": "\u0120distur",
  "6729": "\u0120turbul",
  "6730": "\u0120practically",
  "6731": "\u0120holds",
  "6732": "\u0120coverage",
  "6733": "\u0120salary",
  "6734": "\u0120added",
  "6735": "\u0120successfully",
  "6736": "emony",
  "6737": "\u0120simpler",
  "6738": "\u0120generation",
  "6739": "\u0120avoided",
  "6740": "\u0120heartbreaking",
  "6741": "\u0120disconn",
  "6742": "\u0120organization",
  "6743": "\u0120celebrating",
  "6744": "\u0120longest",
  "6745": "\u0120climb",
  "6746": "\u0120nails",
  "6747": "\u0120correctly",
  "6748": "\u0120bullied",
  "6749": "\u0120rotting",
  "6750": "\u0120shared",
  "6751": "\u0120sharing",
  "6752": "\u0120fantasy",
  "6753": "\u0120pleasantly",
  "6754": "\u0120tucked",
  "6755": "\u0120circus",
  "6756": "build",
  "6757": "\u0120searching",
  "6758": "\u0120admire",
  "6759": "\u0120equip",
  "6760": "\u0120punish",
  "6761": "\u0120channel",
  "6762": "\u0120introduced",
  "6763": "\u0120submitted",
  "6764": "\u0120sauce",
  "6765": "\u0120announced",
  "6766": "\u0120swerve",
  "6767": "\u0120claimed",
  "6768": "\u0120cinem",
  "6769": "\u0120slightly",
  "6770": "\u0120version",
  "6771": "\u0120reservations",
  "6772": "lifting",
  "6773": "donalds",
  "6774": "\u0120Harvard",
  "6775": "\u0120favour",
  "6776": "\u0120target",
  "6777": "\u0120unbelie",
  "6778": "\u0120snugg",
  "6779": "\u0120irresponsible",
  "6780": "\u0120heavily",
  "6781": "\u0120incompet",
  "6782": "\u0120chainsaw",
  "6783": "\u0120overcharged",
  "6784": ".\".",
  "6785": "1000",
  "6786": "30",
  "6787": "AY",
  "6788": "Hello",
  "6789": "MA",
  "6790": "Nah",
  "6791": "OD",
  "6792": "UG",
  "6793": "Will",
  "6794": "aven",
  "6795": "bits",
  "6796": "cause",
  "6797": "gle",
  "6798": "gie",
  "6799": "ls",
  "6800": "life",
  "6801": "world",
  "6802": "\u0120Z",
  "6803": "\u0120tum",
  "6804": "\u0120agent",
  "6805": "\u0120wide",
  "6806": "\u0120wings",
  "6807": "\u0120masters",
  "6808": "\u0120bump",
  "6809": "\u0120cares",
  "6810": "\u0120gall",
  "6811": "\u0120gir",
  "6812": "\u0120gang",
  "6813": "\u0120led",
  "6814": "\u0120lice",
  "6815": "lls",
  "6816": "\u0120pity",
  "6817": "\u0120punk",
  "6818": "adden",
  "6819": "\u0120stre",
  "6820": "\u0120stable",
  "6821": "\u0120jar",
  "6822": "amiliar",
  "6823": "ously",
  "6824": "\u0120lip",
  "6825": "astian",
  "6826": "\u0120Talk",
  "6827": "arting",
  "6828": "\u0120separ",
  "6829": "\u0120shark",
  "6830": "\u0120Honda",
  "6831": "gee",
  "6832": "\u0120commer",
  "6833": "\u0120clue",
  "6834": "osen",
  "6835": "\u0120Bet",
  "6836": "\u0120Birth",
  "6837": "\u0120DM",
  "6838": "\u0120Dallas",
  "6839": "\u0120branch",
  "6840": "\u0120May",
  "6841": "\u0120makeup",
  "6842": "afood",
  "6843": "\u0120misunder",
  "6844": "\u0120Netflix",
  "6845": "\u0120Cle",
  "6846": "\u0120Chip",
  "6847": "\u0120Let",
  "6848": "\u0120Labor",
  "6849": "\u0120Out",
  "6850": "\u0120function",
  "6851": "\u0120siblings",
  "6852": "\u0120conven",
  "6853": "\u0120flush",
  "6854": "\u0120disp",
  "6855": "\u0120twent",
  "6856": "\u0120twenty",
  "6857": "\u0120personally",
  "6858": "\u0120crank",
  "6859": "\u0120Pet",
  "6860": "beat",
  "6861": "\u0120actions",
  "6862": "\u0120pastor",
  "6863": "\u0120diner",
  "6864": "\u0120crappy",
  "6865": "\u0120fuel",
  "6866": "\u0120slice",
  "6867": "\u0120slap",
  "6868": "\u0120retire",
  "6869": "\u0120opens",
  "6870": "\u0120passes",
  "6871": "\u0120snap",
  "6872": "odel",
  "6873": "\u0120sweetheart",
  "6874": "\u0120deals",
  "6875": "\u0120instr",
  "6876": "\u0120repairs",
  "6877": "\u0120Usually",
  "6878": "\u0120trainer",
  "6879": "\u0120specifically",
  "6880": "\u0120streets",
  "6881": "\u0120returns",
  "6882": "\u0120chargers",
  "6883": "\u0120forest",
  "6884": "\u0120foreign",
  "6885": "\u0120settle",
  "6886": "\u0120command",
  "6887": "\u0120military",
  "6888": "\u0120changes",
  "6889": "Thankfully",
  "6890": "\u0120turkey",
  "6891": "\u0120points",
  "6892": "\u0120choked",
  "6893": "\u0120shortly",
  "6894": "\u0120dieting",
  "6895": "eared",
  "6896": "\u0120antique",
  "6897": "\u0120destination",
  "6898": "\u0120sunny",
  "6899": "\u0120intim",
  "6900": "\u0120calmed",
  "6901": "\u0120nostalgia",
  "6902": "\u0120answered",
  "6903": "\u0120counsel",
  "6904": "\u0120transmission",
  "6905": "\u0120peeing",
  "6906": "\u0120complaining",
  "6907": "\u0120werent",
  "6908": "\u0120diagnosis",
  "6909": "\u0120golden",
  "6910": "\u0120solve",
  "6911": "\u0120Anytime",
  "6912": "\u0120eggplant",
  "6913": "\u0120Haven",
  "6914": "olley",
  "6915": "\u0120improving",
  "6916": "\u0120negle",
  "6917": "\u0120convince",
  "6918": "\u0120becomes",
  "6919": "\u0120assumed",
  "6920": "\u0120jackpot",
  "6921": "LLY",
  "6922": "\u0120safety",
  "6923": "\u0120overwhelmed",
  "6924": "\u0120gathering",
  "6925": "\u0120autoimmune",
  "6926": "\u0120thunderstorms",
  "6927": "\u0120original",
  "6928": "\u0120Qu",
  "6929": "\u0120mirror",
  "6930": "dogs",
  "6931": "\u0120unfamiliar",
  "6932": "\u0120fulfilling",
  "6933": "\u0120title",
  "6934": "\u0120extension",
  "6935": "\u0120confused",
  "6936": "\u0120breeze",
  "6937": "\u0120repaired",
  "6938": "\u0120individual",
  "6939": "\u0120ceremony",
  "6940": "\u0120melted",
  "6941": "\u0120cryptocurrency",
  "6942": "\u0120thoroughly",
  "6943": "\u0120Austral",
  "6944": "\u0120turbulence",
  "6945": "\u0120equipment",
  "6946": "\u0120Birthday",
  "6947": "\u0120cranky",
  "6948": "!\"",
  "6949": "!?",
  "6950": "Luckily",
  "6951": "Must",
  "6952": "OR",
  "6953": "flies",
  "6954": "ges",
  "6955": "gly",
  "6956": "kill",
  "6957": "live",
  "6958": "maybe",
  "6959": "paper",
  "6960": "ubl",
  "6961": "uition",
  "6962": "\u0120#",
  "6963": "\u0120tack",
  "6964": "\u0120tied",
  "6965": "\u0120tipped",
  "6966": "erious",
  "6967": "\u0120waters",
  "6968": "inate",
  "6969": "stone",
  "6970": "\u0120thirty",
  "6971": "\u0120south",
  "6972": "eding",
  "6973": "\u0120fits",
  "6974": "\u0120bars",
  "6975": "\u0120doo",
  "6976": "\u0120cri",
  "6977": "\u0120geez",
  "6978": "\u0120lect",
  "6979": "\u0120beers",
  "6980": "elet",
  "6981": "\u0120ugly",
  "6982": "pple",
  "6983": "\u0120jam",
  "6984": "\u0120jew",
  "6985": "amn",
  "6986": "\u0120kicking",
  "6987": "\u0120liking",
  "6988": "\u0120heaven",
  "6989": "season",
  "6990": "\u0120allergy",
  "6991": "\u0120seafood",
  "6992": "\u0120Summer",
  "6993": "\u0120exist",
  "6994": "\u0120happend",
  "6995": "eapple",
  "6996": "ief",
  "6997": "\u0120chances",
  "6998": "\u0120Ad",
  "6999": "\u0120Air",
  "7000": "ontreal",
  "7001": "\u0120comment",
  "7002": "\u0120preseason",
  "7003": "\u0120peel",
  "7004": "\u0120vit",
  "7005": "\u0120volley",
  "7006": "about",
  "7007": "\u0120greatly",
  "7008": "igious",
  "7009": "\u0120Ben",
  "7010": "aker",
  "7011": "\u0120recall",
  "7012": "\u0120recru",
  "7013": "\u0120enraged",
  "7014": "\u0120pretended",
  "7015": "\u0120roaches",
  "7016": "peration",
  "7017": "\u0120bugging",
  "7018": "\u0120Call",
  "7019": "\u0120cheaper",
  "7020": "ruct",
  "7021": "\u0120Lea",
  "7022": "\u0120Lots",
  "7023": "\u0120appalled",
  "7024": "\u0120finds",
  "7025": "\u0120scores",
  "7026": "\u0120phase",
  "7027": "\u0120conso",
  "7028": "\u0120flags",
  "7029": "\u0120diss",
  "7030": "\u0120reliable",
  "7031": "\u0120Game",
  "7032": "\u0120Great",
  "7033": "\u0120puddle",
  "7034": "\u0120Thursday",
  "7035": "\u0120daddy",
  "7036": "\u0120wins",
  "7037": "\u0120PS",
  "7038": "ansion",
  "7039": "hys",
  "7040": "\u0120owners",
  "7041": "\u0120example",
  "7042": "\u0120accidents",
  "7043": "\u0120rub",
  "7044": "\u0120headaches",
  "7045": "\u0120rav",
  "7046": "\u0120metal",
  "7047": "\u0120extended",
  "7048": "\u0120stops",
  "7049": "\u0120fathers",
  "7050": "ocrats",
  "7051": "\u0120depl",
  "7052": "\u0120evidence",
  "7053": "\u0120painted",
  "7054": "fficient",
  "7055": "\u0120Stephen",
  "7056": "udes",
  "7057": "inton",
  "7058": "\u0120warri",
  "7059": "\u0120humans",
  "7060": "\u0120scratching",
  "7061": "\u0120intention",
  "7062": "\u0120wrest",
  "7063": "\u0120wrecking",
  "7064": "\u0120zomb",
  "7065": "\u0120dishwas",
  "7066": "\u0120bathing",
  "7067": "\u0120Almost",
  "7068": "\u0120extreme",
  "7069": "???",
  "7070": "\u0120shirts",
  "7071": "\u0120leadership",
  "7072": "\u0120adults",
  "7073": "\u0120investig",
  "7074": "\u0120copy",
  "7075": "\u0120solid",
  "7076": "\u0120popcorn",
  "7077": "\u0120Anything",
  "7078": "\u0120ignore",
  "7079": "\u0120sticky",
  "7080": "\u0120crawled",
  "7081": "Only",
  "7082": "\u0120panicked",
  "7083": "\u0120dumps",
  "7084": "\u0120conditioning",
  "7085": "\u0120leftover",
  "7086": "\u0120massive",
  "7087": "\u0120massage",
  "7088": "\u0120hiding",
  "7089": "\u0120jokes",
  "7090": "\u0120registered",
  "7091": "\u0120blankets",
  "7092": "\u0120bungee",
  "7093": "\u0120Calculus",
  "7094": "\u0120instructions",
  "7095": "\u0120skiing",
  "7096": "\u0120suffering",
  "7097": "\u0120sweaty",
  "7098": "\u0120moldy",
  "7099": "\u0120unlocked",
  "7100": "\u0120pumpkin",
  "7101": "iami",
  "7102": "\u0120\u0120\u0120\u0120\u0120\u0120\u0120\u0120\u0120\u0120\u0120\u0120\u0120\u0120\u0120\u0120\u0120\u0120\u0120\u0120\u0120\u0120\u0120\u0120\u0120\u0120\u0120\u0120\u0120\u0120\u0120\u0120\u0120\u0120\u0120\u0120\u0120\u0120\u0120\u0120\u0120\u0120\u0120\u0120\u0120\u0120\u0120\u0120\u0120\u0120\u0120\u0120\u0120\u0120\u0120\u0120\u0120\u0120\u0120\u0120\u0120\u0120\u0120\u0120",
  "7103": "\u0120escaped",
  "7104": "\u0120banana",
  "7105": "\u0120Japanese",
  "7106": "\u0120choose",
  "7107": "\u0120errands",
  "7108": "\u0120Apparently",
  "7109": "\u0120tuna",
  "7110": "\u0120aliens",
  "7111": "\u0120settled",
  "7112": "\u0120transportation",
  "7113": "\u0120repeatedly",
  "7114": "\u0120cherish",
  "7115": "\u0120poured",
  "7116": "\u0120spaghetti",
  "7117": "\u0120Pepper",
  "7118": "\u0120eyed",
  "7119": "\u0120clogged",
  "7120": "\u0120astonished",
  "7121": "\u0120toppings",
  "7122": "\u0120doughn",
  "7123": "\u0120inspection",
  "7124": "\u0120museum",
  "7125": "\u0120interrupts",
  "7126": "\u0120DMV",
  "7127": "\u0120Australia",
  "7128": "\u0120volleyball",
  "7129": "\u0120console",
  "7130": "\u0120dishwasher",
  "7131": "12",
  "7132": "Next",
  "7133": "Tell",
  "7134": "cop",
  "7135": "ein",
  "7136": "even",
  "7137": "going",
  "7138": "hone",
  "7139": "met",
  "7140": "nec",
  "7141": "ov",
  "7142": "rang",
  "7143": "too",
  "7144": "there",
  "7145": "uh",
  "7146": "uing",
  "7147": "uries",
  "7148": "working",
  "7149": "zen",
  "7150": "\u0120ven",
  "7151": "\u0120tut",
  "7152": "\u0120ward",
  "7153": "inst",
  "7154": "oni",
  "7155": "\u0120sang",
  "7156": "ota",
  "7157": "omp",
  "7158": "edom",
  "7159": "ednesday",
  "7160": "\u0120ferrari",
  "7161": "eman",
  "7162": "emption",
  "7163": "\u0120toes",
  "7164": "\u0120gains",
  "7165": "ories",
  "7166": "arily",
  "7167": "ario",
  "7168": "\u0120lamp",
  "7169": "\u0120pacing",
  "7170": "\u0120nause",
  "7171": "\u0120beef",
  "7172": "\u0120inher",
  "7173": "\u0120yo",
  "7174": "ows",
  "7175": "esh",
  "7176": "\u0120forced",
  "7177": "\u0120soph",
  "7178": "alcons",
  "7179": "icate",
  "7180": "ications",
  "7181": "\u0120east",
  "7182": "alling",
  "7183": "\u0120sticking",
  "7184": "ends",
  "7185": "\u0120uber",
  "7186": "\u0120neice",
  "7187": "heres",
  "7188": "furi",
  "7189": "\u0120goin",
  "7190": "\u0120liqu",
  "7191": "uro",
  "7192": "acation",
  "7193": "\u0120heater",
  "7194": "\u0120rink",
  "7195": "\u0120outcome",
  "7196": "anta",
  "7197": "\u0120fees",
  "7198": "\u0120Ten",
  "7199": "\u0120Taking",
  "7200": "\u0120upd",
  "7201": "\u0120Italian",
  "7202": "\u0120Wow",
  "7203": "\u0120someones",
  "7204": "\u0120shout",
  "7205": "\u0120Seb",
  "7206": "\u0120Seems",
  "7207": "\u0120loaf",
  "7208": "\u0120asks",
  "7209": "\u0120asap",
  "7210": "\u0120ALL",
  "7211": "uses",
  "7212": "\u0120comb",
  "7213": "\u0120compar",
  "7214": "\u0120spread",
  "7215": "\u0120covers",
  "7216": "anny",
  "7217": "\u0120unprepared",
  "7218": "\u0120unfaithful",
  "7219": "\u0120unnec",
  "7220": "\u0120Bra",
  "7221": "\u0120trim",
  "7222": "\u0120guide",
  "7223": "\u0120Mer",
  "7224": "\u0120Miami",
  "7225": "assic",
  "7226": "\u0120prote",
  "7227": "\u0120downtown",
  "7228": "\u0120buck",
  "7229": "\u0120None",
  "7230": "\u0120playoff",
  "7231": "\u0120remodel",
  "7232": "\u0120Little",
  "7233": "\u0120Other",
  "7234": "\u0120Family",
  "7235": "\u0120Falcons",
  "7236": "\u0120cough",
  "7237": "\u0120sadness",
  "7238": "\u0120puts",
  "7239": "\u0120talents",
  "7240": "ctually",
  "7241": "\u0120pharm",
  "7242": "\u0120blo",
  "7243": "\u0120blocked",
  "7244": "\u0120disag",
  "7245": "\u0120Gre",
  "7246": "\u0120Gonna",
  "7247": "\u0120grandson",
  "7248": "getic",
  "7249": "\u0120suppl",
  "7250": "\u0120foster",
  "7251": "rosse",
  "7252": "\u0120understood",
  "7253": "\u0120mario",
  "7254": "\u0120Porsche",
  "7255": "bean",
  "7256": "\u0120actors",
  "7257": "\u0120rooms",
  "7258": "\u0120bushes",
  "7259": "\u0120image",
  "7260": "\u0120grandmas",
  "7261": "\u0120sleeps",
  "7262": "\u0120sweating",
  "7263": "\u0120passen",
  "7264": "\u0120bosses",
  "7265": "\u0120mini",
  "7266": "\u0120minor",
  "7267": "\u0120tote",
  "7268": "\u0120dropping",
  "7269": "\u0120stormed",
  "7270": "\u0120incident",
  "7271": "\u0120basis",
  "7272": "\u0120rains",
  "7273": "\u0120midterm",
  "7274": "\u0120campus",
  "7275": "\u0120smells",
  "7276": "\u0120smelling",
  "7277": "\u0120landing",
  "7278": "\u0120freedom",
  "7279": "\u0120Ven",
  "7280": "\u0120corrupt",
  "7281": "\u0120assist",
  "7282": "\u0120pole",
  "7283": "\u0120figures",
  "7284": "\u0120arrival",
  "7285": "\u0120performing",
  "7286": "\u0120antsy",
  "7287": "itsu",
  "7288": "\u0120intru",
  "7289": "\u0120dressing",
  "7290": "\u0120zone",
  "7291": "pective",
  "7292": "\u0120refuses",
  "7293": "\u0120nursed",
  "7294": "\u0120replac",
  "7295": "\u0120licen",
  "7296": "\u0120expansion",
  "7297": "\u0120autonom",
  "7298": "\u0120continued",
  "7299": "\u0120Sundays",
  "7300": "\u0120investing",
  "7301": "\u0120discus",
  "7302": "weight",
  "7303": "ventually",
  "7304": "\u0120matches",
  "7305": "\u0120crowds",
  "7306": "\u0120tempor",
  "7307": "\u0120juice",
  "7308": "\u0120sharp",
  "7309": "\u0120belonged",
  "7310": "\u0120discover",
  "7311": "ttes",
  "7312": "\u0120technology",
  "7313": "\u0120ACT",
  "7314": "\u0120meaningful",
  "7315": "\u0120assignments",
  "7316": "\u0120Korea",
  "7317": "\u0120smoothly",
  "7318": "\u0120official",
  "7319": "\u0120candidates",
  "7320": "\u0120brief",
  "7321": "\u0120originally",
  "7322": "\u0120funds",
  "7323": "adillac",
  "7324": "\u0120chips",
  "7325": "\u0120chewed",
  "7326": "\u0120vegetables",
  "7327": "\u0120juggle",
  "7328": "\u0120passionate",
  "7329": "\u0120pancreatitis",
  "7330": "\u0120drowned",
  "7331": "\u0120butterflies",
  "7332": "\u0120effects",
  "7333": "\u0120cigarettes",
  "7334": "\u0120arguing",
  "7335": "\u0120pajamas",
  "7336": "\u0120hyper",
  "7337": "\u0120disrespectful",
  "7338": "\u0120coyote",
  "7339": "\u0120Flags",
  "7340": "\u0120crisis",
  "7341": "\u0120President",
  "7342": "\u0120strawberry",
  "7343": "\u0120hurricanes",
  "7344": "ublic",
  "7345": "eriously",
  "7346": "\u0120doughnuts",
  "7347": "\u0120Sebastian",
  "7348": "\u0120unnecess",
  "7349": "\u0120protein",
  "7350": ".,",
  "7351": "FA",
  "7352": "HA",
  "7353": "Has",
  "7354": "SA",
  "7355": "WH",
  "7356": "aire",
  "7357": "bon",
  "7358": "bra",
  "7359": "books",
  "7360": "cake",
  "7361": "eve",
  "7362": "iu",
  "7363": "iqu",
  "7364": "ker",
  "7365": "nope",
  "7366": "point",
  "7367": "sle",
  "7368": "yep",
  "7369": "zok",
  "7370": "\u0120wo",
  "7371": "\u0120wing",
  "7372": "\u0120wif",
  "7373": "onven",
  "7374": "\u0120mate",
  "7375": "\u0120snee",
  "7376": "\u0120hunt",
  "7377": "\u0120haters",
  "7378": "\u0120fra",
  "7379": "\u0120bunk",
  "7380": "ingers",
  "7381": "ington",
  "7382": "ordered",
  "7383": "\u0120lun",
  "7384": "\u0120pier",
  "7385": "\u0120rev",
  "7386": "ooo",
  "7387": "least",
  "7388": "ician",
  "7389": "\u0120earr",
  "7390": "\u0120strand",
  "7391": "\u0120weed",
  "7392": "\u0120weak",
  "7393": "\u0120jet",
  "7394": "\u0120jello",
  "7395": "\u0120kissing",
  "7396": "\u0120worn",
  "7397": "opsy",
  "7398": "tering",
  "7399": "\u0120Tra",
  "7400": "sequ",
  "7401": "\u0120Winter",
  "7402": "ryst",
  "7403": "\u0120exha",
  "7404": "\u0120log",
  "7405": "\u0120mob",
  "7406": "\u0120happily",
  "7407": "\u0120yearly",
  "7408": "cky",
  "7409": "\u0120chess",
  "7410": "obia",
  "7411": "\u0120williams",
  "7412": "\u0120sparring",
  "7413": "ipline",
  "7414": "ighbor",
  "7415": "umst",
  "7416": "\u0120hasnt",
  "7417": "\u0120BB",
  "7418": "\u0120Bowl",
  "7419": "\u0120De",
  "7420": "\u0120Might",
  "7421": "\u0120Mile",
  "7422": "\u0120wellington",
  "7423": "\u0120monster",
  "7424": "olina",
  "7425": "\u0120needing",
  "7426": "\u0120mommy",
  "7427": "\u0120Co",
  "7428": "\u0120Cra",
  "7429": "\u0120remote",
  "7430": "\u0120LA",
  "7431": "\u012029",
  "7432": "ulted",
  "7433": "\u0120Olive",
  "7434": "\u0120Fort",
  "7435": "\u0120gram",
  "7436": "\u0120grump",
  "7437": "\u0120collap",
  "7438": "\u0120collecting",
  "7439": "\u0120husbands",
  "7440": "\u0120scout",
  "7441": "\u0120phobia",
  "7442": "\u0120consequ",
  "7443": "\u012033",
  "7444": "\u0120Garden",
  "7445": "\u0120promises",
  "7446": "\u0120drums",
  "7447": "\u0120sits",
  "7448": "\u0120sickened",
  "7449": "\u0120imm",
  "7450": "\u0120eats",
  "7451": "ailing",
  "7452": "\u0120trunk",
  "7453": "\u0120tracking",
  "7454": "\u0120contribut",
  "7455": "\u0120REA",
  "7456": "\u0120boot",
  "7457": "\u0120Jacks",
  "7458": "\u0120slip",
  "7459": "\u0120retake",
  "7460": "\u0120closest",
  "7461": "\u0120breakup",
  "7462": "standing",
  "7463": "\u0120raises",
  "7464": "\u0120roadkill",
  "7465": "ohn",
  "7466": "\u0120healed",
  "7467": "\u0120handful",
  "7468": "\u0120growth",
  "7469": "\u0120dealer",
  "7470": "\u0120appli",
  "7471": "\u0120excuses",
  "7472": "\u0120China",
  "7473": "\u0120inconven",
  "7474": "\u0120surreal",
  "7475": "eber",
  "7476": "\u0120polite",
  "7477": "\u0120newspaper",
  "7478": "\u0120medal",
  "7479": "\u0120coolest",
  "7480": "\u0120landsc",
  "7481": "iana",
  "7482": "\u0120infection",
  "7483": "ibbean",
  "7484": "\u0120burnt",
  "7485": "\u0120stepmother",
  "7486": "\u0120bumper",
  "7487": "\u0120humble",
  "7488": "\u0120boost",
  "7489": "\u0120salt",
  "7490": "\u0120robber",
  "7491": "\u0120option",
  "7492": "\u0120treatments",
  "7493": "\u0120batter",
  "7494": "\u0120creek",
  "7495": "\u0120created",
  "7496": "\u0120poorly",
  "7497": "\u0120brain",
  "7498": "\u0120wasting",
  "7499": "\u0120synd",
  "7500": "\u0120causes",
  "7501": "\u0120qualify",
  "7502": "\u0120thrill",
  "7503": "\u0120loyalty",
  "7504": "\u0120Spent",
  "7505": "rimp",
  "7506": "\u0120texas",
  "7507": "\u0120debts",
  "7508": "\u0120efforts",
  "7509": "\u0120unsafe",
  "7510": "\u0120armadill",
  "7511": "\u0120achieved",
  "7512": "\u0120shameful",
  "7513": "\u0120crawl",
  "7514": "\u0120Saturdays",
  "7515": "\u0120spoil",
  "7516": "\u0120drawer",
  "7517": "\u0120tips",
  "7518": "\u0120fortunately",
  "7519": "\u0120rewarded",
  "7520": "\u0120refle",
  "7521": "\u0120199",
  "7522": "\u0120grilled",
  "7523": "\u0120hidden",
  "7524": "\u0120radi",
  "7525": "\u0120salesman",
  "7526": "\u0120judg",
  "7527": "\u0120motivation",
  "7528": "\u0120hallway",
  "7529": "\u0120biopsy",
  "7530": "\u0120tailg",
  "7531": "\u0120chefs",
  "7532": "\u0120recognition",
  "7533": "\u0120demanded",
  "7534": "\u0120poisoning",
  "7535": "\u0120Caribbean",
  "7536": "Okay",
  "7537": "\u0120Macs",
  "7538": "\u0120olives",
  "7539": "\u0120initial",
  "7540": "\u0120pineapple",
  "7541": "\u0120April",
  "7542": "\u0120excitement",
  "7543": "\u0120forgive",
  "7544": "\u0120Studios",
  "7545": "\u0120nachos",
  "7546": "aunting",
  "7547": "\u0120cinema",
  "7548": "\u0120incompetent",
  "7549": "\u0120gallon",
  "7550": "\u0120commercials",
  "7551": "\u0120Chipotle",
  "7552": "\u0120warriors",
  "7553": "\u0120unnecessary",
  "7554": "\u0120bunker",
  "7555": "\u0120earrings",
  "7556": "\u0120exhaust",
  "7557": "\u0120armadillo",
  "7558": "80",
  "7559": "Pretty",
  "7560": "Recently",
  "7561": "Then",
  "7562": "Tube",
  "7563": "VER",
  "7564": "Would",
  "7565": "cade",
  "7566": "hus",
  "7567": "ij",
  "7568": "mine",
  "7569": "nies",
  "7570": "nia",
  "7571": "pm",
  "7572": "ration",
  "7573": "xic",
  "7574": "\u0120tong",
  "7575": "\u0120tag",
  "7576": "\u0120tap",
  "7577": "\u0120tank",
  "7578": "\u0120wrist",
  "7579": "ini",
  "7580": "inct",
  "7581": "\u0120mc",
  "7582": "\u0120mann",
  "7583": "\u0120max",
  "7584": "\u0120master",
  "7585": "\u0120sour",
  "7586": "\u0120hip",
  "7587": "oma",
  "7588": "\u0120fought",
  "7589": "\u0120bac",
  "7590": "\u0120bound",
  "7591": "\u0120baff",
  "7592": "rex",
  "7593": "really",
  "7594": "\u0120dust",
  "7595": "\u0120dates",
  "7596": "\u0120ducks",
  "7597": "\u0120cafe",
  "7598": "\u0120lined",
  "7599": "lliant",
  "7600": "\u0120patch",
  "7601": "\u0120nar",
  "7602": "\u0120nine",
  "7603": "\u0120bell",
  "7604": "especially",
  "7605": "\u0120refin",
  "7606": "icals",
  "7607": "\u0120stink",
  "7608": "\u0120stumbled",
  "7609": "heal",
  "7610": "uted",
  "7611": "uting",
  "7612": "\u0120web",
  "7613": "\u0120dos",
  "7614": "\u0120jog",
  "7615": "ams",
  "7616": "fume",
  "7617": "ural",
  "7618": "oping",
  "7619": "\u0120feat",
  "7620": "\u0120Trying",
  "7621": "sey",
  "7622": "\u0120notified",
  "7623": "\u0120Italy",
  "7624": "\u0120alw",
  "7625": "\u0120shaved",
  "7626": "\u0120Sk",
  "7627": "\u0120exited",
  "7628": "\u0120newest",
  "7629": "\u0120goodby",
  "7630": "\u0120Hill",
  "7631": "feed",
  "7632": "\u0120knowledge",
  "7633": "\u0120jobless",
  "7634": "\u0120prevent",
  "7635": "\u0120spook",
  "7636": "\u0120spilling",
  "7637": "\u0120doggie",
  "7638": "\u0120overhe",
  "7639": "\u0120vict",
  "7640": "essions",
  "7641": "\u0120coc",
  "7642": "\u0120clock",
  "7643": "\u0120cliff",
  "7644": "rowing",
  "7645": "\u0120household",
  "7646": "\u0120unemployed",
  "7647": "\u0120Bab",
  "7648": "\u0120Break",
  "7649": "\u0120surely",
  "7650": "\u0120brut",
  "7651": "\u0120Mic",
  "7652": "\u0120Many",
  "7653": "\u0120MMA",
  "7654": "\u0120river",
  "7655": "\u0120monkey",
  "7656": "\u0120Need",
  "7657": "\u0120dire",
  "7658": "\u0120CD",
  "7659": "\u0120prove",
  "7660": "\u0120proceed",
  "7661": "\u0120removed",
  "7662": "\u0120Leg",
  "7663": "\u0120El",
  "7664": "\u0120Eventually",
  "7665": "ptoms",
  "7666": "\u0120swar",
  "7667": "\u0120disheart",
  "7668": "\u0120display",
  "7669": "\u0120Gold",
  "7670": "\u0120Thought",
  "7671": "\u0120leaking",
  "7672": "\u0120resist",
  "7673": "\u0120supply",
  "7674": "\u0120mustard",
  "7675": "action",
  "7676": "\u0120marked",
  "7677": "\u0120actor",
  "7678": "\u0120roomie",
  "7679": "ulture",
  "7680": "\u0120impossible",
  "7681": "\u0120craft",
  "7682": "\u0120perfume",
  "7683": "pleas",
  "7684": "\u0120latest",
  "7685": "\u0120YouTube",
  "7686": "\u0120slower",
  "7687": "\u0120secure",
  "7688": "\u0120entering",
  "7689": "\u0120heads",
  "7690": "jection",
  "7691": "\u0120pooping",
  "7692": "\u0120seasons",
  "7693": "\u0120bark",
  "7694": "\u0120Kid",
  "7695": "\u0120delight",
  "7696": "\u0120cursed",
  "7697": "\u0120curse",
  "7698": "\u0120pains",
  "7699": "\u0120Sudden",
  "7700": "\u0120videog",
  "7701": "\u0120courses",
  "7702": "rica",
  "7703": "\u0120wednesday",
  "7704": "\u0120mates",
  "7705": "\u0120selfish",
  "7706": "\u0120confl",
  "7707": "\u0120approval",
  "7708": "\u0120drain",
  "7709": "\u0120arriving",
  "7710": "\u0120possum",
  "7711": "\u0120offering",
  "7712": "\u0120groups",
  "7713": "\u0120bats",
  "7714": "\u0120refusing",
  "7715": "\u0120brave",
  "7716": "\u0120generations",
  "7717": "\u0120signs",
  "7718": "\u0120autom",
  "7719": "\u0120flooding",
  "7720": "\u0120Spain",
  "7721": "\u0120joining",
  "7722": "\u0120explode",
  "7723": "\u0120Looks",
  "7724": "\u0120ignoring",
  "7725": "\u0120occur",
  "7726": "\u0120recipes",
  "7727": "\u0120conversations",
  "7728": "\u0120milestone",
  "7729": "\u0120sharks",
  "7730": "\u0120cudd",
  "7731": "\u0120repeating",
  "7732": "\u0120particularly",
  "7733": "\u0120humiliating",
  "7734": "\u0120respectful",
  "7735": "\u0120admitted",
  "7736": "\u0120poker",
  "7737": "force",
  "7738": "\u0120cheerle",
  "7739": "\u0120economic",
  "7740": "\u0120bunnies",
  "7741": "enges",
  "7742": "\u0120documents",
  "7743": "\u0120gigantic",
  "7744": "\u0120challenges",
  "7745": "erole",
  "7746": "\u0120dedication",
  "7747": "\u0120trauma",
  "7748": "\u0120recognize",
  "7749": "\u0120hello",
  "7750": "\u0120betray",
  "7751": "\u0120facility",
  "7752": "\u0120introduce",
  "7753": "\u0120companion",
  "7754": "\u0120miracle",
  "7755": "\u0120bleeding",
  "7756": "\u0120renewed",
  "7757": "\u0120SATs",
  "7758": "\u0120connect",
  "7759": "\u0120included",
  "7760": "\u0120pancreatic",
  "7761": "\u0120lanai",
  "7762": "\u0120objects",
  "7763": "\u0120verb",
  "7764": "field",
  "7765": "\u0120pepperoni",
  "7766": "\u0120mosquitoes",
  "7767": "\u0120attempt",
  "7768": "\u0120influenced",
  "7769": "\u0120symptoms",
  "7770": "\u0120skateboard",
  "7771": "\u0120Strzok",
  "7772": "liner",
  "7773": "\u0120circumst",
  "7774": "\u0120casserole",
  "7775": "\u0120disturbing",
  "7776": "\u0120unbelievable",
  "7777": "\u0120inherited",
  "7778": "furiating",
  "7779": "\u0120Mercedes",
  "7780": "\u0120autonomy",
  "7781": "\u0120Craigslist",
  "7782": "\u0120grumpy",
  "7783": "\u0120baffled",
  "7784": "\u0120goodbye",
  "7785": "\u0120spooky",
  "7786": "\u0120circumstances",
  "7787": "**",
  "7788": ",.",
  "7789": "15",
  "7790": "2000",
  "7791": "EO",
  "7792": "GH",
  "7793": "Kids",
  "7794": "SS",
  "7795": "Two",
  "7796": "YY",
  "7797": "Yay",
  "7798": "bike",
  "7799": "brary",
  "7800": "dom",
  "7801": "iers",
  "7802": "mar",
  "7803": "pit",
  "7804": "rad",
  "7805": "tles",
  "7806": "uine",
  "7807": "uct",
  "7808": "uary",
  "7809": "yh",
  "7810": "yer",
  "7811": "ziest",
  "7812": "\u0120tub",
  "7813": "\u0120tuesday",
  "7814": "\u0120tshirt",
  "7815": "\u0120ah",
  "7816": "ergetic",
  "7817": "inating",
  "7818": "inist",
  "7819": "inary",
  "7820": "onym",
  "7821": "\u0120Ill",
  "7822": "\u0120mice",
  "7823": "otic",
  "7824": "\u0120hose",
  "7825": "omg",
  "7826": "oul",
  "7827": "ouqu",
  "7828": "\u0120fal",
  "7829": "\u0120faced",
  "7830": "\u0120bouqu",
  "7831": "eme",
  "7832": "employ",
  "7833": "itable",
  "7834": "ional",
  "7835": "atley",
  "7836": "\u0120dim",
  "7837": "\u0120dies",
  "7838": "\u0120cast",
  "7839": "\u0120gears",
  "7840": "\u0120grosse",
  "7841": "\u0120lat",
  "7842": "\u0120pra",
  "7843": "\u0120pip",
  "7844": "\u0120pilot",
  "7845": "aned",
  "7846": "\u0120obed",
  "7847": "\u0120operation",
  "7848": "elity",
  "7849": "\u0120rejection",
  "7850": "imony",
  "7851": "lease",
  "7852": "vert",
  "7853": "alking",
  "7854": "ica",
  "7855": "chup",
  "7856": "\u0120stunk",
  "7857": "\u0120stares",
  "7858": "utr",
  "7859": "\u0120among",
  "7860": "\u0120ambul",
  "7861": "\u0120dove",
  "7862": "\u0120jiu",
  "7863": "\u0120atleast",
  "7864": "\u0120anonym",
  "7865": "\u0120lizard",
  "7866": "\u0120library",
  "7867": "urassic",
  "7868": "\u0120rally",
  "7869": "\u0120rates",
  "7870": "\u0120rural",
  "7871": "oples",
  "7872": "opilot",
  "7873": "\u0120Ter",
  "7874": "\u0120Tom",
  "7875": "\u0120Tell",
  "7876": "\u0120Theres",
  "7877": "\u0120Wednesday",
  "7878": "\u0120sug",
  "7879": "\u0120weekly",
  "7880": "robe",
  "7881": "\u0120shrimp",
  "7882": "\u0120exch",
  "7883": "\u0120sheets",
  "7884": "\u0120aside",
  "7885": "\u0120HE",
  "7886": "\u0120HI",
  "7887": "each",
  "7888": "\u0120Av",
  "7889": "\u0120Ang",
  "7890": "cargot",
  "7891": "\u0120backfl",
  "7892": "orette",
  "7893": "\u0120teary",
  "7894": "\u0120anyways",
  "7895": "\u0120overweight",
  "7896": "\u0120kidding",
  "7897": "\u0120peoples",
  "7898": "\u0120vivid",
  "7899": "\u0120donated",
  "7900": "\u0120aged",
  "7901": "\u0120girlfi",
  "7902": "igning",
  "7903": "Ohh",
  "7904": "\u0120Brit",
  "7905": "aky",
  "7906": "atched",
  "7907": "\u0120Driving",
  "7908": "\u0120trials",
  "7909": "\u0120guilt",
  "7910": "\u0120ens",
  "7911": "\u0120energetic",
  "7912": "\u0120pred",
  "7913": "dest",
  "7914": "\u0120nicest",
  "7915": "agging",
  "7916": "\u0120NE",
  "7917": "\u0120National",
  "7918": "\u0120NES",
  "7919": "\u0120digest",
  "7920": "\u0120CEO",
  "7921": "\u0120LO",
  "7922": "\u0120Law",
  "7923": "\u012028",
  "7924": "\u0120Olymp",
  "7925": "\u0120Fren",
  "7926": "\u0120Fingers",
  "7927": "reece",
  "7928": "\u0120testimony",
  "7929": "\u0120En",
  "7930": "\u0120concent",
  "7931": "\u0120reluct",
  "7932": "\u0120Girlfriend",
  "7933": "\u0120Greece",
  "7934": "\u0120december",
  "7935": "azed",
  "7936": "\u0120resident",
  "7937": "\u0120resolved",
  "7938": "\u0120interviewer",
  "7939": "\u0120winner",
  "7940": "\u0120Pro",
  "7941": "\u0120elev",
  "7942": "\u0120impr",
  "7943": "hael",
  "7944": "\u0120trump",
  "7945": "\u0120contain",
  "7946": "\u0120contacting",
  "7947": "\u0120dining",
  "7948": "\u0120craziest",
  "7949": "\u0120Jurassic",
  "7950": "\u0120visits",
  "7951": "\u0120slim",
  "7952": "\u0120hug",
  "7953": "ggies",
  "7954": "\u0120ruining",
  "7955": "\u0120entert",
  "7956": "\u0120preschool",
  "7957": "\u0120fellow",
  "7958": "\u0120Dogs",
  "7959": "\u0120spends",
  "7960": "\u0120desire",
  "7961": "\u0120concern",
  "7962": "\u0120apples",
  "7963": "\u0120repul",
  "7964": "\u0120Everybody",
  "7965": "\u0120curb",
  "7966": "\u0120entirely",
  "7967": "\u0120anxiously",
  "7968": "\u0120comments",
  "7969": "\u0120infant",
  "7970": "\u0120burning",
  "7971": "\u0120burden",
  "7972": "\u0120approach",
  "7973": "\u0120Atl",
  "7974": "\u0120irritates",
  "7975": "\u0120mistaken",
  "7976": "\u0120planet",
  "7977": "\u0120intell",
  "7978": "\u0120intuition",
  "7979": "......",
  "7980": "\u0120Asia",
  "7981": "\u0120zip",
  "7982": "\u0120jumpsc",
  "7983": "\u0120employment",
  "7984": "\u0120services",
  "7985": "\u0120illeg",
  "7986": "hahah",
  "7987": "\u0120winnings",
  "7988": "Hahaha",
  "7989": "agna",
  "7990": "\u0120transition",
  "7991": "\u0120generous",
  "7992": "\u0120researching",
  "7993": "\u0120autopilot",
  "7994": "\u0120damn",
  "7995": "\u0120Spider",
  "7996": "years",
  "7997": "\u0120bodybuild",
  "7998": "\u0120organic",
  "7999": "\u0120Looked",
  "8000": "\u0120texts",
  "8001": "\u0120sticks",
  "8002": "\u0120federal",
  "8003": "\u01202017",
  "8004": "\u0120injury",
  "8005": "\u0120inspir",
  "8006": "\u0120democrats",
  "8007": "\u0120therapist",
  "8008": "\u0120mowed",
  "8009": "\u0120conditioner",
  "8010": "\u0120eter",
  "8011": "\u0120hoard",
  "8012": "\u0120anticipated",
  "8013": "\u0120joking",
  "8014": "loaf",
  "8015": "\u0120tomor",
  "8016": "\u0120bachelorette",
  "8017": "\u0120esteem",
  "8018": "\u0120chemicals",
  "8019": "\u0120embarassing",
  "8020": "\u0120frog",
  "8021": "\u0120aweful",
  "8022": "\u0120devoted",
  "8023": "\u0120encoun",
  "8024": "\u0120tearing",
  "8025": "\u0120ketchup",
  "8026": "\u0120traumat",
  "8027": "\u0120status",
  "8028": "\u0120hungover",
  "8029": "\u0120dirtbike",
  "8030": "\u0120towel",
  "8031": "\u0120brilliant",
  "8032": "\u0120orders",
  "8033": "\u0120companies",
  "8034": "\u0120Carolina",
  "8035": "\u0120scenario",
  "8036": "\u0120further",
  "8037": "\u0120Clinton",
  "8038": "\u0120grinding",
  "8039": "\u0120creative",
  "8040": "Before",
  "8041": "\u0120seagu",
  "8042": "\u0120adjusting",
  "8043": "\u0120colon",
  "8044": "incip",
  "8045": "\u0120Losing",
  "8046": "\u0120guests",
  "8047": "\u0120desperately",
  "8048": "\u0120devastating",
  "8049": "\u0120Neighbor",
  "8050": "\u0120compassionate",
  "8051": "\u0120puzzle",
  "8052": "\u0120raccoon",
  "8053": "\u0120India",
  "8054": "\u0120pyrex",
  "8055": "\u0120noodles",
  "8056": "\u0120ultim",
  "8057": "\u0120variety",
  "8058": "\u0120diabetes",
  "8059": "\u0120tackle",
  "8060": "\u0120dissap",
  "8061": "\u0120wardrobe",
  "8062": "\u0120pharmacy",
  "8063": "\u0120supplements",
  "8064": "\u0120replacement",
  "8065": "\u0120licensing",
  "8066": "\u0120woken",
  "8067": "feedback",
  "8068": "\u0120Michael",
  "8069": "\u0120Suddenly",
  "8070": "\u0120conflict",
  "8071": "\u0120grossest",
  "8072": "\u0120backflip",
  "8073": "\u0120French",
  "8074": "\u0120reluctant",
  "8075": "\u0120jumpscares",
  "8076": "\u0120bodybuilding",
  "8077": "!.",
  "8078": ",\"",
  "8079": "25",
  "8080": "800",
  "8081": "Actually",
  "8082": "CK",
  "8083": "Eww",
  "8084": "GA",
  "8085": "Getting",
  "8086": "His",
  "8087": "Honestly",
  "8088": "Ive",
  "8089": "ME",
  "8090": "NT",
  "8091": "Never",
  "8092": "OOD",
  "8093": "Since",
  "8094": "Seeing",
  "8095": "Something",
  "8096": "Seriously",
  "8097": "Which",
  "8098": "aving",
  "8099": "cere",
  "8100": "cret",
  "8101": "craft",
  "8102": "ded",
  "8103": "fty",
  "8104": "face",
  "8105": "gun",
  "8106": "gus",
  "8107": "iing",
  "8108": "kind",
  "8109": "last",
  "8110": "mv",
  "8111": "nal",
  "8112": "nite",
  "8113": "nah",
  "8114": "ped",
  "8115": "rr",
  "8116": "rs",
  "8117": "rome",
  "8118": "race",
  "8119": "rance",
  "8120": "west",
  "8121": "while",
  "8122": "yo",
  "8123": "\u0120ident",
  "8124": "\u0120tand",
  "8125": "\u0120taco",
  "8126": "\u0120wis",
  "8127": "\u0120wise",
  "8128": "once",
  "8129": "stop",
  "8130": "\u0120sides",
  "8131": "\u0120fer",
  "8132": "\u0120fri",
  "8133": "\u0120fans",
  "8134": "\u0120bent",
  "8135": "\u0120dom",
  "8136": "\u0120dat",
  "8137": "\u0120dug",
  "8138": "\u0120dmv",
  "8139": "\u0120cub",
  "8140": "\u0120culture",
  "8141": "\u0120gn",
  "8142": "\u0120gau",
  "8143": "\u0120lump",
  "8144": "\u0120lemon",
  "8145": "\u0120ped",
  "8146": "anking",
  "8147": "anked",
  "8148": "ancer",
  "8149": "\u0120named",
  "8150": "\u0120od",
  "8151": "\u0120former",
  "8152": "eles",
  "8153": "elry",
  "8154": "\u0120reall",
  "8155": "\u0120mexic",
  "8156": "ooking",
  "8157": "alf",
  "8158": "\u0120eve",
  "8159": "\u0120steaks",
  "8160": "\u0120island",
  "8161": "\u0120neare",
  "8162": "amins",
  "8163": "\u0120rope",
  "8164": "opath",
  "8165": "\u0120Tw",
  "8166": "\u0120Tur",
  "8167": "\u0120Toy",
  "8168": "\u0120Tony",
  "8169": "\u0120WI",
  "8170": "\u0120allerg",
  "8171": "\u0120shelf",
  "8172": "\u0120shave",
  "8173": "\u0120los",
  "8174": "\u0120moder",
  "8175": "\u0120knees",
  "8176": "\u0120newly",
  "8177": "eable",
  "8178": "ieved",
  "8179": "\u0120plastic",
  "8180": "\u0120chub",
  "8181": "\u0120lasts",
  "8182": "\u0120AAA",
  "8183": "obal",
  "8184": "\u0120novel",
  "8185": "ongress",
  "8186": "\u0120overwatch",
  "8187": "\u0120voted",
  "8188": "ometime",
  "8189": "hington",
  "8190": "anning",
  "8191": "\u0120hassle",
  "8192": "\u0120Bus",
  "8193": "\u0120bride",
  "8194": "\u0120ME",
  "8195": "\u0120Make",
  "8196": "\u0120Mount",
  "8197": "\u0120Madden",
  "8198": "\u0120beta",
  "8199": "\u0120rocks",
  "8200": "\u0120thanked",
  "8201": "affe",
  "8202": "\u0120NO",
  "8203": "\u0120compare",
  "8204": "\u0120playground",
  "8205": "\u0120diary",
  "8206": "\u0120CV",
  "8207": "\u0120Cadillac",
  "8208": "\u0120pros",
  "8209": "\u0120remeber",
  "8210": "rudge",
  "8211": "\u0120Le",
  "8212": "\u0120Long",
  "8213": "\u0120walks",
  "8214": "\u0120interru",
  "8215": "\u0120dripping",
  "8216": "\u0120sibling",
  "8217": "\u0120Ever",
  "8218": "\u0120Each",
  "8219": "\u0120scient",
  "8220": "\u0120sincere",
  "8221": "\u0120relive",
  "8222": "\u0120reliving",
  "8223": "\u0120350",
  "8224": "\u0120upside",
  "8225": "\u0120Grudge",
  "8226": "\u0120Three",
  "8227": "istics",
  "8228": "Whats",
  "8229": "\u0120resch",
  "8230": "\u0120resume",
  "8231": "\u0120adren",
  "8232": "\u0120realistic",
  "8233": "\u0120Pr",
  "8234": "\u0120buys",
  "8235": "\u0120earning",
  "8236": "\u0120earned",
  "8237": "\u0120immune",
  "8238": "\u0120cowboys",
  "8239": "\u0120crapped",
  "8240": "These",
  "8241": "\u0120Jord",
  "8242": "\u0120John",
  "8243": "\u0120perhaps",
  "8244": "\u0120hugs",
  "8245": "\u0120cooler",
  "8246": "\u0120password",
  "8247": "\u0120Year",
  "8248": "odes",
  "8249": "\u0120raising",
  "8250": "\u0120handy",
  "8251": "\u0120installing",
  "8252": "\u0120instinct",
  "8253": "\u0120Upon",
  "8254": "\u0120insan",
  "8255": "ocal",
  "8256": "\u0120pickles",
  "8257": "\u0120policy",
  "8258": "\u0120lawyer",
  "8259": "Awe",
  "8260": "\u0120interests",
  "8261": "\u0120Washington",
  "8262": "\u0120dented",
  "8263": "\u0120mature",
  "8264": "ivic",
  "8265": "\u0120cloths",
  "8266": "\u0120escargot",
  "8267": "udated",
  "8268": "ibiot",
  "8269": "\u0120compete",
  "8270": "\u0120borrowing",
  "8271": "\u0120assemb",
  "8272": "\u0120popped",
  "8273": "\u0120stepdad",
  "8274": "\u0120buildings",
  "8275": "\u0120humid",
  "8276": "shine",
  "8277": "\u0120antibiot",
  "8278": "\u0120destruct",
  "8279": "\u0120sunshine",
  "8280": "however",
  "8281": "\u0120chicks",
  "8282": "\u0120costumes",
  "8283": "\u0120answering",
  "8284": "ifications",
  "8285": "\u0120Supercop",
  "8286": "\u0120fearful",
  "8287": "\u0120legos",
  "8288": "\u0120cleared",
  "8289": "\u0120behaving",
  "8290": "ounting",
  "8291": "\u0120graudated",
  "8292": "\u0120touching",
  "8293": "\u0120feedback",
  "8294": "\u0120trepid",
  "8295": "\u0120deepest",
  "8296": "\u0120solved",
  "8297": "?!?!",
  "8298": "\u0120piggy",
  "8299": "\u0120pops",
  "8300": "\u0120crosswalk",
  "8301": "\u0120creeped",
  "8302": "\u0120requires",
  "8303": "\u0120jerks",
  "8304": "\u0120rushed",
  "8305": "\u0120mainten",
  "8306": "\u0120injuries",
  "8307": "which",
  "8308": "\u0120drawers",
  "8309": "\u0120athlete",
  "8310": "\u0120meatloaf",
  "8311": "\u0120humanity",
  "8312": "\u0120personality",
  "8313": "hhh",
  "8314": "\u0120disneyworld",
  "8315": "\u0120products",
  "8316": "\u0120blessings",
  "8317": "\u0120bunny",
  "8318": "\u0120dryer",
  "8319": "\u0120earns",
  "8320": "\u0120frequent",
  "8321": "\u0120witness",
  "8322": "\u0120developed",
  "8323": "\u0120denied",
  "8324": "\u0120suffered",
  "8325": "\u0120demanding",
  "8326": "\u0120flashlight",
  "8327": "\u0120THE",
  "8328": "\u0120episodes",
  "8329": "\u0120escape",
  "8330": "\u0120recommended",
  "8331": "\u0120darn",
  "8332": "\u0120decorated",
  "8333": "\u0120audition",
  "8334": "\u0120lasagna",
  "8335": "\u0120drowning",
  "8336": "\u0120ANY",
  "8337": "\u0120wrapped",
  "8338": "\u0120Obama",
  "8339": "\u0120shredded",
  "8340": "\u0120Africa",
  "8341": "\u0120representative",
  "8342": "\u0120Earth",
  "8343": "\u0120rooting",
  "8344": "\u0120bombs",
  "8345": "\u0120romantic",
  "8346": "\u0120burrito",
  "8347": "\u0120consistently",
  "8348": "\u0120nuggets",
  "8349": "\u0120academic",
  "8350": "\u0120Ready",
  "8351": "\u0120Better",
  "8352": "\u0120neglected",
  "8353": "\u0120jewelry",
  "8354": "\u0120vitamins",
  "8355": "\u0120zombie",
  "8356": "urofeedback",
  "8357": "\u0120Tennis",
  "8358": "\u0120intruder",
  "8359": "\u0120sneezed",
  "8360": "\u0120stranded",
  "8361": "\u0120tongue",
  "8362": "\u0120director",
  "8363": "employment",
  "8364": "\u0120ambulance",
  "8365": "\u0120elevator",
  "8366": "\u0120entertain",
  "8367": "\u0120Atlanta",
  "8368": "incipal",
  "8369": "\u0120tandem",
  "8370": "\u0120nearest",
  "8371": "\u0120allergies",
  "8372": "\u0120chubby",
  "8373": "\u0120adrenal",
  "8374": "\u0120Supercopa",
  "8375": "11",
  "8376": "Back",
  "8377": "Friend",
  "8378": "From",
  "8379": "Had",
  "8380": "ION",
  "8381": "NE",
  "8382": "Or",
  "8383": "Ooh",
  "8384": "Time",
  "8385": "With",
  "8386": "ait",
  "8387": "cal",
  "8388": "dam",
  "8389": "ders",
  "8390": "fir",
  "8391": "free",
  "8392": "form",
  "8393": "gown",
  "8394": "gling",
  "8395": "igent",
  "8396": "iac",
  "8397": "jitsu",
  "8398": "ms",
  "8399": "min",
  "8400": "mental",
  "8401": "rrow",
  "8402": "sery",
  "8403": "taking",
  "8404": "whe",
  "8405": "\u0120/",
  "8406": "\u0120eth",
  "8407": "\u0120tie",
  "8408": "\u0120ack",
  "8409": "\u0120airl",
  "8410": "ensive",
  "8411": "enial",
  "8412": "inted",
  "8413": "inos",
  "8414": "onight",
  "8415": "stick",
  "8416": "\u0120mask",
  "8417": "\u0120siz",
  "8418": "\u0120hook",
  "8419": "omore",
  "8420": "entions",
  "8421": "\u0120fist",
  "8422": "itudes",
  "8423": "atar",
  "8424": "\u0120dil",
  "8425": "aries",
  "8426": "lle",
  "8427": "llen",
  "8428": "llible",
  "8429": "\u0120pc",
  "8430": "\u0120pimp",
  "8431": "anuary",
  "8432": "\u0120net",
  "8433": "\u0120wasps",
  "8434": "\u0120olymp",
  "8435": "aylor",
  "8436": "idated",
  "8437": "\u0120yuck",
  "8438": "owing",
  "8439": "\u0120reass",
  "8440": "adium",
  "8441": "\u0120sober",
  "8442": "verse",
  "8443": "\u0120eer",
  "8444": "\u0120eagles",
  "8445": "\u0120stream",
  "8446": "\u0120streak",
  "8447": "\u0120stadium",
  "8448": "endy",
  "8449": "\u0120weigh",
  "8450": "\u0120weap",
  "8451": "\u0120doomed",
  "8452": "amo",
  "8453": "\u0120kart",
  "8454": "\u0120liver",
  "8455": "acu",
  "8456": "\u0120rental",
  "8457": "\u0120Top",
  "8458": "\u0120Take",
  "8459": "see",
  "8460": "this",
  "8461": "\u0120timing",
  "8462": "\u0120cans",
  "8463": "\u0120allig",
  "8464": "\u0120section",
  "8465": "\u0120shor",
  "8466": "\u0120newer",
  "8467": "acker",
  "8468": "ecube",
  "8469": "\u0120Hon",
  "8470": "\u0120HUG",
  "8471": "\u0120Hoping",
  "8472": "gebra",
  "8473": "few",
  "8474": "\u0120lasted",
  "8475": "usic",
  "8476": "\u0120carbs",
  "8477": "prised",
  "8478": "\u0120comic",
  "8479": "sterdam",
  "8480": "\u0120background",
  "8481": "\u0120preordered",
  "8482": "eping",
  "8483": "\u0120overfl",
  "8484": "\u0120virt",
  "8485": "\u0120donut",
  "8486": "aburger",
  "8487": "\u0120nightgown",
  "8488": "\u0120clu",
  "8489": "umn",
  "8490": "osure",
  "8491": "\u0120housework",
  "8492": "\u0120unt",
  "8493": "\u0120unique",
  "8494": "\u0120BA",
  "8495": "\u0120Both",
  "8496": "\u0120Brought",
  "8497": "\u0120familly",
  "8498": "park",
  "8499": "\u0120DO",
  "8500": "\u0120Drag",
  "8501": "owned",
  "8502": "\u0120guarant",
  "8503": "\u0120gullible",
  "8504": "\u0120parach",
  "8505": "\u0120MI",
  "8506": "\u0120Met",
  "8507": "\u0120ricky",
  "8508": "\u0120prett",
  "8509": "\u0120lifestyle",
  "8510": "\u0120ours",
  "8511": "\u0120bucket",
  "8512": "\u0120div",
  "8513": "\u0120Cr",
  "8514": "\u0120Lost",
  "8515": "izer",
  "8516": "\u012026",
  "8517": "ula",
  "8518": "\u0120driven",
  "8519": "\u0120Ford",
  "8520": "\u0120collected",
  "8521": "\u0120tested",
  "8522": "\u0120Em",
  "8523": "\u0120Emer",
  "8524": "\u0120scan",
  "8525": "\u0120carefully",
  "8526": "\u0120catf",
  "8527": "\u0120pho",
  "8528": "\u0120smacked",
  "8529": "\u0120smarter",
  "8530": "\u0120trap",
  "8531": "\u0120Gen",
  "8532": "\u0120Gun",
  "8533": "\u0120Girl",
  "8534": "\u0120upsets",
[...]
